<unk>	0
<s>	0
</s>	0
[PAD]	0
[UNK]	0
[CLS]	0
[SEP]	0
[MASK]	0
[BOS]	0
[EOS]	0
[UNK0]	0
[UNK1]	0
[UNK2]	0
[UNK3]	0
[UNK4]	0
[UNK5]	0
[UNK6]	0
[UNK7]	0
[UNK8]	0
[UNK9]	0
[unused0]	0
[unused1]	0
[unused2]	0
[unused3]	0
[unused4]	0
[unused5]	0
[unused6]	0
[unused7]	0
[unused8]	0
[unused9]	0
[unused10]	0
[unused11]	0
[unused12]	0
[unused13]	0
[unused14]	0
[unused15]	0
[unused16]	0
[unused17]	0
[unused18]	0
[unused19]	0
[unused20]	0
[unused21]	0
[unused22]	0
[unused23]	0
[unused24]	0
[unused25]	0
[unused26]	0
[unused27]	0
[unused28]	0
[unused29]	0
[unused30]	0
[unused31]	0
[unused32]	0
[unused33]	0
[unused34]	0
[unused35]	0
[unused36]	0
[unused37]	0
[unused38]	0
[unused39]	0
[unused40]	0
[unused41]	0
[unused42]	0
[unused43]	0
[unused44]	0
[unused45]	0
[unused46]	0
[unused47]	0
[unused48]	0
[unused49]	0
[unused50]	0
[unused51]	0
[unused52]	0
[unused53]	0
[unused54]	0
[unused55]	0
[unused56]	0
[unused57]	0
[unused58]	0
[unused59]	0
[unused60]	0
[unused61]	0
[unused62]	0
[unused63]	0
[unused64]	0
[unused65]	0
[unused66]	0
[unused67]	0
[unused68]	0
[unused69]	0
[unused70]	0
[unused71]	0
[unused72]	0
[unused73]	0
[unused74]	0
[unused75]	0
[unused76]	0
[unused77]	0
[unused78]	0
[unused79]	0
[unused80]	0
[unused81]	0
[unused82]	0
[unused83]	0
[unused84]	0
[unused85]	0
[unused86]	0
[unused87]	0
[unused88]	0
[unused89]	0
[unused90]	0
[unused91]	0
[unused92]	0
[unused93]	0
[unused94]	0
[unused95]	0
[unused96]	0
[unused97]	0
[unused98]	0
[unused99]	0
▁क	-0
▁ह	-1
▁स	-2
▁प	-3
▁म	-4
्र	-5
▁है	-6
ें	-7
ार	-8
▁ज	-9
▁अ	-10
▁व	-11
या	-12
▁न	-13
▁के	-14
▁ब	-15
▁द	-16
▁ल	-17
▁उ	-18
ता	-19
र्	-20
ों	-21
▁र	-22
▁त	-23
ने	-24
▁में	-25
्य	-26
▁कर	-27
ना	-28
▁आ	-29
▁औ	-30
▁की	-31
▁प्र	-32
▁और	-33
िक	-34
▁को	-35
▁का	-36
्त	-37
ान	-38
▁कि	-39
▁से	-40
▁भ	-41
▁ग	-42
▁इ	-43
ित	-44
▁ए	-45
▁हो	-46
▁य	-47
▁च	-48
ाल	-49
▁पर	-50
ही	-51
न्	-52
▁(	-53
▁जा	-54
▁लि	-55
्व	-56
▁श	-57
▁सं	-58
▁हैं	-59
▁वि	-60
▁एक	-61
ते	-62
स्	-63
ड़	-64
▁इस	-65
क्	-66
▁फ	-67
ला	-68
▁ख	-69
ति	-70
हीं	-71
हा	-72
▁थ	-73
ोग	-74
▁लिए	-75
्या	-76
िय	-77
▁नहीं	-78
ती	-79
▁सम	-80
▁उस	-81
के	-82
ाम	-83
्ट	-84
िया	-85
वा	-86
▁हम	-87
रा	-88
▁नि	-89
▁दे	-90
▁जो	-91
का	-92
▁अप	-93
त्र	-94
री	-95
▁भी	-96
ाह	-97
▁तो	-98
से	-99
ुम	-100
ंग	-101
क्ष	-102
ल्	-103
सी	-104
▁यह	-105
िन	-106
▁ने	-107
ास	-108
ले	-109
कार	-110
▁उन	-111
दा	-112
ेश	-113
नी	-114
▁अन	-115
▁ड	-116
▁ही	-117
▁बा	-118
▁किया	-119
▁रा	-120
▁स्	-121
▁सा	-122
ज़	-123
कर	-124
सा	-125
गा	-126
▁मु	-127
▁या	-128
ष्ट	-129
की	-130
था	-131
▁करने	-132
मा	-133
▁सक	-134
▁तुम	-135
▁आप	-136
▁कार	-137
िर	-138
त्	-139
▁वह	-140
▁कु	-141
क्त	-142
िल	-143
ैं	-144
▁रह	-145
िस	-146
▁ले	-147
▁हु	-148
▁था	-149
▁अध	-150
▁करें	-151
▁उप	-152
ारा	-153
▁वे	-154
▁छ	-155
स्त	-156
▁लोग	-157
रे	-158
वि	-159
द्	-160
्ष	-161
ारी	-162
खा	-163
▁ध	-164
न्ह	-165
ूप	-166
ली	-167
▁गया	-168
च्	-169
ंत	-170
▁ट	-171
ुर	-172
ारे	-173
ाइ	-174
गे	-175
भा	-176
▁पू	-177
▁मे	-178
्री	-179
ियों	-180
ंद	-181
▁अपने	-182
▁1	-183
▁घ	-184
▁पह	-185
ंड	-186
▁वाल	-187
▁फ़	-188
ंध	-189
▁स्व	-190
म्	-191
भी	-192
▁चाह	-193
ाप	-194
ोज	-195
▁कुछ	-196
▁ऐ	-197
ाय	-198
िए	-199
▁सु	-200
▁भार	-201
▁उन्ह	-202
देश	-203
▁मैं	-204
▁क्या	-205
ओं	-206
ार्	-207
▁कोई	-208
▁दो	-209
को	-210
▁पा	-211
▁रूप	-212
ुत	-213
योग	-214
में	-215
▁बह	-216
जी	-217
▁बना	-218
न्द	-219
श्	-220
र्ण	-221
▁अनु	-222
▁अधिक	-223
▁थे	-224
▁जिस	-225
ूल	-226
क्र	-227
▁मा	-228
▁साथ	-229
▁किसी	-230
▁भा	-231
एँ	-232
र्व	-233
द्ध	-234
टा	-235
कि	-236
▁द्व	-237
▁करना	-238
मान	-239
▁सू	-240
ढ़	-241
ाद	-242
गी	-243
▁दि	-244
▁स्थ	-245
▁विश	-246
▁जब	-247
ीन	-248
िका	-249
▁व्य	-250
▁परि	-251
ष्	-252
ुन	-253
दि	-254
त्त	-255
गर	-256
▁कार्य	-257
ये	-258
▁जाता	-259
ड़ा	-260
▁क्ष	-261
▁प्रति	-262
▁निर्	-263
▁सि	-264
▁तक	-265
▁दिया	-266
ंच	-267
▁(_	-268
रण	-269
▁तथा	-270
ब्	-271
▁फिर	-272
जा	-273
▁होता	-274
▁रहा	-275
▁तर	-276
्रे	-277
▁अव	-278
ानी	-279
ंत्र	-280
▁थी	-281
▁वर्	-282
▁ला	-283
▁रहे	-284
्ञ	-285
▁साम	-286
▁करते	-287
फ़	-288
▁ये	-289
ूर	-290
▁जी	-291
क्ति	-292
▁इन	-293
▁सकता	-294
▁भारत	-295
▁द्वारा	-296
▁कहा	-297
▁सी	-298
▁राष्ट	-299
▁सब	-300
स्थ	-301
▁कह	-302
ोल	-303
धार	-304
▁रख	-305
्ह	-306
▁बहुत	-307
▁देख	-308
न्न	-309
मी	-310
च्छ	-311
बंध	-312
▁मह	-313
ाइल	-314
▁उनके	-315
क़	-316
▁राज	-317
▁समय	-318
द्य	-319
ुल	-320
मे	-321
▁मि	-322
▁विक	-323
ृत	-324
नों	-325
▁तुम्ह	-326
▁2	-327
वर्	-328
▁करता	-329
ड़ी	-330
र्थ	-331
दी	-332
वे	-333
▁बात	-334
▁गु	-335
टी	-336
टर	-337
नि	-338
▁लोगों	-339
▁नाम	-340
▁बी	-341
चा	-342
िप	-343
▁ई	-344
ड़े	-345
ेत्र	-346
▁हि	-347
वाल	-348
▁सूच	-349
्रा	-350
ाप्त	-351
चार	-352
वन	-353
▁मान	-354
▁ख़	-355
▁उसे	-356
▁दी	-357
्यों	-358
▁ज़	-359
ज्ञ	-360
▁ओ	-361
▁दिन	-362
पर	-363
शन	-364
▁हू	-365
▁पै	-366
▁जान	-367
ंक	-368
▁उन्हें	-369
▁अपनी	-370
▁"	-371
स्ता	-372
▁सह	-373
पू	-374
र्म	-375
▁तरह	-376
▁पु	-377
्स	-378
▁जि	-379
▁क्षेत्र	-380
▁हुआ	-381
▁सर	-382
ूस	-383
बर	-384
▁बे	-385
ुदा	-386
▁सकते	-387
▁हुए	-388
ोंने	-389
ोक	-390
एं	-391
झे	-392
▁सभी	-393
▁बाद	-394
▁s	-395
▁उसके	-396
▁चाहिए	-397
वी	-398
च्च	-399
्ल	-400
▁बि	-401
प्र	-402
▁काम	-403
त्य	-404
करण	-405
टे	-406
▁राष्ट्र	-407
on	-408
▁n	-409
▁छो	-410
▁कम	-411
्यू	-412
▁पी	-413
स्था	-414
▁झ	-415
▁जाए	-416
▁पास	-417
▁उत्	-418
▁पहले	-419
श्य	-420
▁अभ	-421
पति	-422
▁होती	-423
▁ऊ	-424
श्च	-425
▁गई	-426
▁बद	-427
हाँ	-428
स्ट	-429
कों	-430
ेष	-431
दान	-432
पाद	-433
ियम	-434
ौर	-435
▁होने	-436
ti	-437
▁जै	-438
▁उन्होंने	-439
क्षा	-440
▁क़	-441
बा	-442
▁दिखा	-443
यी	-444
▁अस	-445
▁ता	-446
▁मिल	-447
▁अंत	-448
▁वाले	-449
▁फ़ाइल	-450
me	-451
ेज	-452
▁चु	-453
▁अब	-454
▁हमने	-455
..	-456
यन	-457
िंग	-458
▁मुझे	-459
्ड	-460
▁खा	-461
जन	-462
ेल	-463
▁प्रकार	-464
पी	-465
▁होगा	-466
किन	-467
ग्र	-468
▁प्राप्त	-469
िति	-470
भाव	-471
▁सम्	-472
▁जाने	-473
▁निक	-474
▁विश्व	-475
▁ना	-476
▁देश	-477
दर्	-478
धि	-479
लाह	-480
▁लेकिन	-481
▁नी	-482
न्त	-483
िश	-484
▁ठ	-485
ष्ठ	-486
ोजना	-487
ास्त	-488
स्क	-489
▁संबंध	-490
▁गए	-491
बी	-492
ूम	-493
ाली	-494
▁अल्	-495
▁राष्ट्रपति	-496
शी	-497
ुट	-498
▁हमारे	-499
▁लगा	-500
ोर	-501
▁प्रा	-502
▁अच्छ	-503
माण	-504
▁लग	-505
▁क्र	-506
▁इसके	-507
▁कै	-508
डी	-509
यु	-510
वल	-511
वर	-512
शा	-513
तन	-514
्रीय	-515
▁वर्ष	-516
▁एव	-517
▁संदेश	-518
▁हा	-519
tion	-520
▁कारण	-521
िक्ष	-522
ोड	-523
ंप	-524
▁बु	-525
ोध	-526
▁ऑ	-527
णी	-528
▁दूस	-529
द्र	-530
गत	-531
डर	-532
हां	-533
▁अन्य	-534
▁उपयोग	-535
▁कृ	-536
▁हर	-537
दार	-538
तर	-539
फल	-540
▁उनकी	-541
▁ऐसा	-542
तीय	-543
पूर्ण	-544
कारी	-545
तः	-546
वार	-547
...	-548
त्व	-549
▁मौ	-550
▁स्त	-551
हर	-552
▁ओर	-553
ख़	-554
▁हों	-555
▁हुई	-556
00	-557
▁डि	-558
▁ची	-559
▁बार	-560
▁ढ	-561
▁मूल	-562
ख्या	-563
▁'	-564
▁चल	-565
▁दु	-566
▁आव	-567
त्म	-568
▁व्यक्ति	-569
▁उसने	-570
पा	-571
▁बढ़	-572
▁यदि	-573
ame	-574
ीय	-575
सर	-576
▁वा	-577
▁ग्र	-578
ेंगे	-579
▁बारे	-580
▁व्या	-581
▁अल	-582
▁अगर	-583
िम	-584
▁होते	-585
▁जाती	-586
धा	-587
द्योग	-588
र्क	-589
षा	-590
गार	-591
ध्य	-592
ंभ	-593
मत	-594
सार	-595
लय	-596
▁डा	-597
▁बै	-598
▁आर	-599
▁यु	-600
▁समझ	-601
▁प्रयोग	-602
धान	-603
▁बाह	-604
▁हूँ	-605
▁क्यों	-606
▁उसकी	-607
मु	-608
▁किए	-609
01	-610
क्रम	-611
तु	-612
▁रही	-613
▁अल्लाह	-614
▁पहु	-615
▁भारतीय	-616
चे	-617
▁जाना	-618
an	-619
▁एवं	-620
व्य	-621
▁सो	-622
ित्र	-623
ोट	-624
▁आय	-625
▁वै	-626
▁सूची	-627
▁दृ	-628
▁सर्व	-629
▁वाला	-630
▁19	-631
▁भाग	-632
▁मन	-633
वाद	-634
▁लिया	-635
▁जीवन	-636
ाला	-637
▁पि	-638
▁दोनों	-639
दे	-640
▁विकास	-641
हाय	-642
▁लिख	-643
▁निय	-644
▁होना	-645
ल्प	-646
▁इसे	-647
▁हे	-648
▁जिन	-649
▁रु	-650
ून	-651
र्ष	-652
ोल्	-653
▁स्थान	-654
▁विशेष	-655
ोर्	-656
▁ख़ुदा	-657
ंस	-658
▁खु	-659
▁पता	-660
▁उत्त	-661
ंट	-662
▁गा	-663
कता	-664
चना	-665
ियां	-666
▁मेरे	-667
ठा	-668
▁पूर्व	-669
▁जन	-670
▁करो	-671
्टी	-672
ंश	-673
▁त्र	-674
ब्द	-675
क्रिया	-676
▁अपना	-677
धिक	-678
▁सहाय	-679
▁मै	-680
▁स्थिति	-681
▁मो	-682
▁राज्य	-683
▁संप	-684
▁बन	-685
ीक	-686
▁समा	-687
▁सबसे	-688
ोप	-689
ज़ा	-690
▁माल	-691
स्तु	-692
ण्ड	-693
▁आवश्य	-694
▁सेवा	-695
▁ऐसे	-696
▁हमें	-697
▁वास्त	-698
▁आधार	-699
▁t	-700
ृति	-701
▁बीच	-702
जू	-703
क्षण	-704
ंजी	-705
ूह	-706
यों	-707
ोल्डर	-708
वेश	-709
▁चुन	-710
ार्थ	-711
▁सामान	-712
काश	-713
▁निश्च	-714
▁मुख	-715
▁वाली	-716
लब्	-717
िला	-718
िन्न	-719
षण	-720
बे	-721
▁दर	-722
र्य	-723
▁स्ट	-724
▁आज	-725
▁चि	-726
▁केवल	-727
ॉल	-728
तना	-729
▁दा	-730
रिक	-731
▁स्था	-732
ूट	-733
यास	-734
▁रंग	-735
▁उत्पाद	-736
▁a	-737
तिक	-738
▁उपलब्	-739
▁3	-740
▁यहाँ	-741
▁सद	-742
ज्ञान	-743
तों	-744
त्रा	-745
▁शुर	-746
▁जाते	-747
▁मार्	-748
▁बस	-749
हार	-750
▁शिक्ष	-751
▁बड़ा	-752
▁वृ	-753
लिए	-754
▁मद	-755
▁स्प	-756
▁कभी	-757
▁सरकार	-758
▁पृ	-759
▁सूचना	-760
▁शी	-761
्न	-762
▁विंड	-763
▁d	-764
ेक	-765
लों	-766
▁अभि	-767
▁सकती	-768
▁रब	-769
▁आस	-770
▁बदल	-771
▁बैं	-772
ेट	-773
▁संख्या	-774
▁आया	-775
▁उसका	-776
▁प्रदान	-777
▁तुम्हारे	-778
▁ऐसी	-779
al	-780
ियाँ	-781
न्ध	-782
▁भाषा	-783
ियो	-784
ुक	-785
शि	-786
▁जर	-787
es	-788
▁व्यव	-789
▁अग	-790
ेम	-791
▁विष	-792
▁पुन	-793
यर	-794
▁दर्	-795
युक्त	-796
▁जोड़	-797
ेर	-798
त्या	-799
▁पैदा	-800
▁उपलब्ध	-801
▁करे	-802
▁अर्थ	-803
▁फ़ोल्डर	-804
▁हूं	-805
it	-806
▁पार	-807
▁तब	-808
▁जैसे	-809
▁विचार	-810
▁भर	-811
▁बाहर	-812
▁बच्च	-813
▁अथ	-814
टना	-815
▁उनका	-816
la	-817
▁श्रे	-818
▁रे	-819
▁चाहते	-820
▁आपको	-821
इन	-822
एस	-823
▁योजना	-824
िट	-825
इट	-826
▁चयन	-827
तम	-828
▁प्रत्य	-829
▁सामान्य	-830
मिक	-831
▁तै	-832
▁प्रक्रिया	-833
▁मेरी	-834
लि	-835
गम	-836
▁कंप	-837
ँच	-838
ूत	-839
श्व	-840
दन	-841
ंति	-842
▁देने	-843
▁ऋ	-844
▁परिवर्	-845
क्ट	-846
भाग	-847
वरण	-848
▁हमारी	-849
र्ता	-850
▁कई	-851
▁महत्व	-852
फी	-853
▁अंग	-854
्यालय	-855
▁जाएगा	-856
ैन	-857
▁शु	-858
▁वस्तु	-859
▁रो	-860
▁अथवा	-861
संद	-862
चित	-863
▁माम	-864
▁आई	-865
▁श्री	-866
in	-867
क्स	-868
जे	-869
पन	-870
▁योग	-871
▁इसमें	-872
लेख	-873
▁तुम्हें	-874
जार	-875
▁इसलिए	-876
▁नई	-877
्रो	-878
त्ता	-879
▁घर	-880
वाह	-881
प्त	-882
▁त्रुट	-883
▁जिसमें	-884
▁बड़ी	-885
भव	-886
काल	-887
▁गुण	-888
ंचा	-889
ed	-890
▁k	-891
ग़	-892
ंब	-893
201	-894
▁p	-895
▁खोल	-896
त्मक	-897
▁वास्तव	-898
▁अति	-899
▁चीज़	-900
▁चला	-901
▁राष्ट्रीय	-902
▁प्रश	-903
ष्टि	-904
▁प्रभाव	-905
ro	-906
▁करती	-907
ोन	-908
▁व्याप	-909
▁दूर	-910
िकी	-911
पित	-912
▁डे	-913
यार	-914
▁जाएँ	-915
▁ईमान	-916
▁क्योंकि	-917
▁किस	-918
तान	-919
▁प्रार	-920
▁जु	-921
▁इससे	-922
▁ज्ञ	-923
▁त्रुटि	-924
▁शाम	-925
▁ब्र	-926
▁अलग	-927
▁न्या	-928
वान	-929
▁शब्द	-930
er	-931
▁जल	-932
▁पूर्ण	-933
न्द्र	-934
ुष	-935
▁लिये	-936
▁सुर	-937
ोजन	-938
पत्र	-939
▁इसका	-940
▁स्क	-941
▁बता	-942
▁भेज	-943
gm	-944
▁१	-945
▁मू	-946
▁उद	-947
ran	-948
▁महा	-949
▁नया	-950
ंज	-951
▁शा	-952
▁वही	-953
▁छोड़	-954
▁पाठ	-955
स्व	-956
▁पुस्त	-957
▁मी	-958
▁दूसरे	-959
▁आगे	-960
▁पढ़	-961
▁kgm	-962
▁रोग	-963
▁अनुम	-964
▁दौर	-965
▁name	-966
op	-967
▁वी	-968
▁मुख्य	-969
▁हाथ	-970
▁कोश	-971
▁जिसे	-972
▁देता	-973
▁पद	-974
ोह	-975
▁आपके	-976
▁इसी	-977
▁वित	-978
नेवाल	-979
ग्रह	-980
▁समूह	-981
▁विभ	-982
▁हेतु	-983
▁स्वा	-984
ुनिया	-985
हरा	-986
िये	-987
▁अधिकार	-988
▁अर्	-989
धन	-990
▁परवर	-991
ची	-992
▁डाल	-993
्यादा	-994
▁पड़	-995
न्तु	-996
ात	-997
▁संबंधित	-998
▁गये	-999
ot	-1000
▁पत्र	-1001
▁शुरू	-1002
सम	-1003
▁पुर	-1004
▁विषय	-1005
▁परवरदि	-1006
▁अंतर	-1007
▁सहायता	-1008
▁खोज	-1009
सि	-1010
▁उसी	-1011
▁लोक	-1012
कृत	-1013
▁पं	-1014
▁यही	-1015
स्थान	-1016
▁बो	-1017
ेद	-1018
▁परवरदिगार	-1019
▁पानी	-1020
▁मिटा	-1021
▁कहते	-1022
▁उत्तर	-1023
▁झु	-1024
▁मैंने	-1025
▁होंगे	-1026
टक	-1027
मुख	-1028
▁वेब	-1029
म्प	-1030
▁पृष्ठ	-1031
हास	-1032
▁आकार	-1033
िता	-1034
▁गयी	-1035
डियो	-1036
ियोजना	-1037
▁उठा	-1038
▁प्रमाण	-1039
ामी	-1040
त्ति	-1041
्यान	-1042
▁होगी	-1043
▁कॉ	-1044
▁मत	-1045
छे	-1046
▁जारी	-1047
टन	-1048
or	-1049
▁चार	-1050
सं	-1051
▁श्रेणी	-1052
▁आद	-1053
▁परियोजना	-1054
▁शि	-1055
▁शिक्षा	-1056
▁भूम	-1057
▁कें	-1058
▁ली	-1059
▁यहां	-1060
▁प्रण	-1061
▁अच्छा	-1062
आई	-1063
्म	-1064
option	-1065
▁रस	-1066
rans	-1067
▁तैयार	-1068
द्धि	-1069
ूँ	-1070
क्ता	-1071
ेशन	-1072
ransla	-1073
▁दौरान	-1074
▁बैंक	-1075
▁अने	-1076
▁उससे	-1077
▁छवि	-1078
▁सुन	-1079
▁बैठ	-1080
▁देना	-1081
दर्श	-1082
▁मदद	-1083
▁शामिल	-1084
▁ठीक	-1085
स्य	-1086
ट्टी	-1087
ेह	-1088
▁मार्ग	-1089
र्फ	-1090
बन्ध	-1091
▁चुनें	-1092
▁जग	-1093
▁ऋण	-1094
▁सका	-1095
▁संपर्क	-1096
▁मौजू	-1097
यं	-1098
▁गति	-1099
▁ऊपर	-1100
▁transla	-1101
▁तीन	-1102
क्षम	-1103
▁एक्स	-1104
optional	-1105
▁प्रबंध	-1106
▁कौ	-1107
ैर	-1108
▁5	-1109
▁हिन्द	-1110
▁भवन	-1111
▁कल	-1112
▁स्तर	-1113
▁पूरा	-1114
सू	-1115
▁शै	-1116
▁लाभ	-1117
ab	-1118
▁बड़े	-1119
प्	-1120
▁नियम	-1121
▁गो	-1122
क्षित	-1123
▁आम	-1124
ly	-1125
▁संर	-1126
▁बर	-1127
▁उच्च	-1128
▁देखा	-1129
▁नीचे	-1130
कर्ता	-1131
▁चौ	-1132
ूरी	-1133
ल्क	-1134
▁अत्य	-1135
▁4	-1136
▁याद	-1137
▁अभी	-1138
चाल	-1139
▁साह	-1140
िनियम	-1141
▁दिखाएँ	-1142
▁विभिन्न	-1143
▁खेल	-1144
▁जानकारी	-1145
ज्य	-1146
▁बंद	-1147
गल	-1148
▁निर्माण	-1149
स्या	-1150
▁धर्म	-1151
▁शरी	-1152
▁फै	-1153
र्या	-1154
▁बल्	-1155
▁सौ	-1156
▁हाल	-1157
▁ते	-1158
▁महत्वपूर्ण	-1159
तंत्र	-1160
▁अनेक	-1161
▁पे	-1162
▁विंडो	-1163
ीकार	-1164
ासन	-1165
▁प्रत्येक	-1166
▁कर्म	-1167
रूप	-1168
▁जमा	-1169
▁अन्त	-1170
नीय	-1171
कट	-1172
ित्व	-1173
▁सामने	-1174
▁सेट	-1175
▁बनाने	-1176
स्थित	-1177
▁यू	-1178
क्षर	-1179
▁पूरी	-1180
तिहास	-1181
▁लगे	-1182
लन	-1183
▁pro	-1184
▁ज्यादा	-1185
▁बन्द	-1186
▁पिछ	-1187
▁अधिनियम	-1188
▁निश्चय	-1189
▁ne	-1190
▁आवश्यकता	-1191
ity	-1192
स्प	-1193
▁अम	-1194
ंतु	-1195
बल	-1196
▁अमे	-1197
वास	-1198
▁डर	-1199
▁देते	-1200
▁कान	-1201
Name	-1202
▁काफी	-1203
▁ती	-1204
▁अनुसार	-1205
▁डी	-1206
ोर्ट	-1207
▁उद्	-1208
▁विर	-1209
धारण	-1210
धी	-1211
▁करके	-1212
▁मिला	-1213
▁मूल्य	-1214
सल	-1215
▁सारे	-1216
▁तरफ	-1217
▁उनसे	-1218
र्स	-1219
▁समर्थ	-1220
ंगा	-1221
▁गण	-1222
▁संग	-1223
▁उद्योग	-1224
▁निम्	-1225
अप	-1226
▁प्रकाश	-1227
▁मेरा	-1228
▁ग़	-1229
▁translation	-1230
▁रखा	-1231
भार	-1232
▁need	-1233
▁क्ल	-1234
शील	-1235
पया	-1236
▁सार	-1237
ंह	-1238
।"	-1239
हत	-1240
▁समस्या	-1241
▁सीमा	-1242
▁मंत्र	-1243
▁:	-1244
्रिय	-1245
डा	-1246
बू	-1247
▁अध्य	-1248
▁बनाया	-1249
▁do	-1250
▁सफल	-1251
▁सहेज	-1252
▁not	-1253
▁साल	-1254
ोक्ता	-1255
न्ट	-1256
▁जगह	-1257
▁लेख	-1258
ताओं	-1259
▁क्रिया	-1260
आर	-1261
▁”	-1262
▁छा	-1263
▁मध्य	-1264
▁विस्त	-1265
विद	-1266
▁कैसे	-1267
▁परिवर्तन	-1268
ंख	-1269
▁करा	-1270
▁प्रौ	-1271
धे	-1272
▁समान	-1273
▁राम	-1274
ल्ली	-1275
मित	-1276
▁0	-1277
bab	-1278
▁_	-1279
▁कार्यक्रम	-1280
▁लड़	-1281
City	-1282
ेशा	-1283
▁सही	-1284
▁प्रो	-1285
▁does	-1286
▁probab	-1287
▁probably	-1288
ेशक	-1289
▁पीछे	-1290
▁स्पष्ट	-1291
▁&	-1292
ठला	-1293
लग	-1294
न्म	-1295
▁सिर्फ	-1296
▁संपाद	-1297
चान	-1298
▁चयनित	-1299
▁कठ	-1300
▁बढ़ा	-1301
ियन	-1302
▁नियंत्र	-1303
▁डाक	-1304
▁चे	-1305
.201	-1306
भग	-1307
▁वर्त	-1308
▁समाप्त	-1309
▁विकल्प	-1310
▁प्रती	-1311
▁स्वयं	-1312
▁संस्था	-1313
▁आग	-1314
▁गिर	-1315
▁खाता	-1316
लो	-1317
ेंट	-1318
▁स्वीकार	-1319
▁दस्ता	-1320
▁जीव	-1321
▁श्र	-1322
▁अतः	-1323
▁कृपया	-1324
▁प्रमुख	-1325
▁रुप	-1326
षि	-1327
▁टी	-1328
▁वित्त	-1329
स्म	-1330
▁शरीर	-1331
ान्त	-1332
▁टे	-1333
▁तरी	-1334
▁बल्कि	-1335
रों	-1336
▁प्ल	-1337
▁ध्यान	-1338
ूं	-1339
▁भु	-1340
▁झुठला	-1341
▁बरा	-1342
द्व	-1343
▁फाइल	-1344
▁बिना	-1345
▁परिण	-1346
▁अर	-1347
पाल	-1348
▁उनमें	-1349
▁धन	-1350
विधा	-1351
शिया	-1352
▁वहाँ	-1353
▁वर्ग	-1354
▁शीर्ष	-1355
ोस	-1356
▁परी	-1357
▁बेशक	-1358
▁इसकी	-1359
▁२	-1360
▁शक्ति	-1361
▁इं	-1362
्राम	-1363
▁विश्वास	-1364
▁दें	-1365
एम	-1366
तक	-1367
चन	-1368
▁पूछ	-1369
▁पक्ष	-1370
▁रसूल	-1371
▁लगभग	-1372
▁डिस्क	-1373
▁अवसर	-1374
▁दस्तावे	-1375
▁अच्छी	-1376
):	-1377
▁प्रयास	-1378
जर	-1379
बाद	-1380
▁निम्न	-1381
▁प्रौद्योग	-1382
▁हटा	-1383
▁आक	-1384
्ला	-1385
▁जिन्ह	-1386
▁दृश्य	-1387
▁करेंगे	-1388
▁प्रणाली	-1389
▁सके	-1390
ल्म	-1391
▁माध्य	-1392
▁लौ	-1393
▁लक्ष	-1394
दू	-1395
मीन	-1396
▁ताकि	-1397
लत	-1398
▁बदला	-1399
▁हिस्	-1400
ताब	-1401
▁समाज	-1402
स्तान	-1403
ंदर	-1404
श्र	-1405
▁निकाल	-1406
वृ	-1407
▁नही	-1408
पन्न	-1409
▁दिए	-1410
▁वर्ण	-1411
▁सर्वर	-1412
▁दुनिया	-1413
▁व्यापार	-1414
्यु	-1415
▁आदि	-1416
डे	-1417
▁सक्रिय	-1418
पि	-1419
▁प्रारंभ	-1420
▁तंत्र	-1421
▁निर्देश	-1422
▁होकर	-1423
▁मर	-1424
▁नीति	-1425
at	-1426
▁उसमें	-1427
▁राशि	-1428
हन	-1429
तार	-1430
▁लाइ	-1431
साइट	-1432
▁पाल	-1433
▁बराबर	-1434
▁योग्य	-1435
▁परिणाम	-1436
ूरत	-1437
▁निष्	-1438
फा	-1439
ग्री	-1440
▁एन	-1441
▁घटना	-1442
▁इतिहास	-1443
▁बेह	-1444
▁वाय	-1445
रिका	-1446
▁उनको	-1447
र्ति	-1448
र्थिक	-1449
▁आने	-1450
▁जिसके	-1451
ज़ी	-1452
शत	-1453
▁संस्थान	-1454
विद्यालय	-1455
▁कला	-1456
▁भे	-1457
ोष	-1458
द्द	-1459
▁वाप	-1460
▁निकल	-1461
▁श्रेणीः	-1462
▁केंद्र	-1463
▁ट्र	-1464
ज्	-1465
पुर	-1466
▁लगता	-1467
▁नए	-1468
▁हमेशा	-1469
न्स	-1470
बार	-1471
▁वो	-1472
▁विद्य	-1473
▁भू	-1474
▁दिल	-1475
▁जोड़ें	-1476
एल	-1477
▁एस	-1478
ar	-1479
ालय	-1480
ंव	-1481
▁जांच	-1482
▁गर्	-1483
लाइन	-1484
िष्ट	-1485
▁संघ	-1486
▁अतिरिक	-1487
▁S	-1488
▁सुविधा	-1489
▁आवश्यक	-1490
▁अमेरिका	-1491
न्यास	-1492
▁धारा	-1493
▁विवरण	-1494
▁भाव	-1495
ित्य	-1496
गू	-1497
▁व्यक्त	-1498
▁दक्ष	-1499
▁बाल	-1500
▁जिसका	-1501
▁विज्ञान	-1502
बद्ध	-1503
▁मनुष	-1504
ठन	-1505
▁खुल	-1506
▁उपकरण	-1507
▁प्रौद्योगिकी	-1508
वाई	-1509
पट	-1510
▁इस्त	-1511
▁तु	-1512
्रोत	-1513
▁वर्तमान	-1514
उन	-1515
ंतिम	-1516
▁कृषि	-1517
▁जैसा	-1518
▁टै	-1519
▁मानव	-1520
▁पहुंच	-1521
▁विदेश	-1522
▁आर्थिक	-1523
▁वेबसाइट	-1524
जिक	-1525
धारित	-1526
▁कवि	-1527
▁चाहता	-1528
ँचा	-1529
▁अतिरिक्त	-1530
िकित	-1531
दाय	-1532
विध	-1533
▁करनेवाल	-1534
▁उत्पादन	-1535
▁ज़र	-1536
▁‘	-1537
▁रि	-1538
▁चा	-1539
▁“	-1540
▁ज्ञान	-1541
▁दुर्	-1542
▁यात्रा	-1543
▁200	-1544
▁लो	-1545
▁#	-1546
▁जवा	-1547
रि	-1548
▁स्थित	-1549
▁ध्व	-1550
दारी	-1551
▁रोक	-1552
▁जहां	-1553
चि	-1554
मता	-1555
▁c	-1556
▁बचा	-1557
▁रात	-1558
▁@	-1559
▁पर्या	-1560
तनी	-1561
▁माध्यम	-1562
▁मज	-1563
▁लं	-1564
▁मगर	-1565
▁मृत	-1566
ष्ण	-1567
▁तू	-1568
भर	-1569
▁अंतिम	-1570
गु	-1571
कु	-1572
मार	-1573
▁बाजार	-1574
▁सोच	-1575
वेदन	-1576
▁आरंभ	-1577
ाहरण	-1578
st	-1579
▁6	-1580
यात	-1581
▁लॉ	-1582
▁हस्ता	-1583
▁सुधार	-1584
▁विश्वविद्यालय	-1585
मन	-1586
▁सिद्ध	-1587
▁C	-1588
▁प्रतिशत	-1589
▁रहते	-1590
▁आए	-1591
पूर्व	-1592
▁प्रश्	-1593
्ले	-1594
▁उल्	-1595
▁काल	-1596
▁निर	-1597
ोग्राम	-1598
थि	-1599
▁जन्म	-1600
्टर	-1601
दम	-1602
▁मार	-1603
▁जानते	-1604
▁समु	-1605
म्ब	-1606
▁न्यू	-1607
▁जाये	-1608
ज़र	-1609
▁पौ	-1610
▁जिसने	-1611
▁परिवार	-1612
▁तुम्हारा	-1613
▁थीं	-1614
44	-1615
शु	-1616
▁रहने	-1617
ापन	-1618
ानीय	-1619
▁अनुस	-1620
▁सदस्य	-1621
▁सर्	-1622
▁बच्चों	-1623
▁अफ	-1624
ज़ाब	-1625
▁अच्छे	-1626
ैंड	-1627
झा	-1628
स्तुत	-1629
▁उदाहरण	-1630
▁निवेश	-1631
चर	-1632
जों	-1633
▁रखने	-1634
▁न्याया	-1635
▁चाल	-1636
ंधी	-1637
▁मॉ	-1638
ैक	-1639
▁सुरक्षा	-1640
▁चित्र	-1641
वादी	-1642
▁कुल	-1643
▁शहर	-1644
▁लेने	-1645
▁बच्चे	-1646
▁नौ	-1647
▁संस्क	-1648
हम	-1649
▁निर्ण	-1650
▁छोटे	-1651
▁-	-1652
थम	-1653
▁स्थानीय	-1654
जित	-1655
▁ति	-1656
ेमाल	-1657
▁पाया	-1658
द्रा	-1659
▁पुरा	-1660
▁क्षेत्रों	-1661
रो	-1662
▁आयात	-1663
▁किन्तु	-1664
▁पो	-1665
.0	-1666
▁किताब	-1667
▁इस्तेमाल	-1668
▁नव	-1669
▁कोशिश	-1670
दर्शन	-1671
▁पड़े	-1672
▁लाल	-1673
▁विभाग	-1674
▁अवधि	-1675
ड़ों	-1676
▁मात्रा	-1677
▁विधि	-1678
▁यक़	-1679
▁शिक	-1680
▁बहु	-1681
म्बर	-1682
▁लेकर	-1683
nt	-1684
णा	-1685
▁कर्	-1686
ॉर्	-1687
▁सभा	-1688
तने	-1689
▁जाएँगे	-1690
▁मंद	-1691
▁रक्त	-1692
▁निश्चित	-1693
▁लागू	-1694
▁विशिष्ट	-1695
▁क्षमता	-1696
गतान	-1697
जि	-1698
▁मामले	-1699
▁सहायक	-1700
▁प्रदर्श	-1701
▁शे	-1702
▁नदी	-1703
▁प्रस	-1704
पु	-1705
▁निर्धारित	-1706
▁'%	-1707
▁पक	-1708
▁महान	-1709
ह्न	-1710
▁सम्बन्ध	-1711
▁आन	-1712
ांत	-1713
▁रखते	-1714
▁विन	-1715
▁रू	-1716
▁व्यवस्था	-1717
▁जानता	-1718
▁कंपनी	-1719
om	-1720
यें	-1721
▁पुनः	-1722
▁I	-1723
▁जबकि	-1724
▁देखते	-1725
साह	-1726
▁जाओ	-1727
▁बिल	-1728
▁अनुमति	-1729
▁रिक	-1730
ार्ड	-1731
▁उद्देश	-1732
▁कमा	-1733
▁पसंद	-1734
लू	-1735
▁प्रेम	-1736
▁सन्	-1737
44;	-1738
▁#44;	-1739
ीकरण	-1740
▁A	-1741
▁गुना	-1742
ानों	-1743
▁सामा	-1744
▁मनुष्य	-1745
मि	-1746
▁लेखा	-1747
खित	-1748
नाथ	-1749
▁खरी	-1750
▁निस्	-1751
▁मांग	-1752
▁भुगतान	-1753
र्ग	-1754
▁थो	-1755
▁कौन	-1756
▁लें	-1757
▁महिला	-1758
▁शाय	-1759
▁प्रय	-1760
खी	-1761
▁सक्षम	-1762
पना	-1763
▁चिकित	-1764
▁दृष्टि	-1765
ख्त	-1766
▁खोलें	-1767
ूब	-1768
▁मौजूद	-1769
सित	-1770
साय	-1771
▁प्रदेश	-1772
▁अंग्रे	-1773
▁साहित्य	-1774
▁कुंजी	-1775
▁संसा	-1776
▁युद्ध	-1777
निक	-1778
ट्ट	-1779
मेल	-1780
ष्य	-1781
▁माँ	-1782
▁पहचान	-1783
रती	-1784
▁अप्र	-1785
▁तुल	-1786
▁करेगा	-1787
▁वालों	-1788
▁सामाजिक	-1789
▁बोल	-1790
स्थ्य	-1791
▁दक्षि	-1792
▁दूसरी	-1793
मू	-1794
▁सिंह	-1795
इस	-1796
यां	-1797
▁जे	-1798
▁तौर	-1799
ॉप	-1800
▁कमी	-1801
▁संके	-1802
▁नियंत्रण	-1803
▁8	-1804
▁घा	-1805
▁हमारा	-1806
▁लक्ष्य	-1807
पे	-1808
▁7	-1809
▁हिंद	-1810
▁निश	-1811
▁जाएगी	-1812
ौम	-1813
▁संभव	-1814
▁पश्च	-1815
▁वहां	-1816
▁फल	-1817
▁चुका	-1818
▁खो	-1819
▁अंक	-1820
▁जरूरत	-1821
हीन	-1822
▁प्रधान	-1823
▁पुस्तक	-1824
▁आँ	-1825
▁तत्व	-1826
▁पेश	-1827
नाम	-1828
क्शन	-1829
▁कहीं	-1830
▁प्रमाणपत्र	-1831
▁दिल्ली	-1832
▁उसको	-1833
उट	-1834
चल	-1835
▁आकाश	-1836
▁उठ	-1837
उस	-1838
ोर्ड	-1839
▁प्रश्न	-1840
▁लोड	-1841
▁एशिया	-1842
▁विस्तार	-1843
▁आध	-1844
▁जल्	-1845
▁रहता	-1846
लाम	-1847
्यूटर	-1848
र्च	-1849
▁तय	-1850
मिल	-1851
▁दिशा	-1852
▁जवाब	-1853
००	-1854
▁मिले	-1855
ंबर	-1856
▁10	-1857
le	-1858
▁शायद	-1859
▁स्रोत	-1860
र्जा	-1861
ष्ट्रीय	-1862
क्टर	-1863
गो	-1864
गति	-1865
बाह	-1866
▁अनि	-1867
▁आदमी	-1868
वस्था	-1869
▁पहुँच	-1870
▁सिवा	-1871
▁प्रोग्राम	-1872
▁यूर	-1873
▁देखने	-1874
▁18	-1875
▁सहेजें	-1876
ic	-1877
▁वार	-1878
▁वापस	-1879
▁जहाँ	-1880
दर	-1881
▁201	-1882
न्व	-1883
▁अग्र	-1884
▁बच	-1885
कल	-1886
स्ताव	-1887
▁सहयोग	-1888
▁रिप	-1889
▁प्रस्तुत	-1890
▁स्वास्थ्य	-1891
▁असफल	-1892
संदेह	-1893
▁राजा	-1894
▁लेते	-1895
्रीन	-1896
▁T	-1897
▁संग्रह	-1898
▁अनुप्र	-1899
▁प्रशिक्ष	-1900
▁खुलती	-1901
▁तुम्हारी	-1902
▁रचना	-1903
घा	-1904
ुआ	-1905
▁हस्ताक्षर	-1906
ड़क	-1907
▁स्थापित	-1908
कारा	-1909
▁पत्	-1910
▁आदेश	-1911
▁अंतर्	-1912
▁विंडों	-1913
▁निर्णय	-1914
▁मुद्रा	-1915
भू	-1916
▁हैः	-1917
तें	-1918
▁भूमि	-1919
▁नेट	-1920
▁आधारित	-1921
▁इंड	-1922
▁जिससे	-1923
▁जह	-1924
▁किन	-1925
ीप	-1926
▁स्वतंत्र	-1927
सन	-1928
▁देव	-1929
▁बल	-1930
िश्त	-1931
▁प्रवेश	-1932
▁वृद्धि	-1933
▁एम	-1934
▁अपे	-1935
▁प्रस्ताव	-1936
▁देशों	-1937
▁कने	-1938
▁वीडियो	-1939
▁आवा	-1940
▁निर्यात	-1941
▁प्लग	-1942
▁साफ	-1943
▁कप	-1944
▁अज़ाब	-1945
दिष्ट	-1946
कृ	-1947
▁गांधी	-1948
ंधान	-1949
▁बनाएँ	-1950
▁पथ	-1951
ड्ड	-1952
हित	-1953
िल्म	-1954
▁संरचना	-1955
▁पिछले	-1956
▁समर्थन	-1957
▁बदलें	-1958
▁मृत्यु	-1959
▁बुरा	-1960
▁माना	-1961
्रेस	-1962
▁संभाव	-1963
▁सफलता	-1964
▁धरती	-1965
▁डेटा	-1966
▁सत्य	-1967
▁मश	-1968
शाली	-1969
▁बनाए	-1970
ंतर	-1971
्यता	-1972
भाष	-1973
▁खिला	-1974
▁प्रबंधन	-1975
ड़ाई	-1976
▁सच	-1977
▁कूट	-1978
ज़ार	-1979
▁क़ौम	-1980
▁प्रथम	-1981
▁सार्व	-1982
▁रखें	-1983
▁लिखा	-1984
शोध	-1985
गें	-1986
▁संबंधी	-1987
ील	-1988
▁वक्त	-1989
▁किये	-1990
▁विफल	-1991
▁उद्देश्य	-1992
re	-1993
लिखित	-1994
▁केन्द्र	-1995
▁उत्पन्न	-1996
▁ज़ि	-1997
▁पदार्थ	-1998
स्कार	-1999
000	-2000
▁गी	-2001
िनी	-2002
▁लाख	-2003
▁निस्संदेह	-2004
▁भूमिका	-2005
▁अध्ययन	-2006
▁छोटा	-2007
शल	-2008
परी	-2009
लब	-2010
▁मिटाएँ	-2011
▁सेना	-2012
▁पहली	-2013
नो	-2014
निर्	-2015
▁जनता	-2016
▁रखना	-2017
▁अला	-2018
बाहरी	-2019
▁मूसा	-2020
▁हिस्सा	-2021
ुओं	-2022
त्मा	-2023
▁ज़मीन	-2024
िक्	-2025
▁दिनों	-2026
▁कहने	-2027
लाई	-2028
ल्ल	-2029
▁खे	-2030
▁असम	-2031
▁दिखाई	-2032
▁भाई	-2033
तियों	-2034
▁हिन्दी	-2035
▁वर्षों	-2036
दय	-2037
▁विकसित	-2038
▁गुर	-2039
रीब	-2040
▁प्रवि	-2041
▁चुके	-2042
▁सामग्री	-2043
श्चा	-2044
▁मंदिर	-2045
-1	-2046
बरा	-2047
च्चा	-2048
▁राह	-2049
र्श	-2050
▁आपका	-2051
▁D	-2052
▁फर	-2053
▁जिला	-2054
▁बंग	-2055
यान	-2056
▁पहा	-2057
▁न्यायालय	-2058
म्भ	-2059
लग्न	-2060
ैस	-2061
▁चाहे	-2062
श्वर	-2063
ग्	-2064
▁अनुसंधान	-2065
▁जाँच	-2066
▁न्याय	-2067
▁मित्र	-2068
▁सत	-2069
▁अनुप्रयोग	-2070
▁इका	-2071
ेंस	-2072
▁विभा	-2073
एफ	-2074
▁खुदा	-2075
▁इतना	-2076
दर्भ	-2077
▁चुना	-2078
▁वन	-2079
▁भेजा	-2080
ोगे	-2081
वर्क	-2082
▁ऑफ	-2083
▁संत	-2084
▁देखें	-2085
बि	-2086
डिया	-2087
कान	-2088
▁खाते	-2089
▁प्रगति	-2090
▁मालूम	-2091
च्छा	-2092
▁मोड	-2093
ल्स	-2094
धिकार	-2095
क्रमण	-2096
मंत्र	-2097
जो	-2098
▁चिह्न	-2099
और	-2100
ज्ञा	-2101
स्टम	-2102
▁स्कूल	-2103
▁वास्तविक	-2104
▁भिन्न	-2105
ंगे	-2106
प्ता	-2107
▁बर्	-2108
▁संदर्भ	-2109
थमिक	-2110
▁सिर	-2111
वस	-2112
▁धी	-2113
कृति	-2114
▁अनुभव	-2115
▁दक्षिण	-2116
पुट	-2117
▁चम	-2118
्सा	-2119
▁अधिकारी	-2120
ंडार	-2121
▁संयुक्त	-2122
▁बेहतर	-2123
▁भवि	-2124
याँ	-2125
▁कोशिका	-2126
वरी	-2127
▁बज	-2128
गाह	-2129
▁दौ	-2130
स्टर	-2131
▁छोटी	-2132
ैध	-2133
▁पड़ा	-2134
▁कार्यालय	-2135
ंचांग	-2136
फ्ट	-2137
▁लेना	-2138
▁रिपोर्ट	-2139
▁वित्तीय	-2140
वासी	-2141
▁{	-2142
्यूशन	-2143
▁ड्र	-2144
▁यक़ीन	-2145
▁प्राथमिक	-2146
नेट	-2147
▁संवि	-2148
▁अवस्था	-2149
▁भविष्य	-2150
▁अभिलेख	-2151
▁खाली	-2152
▁त्व	-2153
▁परंतु	-2154
▁भोजन	-2155
▁प्रे	-2156
▁डाटा	-2157
टल	-2158
en	-2159
ंदा	-2160
घु	-2161
बह	-2162
िको	-2163
▁हाला	-2164
▁खाद	-2165
▁सां	-2166
▁यातना	-2167
▁विरोध	-2168
▁पर्य	-2169
▁तकनी	-2170
शय	-2171
▁पंचांग	-2172
लोड	-2173
▁री	-2174
▁उल	-2175
▁इनकार	-2176
ोजित	-2177
▁पुल	-2178
▁आपकी	-2179
▁प्राय	-2180
▁इन्	-2181
▁अनुर	-2182
पक	-2183
रु	-2184
▁दू	-2185
▁ऊर्जा	-2186
▁निर्दिष्ट	-2187
▁गलत	-2188
▁विदेशी	-2189
ल्ड	-2190
ोषण	-2191
▁पूरे	-2192
▁सुना	-2193
ँह	-2194
▁अपरा	-2195
पूर्वक	-2196
घ्र	-2197
किंग	-2198
ोकन	-2199
▁मही	-2200
▁पुनर्	-2201
is	-2202
▁अक	-2203
वेयर	-2204
पण	-2205
▁मौजूदा	-2206
हरी	-2207
▁डॉ	-2208
श्चित	-2209
स्करण	-2210
ंसा	-2211
▁विल	-2212
▁(1	-2213
▁पट्टी	-2214
▁सुरक्षित	-2215
▁क्लिक	-2216
▁परन्तु	-2217
▁पिता	-2218
स्थिति	-2219
इड	-2220
्ब	-2221
▁ढूं	-2222
▁अधि	-2223
▁गांव	-2224
▁खुद	-2225
▁दया	-2226
▁अवैध	-2227
▁छु	-2228
पात	-2229
▁कम्प	-2230
▁अगले	-2231
▁आयु	-2232
रीय	-2233
मो	-2234
हे	-2235
▁P	-2236
▁खरीद	-2237
▁b	-2238
▁पंक्ति	-2239
र्द	-2240
▁देती	-2241
▁M	-2242
▁जिन्हें	-2243
गि	-2244
▁शाखा	-2245
▁पश्चा	-2246
जनिक	-2247
▁अधिका	-2248
ब्र	-2249
▁निजी	-2250
▁आता	-2251
▁संस	-2252
▁15	-2253
सत	-2254
चालित	-2255
▁गुम	-2256
▁12	-2257
म्मे	-2258
ंकन	-2259
▁पर्व	-2260
ंगी	-2261
क्का	-2262
▁अनुक	-2263
▁बातें	-2264
▁उल्लेख	-2265
▁लागत	-2266
ज्ञानिक	-2267
बान	-2268
▁आसमान	-2269
ानि	-2270
ियर	-2271
▁R	-2272
▁नेटवर्क	-2273
जह	-2274
ैल	-2275
▁दल	-2276
▁संलग्न	-2277
▁U	-2278
.1	-2279
ोल्यूशन	-2280
ृह	-2281
▁अलावा	-2282
योक्ता	-2283
▁9	-2284
▁दूसरा	-2285
▁दबा	-2286
▁इनमें	-2287
▁नागर	-2288
▁समिति	-2289
ून्य	-2290
▁सम्मान	-2291
ec	-2292
▁निकट	-2293
▁दाय	-2294
▁स्म	-2295
▁बढ	-2296
िल्टर	-2297
▁रेल	-2298
राब	-2299
▁सार्वजनिक	-2300
्वा	-2301
▁आपने	-2302
▁प्रशिक्षण	-2303
एन	-2304
ैनिक	-2305
▁फ़ॉ	-2306
▁भंडार	-2307
शब्द	-2308
▁भ्र	-2309
▁सरकारी	-2310
▁चर	-2311
▁कंप्यूटर	-2312
▁भारी	-2313
▁आत्म	-2314
▁मामलों	-2315
ाइन	-2316
▁प्रभावित	-2317
▁प्रदर्शित	-2318
▁बनाना	-2319
▁कानून	-2320
▁निर्देशिका	-2321
ॉन	-2322
राज	-2323
▁राय	-2324
▁जहन्न	-2325
▁N	-2326
▁बने	-2327
▁मुझ	-2328
▁यक़ीनन	-2329
▁196	-2330
भु	-2331
कीय	-2332
ंडल	-2333
भूम	-2334
▁उपयोक्ता	-2335
▁कांग	-2336
▁रखता	-2337
▁कमांड	-2338
▁भावना	-2339
▁मशीन	-2340
▁टाइ	-2341
▁तुमने	-2342
ार्म	-2343
▁सत्या	-2344
सु	-2345
▁अद्य	-2346
▁कीमत	-2347
▁निम्नलिखित	-2348
फर	-2349
हि	-2350
रिया	-2351
▁आवेदन	-2352
▁20	-2353
▁इस्	-2354
▁लाए	-2355
स्ती	-2356
▁उचित	-2357
▁धार	-2358
▁उन्	-2359
▁लौट	-2360
णु	-2361
▁नोट	-2362
▁संगठन	-2363
▁परीक्षा	-2364
▁हृ	-2365
▁उम्	-2366
ल्पना	-2367
्रीका	-2368
▁पुरस्कार	-2369
ंगल	-2370
▁काट	-2371
कुल	-2372
भाल	-2373
▁शीघ्र	-2374
फ्त	-2375
▁नर	-2376
चारी	-2377
▁क्रम	-2378
श्त	-2379
▁जित	-2380
▁उद्य	-2381
▁तुमसे	-2382
▁मुक्त	-2383
▁पकड़	-2384
▁गैर	-2385
▁नक़	-2386
▁रोज	-2387
मय	-2388
▁अत्यन्त	-2389
▁लॉग	-2390
मल	-2391
▁लिखने	-2392
▁''	-2393
▁ढूंढ	-2394
भूमि	-2395
िप्	-2396
▁पूंजी	-2397
िज	-2398
▁हास	-2399
▁सरल	-2400
▁चाहिये	-2401
ज्ञात	-2402
▁पंजी	-2403
▁ग्राह	-2404
▁इला	-2405
▁लघु	-2406
▁पांच	-2407
▁जल्दी	-2408
वाले	-2409
▁अन्	-2410
▁व्यवहार	-2411
▁अना	-2412
▁तेल	-2413
▁ढंग	-2414
▁पल	-2415
▁ईसा	-2416
प्ताह	-2417
▁वर्णन	-2418
▁अंदर	-2419
▁स्थापना	-2420
ment	-2421
▁एवोल्यूशन	-2422
▁चले	-2423
चीन	-2424
▁भौ	-2425
▁भीतर	-2426
▁प्रतीक	-2427
ंटे	-2428
ज़े	-2429
▁पालन	-2430
▁सलाह	-2431
विक	-2432
क्षक	-2433
▁मुँह	-2434
▁ईश्वर	-2435
▁संशोध	-2436
्वे	-2437
▁प्रतिक	-2438
▁अपेक्षा	-2439
▁शून्य	-2440
▁कोड	-2441
▁मिली	-2442
▁संसाधन	-2443
▁नगर	-2444
▁F	-2445
▁नागरिक	-2446
▁आउट	-2447
▁दश	-2448
▁चीज	-2449
▁तिथि	-2450
▁मिलता	-2451
गीत	-2452
▁शेष	-2453
▁अधिकांश	-2454
▁एल	-2455
▁हल	-2456
▁सुनि	-2457
▁मेल	-2458
▁सिस्टम	-2459
र्न	-2460
▁खंड	-2461
त्त्व	-2462
▁कट	-2463
श्ले	-2464
टों	-2465
▁स्क्रीन	-2466
टेड	-2467
▁ढा	-2468
भीर	-2469
▁दस्तावेज़	-2470
▁O	-2471
ताल	-2472
▁भग	-2473
ठी	-2474
-201	-2475
िब	-2476
राह	-2477
▁पृथ	-2478
▁सर्वो	-2479
एक	-2480
िना	-2481
र्चा	-2482
▁छिप	-2483
ादी	-2484
▁आंक	-2485
चक	-2486
▁आधुन	-2487
▁कहना	-2488
कृतिक	-2489
▁रहती	-2490
▁औद्योग	-2491
▁पैर	-2492
▁राजनी	-2493
मंत्री	-2494
म्र	-2495
▁चलो	-2496
फे	-2497
ख़िर	-2498
▁ऑन	-2499
जिए	-2500
▁पाने	-2501
णि	-2502
▁कठिन	-2503
▁जिसकी	-2504
▁दर्शा	-2505
व्यवस्था	-2506
ल्ला	-2507
ारों	-2508
ार्क	-2509
▁अज्ञात	-2510
▁आते	-2511
▁तुलना	-2512
▁शिकाय	-2513
▁विन्यास	-2514
▁मना	-2515
▁मॉड	-2516
▁रेखा	-2517
▁लगी	-2518
वर्ती	-2519
चालन	-2520
▁इंटर	-2521
▁डाउन	-2522
▁बैठक	-2523
▁अधिकतम	-2524
ामीण	-2525
वत	-2526
ढ़ा	-2527
रल	-2528
▁शीर्षक	-2529
क्या	-2530
▁पर्याप्त	-2531
▁सृ	-2532
▁जरूरी	-2533
ीर	-2534
वाला	-2535
नेवाले	-2536
▁संकेत	-2537
▁संसार	-2538
मर	-2539
िरा	-2540
▁गं	-2541
▁f	-2542
▁सुनिश्चित	-2543
▁ध्वनि	-2544
▁चिकित्सा	-2545
नु	-2546
ou	-2547
▁आसान	-2548
्श	-2549
कात	-2550
▁वैज्ञानिक	-2551
ंद्र	-2552
▁जादू	-2553
▁प्रकट	-2554
▁आती	-2555
▁प्रयुक्त	-2556
न्त्र	-2557
औन	-2558
▁पाय	-2559
▁नियु	-2560
▁सारी	-2561
▁इन्ह	-2562
▁सत्र	-2563
स्ति	-2564
▁नक़ल	-2565
वधान	-2566
दर्शी	-2567
▁प्रकृति	-2568
खे	-2569
ol	-2570
▁बुला	-2571
दृ	-2572
▁दस	-2573
▁शैली	-2574
▁अंतर्गत	-2575
▁फी	-2576
▁फे	-2577
▁सॉ	-2578
▁ग्रामीण	-2579
▁अंड	-2580
▁फ्ल	-2581
मीद	-2582
▁सच्च	-2583
▁आकर्ष	-2584
▁शर्	-2585
▁विज्ञ	-2586
भूत	-2587
▁चुकी	-2588
▁तरीके	-2589
▁युवा	-2590
कत	-2591
▁नसी	-2592
▁w	-2593
त्री	-2594
▁सहित	-2595
▁अद्यतन	-2596
त्साह	-2597
▁क़ुर	-2598
▁डाला	-2599
▁मालिक	-2600
▁उपस्थित	-2601
जली	-2602
न्दर	-2603
▁ब्या	-2604
▁प्राकृतिक	-2605
वर्ड	-2606
▁१९	-2607
▁संभावना	-2608
ैव	-2609
▁फ़ॉन्ट	-2610
▁औद्योगिक	-2611
▁B	-2612
व्र	-2613
▁पुस्तिका	-2614
ोम	-2615
▁शुल्क	-2616
▁दृष्ट	-2617
िक्स	-2618
▁रक्षा	-2619
ंथ	-2620
▁रद्द	-2621
▁अफ्रीका	-2622
▁तीस	-2623
▁ब्रा	-2624
चित्र	-2625
क्सी	-2626
▁विज	-2627
▁करनी	-2628
▁खी	-2629
िक्री	-2630
▁आशा	-2631
▁रहना	-2632
बूत	-2633
▁खाना	-2634
▁कहानी	-2635
फ्	-2636
▁रहेंगे	-2637
ोलन	-2638
▁पेट	-2639
▁आइ	-2640
धर	-2641
▁समझा	-2642
ूद	-2643
किल	-2644
▁उपभ	-2645
▁अवश्य	-2646
ोने	-2647
▁अध्या	-2648
्रेड	-2649
▁m	-2650
▁एच	-2651
▁संय	-2652
वेद	-2653
▁सवाल	-2654
▁प्रदर्शन	-2655
ैतिक	-2656
▁शासन	-2657
▁झू	-2658
▁लेखक	-2659
▁यूरोप	-2660
▁व्यापक	-2661
बु	-2662
▁युग	-2663
▁बदले	-2664
▁द्र	-2665
स्ल	-2666
र्वा	-2667
▁घट	-2668
▁उपाय	-2669
शो	-2670
▁निशान	-2671
▁स्वतः	-2672
▁मतलब	-2673
▁महारा	-2674
▁कांग्रेस	-2675
▁मंत्रालय	-2676
▁संगीत	-2677
ल्कुल	-2678
▁भेजें	-2679
▁असमर्थ	-2680
▁अनिवार	-2681
र्ट	-2682
ण्	-2683
कला	-2684
▁तुमको	-2685
▁बाहरी	-2686
▁संस्कृत	-2687
▁देगा	-2688
▁आधुनिक	-2689
ौती	-2690
▁संस्करण	-2691
ियान	-2692
▁जिनके	-2693
ेंड	-2694
▁जाय	-2695
▁निर्भर	-2696
वृत्ति	-2697
ंबई	-2698
जीव	-2699
▁उपचार	-2700
▁वाह	-2701
▁विविध	-2702
▁अक्	-2703
?"	-2704
्यो	-2705
▁इकाई	-2706
क्षेत्र	-2707
▁कदम	-2708
▁बजे	-2709
▁मुला	-2710
▁बनी	-2711
स्त्र	-2712
▁सारा	-2713
▁प्रेष	-2714
▁अस्थ	-2715
▁पहला	-2716
राज्य	-2717
▁शब्दों	-2718
▁हित	-2719
क्रिय	-2720
▁खर्च	-2721
मारी	-2722
दारों	-2723
▁समुद्र	-2724
▁प्रकाशित	-2725
यामत	-2726
▁जैसी	-2727
▁पुलिस	-2728
▁प्रशासन	-2729
सान	-2730
▁दिवस	-2731
▁शेयर	-2732
▁न्यून	-2733
ेक्ट	-2734
सलमान	-2735
▁ग्रह	-2736
ेगा	-2737
▁अंश	-2738
▁ज्ञापन	-2739
▁कूटशब्द	-2740
▁हवा	-2741
मेंट	-2742
▁सीधे	-2743
▁परिवर्त	-2744
सिक	-2745
▁रखी	-2746
▁वायु	-2747
मह	-2748
▁अक्षम	-2749
ीकृत	-2750
ारोह	-2751
▁डाउनलोड	-2752
▁बिल्कुल	-2753
▁कॉन्	-2754
▁विशाल	-2755
जरा	-2756
भूति	-2757
▁नसीहत	-2758
▁अनिवार्य	-2759
▁आत	-2760
▁मध	-2761
▁कार्ड	-2762
▁<	-2763
▁परिस	-2764
▁समाचार	-2765
सिद्ध	-2766
▁निर्मित	-2767
फ़ी	-2768
वत्ता	-2769
▁इत्या	-2770
▁मिन	-2771
नेवाला	-2772
▁स्वतंत्रता	-2773
▁अर्थव्यवस्था	-2774
▁मिट्टी	-2775
▁परीक्षण	-2776
देव	-2777
▁किंतु	-2778
▁तरीका	-2779
▁सप्ताह	-2780
▁आंत	-2781
▁दस्तावेज	-2782
▁पद्ध	-2783
वीं	-2784
▁माइ	-2785
▁नये	-2786
▁मल	-2787
प्ति	-2788
शुदा	-2789
▁दोष	-2790
▁नियत	-2791
ंकर	-2792
ac	-2793
क्ष्म	-2794
▁मुक़	-2795
▁उम्मीद	-2796
▁चरण	-2797
दिन	-2798
▁देखो	-2799
▁बीमा	-2800
▁पढ़ा	-2801
▁शांति	-2802
▁गंभीर	-2803
▁चर्चा	-2804
ूनी	-2805
ितीय	-2806
▁उद्यम	-2807
▁हासिल	-2808
भाषा	-2809
▁तहत	-2810
▁स्थायी	-2811
ुमा	-2812
▁फ़र	-2813
ष्क	-2814
ुमार	-2815
धानी	-2816
▁कविता	-2817
▁प्राचीन	-2818
▁पाए	-2819
omment	-2820
▁प्रोत्साह	-2821
▁गुणवत्ता	-2822
▁सीख	-2823
स्यों	-2824
सब	-2825
ट्र	-2826
िप्ट	-2827
▁हक़	-2828
▁लाने	-2829
▁प्रारूप	-2830
चय	-2831
ंचाई	-2832
▁वजह	-2833
ास्त्र	-2834
वों	-2835
▁ऑनलाइन	-2836
रित	-2837
लेट	-2838
▁इत्यादि	-2839
▁पश्चात	-2840
▁शक	-2841
भुत	-2842
▁मंत्री	-2843
▁जिन्होंने	-2844
▁दिख	-2845
शाला	-2846
▁बॉ	-2847
▁बंगाल	-2848
दों	-2849
▁तेजी	-2850
▁बातों	-2851
भावी	-2852
▁सिद्धांत	-2853
ूक	-2854
▁करोड़	-2855
▁लगाया	-2856
▁अत्यंत	-2857
कम	-2858
)...	-2859
▁लक्षण	-2860
्रिया	-2861
)।	-2862
▁पड़ता	-2863
▁पूर्वा	-2864
▁चैन	-2865
▁३	-2866
▁(%	-2867
▁योगदान	-2868
▁o	-2869
▁प्ले	-2870
▁सूर	-2871
▁प्रतिनि	-2872
छा	-2873
्राफ	-2874
▁संक	-2875
-2018	-2876
▁पहुँचा	-2877
न्दा	-2878
▁वस्तुओं	-2879
▁लम्	-2880
▁कॉल	-2881
▁हृदय	-2882
▁प्रोट	-2883
▁वास्ते	-2884
▁एफ	-2885
▁पत्त	-2886
्वर	-2887
▁बजा	-2888
▁व्यक्तियों	-2889
▁अंध	-2890
▁बाग़	-2891
▁वार्ष	-2892
▁दीर्	-2893
▁E	-2894
▁राज्यों	-2895
जु	-2896
▁मस	-2897
▁मुद्र	-2898
▁समारोह	-2899
ेप	-2900
▁बटन	-2901
▁जाति	-2902
▁आदर्श	-2903
▁पार्टी	-2904
el	-2905
वां	-2906
▁सुंदर	-2907
▁व्यवसाय	-2908
▁बिक्री	-2909
▁कनेक्शन	-2910
▁प्रधानमंत्री	-2911
▁11	-2912
▁पढ़ने	-2913
▁विवाह	-2914
Comment	-2915
▁संपत्ति	-2916
▁ब्याज	-2917
▁अनुमान	-2918
नर	-2919
▁L	-2920
▁बैक	-2921
▁फ़ाइलें	-2922
यक	-2923
▁x	-2924
,000	-2925
▁मेन	-2926
▁ऑफ़	-2927
▁करी	-2928
दु	-2929
तरा	-2930
वाली	-2931
ताव	-2932
न्नत	-2933
▁टैब	-2934
▁रास्त	-2935
▁बताया	-2936
▁संस्कृति	-2937
ौल	-2938
▁माता	-2939
▁विश्ले	-2940
▁मुसलमान	-2941
▁सदस्यों	-2942
▁गहरा	-2943
▁तयशुदा	-2944
सूस	-2945
हीम	-2946
▁विद	-2947
वालों	-2948
▁डरा	-2949
▁तारी	-2950
▁न्यूनतम	-2951
▁कितने	-2952
▁लंबा	-2953
▁पशु	-2954
▁पंजा	-2955
▁हाँ	-2956
▁1961	-2957
▁दिये	-2958
▁विमान	-2959
--	-2960
▁चौड़ाई	-2961
▁जहा	-2962
▁जिनमें	-2963
▁बौ	-2964
▁वाद	-2965
▁विस्तृत	-2966
जनक	-2967
▁खास	-2968
द्रीय	-2969
▁लाइन	-2970
▁संपादक	-2971
▁साधारण	-2972
खर	-2973
▁रहो	-2974
▁ब्ल	-2975
▁सात	-2976
ठित	-2977
तया	-2978
▁आंद	-2979
▁तस्व	-2980
ुदाय	-2981
▁खाद्य	-2982
▁अनुवाद	-2983
▁अध्यक्ष	-2984
वक	-2985
वट	-2986
▁मुह	-2987
▁कक्ष	-2988
▁धा	-2989
▁भूल	-2990
▁तर्क	-2991
▁लिंक	-2992
▁इच्छा	-2993
▁संविधान	-2994
▁विद्यार्थ	-2995
दूर	-2996
▁साइ	-2997
▁पद्धति	-2998
▁अनुप	-2999
▁फैला	-3000
▁क्षमा	-3001
▁छुट	-3002
▁रखे	-3003
पान	-3004
िकोण	-3005
▁फूल	-3006
ॉल्ट	-3007
▁बाप	-3008
▁बीज	-3009
▁शिकायत	-3010
▁मानते	-3011
्यार	-3012
▁परा	-3013
▁होनी	-3014
▁अके	-3015
▁नोड	-3016
▁तेज	-3017
▁छात्र	-3018
ुस	-3019
▁उड़	-3020
्राष्ट्रीय	-3021
ुद्ध	-3022
▁प्रि	-3023
▁बिजली	-3024
▁16	-3025
▁छाप	-3026
▁महीने	-3027
तो	-3028
काम	-3029
▁टुक	-3030
▁अपराध	-3031
▁अस्था	-3032
▁सेवाओं	-3033
न्ड	-3034
▁सीमित	-3035
▁सूक्ष्म	-3036
▁देंगे	-3037
▁मोह	-3038
▁दूरी	-3039
▁महसूस	-3040
▁कार्यों	-3041
▁अंग्रेजी	-3042
▁गोप	-3043
▁तत्	-3044
▁शुभ	-3045
बत	-3046
▁मछ	-3047
▁अधीन	-3048
▁सदैव	-3049
ra	-3050
ंदु	-3051
▁खुश	-3052
-2	-3053
रेट	-3054
▁25	-3055
घात	-3056
▁बू	-3057
▁लेन	-3058
▁क़सम	-3059
चारियों	-3060
▁गतिविध	-3061
▁h	-3062
▁स्तंभ	-3063
▁रास्ता	-3064
दाता	-3065
▁मौसम	-3066
▁झुठलाया	-3067
मक	-3068
्वी	-3069
▁पुरुष	-3070
▁विशेषता	-3071
ैट	-3072
▁अद	-3073
▁रखो	-3074
▁द्वार	-3075
▁भगवान	-3076
फिर	-3077
▁इंच	-3078
▁डेस्क	-3079
▁बोर्ड	-3080
ंटर	-3081
धित	-3082
▁आतंक	-3083
▁जानी	-3084
▁धीरे	-3085
▁अक्सर	-3086
▁प्रजा	-3087
▁अधिकतर	-3088
▁संपादित	-3089
▁पर्यावरण	-3090
रक	-3091
वलोकन	-3092
▁स्थल	-3093
त्तर	-3094
ष्ट्र	-3095
ख़ुदा	-3096
ार्मिक	-3097
▁महत्त्व	-3098
िव	-3099
बोध	-3100
ायक	-3101
▁इनके	-3102
गण	-3103
पास	-3104
र्जी	-3105
▁...	-3106
▁खड़े	-3107
▁प्रसन्न	-3108
▁झा	-3109
▁आख़िर	-3110
करी	-3111
▁इबरा	-3112
कद	-3113
कालीन	-3114
▁टा	-3115
कारों	-3116
▁दर्द	-3117
▁युक्ति	-3118
▁अह	-3119
▁अस्त	-3120
▁वेतन	-3121
▁प्रसिद्ध	-3122
थर	-3123
पादन	-3124
▁हिन्दू	-3125
▁ठहरा	-3126
▁मिलने	-3127
▁सर्वा	-3128
▁अनुकूल	-3129
▁निर्वा	-3130
ंडी	-3131
▁डिफ़	-3132
▁नियमित	-3133
क्षी	-3134
▁ताल	-3135
क्रिप्ट	-3136
▁सम्मिल	-3137
▁u	-3138
▁बन्दों	-3139
▁केंद्रीय	-3140
▁1961-2018	-3141
▁लु	-3142
▁कार्र	-3143
▁प्राधिक	-3144
ियल	-3145
▁माह	-3146
▁हजार	-3147
▁सम्बन्धी	-3148
▁आये	-3149
▁लड़के	-3150
▁संपादन	-3151
िड	-3152
▁ग्राम	-3153
ॉक	-3154
▁धार्मिक	-3155
आन	-3156
ुप	-3157
▁–	-3158
▁आँख	-3159
▁निगम	-3160
ंकि	-3161
लाल	-3162
▁आख	-3163
▁हार	-3164
▁जानवर	-3165
▁मिश्र	-3166
प्रिय	-3167
▁मानक	-3168
▁परिष	-3169
▁इन्हें	-3170
▁बेच	-3171
मेट	-3172
▁सरक	-3173
▁ईमेल	-3174
▁कार्या	-3175
▁पूछा	-3176
▁हालत	-3177
▁मिलती	-3178
▁बीमारी	-3179
▁जहन्नुम	-3180
▁उनपर	-3181
▁खड़ा	-3182
ंता	-3183
▁गल	-3184
▁विनि	-3185
▁माप	-3186
▁अक्षर	-3187
▁प्रत्यक्ष	-3188
▁e	-3189
ंटी	-3190
हरे	-3191
▁हल्	-3192
मीर	-3193
▁इतनी	-3194
▁नेता	-3195
▁इबराहीम	-3196
▁पात्र	-3197
विज्ञान	-3198
▁प्लगइन	-3199
▁"%	-3200
ध्या	-3201
▁व्यय	-3202
▁वृक्ष	-3203
िगर	-3204
▁सत्ता	-3205
▁स्मृति	-3206
वै	-3207
टिल	-3208
▁डिज	-3209
▁दवा	-3210
▁शिव	-3211
▁चारों	-3212
▁मुलाकात	-3213
यू	-3214
▁फा	-3215
▁तुर	-3216
▁सुबह	-3217
▁गुनाह	-3218
ँव	-3219
टॉप	-3220
▁अल्प	-3221
▁उम्र	-3222
र्ड	-3223
▁अख	-3224
▁कब	-3225
▁थोड़ा	-3226
▁पश्चिम	-3227
▁तट	-3228
▁समझौ	-3229
▁पुकार	-3230
▁उपयुक्त	-3231
▁काग	-3232
▁समझते	-3233
▁H	-3234
▁अस्प	-3235
ग़म्बर	-3236
▁स्वामी	-3237
▁फ़िल्टर	-3238
माज़	-3239
▁(19	-3240
▁ख़ु	-3241
▁स्ना	-3242
सों	-3243
▁माँग	-3244
▁निष्क्रिय	-3245
▁मांस	-3246
▁कल्पना	-3247
▁चिह्नित	-3248
राष्ट्रीय	-3249
▁मिनट	-3250
मेन	-3251
ियाई	-3252
▁जोर	-3253
स्कृत	-3254
▁दीवार	-3255
ूँगा	-3256
▁सेटिंग	-3257
▁टॉ	-3258
▁चालू	-3259
▁हैंः	-3260
कारात्मक	-3261
▁बनाई	-3262
▁पहुंचा	-3263
▁भागी	-3264
▁उपभोक्ता	-3265
:-	-3266
▁विध	-3267
▁क्षति	-3268
▁आंदोलन	-3269
बारा	-3270
▁नाटक	-3271
▁सीडी	-3272
▁स्थिर	-3273
रोध	-3274
▁दूध	-3275
▁फसल	-3276
▁वैध	-3277
▁ऑडियो	-3278
▁विचारों	-3279
▁क़ि	-3280
वाना	-3281
▁प्रबंधक	-3282
▁पूर्वावलोकन	-3283
▁चलता	-3284
▁टिप्	-3285
▁संसद	-3286
▁कितनी	-3287
▁मुंबई	-3288
रान	-3289
सेट	-3290
न्ना	-3291
▁सम्प	-3292
▁तस्वीर	-3293
▁वाता	-3294
▁लगाने	-3295
▁फ़िल्म	-3296
▁वार्षिक	-3297
▁डिफ़ॉल्ट	-3298
▁नष्ट	-3299
▁त्रुटिः	-3300
▁दशा	-3301
▁आंतरिक	-3302
▁प्रभावी	-3303
साब	-3304
▁सित	-3305
▁घंटे	-3306
▁उपन्यास	-3307
▁व्यक्तिगत	-3308
ट्	-3309
चिका	-3310
▁आपू	-3311
▁मजबूत	-3312
▁व्याख्या	-3313
▁सम्मिलित	-3314
▁पृष्ठभूमि	-3315
ंखला	-3316
▁डेस्कटॉप	-3317
वली	-3318
साथ	-3319
ेंशन	-3320
▁निधि	-3321
▁लेता	-3322
▁पत्नी	-3323
▁औष	-3324
▁रिक्त	-3325
किस्तान	-3326
धाई	-3327
र्त	-3328
▁खींच	-3329
जाल	-3330
▁फॉ	-3331
▁नमू	-3332
▁पुराने	-3333
षित	-3334
▁अत्यधिक	-3335
वाही	-3336
▁कहाँ	-3337
▁केन्द	-3338
▁इंडिया	-3339
ोटो	-3340
भारत	-3341
▁रहेगा	-3342
▁दिखाया	-3343
▁ज़रूर	-3344
त्न	-3345
नांक	-3346
▁खाने	-3347
▁आयतों	-3348
▁स्वागत	-3349
ित्त	-3350
▁अवि	-3351
▁जायेगा	-3352
▁तथ	-3353
▁द्वीप	-3354
▁पोर्ट	-3355
▁कार्रवाई	-3356
he	-3357
जूद	-3358
धनों	-3359
▁फोन	-3360
▁शिश	-3361
▁रुपये	-3362
▁प्रतिष्ठ	-3363
न्दु	-3364
सूची	-3365
▁मां	-3366
ठे	-3367
म्म	-3368
▁मास	-3369
▁बधाई	-3370
▁संचार	-3371
▁२००	-3372
ंघ	-3373
ओगे	-3374
ढ़ी	-3375
▁रोगी	-3376
ियत	-3377
▁बंध	-3378
▁हस्त	-3379
▁तीव्र	-3380
▁सफ	-3381
▁देर	-3382
▁अगला	-3383
▁स्त्री	-3384
मैं	-3385
▁निदेश	-3386
▁पासवर्ड	-3387
▁वातावरण	-3388
▁मुश्	-3389
▁वैश्व	-3390
▁रोजगार	-3391
तल	-3392
वण	-3393
ंपरा	-3394
मार्	-3395
दो	-3396
शे	-3397
▁घटा	-3398
▁सूर्य	-3399
▁समाधान	-3400
मिन	-3401
▁ख़बर	-3402
▁ड्राइ	-3403
▁व्याव	-3404
▁संशोधन	-3405
ँचे	-3406
▁दृष्टिकोण	-3407
खिम	-3408
ंडा	-3409
▁प्राप्ति	-3410
▁नमाज़	-3411
▁प्रायः	-3412
▁जिम्मे	-3413
▁धु	-3414
▁फेर	-3415
▁समर्थित	-3416
ुता	-3417
▁किरा	-3418
▁कॉन्फ़	-3419
▁मूल्या	-3420
▁संरक्षण	-3421
▁निर्धारण	-3422
),	-3423
ut	-3424
स्पर	-3425
▁बहा	-3426
▁मीडिया	-3427
थन	-3428
▁गीत	-3429
▁ब्रह	-3430
▁हुक्	-3431
▁त्वचा	-3432
▁प्रसार	-3433
केट	-3434
म्स	-3435
ड़ना	-3436
इयों	-3437
▁टैग	-3438
भाग्य	-3439
▁उत्तम	-3440
स्वरूप	-3441
▁किनारे	-3442
▁स्वरूप	-3443
▁विश्लेषण	-3444
ृंखला	-3445
▁प्रान्त	-3446
▁गू	-3447
▁संवाद	-3448
जात	-3449
▁मीटर	-3450
▁मात्र	-3451
▁सामना	-3452
▁आर्	-3453
▁समृ	-3454
▁निरा	-3455
▁बरसा	-3456
▁तंत्रिका	-3457
▁199	-3458
ङ्	-3459
▁सकें	-3460
▁स्वचालित	-3461
▁30	-3462
▁बयान	-3463
her	-3464
▁डाय	-3465
▁अपील	-3466
▁कृष्ण	-3467
▁प्रविष्ट	-3468
चलित	-3469
▁तार	-3470
▁रहें	-3471
▁सच्चे	-3472
▁उपयोगी	-3473
अलग	-3474
िक्र	-3475
तावनी	-3476
मेलन	-3477
▁रास्ते	-3478
▁एज	-3479
▁सुख	-3480
▁आत्मा	-3481
▁देखभाल	-3482
▁बुद्धि	-3483
▁विद्युत	-3484
▁G	-3485
▁पस	-3486
▁चक्र	-3487
▁करनेवाला	-3488
▁प्रतिक्रिया	-3489
ce	-3490
▁आयोग	-3491
▁अधिकारियों	-3492
ामान	-3493
▁गुरु	-3494
▁तल	-3495
लेक्ट	-3496
▁चेतावनी	-3497
▁एड	-3498
▁शो	-3499
▁खिस	-3500
▁पाई	-3501
▁उत्स	-3502
▁शैतान	-3503
▁हिसाब	-3504
तुम	-3505
▁चुनाव	-3506
▁जोखिम	-3507
वंश	-3508
क्रो	-3509
▁पेड़	-3510
▁अत्या	-3511
मीटर	-3512
▁करीब	-3513
ोपी	-3514
▁विधान	-3515
स्तिष्क	-3516
▁परंपरा	-3517
▁कर्मचारियों	-3518
▁g	-3519
▁कथा	-3520
▁शाह	-3521
▁दायित्व	-3522
यह	-3523
▁आनंद	-3524
▁बैठे	-3525
▁पहाड़	-3526
▁समुदाय	-3527
िफ	-3528
▁जीवित	-3529
▁ढूंढें	-3530
ंठ	-3531
▁चुने	-3532
▁वाक़	-3533
यत	-3534
ामा	-3535
▁आंख	-3536
पट्टी	-3537
ँट	-3538
▁13	-3539
▁एकल	-3540
▁अस्व	-3541
▁ब्राउ	-3542
द्धा	-3543
▁गणना	-3544
▁नंबर	-3545
▁मुश्किल	-3546
▁सुझा	-3547
बेस	-3548
▁अकबर	-3549
पो	-3550
▁पुत्र	-3551
▁परिस्थित	-3552
दिक	-3553
▁कोल	-3554
वर्तन	-3555
▁गंगा	-3556
▁कच	-3557
▁छुपा	-3558
▁सॉफ्ट	-3559
▁औसत	-3560
▁नजर	-3561
▁बिंदु	-3562
▁प्रवाह	-3563
▁दर्शन	-3564
ैसे	-3565
▁हुक्म	-3566
▁मैने	-3567
▁हटाएँ	-3568
▁सम्मेलन	-3569
▁हट	-3570
▁आयोजित	-3571
▁करनेवालों	-3572
गोल	-3573
▁छूट	-3574
▁मनो	-3575
▁क्ला	-3576
▁महिलाओं	-3577
▁कॉन्फ़िगर	-3578
कोश	-3579
▁चलते	-3580
▁खोलने	-3581
▁गणराज्य	-3582
झी	-3583
दूस	-3584
▁धो	-3585
▁मिस	-3586
▁छिपा	-3587
▁बाव	-3588
▁घोषण	-3589
▁भौतिक	-3590
लिक	-3591
लीय	-3592
▁खूब	-3593
▁चिप	-3594
▁आवाज	-3595
▁पाठ्य	-3596
▁छोड़कर	-3597
▁पहल	-3598
▁कठोर	-3599
▁विद्व	-3600
णों	-3601
▁गाय	-3602
▁क्रा	-3603
▁ध्वज	-3604
▁नामः	-3605
▁बनाते	-3606
▁एकत्र	-3607
▁ट्रैक	-3608
▁प्रविष्टि	-3609
▁प्राथमिकता	-3610
▁संक्ष	-3611
नेवालों	-3612
▁प्रार्थ	-3613
ंजन	-3614
▁वाक	-3615
▁हड्ड	-3616
▁ग्राहक	-3617
संग	-3618
साद	-3619
वृत्त	-3620
▁दोस्त	-3621
ॉट	-3622
ंका	-3623
लिप	-3624
▁पंच	-3625
▁अन्तर्	-3626
्यूल	-3627
▁हवाई	-3628
▁शुक्र	-3629
▁सूत्र	-3630
▁क़िस्म	-3631
ेन	-3632
▁नियुक्त	-3633
लैंड	-3634
▁दुख	-3635
▁फिल्म	-3636
च्छे	-3637
▁राजन	-3638
▁कृत	-3639
▁अस्थायी	-3640
▁कितना	-3641
▁बोले	-3642
▁14	-3643
▁तम	-3644
▁दर्ज	-3645
▁अभिव्य	-3646
चीत	-3647
िमी	-3648
▁तकनीकी	-3649
▁बदलाव	-3650
▁भागों	-3651
ायर	-3652
▁कीट	-3653
▁17	-3654
▁फु	-3655
▁गुजरा	-3656
▁गुप्त	-3657
▁वर्षा	-3658
देन	-3659
लेज	-3660
शोथ	-3661
▁सफेद	-3662
qu	-3663
▁दोहरा	-3664
▁ब्रिट	-3665
▁राजनीतिक	-3666
▁प्रेर	-3667
▁सेवाएं	-3668
▁साधन	-3669
▁वितरण	-3670
न्दी	-3671
▁कहो	-3672
▁हाइ	-3673
▁मार्च	-3674
▁लिखें	-3675
0}	-3676
▁कंपन	-3677
▁मैदान	-3678
▁50	-3679
▁195	-3680
▁घोष	-3681
▁अधिस	-3682
▁काव्य	-3683
▁प्रभार	-3684
il	-3685
ंदन	-3686
▁केन्द्रीय	-3687
रज़	-3688
भुत्व	-3689
▁स्वच्छ	-3690
▁सख्त	-3691
▁विवाद	-3692
▁खुशी	-3693
▁शुरु	-3694
▁प्रार्थना	-3695
प्रे	-3696
▁आसानी	-3697
▁युक्त	-3698
▁संघर्ष	-3699
▁प्रभुत्व	-3700
▁सज	-3701
▁आना	-3702
▁कार्यान्व	-3703
जोर	-3704
▁सभ	-3705
▁खुले	-3706
▁बदलने	-3707
▁प्रतीक्षा	-3708
▁जाल	-3709
▁बजाय	-3710
▁कर्मचारी	-3711
रू	-3712
वहन	-3713
वें	-3714
ालत	-3715
▁in	-3716
स्को	-3717
ूंगा	-3718
भाषित	-3719
▁बौद्ध	-3720
▁मिलकर	-3721
थी	-3722
▁नेत्र	-3723
▁दिनांक	-3724
▁दह	-3725
▁साब	-3726
▁नामक	-3727
▁बैंकों	-3728
▁एका	-3729
▁साम्रा	-3730
▁वैश्विक	-3731
▁फ़िर	-3732
▁मेहर	-3733
▁संस्थानों	-3734
▁निभा	-3735
िश्ते	-3736
▁गोल	-3737
▁चीन	-3738
▁आपूर्ति	-3739
दूसरे	-3740
परि	-3741
णिज्य	-3742
▁ब्रिटिश	-3743
▁सत्यापन	-3744
▁विनिमय	-3745
▁शारी	-3746
▁मूल्यांकन	-3747
se	-3748
िकल	-3749
▁चेक	-3750
▁भरो	-3751
▁शुरुआ	-3752
▁चू	-3753
▁मज़	-3754
कृष्ट	-3755
▁त्या	-3756
:%	-3757
▁आह	-3758
िकता	-3759
▁संपूर्ण	-3760
▁पीठ	-3761
▁कहता	-3762
▁बनाकर	-3763
िस्ट	-3764
्यवाद	-3765
▁कर्ता	-3766
▁जुड़े	-3767
▁लोकप्रिय	-3768
▁समी	-3769
▁नज़र	-3770
▁कानूनी	-3771
ँकि	-3772
▁बग	-3773
▁पर्यटन	-3774
fo	-3775
ुत्	-3776
▁आठ	-3777
▁अमरी	-3778
▁ग्रहण	-3779
गढ़	-3780
▁आश्च	-3781
बोर्ड	-3782
▁अमान	-3783
▁अर्था	-3784
▁चाहेंगे	-3785
▁शता	-3786
▁नाज़	-3787
▁देखकर	-3788
▁आउटपुट	-3789
▁बातचीत	-3790
ैम	-3791
▁गैस	-3792
▁पाद	-3793
▁जमीन	-3794
▁दरवा	-3795
▁प्रसंग	-3796
▁विशेषज्ञ	-3797
▁घोषणा	-3798
▁दीर्घ	-3799
▁समस्याओं	-3800
अर	-3801
▁इंटरनेट	-3802
▁बाग	-3803
▁सिक्	-3804
▁100	-3805
▁हिम	-3806
▁देखना	-3807
ैग	-3808
अमत	-3809
▁सबको	-3810
ानु	-3811
▁लिखी	-3812
▁संक्रमण	-3813
ंचे	-3814
नाक	-3815
पों	-3816
▁निरी	-3817
▁पूजा	-3818
▁विवे	-3819
▁बीमार	-3820
▁दिखाने	-3821
▁पर्	-3822
▁फें	-3823
▁अधिसू	-3824
▁कठिना	-3825
▁परिषद	-3826
▁मानसिक	-3827
चरण	-3828
िफ़	-3829
वीडी	-3830
▁ख्या	-3831
▁परेश	-3832
▁आहार	-3833
कना	-3834
▁जटिल	-3835
▁खिसका	-3836
▁पैग़म्बर	-3837
▁सॉफ्टवेयर	-3838
▁५	-3839
चानक	-3840
▁जंग	-3841
▁देवी	-3842
▁यंत्र	-3843
▁हिस्से	-3844
पणी	-3845
▁अरब	-3846
▁दूसरों	-3847
ia	-3848
घटना	-3849
▁गृह	-3850
▁जिनका	-3851
▁पृथ्वी	-3852
▁अज	-3853
▁अदा	-3854
▁इतने	-3855
▁चीनी	-3856
▁ग्राफ	-3857
▁जोड़ने	-3858
क्क	-3859
फ़ा	-3860
▁खराब	-3861
▁हानि	-3862
पथ	-3863
▁रवि	-3864
▁मस्तिष्क	-3865
ड़ने	-3866
▁सहज	-3867
▁अचानक	-3868
em	-3869
ारक	-3870
ियार	-3871
▁सेक	-3872
ing	-3873
ंतरण	-3874
▁ऊँचा	-3875
▁शारीरिक	-3876
▁जय	-3877
च्छेद	-3878
वित्र	-3879
कभी	-3880
द्री	-3881
▁नेहर	-3882
▁बिलकुल	-3883
▁लगातार	-3884
▁वाणिज्य	-3885
▁पाकिस्तान	-3886
शांत	-3887
▁तभी	-3888
ंटा	-3889
▁आश्चर्य	-3890
बीर	-3891
▁नयी	-3892
▁हालांकि	-3893
▁सश	-3894
▁खुला	-3895
▁बाकी	-3896
श्रम	-3897
▁उठाए	-3898
पै	-3899
info	-3900
व्या	-3901
्याण	-3902
▁लेखन	-3903
▁सतह	-3904
▁उपयोगकर्ता	-3905
ोद	-3906
िने	-3907
्रांस	-3908
▁उतार	-3909
▁किलो	-3910
▁सुभाष	-3911
▁बावजूद	-3912
we	-3913
श्छ	-3914
ांक	-3915
▁आल	-3916
▁भय	-3917
▁भरा	-3918
्ष्	-3919
▁आवाज़	-3920
▁हँ	-3921
▁अपरि	-3922
▁चैनल	-3923
▁उन्हीं	-3924
▁सच्चा	-3925
▁हाथों	-3926
▁इलेक्ट	-3927
▁निरंतर	-3928
▁सर्वाधिक	-3929
▁झग	-3930
▁शल	-3931
▁इकट	-3932
▁आग्रह	-3933
▁परिचय	-3934
बरी	-3935
गिज़	-3936
▁194	-3937
▁इंग	-3938
▁कहान	-3939
िटी	-3940
▁देय	-3941
▁दावा	-3942
▁फरमा	-3943
ंछ	-3944
▁मृ	-3945
▁जाकर	-3946
▁l	-3947
▁तौ	-3948
विधि	-3949
िप्त	-3950
▁घरे	-3951
▁इनपुट	-3952
▁नेअमत	-3953
▁संवर्	-3954
ॉँ	-3955
▁द्वि	-3956
▁सड़क	-3957
देह	-3958
▁जून	-3959
▁किसानों	-3960
यम	-3961
ंदी	-3962
ृत्व	-3963
▁दैनिक	-3964
▁बच्चा	-3965
▁इस्लाम	-3966
▁नियमों	-3967
▁दिखायें	-3968
▁विरुद्ध	-3969
▁चै	-3970
ब्दी	-3971
▁W	-3972
▁आयोजन	-3973
▁सर्वे	-3974
▁गतिविधियों	-3975
▁महत्त्वपूर्ण	-3976
िकेट	-3977
▁सौर	-3978
▁इकट्	-3979
▁काला	-3980
▁गवाह	-3981
▁निशानी	-3982
अपने	-3983
▁इन्स	-3984
▁ट्रै	-3985
शाह	-3986
▁शास	-3987
ात्मक	-3988
▁सोचा	-3989
संख्या	-3990
वधि	-3991
▁खेती	-3992
▁विज्ञप्ति	-3993
▁चलाने	-3994
▁अभियान	-3995
▁परिवर्तित	-3996
धों	-3997
▁टन	-3998
▁अनुपात	-3999
▁बुनिया	-4000
क़्त	-4001
▁प्रचार	-4002
▁समाप्ति	-4003
मतौर	-4004
▁अफ़	-4005
▁करार	-4006
▁विभाजन	-4007
दास	-4008
▁कड़ी	-4009
▁भरें	-4010
▁पंजीकरण	-4011
▁क्षेत्रीय	-4012
रस	-4013
वीय	-4014
▁कैं	-4015
▁निपट	-4016
▁प्ला	-4017
▁चिकित्स	-4018
▁पत	-4019
▁भली	-4020
▁हिदाय	-4021
ऊण्	-4022
▁ताप	-4023
▁नाग	-4024
▁प्रद	-4025
ऊण्श्छ	-4026
▁मुझसे	-4027
ऊण्श्छ्ष्	-4028
▁अत	-4029
▁भला	-4030
▁सुल	-4031
▁तारा	-4032
रेख	-4033
20	-4034
▁क्व	-4035
▁दाह	-4036
▁भाषण	-4037
▁अन्तर	-4038
▁प्रदू	-4039
▁पश्चिमी	-4040
▁एक्	-4041
▁आराम	-4042
ow	-4043
भि	-4044
▁पराम	-4045
▁प्रोज	-4046
▁४	-4047
▁गौर	-4048
पेक्ष	-4049
▁शुद्ध	-4050
▁+	-4051
▁मं	-4052
▁चिंता	-4053
▁संस्थापित	-4054
ँग	-4055
▁=	-4056
न्थ	-4057
▁जेल	-4058
▁श्व	-4059
तृत्व	-4060
▁टिप्पणी	-4061
ाब	-4062
▁आमतौर	-4063
▁घरेलू	-4064
▁लिखित	-4065
▁वायदा	-4066
▁मिशन	-4067
▁मॉडल	-4068
▁सीधा	-4069
▁किस्म	-4070
▁फिरऔन	-4071
▁संलग्नक	-4072
▁बत	-4073
▁टिक	-4074
▁खत्म	-4075
▁समाय	-4076
▁६	-4077
▁अश	-4078
▁टीम	-4079
▁चलने	-4080
▁बनने	-4081
▁खिलाफ	-4082
▁स्त्र	-4083
▁लोकतंत्र	-4084
पार	-4085
▁हद	-4086
मात्र	-4087
▁प्री	-4088
▁उत्कृष्ट	-4089
वह	-4090
▁[	-4091
िली	-4092
▁ज़्यादा	-4093
▁ठिका	-4094
▁विभाजित	-4095
▁हालाँकि	-4096
ीनी	-4097
▁गरीब	-4098
▁फ्रे	-4099
▁लगाना	-4100
लील	-4101
▁लक	-4102
डिंग	-4103
▁कल्याण	-4104
▁स्थानों	-4105
▁अंतर्राष्ट्रीय	-4106
सभा	-4107
▁श्वे	-4108
▁प्रिय	-4109
▁निर्वाचन	-4110
खंड	-4111
▁वर	-4112
▁पत्थर	-4113
▁लै	-4114
बाइल	-4115
▁लिमि	-4116
▁संचालन	-4117
▁बुरी	-4118
▁हिदायत	-4119
▁अंतरराष्ट्रीय	-4120
लीफ	-4121
ीदा	-4122
द्दी	-4123
▁कहेंगे	-4124
▁पवित्र	-4125
▁आतंकवाद	-4126
▁देखे	-4127
▁अस्तित्व	-4128
▁साम्राज्य	-4129
अल	-4130
र्र	-4131
▁भेजे	-4132
▁स्वर	-4133
साधारण	-4134
ate	-4135
▁कैसा	-4136
▁बढ़ाने	-4137
▁लिमिटेड	-4138
ण्य	-4139
धीन	-4140
ष्प	-4141
त्कार	-4142
▁अक्ष	-4143
▁अता	-4144
▁घटक	-4145
▁पैके	-4146
▁पुरानी	-4147
▁बढ़ावा	-4148
di	-4149
स्फ	-4150
▁साइट	-4151
▁फैस	-4152
▁दाख	-4153
▁शोध	-4154
डीई	-4155
▁कदा	-4156
▁दृढ़	-4157
▁समर्	-4158
▁प्राण	-4159
शीलता	-4160
▁इसको	-4161
▁जनवरी	-4162
▁भाषाओं	-4163
▁श्रम	-4164
▁सर्वेक्षण	-4165
▁कू	-4166
▁अम्	-4167
.2014	-4168
▁पड़ी	-4169
AT	-4170
▁उत	-4171
▁उतर	-4172
ather	-4173
▁हथ	-4174
▁सें	-4175
ीकृति	-4176
ग्रस्त	-4177
▁परस्पर	-4178
▁भंडारण	-4179
▁प्रारंभिक	-4180
▁24	-4181
▁चुप	-4182
▁आसपास	-4183
▁ऊंचाई	-4184
ME	-4185
▁हिंदी	-4186
निंग	-4187
▁चढ़	-4188
▁सदा	-4189
▁वादा	-4190
▁बुद्ध	-4191
▁लूत	-4192
▁शिशु	-4193
▁नेहरू	-4194
शक	-4195
▁खि	-4196
weather	-4197
▁घड़ी	-4198
▁मछली	-4199
शास्त्र	-4200
▁घो	-4201
▁जरूर	-4202
▁वैसे	-4203
तिहासिक	-4204
▁चुनौती	-4205
▁नाज़िल	-4206
तृ	-4207
▁सर्वोच्च	-4208
एँगे	-4209
कालिक	-4210
स्कृतिक	-4211
▁डीवीडी	-4212
▁इलेक्ट्र	-4213
▁प्रयासों	-4214
▁स्ट्र	-4215
▁शुरुआत	-4216
ालिब	-4217
▁कौशल	-4218
▁स्थाना	-4219
▁समीक्षा	-4220
ag	-4221
ld	-4222
ालिम	-4223
▁विद्यार्थियों	-4224
ुलन	-4225
▁बख	-4226
अपनी	-4227
ष्टा	-4228
▁सजा	-4229
▁नारा	-4230
▁सदस्यता	-4231
▁दुर्घटना	-4232
▁“%	-4233
म्मत	-4234
▁वंश	-4235
▁फोटो	-4236
▁त्याग	-4237
et	-4238
शनल	-4239
्यूट	-4240
▁तकनीक	-4241
सीय	-4242
लिया	-4243
▁लंबे	-4244
▁शक्त	-4245
▁समन्व	-4246
वासियों	-4247
ल्लाह	-4248
तीत	-4249
▁शख	-4250
▁पट्ट	-4251
▁लाया	-4252
▁सैनिक	-4253
पल	-4254
▁तस	-4255
द्यपि	-4256
▁करेंः	-4257
▁प्रतिनिध	-4258
जनन	-4259
लाब	-4260
्टा	-4261
▁शख्स	-4262
ग्ध	-4263
▁जला	-4264
▁रेश	-4265
▁डरते	-4266
ामान्य	-4267
▁प्रभुत्वशाली	-4268
▁मानो	-4269
▁लेबल	-4270
▁आज्ञा	-4271
▁परिवहन	-4272
गन	-4273
▁r	-4274
▁घुमा	-4275
▁वर्गी	-4276
▁आकर्षित	-4277
▁गौ	-4278
ख़्श	-4279
वान्व	-4280
स्लिम	-4281
▁लोगो	-4282
ड़ियों	-4283
▁नौकरी	-4284
▁नियंत्रित	-4285
ंसी	-4286
▁बाह्य	-4287
▁प्रेरित	-4288
▁प्रोजेक्ट	-4289
ेंज	-4290
▁नक	-4291
▁खान	-4292
▁पिछला	-4293
▁चो	-4294
▁आँक	-4295
▁अनुस्म	-4296
▁संध्या	-4297
डु	-4298
▁यौ	-4299
प्रति	-4300
▁प्लस	-4301
▁यद्यपि	-4302
▁परामर्श	-4303
▁डो	-4304
घर	-4305
▁निच	-4306
▁औजार	-4307
▁संकट	-4308
परीत	-4309
▁निगर	-4310
▁सिखा	-4311
▁अनुरूप	-4312
▁एंड	-4313
▁भेंट	-4314
▁लौटा	-4315
▁क्रमा	-4316
▁अनुरोध	-4317
▁द्वितीय	-4318
उंड	-4319
▁रजि	-4320
मानी	-4321
माने	-4322
▁अग्	-4323
▁टर्म	-4324
▁ग्रंथ	-4325
▁परमाण	-4326
▁पसंदीदा	-4327
डि	-4328
ॉलर	-4329
ैर्य	-4330
्राव	-4331
▁चेह	-4332
▁ट्रे	-4333
▁तरफ़	-4334
▁उद्यान	-4335
क़ी	-4336
▁दंड	-4337
▁यून	-4338
मार्ग	-4339
▁उड़ा	-4340
▁उदार	-4341
▁भरोसा	-4342
▁प्रशांत	-4343
मै	-4344
शित	-4345
▁मौत	-4346
▁प्रोत्साहन	-4347
गमन	-4348
त्तम	-4349
▁पति	-4350
▁परत	-4351
▁दोनो	-4352
▁नवीन	-4353
▁उठाया	-4354
▁जितना	-4355
▁शिकार	-4356
▁विपरीत	-4357
▁एह	-4358
ूर्ण	-4359
▁बाँ	-4360
▁सब्	-4361
.5	-4362
दंड	-4363
▁कुशल	-4364
▁रेलवे	-4365
▁नुक	-4366
सायिक	-4367
▁चेहरे	-4368
▁ग़ालिब	-4369
▁मिलेगा	-4370
ng	-4371
▁नूह	-4372
श्मीर	-4373
▁दिला	-4374
▁माबू	-4375
▁वहीं	-4376
▁ज़ालिम	-4377
▁ऑफ़लाइन	-4378
▁श्रृंखला	-4379
जल	-4380
।-	-4381
▁परम	-4382
▁किसान	-4383
▁चुकता	-4384
▁पंजाब	-4385
▁प्यार	-4386
▁सांस्कृतिक	-4387
बो	-4388
▁आवास	-4389
▁साबित	-4390
▁शताब्दी	-4391
टो	-4392
बीह	-4393
िनल	-4394
नेवाली	-4395
▁उन्होने	-4396
-8	-4397
भाविक	-4398
▁तेरे	-4399
▁औज़ार	-4400
▁पर्वत	-4401
▁सिवाय	-4402
▁महाराष्ट्र	-4403
....	-4404
▁इंजी	-4405
▁उधार	-4406
िश्तों	-4407
▁संबोध	-4408
फ़ार	-4409
▁पान	-4410
▁विजय	-4411
▁यक़ीनी	-4412
▁निगरानी	-4413
▁परिस्थितियों	-4414
AN	-4415
नल	-4416
धारा	-4417
▁जड़	-4418
▁फ्र	-4419
शक्ति	-4420
▁पौधे	-4421
▁साझी	-4422
▁मार्गदर्शन	-4423
ाक	-4424
सेस	-4425
▁एल्	-4426
▁इनका	-4427
▁जाएं	-4428
ुस्तान	-4429
▁दाखिल	-4430
▁धन्यवाद	-4431
de	-4432
ur	-4433
▁परहे	-4434
▁साझा	-4435
▁प्रका	-4436
▁लेंगे	-4437
▁छि	-4438
▁झि	-4439
▁शौ	-4440
सेंस	-4441
▁करवा	-4442
▁क़ुरआन	-4443
▁करनेवाले	-4444
ायी	-4445
न्या	-4446
▁उगा	-4447
▁तला	-4448
▁मंच	-4449
नात्मक	-4450
▁थोड़ी	-4451
▁उपर	-4452
▁सिल	-4453
▁पार्	-4454
▁क्लिप	-4455
ूबर	-4456
▁बोझ	-4457
▁ठिकाना	-4458
▁वचन	-4459
▁हमे	-4460
▁V	-4461
पक्ष	-4462
▁छाया	-4463
▁जीवा	-4464
▁स्वस्थ	-4465
नाएं	-4466
शंकर	-4467
▁ग्री	-4468
▁देकर	-4469
▁शल्य	-4470
▁जाएंगे	-4471
▁सामर्थ	-4472
▁उत्पादों	-4473
▁जनसंख्या	-4474
ईल	-4475
▁to	-4476
▁पूर्वी	-4477
धीश	-4478
▁घु	-4479
ार्ज	-4480
▁गंत	-4481
गारों	-4482
▁प्रच	-4483
▁सागर	-4484
▁सौंप	-4485
▁मई	-4486
ेंडर	-4487
▁विरा	-4488
▁खोजें	-4489
▁अन्ततः	-4490
▁ऐतिहासिक	-4491
विल	-4492
लामी	-4493
वर्ष	-4494
शासन	-4495
र्ज	-4496
ाले	-4497
▁गिन	-4498
▁बारी	-4499
▁सकाः	-4500
▁मोबाइल	-4501
▁बुनियादी	-4502
!"	-4503
पाई	-4504
्यास	-4505
▁चाय	-4506
▁पाइ	-4507
▁सेल	-4508
▁कर्ण	-4509
▁परहेज़	-4510
▁कोशिकाओं	-4511
राम	-4512
ोपीय	-4513
▁आपस	-4514
▁गें	-4515
▁भरी	-4516
▁कॉपी	-4517
▁जाओगे	-4518
▁तुरंत	-4519
▁हरगिज़	-4520
▁राजधानी	-4521
▁प्रावधान	-4522
िरी	-4523
वायु	-4524
▁स्वि	-4525
▁भेजने	-4526
▁सन	-4527
▁भेद	-4528
▁कचरा	-4529
स्ट्रे	-4530
▁अप्रैल	-4531
▁नुकसान	-4532
▁नेतृत्व	-4533
▁प्रतिभा	-4534
▁संबंधों	-4535
▁विद्यमान	-4536
पसंद	-4537
रेखा	-4538
▁टाइप	-4539
▁साथी	-4540
▁इंजीन	-4541
▁हिंदू	-4542
▁जादूगर	-4543
ंगिक	-4544
▁लिखे	-4545
▁सरकश	-4546
▁प्रथा	-4547
▁आकाशों	-4548
यण	-4549
▁</	-4550
▁पलट	-4551
▁संगण	-4552
▁अस्थि	-4553
▁केडीई	-4554
▁फोल्डर	-4555
▁यथ	-4556
ब्रे	-4557
ॉर्ड	-4558
ोबार	-4559
▁for	-4560
▁कार्	-4561
▁तमिल	-4562
▁स्मार	-4563
क्सा	-4564
पचार	-4565
▁सचि	-4566
▁कागज	-4567
▁पैसे	-4568
▁आख़िरत	-4569
oo	-4570
▁सै	-4571
िस्त	-4572
▁मुद्	-4573
▁श्रेष्ठ	-4574
30	-4575
▁टूट	-4576
▁लंबाई	-4577
▁क़ुरान	-4578
्लो	-4579
▁जम	-4580
▁अर्ध	-4581
▁तमाम	-4582
दुनिया	-4583
▁ब्राह	-4584
कीन	-4585
मूल	-4586
धारी	-4587
राशि	-4588
▁बोली	-4589
▁मामला	-4590
▁चन्द्र	-4591
▁निशानियाँ	-4592
ब्ल	-4593
कर्ष	-4594
▁लंबी	-4595
▁वरीय	-4596
वान्वेष	-4597
▁प्रेरण	-4598
ड़ित	-4599
वियों	-4600
▁लगाए	-4601
▁वार्	-4602
▁संसाधनों	-4603
OR	-4604
म्मद	-4605
वर्त	-4606
▁देखता	-4607
▁इन्सान	-4608
▁निकाला	-4609
णिक	-4610
▁नद	-4611
▁अदालत	-4612
▁धैर्य	-4613
▁लिखना	-4614
▁शुभकाम	-4615
▁प्रसन्नता	-4616
▁गै	-4617
▁नाट	-4618
▁यूआर	-4619
पेश	-4620
▁आलो	-4621
▁चतु	-4622
▁नार	-4623
ऊँ	-4624
मण	-4625
▁मक	-4626
▁कीजिए	-4627
▁पैकेज	-4628
▁उत्साह	-4629
▁qu	-4630
▁दिस	-4631
▁होम	-4632
▁गर्म	-4633
▁जल्द	-4634
▁धातु	-4635
▁अंतराल	-4636
ुरी	-4637
बादत	-4638
▁देखी	-4639
▁मनपसंद	-4640
▁फ़ाइलों	-4641
▁मुस्लिम	-4642
फ़र	-4643
▁छह	-4644
कार्य	-4645
▁शख़्श	-4646
▁अमेरिक	-4647
▁197	-4648
▁अंतः	-4649
▁जहाज	-4650
▁मूर्ति	-4651
▁y	-4652
्वाह	-4653
▁समाह	-4654
▁नैतिक	-4655
▁पौधों	-4656
▁समक्ष	-4657
▁कमरे	-4658
▁गंतव्य	-4659
श्म	-4660
▁रौ	-4661
▁तिर	-4662
ँति	-4663
टेन	-4664
▁पाते	-4665
क़यामत	-4666
▁गिरोह	-4667
▁उत्तरी	-4668
▁लाइसेंस	-4669
शेष	-4670
▁वस	-4671
▁जैव	-4672
▁कराने	-4673
▁सावधान	-4674
फार	-4675
▁आश	-4676
परिक	-4677
▁गठन	-4678
▁कर्त	-4679
▁प्लगिन	-4680
▁साव	-4681
▁तुर्	-4682
▁उपस्थिति	-4683
▁प्रतियोग	-4684
▁com	-4685
▁एयर	-4686
शिष्ट	-4687
▁अधिसूचना	-4688
▁नवान्वेष	-4689
ॉक्स	-4690
▁अहम	-4691
▁उपा	-4692
▁फाय	-4693
▁ऊपरी	-4694
▁डॉलर	-4695
▁नेपाल	-4696
▁टू	-4697
▁बनाता	-4698
▁विनिर्	-4699
▁व्यावसायिक	-4700
डो	-4701
ासा	-4702
लिपि	-4703
▁नृत	-4704
▁दूरस्थ	-4705
▁व्युत्	-4706
▁शिक्षक	-4707
रम	-4708
केल	-4709
र्ती	-4710
▁पाक	-4711
▁फैल	-4712
▁कारक	-4713
▁उठाने	-4714
▁मुखर्जी	-4715
▁the	-4716
क्षिक	-4717
▁अभिक	-4718
▁पाँच	-4719
▁अध्याय	-4720
▁कनेक्ट	-4721
▁परमाणु	-4722
▁परियोजनाओं	-4723
एच	-4724
ैश	-4725
▁यो	-4726
▁ग़रज़	-4727
धक	-4728
ज्ज	-4729
▁महल	-4730
▁तोड़	-4731
▁यूनि	-4732
▁श्वेत	-4733
▁अभिव्यक्ति	-4734
त्स	-4735
लाइ	-4736
ंख्य	-4737
जीवी	-4738
▁quot	-4739
▁जुड़ा	-4740
ist	-4741
ंक्शन	-4742
▁दौड़	-4743
▁बुराई	-4744
▁चरित्र	-4745
▁21	-4746
▁हुक	-4747
▁खण्ड	-4748
▁दिमा	-4749
▁तारीख	-4750
किस	-4751
ज़ू	-4752
▁काफ़ी	-4753
स्तियों	-4754
▁आक्रमण	-4755
▁सभ्यता	-4756
▁समाहित	-4757
▁नु	-4758
ष्ठा	-4759
▁प्रशंसा	-4760
वती	-4761
दूरी	-4762
▁अली	-4763
▁सलाम	-4764
यो	-4765
▁आकर	-4766
▁इनकी	-4767
▁दोबारा	-4768
दीय	-4769
▁ठोस	-4770
▁गर्भ	-4771
▁आमंत्र	-4772
▁समृद्ध	-4773
▁बैंकिंग	-4774
SL	-4775
दल	-4776
▁चोट	-4777
▁आरोप	-4778
▁जिले	-4779
पत	-4780
ेस	-4781
▁UR	-4782
▁काली	-4783
▁ग्रे	-4784
▁अगस्त	-4785
▁क़यामत	-4786
▁बिन्दु	-4787
▁निरीक्षण	-4788
▁निः	-4789
▁सहे	-4790
▁गूगल	-4791
▁कार्ब	-4792
▁औषध	-4793
क्षेप	-4794
▁दयाल	-4795
▁कमजोर	-4796
▁ख्याल	-4797
▁सुझाव	-4798
▁उत्तरा	-4799
▁दयावान	-4800
▁प्रतीत	-4801
▁प्रकाशन	-4802
▁प्रोटोक	-4803
▁मुसलमानों	-4804
us	-4805
पेट	-4806
्मण	-4807
▁198	-4808
▁डिब	-4809
▁अंकित	-4810
▁चाहती	-4811
▁जोड़ा	-4812
▁ज्ञात	-4813
▁अन्तर्गत	-4814
तरी	-4815
ाये	-4816
स्ट्र	-4817
▁जर्म	-4818
▁जिसको	-4819
▁निहित	-4820
▁पत्रिका	-4821
ेश्वर	-4822
▁इबादत	-4823
▁क्रिकेट	-4824
मरा	-4825
स्थल	-4826
▁संदेह	-4827
▁यूरोपीय	-4828
▁स्वीकृति	-4829
▁खर	-4830
▁गार	-4831
▁ज़ु	-4832
▁वीर	-4833
▁अगली	-4834
▁लगते	-4835
▁राजस्थान	-4836
▁पाठ्यक्रम	-4837
▁असर	-4838
▁साफ़	-4839
▁हाथी	-4840
▁मिलते	-4841
▁व्यस्त	-4842
▁संविदा	-4843
▁संक्षिप्त	-4844
50	-4845
स्पति	-4846
▁खुली	-4847
▁बांध	-4848
▁स्तन	-4849
▁कुमार	-4850
▁तथापि	-4851
▁प्रचलित	-4852
ट्स	-4853
▁बेटे	-4854
▁मुद्द	-4855
▁कार्यक्रमों	-4856
आउट	-4857
मुच	-4858
िपी	-4859
▁पट	-4860
▁शक़	-4861
▁संजाल	-4862
▁रूपांत	-4863
▁प्रयोक्ता	-4864
षक	-4865
प्ल	-4866
लोग	-4867
ान्	-4868
द्वीप	-4869
▁ख़ूब	-4870
▁अभिगम	-4871
▁प्रतिनिधित्व	-4872
▁वेद	-4873
▁मादा	-4874
▁साझे	-4875
ion	-4876
दायक	-4877
पिता	-4878
▁अन्दर	-4879
▁सारणी	-4880
▁गुजरात	-4881
▁ऊँचाई	-4882
▁जिनकी	-4883
▁अनुसरण	-4884
▁वरीयता	-4885
▁अस्पताल	-4886
बै	-4887
ण्ट	-4888
▁बजट	-4889
▁अभिय	-4890
▁जुलाई	-4891
▁राजनैतिक	-4892
याल	-4893
ोरि	-4894
त्ती	-4895
▁पॉल	-4896
▁इमार	-4897
▁बैठा	-4898
▁महात्मा	-4899
▁स्वाभाविक	-4900
▁लार	-4901
▁इलाज	-4902
▁सचमुच	-4903
प्राप्त	-4904
▁घटनाओं	-4905
▁मूल्यों	-4906
▁झुठलाओगे	-4907
▁ऊतक	-4908
▁हार्	-4909
कर्ताओं	-4910
▁नकारात्मक	-4911
कू	-4912
▁शान	-4913
▁गिरा	-4914
▁मध्यम	-4915
▁माबूद	-4916
▁छोड़ें	-4917
एगा	-4918
चार्य	-4919
न्दगी	-4920
▁स्वर्ण	-4921
▁सामान्यतः	-4922
▁चली	-4923
▁प्रॉ	-4924
▁बन्दे	-4925
फू	-4926
मती	-4927
िज़	-4928
▁असल	-4929
▁कोय	-4930
▁गुफा	-4931
▁समझौता	-4932
-0	-4933
▁रण	-4934
▁अवय	-4935
▁सचे	-4936
वास्त	-4937
▁सुनने	-4938
▁स्वाद	-4939
▁आयी	-4940
▁फ़ैस	-4941
▁बैकअप	-4942
▁प्रस्तु	-4943
▁पॉ	-4944
▁पेज	-4945
तियां	-4946
▁होंगी	-4947
▁निदेशक	-4948
▁मिटाना	-4949
▁नागरिकों	-4950
जान	-4951
पूर	-4952
▁झील	-4953
▁मुकद	-4954
▁अग्नि	-4955
▁आरम्भ	-4956
▁उन्नत	-4957
▁आंकड़ा	-4958
▁रिकार्ड	-4959
▁समुद्री	-4960
कल्प	-4961
▁आज़	-4962
▁घोषित	-4963
▁मासिक	-4964
▁जायेगी	-4965
▁पक्षों	-4966
▁राजनीति	-4967
गरी	-4968
▁बढ़ती	-4969
▁प्रेरणा	-4970
इल	-4971
क्कर	-4972
ेंद्र	-4973
▁तथ्य	-4974
▁दबाव	-4975
▁सृजन	-4976
▁समझने	-4977
▁ड्राइव	-4978
▁याचिका	-4979
▁विरोधी	-4980
▁आओ	-4981
निया	-4982
▁बनाये	-4983
▁कहला	-4984
▁जागर	-4985
▁ब्रे	-4986
▁पेंशन	-4987
▁प्रत्या	-4988
▁प्रयत्न	-4989
).	-4990
सायन	-4991
▁ख़ास	-4992
हो	-4993
फ़िर	-4994
▁मंज	-4995
▁सामर्थ्य	-4996
▁क़ा	-4997
▁दुः	-4998
▁पारि	-4999
▁नृत्य	-5000
▁पूज्य	-5001
▁लड़की	-5002
▁शहरों	-5003
ेय	-5004
▁कलक	-5005
▁पाप	-5006
क़रीब	-5007
क्ष्य	-5008
▁पोस्ट	-5009
▁शुभकामनाएं	-5010
खन	-5011
▁Z	-5012
पणन	-5013
▁केरल	-5014
▁चीज़ों	-5015
▁बन्दगी	-5016
▁23	-5017
▁con	-5018
▁{0}	-5019
▁हरि	-5020
▁अरबी	-5021
▁कहां	-5022
प्रदाय	-5023
▁दिलों	-5024
▁पिछली	-5025
▁संदेशों	-5026
▁re	-5027
▁मकान	-5028
▁करेगी	-5029
माल	-5030
▁कम्पनी	-5031
▁सफलतापूर्वक	-5032
साम	-5033
▁रेड	-5034
▁ज्या	-5035
क्की	-5036
▁इंद	-5037
▁घरों	-5038
▁बख्श	-5039
▁टर्मिनल	-5040
▁संबोधित	-5041
▁।	-5042
▁आब	-5043
▁पढ	-5044
▁बचत	-5045
▁गुजर	-5046
▁बाज़	-5047
▁मुर्	-5048
▁जानने	-5049
▁ज़िम्मे	-5050
yp	-5051
▁v	-5052
टाई	-5053
बाल	-5054
▁चमक	-5055
पोर्ट	-5056
▁इसने	-5057
▁मज़ा	-5058
▁लड़ाई	-5059
घाटन	-5060
सनीय	-5061
▁तुझे	-5062
▁फ्रेम	-5063
▁शास्त	-5064
▁रेडियो	-5065
▁उद्योगों	-5066
▁X	-5067
▁अय	-5068
▁जू	-5069
▁घूम	-5070
▁अभाव	-5071
▁शहरी	-5072
▁प्रयोजन	-5073
वश	-5074
▁अका	-5075
▁दशक	-5076
▁हरे	-5077
▁जंगल	-5078
▁टॉगल	-5079
▁बाधा	-5080
▁कक्षा	-5081
▁फ़िरऔन	-5082
▁राज्यपाल	-5083
25	-5084
काब	-5085
प्ट	-5086
▁अभिन	-5087
▁आखिर	-5088
▁कराया	-5089
▁रहस्य	-5090
▁भागीदारी	-5091
▁प्रवृत्ति	-5092
iv	-5093
ार्ट	-5094
▁दान	-5095
▁बचाव	-5096
▁जानवरों	-5097
कन	-5098
टि	-5099
थे	-5100
रत	-5101
कृष्ण	-5102
▁रिया	-5103
▁रोज़	-5104
पचारिक	-5105
▁फार्म	-5106
▁बाध्य	-5107
▁स्वाम	-5108
▁गिरफ्त	-5109
▁वार्ता	-5110
ड़िया	-5111
▁शिखर	-5112
▁विनष्ट	-5113
▁ग्राहकों	-5114
▁रिस	-5115
▁मेमो	-5116
▁विधे	-5117
▁आनन्द	-5118
▁सर्वोत्तम	-5119
ंशिक	-5120
पादित	-5121
▁सराह	-5122
▁सहकारी	-5123
▁स्टेशन	-5124
▁प्रदर्शक	-5125
200	-5126
▁इंत	-5127
▁लाते	-5128
स्पर्	-5129
▁उद्ध	-5130
▁नस्ल	-5131
च्छेदन	-5132
▁सुविधाएं	-5133
ad	-5134
सोस	-5135
▁काउ	-5136
▁रोकने	-5137
▁विद्या	-5138
▁दर्शाता	-5139
▁असामान्य	-5140
▁प्रतिभूति	-5141
ञ्	-5142
▁नल	-5143
▁उसपर	-5144
▁पार्क	-5145
▁सम्पर्क	-5146
▁परिभाषित	-5147
▁शीर्षिका	-5148
th	-5149
ुरा	-5150
▁जलवायु	-5151
▁स्क्रिप्ट	-5152
▁जीन	-5153
▁बढा	-5154
▁बोला	-5155
▁रानी	-5156
▁सूजन	-5157
ंत्रिक	-5158
▁समस्त	-5159
▁इंडियन	-5160
▁मेहरबान	-5161
▁प्रतियोगिता	-5162
▁आफ	-5163
▁तेरी	-5164
▁शत्र	-5165
सेल	-5166
्रीम	-5167
▁मुंह	-5168
▁मूर्	-5169
▁मजदूर	-5170
▁पुष्टि	-5171
न्द्रनाथ	-5172
▁क्लिपबोर्ड	-5173
ेंसी	-5174
▁हां	-5175
▁द्विप	-5176
▁रद्दी	-5177
▁तत्काल	-5178
▁मुक़ाब	-5179
▁मान्यता	-5180
▁न्यायाधीश	-5181
▁पड	-5182
प्रभु	-5183
▁बादशाह	-5184
▁प्रॉक्सी	-5185
मंडल	-5186
ार्थी	-5187
▁ताकत	-5188
▁ज़रुर	-5189
▁विपणन	-5190
col	-5191
जाम	-5192
रार	-5193
▁अं	-5194
▁सज़ा	-5195
▁गर्भा	-5196
▁तत्वदर्शी	-5197
and	-5198
ायें	-5199
▁दुर	-5200
.2015	-5201
▁संगम	-5202
▁विफलः	-5203
▁अनुदान	-5204
▁अनुच्छेद	-5205
ेड	-5206
▁इक	-5207
▁खून	-5208
▁रास	-5209
▁अनाज	-5210
▁एकता	-5211
▁छोड़ा	-5212
▁अग्रिम	-5213
▁आँकड़ा	-5214
▁जहन्नम	-5215
▁राजस्व	-5216
▁सारांश	-5217
▁अनक़रीब	-5218
▁कामना	-5219
▁नमूना	-5220
▁छुपाएँ	-5221
▁कंपनियों	-5222
▁निष्पादन	-5223
्रोल	-5224
▁ढूँ	-5225
▁नोक	-5226
▁रवी	-5227
▁सकी	-5228
भाँति	-5229
▁चिन्ह	-5230
▁लकड़ी	-5231
▁सरदार	-5232
पद	-5233
▁बेल	-5234
▁पहलू	-5235
▁लगती	-5236
▁छात्रों	-5237
▁प्रतिबंध	-5238
नाटक	-5239
नीति	-5240
▁ईंट	-5241
▁बोस	-5242
▁भाष्	-5243
▁मधुम	-5244
▁संस्थाओं	-5245
जक	-5246
ॉग	-5247
▁i	-5248
▁उर्	-5249
▁नक्	-5250
▁क्यू	-5251
▁दादा	-5252
▁पीने	-5253
▁खिलाड़ी	-5254
ेरे	-5255
रीबी	-5256
▁मीम	-5257
ख्यात	-5258
▁इसपर	-5259
▁मिलेगी	-5260
▁शैक्षिक	-5261
▁भरे	-5262
▁आपसे	-5263
▁भावी	-5264
▁अकेले	-5265
्मी	-5266
▁आईडी	-5267
▁उतना	-5268
▁गेंद	-5269
▁हार्ड	-5270
स्थापित	-5271
▁कठिनाई	-5272
▁कार्यान्वयन	-5273
▁प्रोत्साहित	-5274
ाइट	-5275
▁40	-5276
▁डेल	-5277
▁शोर	-5278
फ़ाइल	-5279
वस्तु	-5280
▁गहराई	-5281
ढ़े	-5282
▁राजक	-5283
▁लिंग	-5284
▁कपड़े	-5285
▁इकट्ठा	-5286
▁रॉ	-5287
▁ठहर	-5288
▁पंख	-5289
▁अंतरण	-5290
▁आयतें	-5291
▁कदापि	-5292
▁कुरान	-5293
▁समीकरण	-5294
▁प्रबन्ध	-5295
oc	-5296
उप	-5297
▁आदम	-5298
▁लिप	-5299
▁बढ़कर	-5300
▁प्रेषक	-5301
▁मुक़र्र	-5302
▁प्रतिलिपि	-5303
मति	-5304
ज्जा	-5305
विदा	-5306
▁गाँ	-5307
▁जरिए	-5308
▁संगठ	-5309
अल्लाह	-5310
▁डालें	-5311
▁समझता	-5312
▁प्रारम्भ	-5313
▁स्पष्टीकरण	-5314
ंची	-5315
तिज	-5316
लिंग	-5317
▁ऑंख	-5318
▁कुफ्	-5319
स्तानी	-5320
▁आध्या	-5321
▁चीजों	-5322
▁विद्र	-5323
▁व्यापारी	-5324
▁सुविधाओं	-5325
लास	-5326
ोजी	-5327
▁कही	-5328
▁प्रदूषण	-5329
भ्र	-5330
ष्म	-5331
ैण्ड	-5332
▁शोक	-5333
▁दिलच	-5334
ब्रेरी	-5335
▁फैसला	-5336
▁स्क्र	-5337
▁अंतरिक्ष	-5338
▁28	-5339
▁फट	-5340
▁तैय	-5341
▁पॉप	-5342
▁बुल	-5343
▁मंड	-5344
▁जोड़े	-5345
▁दुकान	-5346
▁मानना	-5347
▁गुमराह	-5348
RAN	-5349
लेखन	-5350
▁झूठ	-5351
▁दांत	-5352
▁होस्ट	-5353
▁विषयों	-5354
थान	-5355
▁22	-5356
▁26	-5357
▁मारे	-5358
▁यहीं	-5359
पालिका	-5360
▁एकमात्र	-5361
▁सम्पूर्ण	-5362
विन	-5363
िश्र	-5364
▁अमर	-5365
▁गर्मी	-5366
▁समग्र	-5367
▁इसीलिए	-5368
▁दुर्भाग्य	-5369
▁OF	-5370
न्तर	-5371
▁193	-5372
▁कंट	-5373
रूपित	-5374
▁सांस	-5375
▁दिखाता	-5376
▁प्रजनन	-5377
पह	-5378
his	-5379
डकर	-5380
लाक	-5381
▁be	-5382
धीरे	-5383
बादी	-5384
अज़ाब	-5385
▁आवरण	-5386
▁दिखाना	-5387
▁प्रयोज	-5388
▁प्रिंटर	-5389
▁चिकित्सक	-5390
दरत	-5391
वाँ	-5392
िटल	-5393
▁चाँ	-5394
▁बडी	-5395
▁उन्न	-5396
▁चढ़ा	-5397
▁बतौर	-5398
▁रसायन	-5399
सो	-5400
णीय	-5401
▁27	-5402
धर्म	-5403
▁खड़ी	-5404
▁मातृ	-5405
▁फिल्टर	-5406
▁परिभाषा	-5407
ूली	-5408
▁कड़	-5409
▁गुणा	-5410
▁बाबू	-5411
▁सीधी	-5412
▁ज़ुल्म	-5413
▁सावधानी	-5414
hat	-5415
वारी	-5416
िकीय	-5417
ोपित	-5418
▁सबके	-5419
▁ब्रह्म	-5420
▁पंजीकृत	-5421
▁आध्यात्म	-5422
▁परिणामस्वरूप	-5423
ay	-5424
फलक	-5425
ैया	-5426
राही	-5427
▁दास	-5428
▁साध	-5429
▁TRAN	-5430
▁नकदी	-5431
▁श्रो	-5432
वास्तव	-5433
▁बस्ती	-5434
▁मूलभूत	-5435
ATOR	-5436
माना	-5437
▁ढेर	-5438
▁पुराना	-5439
▁अनुक्रम	-5440
▁माइक्रो	-5441
▁संक्रिया	-5442
खो	-5443
कां	-5444
ब्ब	-5445
्यौ	-5446
ATORS	-5447
▁कष्ट	-5448
▁घाटी	-5449
▁पेशी	-5450
▁लिपि	-5451
SLATORS	-5452
▁अमेरिकी	-5453
▁कलकत्ता	-5454
▁TRANSLATORS	-5455
▁अँ	-5456
▁त्रि	-5457
▁वांछ	-5458
▁पंक्त	-5459
▁प्रेस	-5460
▁समर्पित	-5461
ंटन	-5462
▁अट	-5463
जीवन	-5464
▁वकी	-5465
▁सेंट	-5466
▁बिहार	-5467
▁वनस्पति	-5468
▁प्रतिदिन	-5469
अन	-5470
माइ	-5471
▁आनु	-5472
▁दीन	-5473
▁अंडे	-5474
▁कहेगा	-5475
▁जायें	-5476
▁संवेदन	-5477
▁नियुक्ति	-5478
फु	-5479
पटल	-5480
ंचित	-5481
▁पैसा	-5482
▁राहत	-5483
▁इन्कार	-5484
▁वस्त्र	-5485
▁विद्यालय	-5486
शिता	-5487
ाहिर	-5488
▁करू	-5489
▁आएगा	-5490
▁शांत	-5491
▁of	-5492
//	-5493
समय	-5494
दायी	-5495
म्पा	-5496
▁आलेख	-5497
▁ट्यू	-5498
▁स्ला	-5499
▁देवता	-5500
▁हत्या	-5501
ंधन	-5502
▁तिल	-5503
▁संकल्प	-5504
▁कर्तव्य	-5505
▁जिम्मेदारी	-5506
्ता	-5507
▁कैंसर	-5508
क़ुर	-5509
▁ताज	-5510
▁बर्फ	-5511
▁बरसात	-5512
▁अभ्यास	-5513
▁पूर्ति	-5514
▁विविधता	-5515
mp	-5516
िसी	-5517
ोत्तर	-5518
▁एकदम	-5519
▁माउस	-5520
▁समित	-5521
▁बढ़ने	-5522
▁मोमिन	-5523
▁रहेगी	-5524
▁संवर्धन	-5525
र्फ़	-5526
▁एन्	-5527
▁जीत	-5528
ग्राम	-5529
▁सोने	-5530
▁गुज़र	-5531
▁पहाड़ी	-5532
▁विरासत	-5533
▁योग्यता	-5534
▁स्त्रियों	-5535
नाश	-5536
▁चिंत	-5537
▁आँखों	-5538
▁टुकड़े	-5539
▁मेमोरी	-5540
▁हिमालय	-5541
▁पुस्तकाल	-5542
ामिन	-5543
निष्ठ	-5544
▁अपमान	-5545
▁पड़ेगा	-5546
▁क्रांति	-5547
▁प्रोटोकॉल	-5548
ैतिज	-5549
ॉनिक	-5550
▁फुट	-5551
्रेता	-5552
▁समानता	-5553
▁असाधारण	-5554
▁पदार्थों	-5555
डन	-5556
ज़िर	-5557
सागर	-5558
सीसी	-5559
ैक्ट	-5560
.2016	-5561
पूर्ति	-5562
ind	-5563
ूंकि	-5564
▁अजी	-5565
▁पोल	-5566
▁विट	-5567
▁गहरी	-5568
▁चिपका	-5569
िपीडिया	-5570
▁गांवों	-5571
▁खिसकाएँ	-5572
दरा	-5573
हाल	-5574
क्राम	-5575
▁डोमेन	-5576
▁अपनाया	-5577
▁तापमान	-5578
▁कर्नाटक	-5579
▁मुक़र्रर	-5580
age	-5581
फाई	-5582
▁घन	-5583
ंदगी	-5584
लाना	-5585
▁मरा	-5586
▁भक्ति	-5587
कने	-5588
नाह	-5589
सीन	-5590
लांग	-5591
▁तरल	-5592
▁मुम	-5593
▁बांग	-5594
▁इंग्ल	-5595
▁धारणा	-5596
क्षीय	-5597
▁चुनौ	-5598
▁साहब	-5599
▁चूंकि	-5600
▁पालने	-5601
▁डिग्री	-5602
▁translat	-5603
चु	-5604
कुछ	-5605
ेरा	-5606
एमएल	-5607
▁कुम	-5608
▁घास	-5609
▁मला	-5610
▁रिम	-5611
▁काले	-5612
▁पोषण	-5613
▁चाहें	-5614
▁निगाह	-5615
▁स्टेट	-5616
▁कश्मीर	-5617
MA	-5618
यिक	-5619
साइ	-5620
त्रिम	-5621
▁कराना	-5622
▁योजनाओं	-5623
डीएफ	-5624
▁2000	-5625
▁सुदृ	-5626
▁अवरोध	-5627
▁आकृति	-5628
▁दीजिए	-5629
▁फ्लैग	-5630
▁भत्ता	-5631
▁पहुँचे	-5632
▁प्रेमच	-5633
▁संबद्ध	-5634
▁समूहों	-5635
ch	-5636
AME	-5637
चाप	-5638
▁नो	-5639
▁इरा	-5640
▁बहुम	-5641
▁मुगल	-5642
▁चलाएँ	-5643
▁प्रसं	-5644
▁स्तम्भ	-5645
▁डाटाबेस	-5646
वत्	-5647
ैंक	-5648
प्रद	-5649
▁आवृ	-5650
▁लेती	-5651
▁पैमाने	-5652
▁मानवीय	-5653
▁मिश्रण	-5654
▁उद्घाटन	-5655
▁किलोमीटर	-5656
▁कम्प्यूटर	-5657
डू	-5658
बाज	-5659
गोरि	-5660
माता	-5661
वानी	-5662
▁क़ु	-5663
▁गरीबी	-5664
▁छापें	-5665
▁स्वीकृत	-5666
▁वाणिज्यिक	-5667
यल	-5668
ंभव	-5669
लाद	-5670
▁सिक	-5671
लोगों	-5672
▁खतरा	-5673
▁अकेला	-5674
▁चीजें	-5675
▁तुम्हे	-5676
▁व्युत्पन्न	-5677
मोह	-5678
ायण	-5679
item	-5680
ंध्र	-5681
्यूर	-5682
▁ज्व	-5683
▁क्षण	-5684
▁मनोर	-5685
▁जवाहर	-5686
▁जीवों	-5687
▁तीसरे	-5688
▁छुट्टी	-5689
▁डिजाइन	-5690
▁मेन्यू	-5691
▁संकेतक	-5692
▁प्रतिनिधि	-5693
ज़न	-5694
▁कस	-5695
▁सल	-5696
ंकित	-5697
▁गहन	-5698
▁हिक	-5699
सूत्र	-5700
▁असली	-5701
▁प्रणब	-5702
▁निकालने	-5703
मलव	-5704
िरण	-5705
▁1.	-5706
▁खबर	-5707
▁हरा	-5708
कार्ड	-5709
▁चंद्र	-5710
▁वापसी	-5711
▁सकेंगे	-5712
ew	-5713
ोदन	-5714
बाजी	-5715
▁बिता	-5716
▁दिमाग	-5717
▁निवास	-5718
▁सुनता	-5719
दर्शिता	-5720
▁विधेयक	-5721
▁महाभारत	-5722
▁धूम	-5723
▁गुरू	-5724
▁पारित	-5725
▁सुनते	-5726
▁विनियम	-5727
▁वस्तुएं	-5728
करा	-5729
ग्न	-5730
ting	-5731
पालन	-5732
▁उभर	-5733
▁खतर	-5734
▁वरि	-5735
दृश्य	-5736
▁तुमपर	-5737
▁मानता	-5738
▁मुकाब	-5739
▁पैरामी	-5740
▁केंद्रित	-5741
दुर	-5742
वेशन	-5743
▁मेज	-5744
▁शराब	-5745
▁वर्मा	-5746
▁पीड़ित	-5747
काता	-5748
खाना	-5749
▁दावे	-5750
▁पक्षी	-5751
▁उच्चतम	-5752
▁निकलने	-5753
▁सिर्फ़	-5754
श्वास	-5755
▁उल्ल	-5756
▁आंशिक	-5757
▁दशमलव	-5758
▁मान्य	-5759
▁निर्गम	-5760
▁संचालित	-5761
खार	-5762
▁आलोचना	-5763
▁छुटकारा	-5764
▁संयंत्र	-5765
▁विमानक्षेत्र	-5766
लाप	-5767
▁गणित	-5768
▁चेतना	-5769
▁स्विच	-5770
▁ज़ाहिर	-5771
▁दयालुता	-5772
▁अपेक्षित	-5773
▁विकिपीडिया	-5774
लक	-5775
▁जम्	-5776
▁बंदर	-5777
▁हिमा	-5778
▁संवेद	-5779
▁कारणों	-5780
▁तालिका	-5781
ंपरिक	-5782
▁भड़क	-5783
▁प्रशासनिक	-5784
▁सम्बन्धित	-5785
ँस	-5786
इंड	-5787
भेद	-5788
्मा	-5789
▁मिथ	-5790
▁भाग्य	-5791
▁संभाल	-5792
▁कृत्रिम	-5793
▁लाइब्रेरी	-5794
▁७	-5795
▁नै	-5796
▁दाम	-5797
▁भूख	-5798
▁द्रव	-5799
▁जितनी	-5800
▁पड़ती	-5801
▁पसन्द	-5802
▁सशक्त	-5803
▁आरंभिक	-5804
▁तत्वों	-5805
▁संतुलन	-5806
▁उपकरणों	-5807
▁अधिकारों	-5808
▁ढल	-5809
▁बट	-5810
▁खनि	-5811
▁गर्व	-5812
▁रुचि	-5813
▁सवार	-5814
ूष	-5815
मेरे	-5816
▁लड़का	-5817
▁वैकल्प	-5818
▁कारोबार	-5819
▁विशेषकर	-5820
▁मनुष्यों	-5821
as	-5822
गंध	-5823
▁80	-5824
▁तह	-5825
▁रोगों	-5826
▁प्रदाह	-5827
ri	-5828
ध्	-5829
▁1/	-5830
▁st	-5831
▁छत	-5832
हिता	-5833
▁दुआ	-5834
▁तलाश	-5835
▁सचेत	-5836
▁स्की	-5837
▁कीटों	-5838
▁कॉलेज	-5839
▁परिसर	-5840
▁पहुंचे	-5841
▁मुद्दों	-5842
▁1,	-5843
▁छू	-5844
▁नाक	-5845
▁सदन	-5846
▁छपाई	-5847
▁तौबा	-5848
▁रोज़ी	-5849
▁सिंचाई	-5850
▁गुमराही	-5851
▁वैकल्पिक	-5852
स्ट्रेलिया	-5853
▁संग्रहालय	-5854
गुण	-5855
दनी	-5856
बूल	-5857
▁लंब	-5858
▁घाटे	-5859
▁रौशन	-5860
▁उन्हे	-5861
▁निकाय	-5862
▁भर्ती	-5863
▁हिंसा	-5864
▁बारगाह	-5865
▁संभवतः	-5866
कोष	-5867
ड्र	-5868
हाई	-5869
▁कोण	-5870
▁सहन	-5871
ंतरित	-5872
▁देगी	-5873
▁मंगल	-5874
▁कैमरा	-5875
▁दाहिने	-5876
▁(&	-5877
पानी	-5878
▁मक्	-5879
▁गौरव	-5880
▁सहमत	-5881
▁स्रो	-5882
▁बुलाया	-5883
▁संशोधित	-5884
▁$	-5885
फ्र	-5886
▁60	-5887
▁टो	-5888
▁तबा	-5889
▁नती	-5890
▁मिट	-5891
▁चट्ट	-5892
▁मानी	-5893
ॉर्मेट	-5894
्रु	-5895
िप्र	-5896
.2019	-5897
▁अपार	-5898
▁सन्द	-5899
▁नेशनल	-5900
▁योजनाएं	-5901
▁संभावित	-5902
आप	-5903
है	-5904
ोंक	-5905
▁टि	-5906
काया	-5907
रचना	-5908
▁बेटा	-5909
▁मोटर	-5910
▁जिनको	-5911
▁ज़रूरत	-5912
▁औपचारिक	-5913
ैत	-5914
▁*	-5915
▁बसव	-5916
▁उभार	-5917
▁तालाब	-5918
▁रिमोट	-5919
▁संगणक	-5920
▁तैयारी	-5921
▁मिलाकर	-5922
▁वर्तनी	-5923
▁श्रमिक	-5924
▁पुस्तकों	-5925
▁प्राधिकरण	-5926
▁आध्यात्मिक	-5927
▁श्रीवास्तव	-5928
▁विश्वविद्यालयों	-5929
ध्व	-5930
बाई	-5931
संच	-5932
ंगों	-5933
▁कहे	-5934
▁उर्व	-5935
▁सामूह	-5936
▁सुन्दर	-5937
▁मुद्रित	-5938
▁व्यवस्थित	-5939
▁प्रतिस्पर्	-5940
wor	-5941
ंकी	-5942
ाइड	-5943
▁ID	-5944
▁मस्	-5945
▁वक्र	-5946
▁सीता	-5947
▁चलाया	-5948
▁झिल्ली	-5949
▁डॉक्टर	-5950
▁प्रांत	-5951
▁सुदृढ़	-5952
▁क्षैतिज	-5953
▁गतिविधि	-5954
ast	-5955
▁उभ	-5956
▁१५	-5957
शुल्क	-5958
▁जनजा	-5959
▁धारण	-5960
▁अर्थात	-5961
▁उत्तेज	-5962
▁रविशंकर	-5963
नान	-5964
▁धम	-5965
▁तना	-5966
▁जुड़	-5967
▁शादी	-5968
▁धनराशि	-5969
▁संसदीय	-5970
▁समन्वय	-5971
▁प्राधिकार	-5972
िमा	-5973
▁वय	-5974
श्रे	-5975
▁191	-5976
▁मेह	-5977
▁स्टी	-5978
▁अनुसू	-5979
▁डाक्टर	-5980
▁मुक्ति	-5981
▁पुस्तकालय	-5982
▁विश्वसनीय	-5983
षे	-5984
्ति	-5985
▁1"	-5986
ुमान	-5987
▁कैश	-5988
▁डरो	-5989
▁वजन	-5990
▁वास	-5991
िकाओं	-5992
▁भेजी	-5993
▁तसबीह	-5994
▁बाज़ार	-5995
▁सराहना	-5996
://	-5997
बली	-5998
बारी	-5999
▁अग्रे	-6000
▁ढांचा	-6001
▁तबाही	-6002
▁सकेगा	-6003
▁प्रभाग	-6004
▁ज़िन्दा	-6005
▁पहुंचने	-6006
▁प्रोटीन	-6007
▁नवान्वेषण	-6008
▁सकारात्मक	-6009
▁डिर	-6010
चिकित	-6011
फारिश	-6012
▁गलती	-6013
▁घटित	-6014
▁पादप	-6015
▁थोड़े	-6016
▁स्मरण	-6017
▁श्रद्धा	-6018
▁स्वामित्व	-6019
.11	-6020
महल	-6021
शनी	-6022
▁इम	-6023
▁उपे	-6024
▁निध	-6025
▁रकम	-6026
▁पाना	-6027
▁पारंपरिक	-6028
▁प्रतिष्ठित	-6029
.)	-6030
tle	-6031
बिल	-6032
बाबू	-6033
▁ईंधन	-6034
▁कबीर	-6035
▁बनकर	-6036
▁सजदा	-6037
▁हिला	-6038
▁गाड़ी	-6039
▁जानना	-6040
▁वृत्त	-6041
▁अग्रणी	-6042
▁साक्षी	-6043
त्ते	-6044
▁कथन	-6045
▁पंड	-6046
▁लाना	-6047
धिकारी	-6048
▁जन्नत	-6049
▁पुनरा	-6050
▁प्रास	-6051
▁साँचा	-6052
▁नेताओं	-6053
▁सन्तान	-6054
▁व्यक्तित्व	-6055
bo	-6056
रीन	-6057
ब्बा	-6058
▁खिल	-6059
▁पहन	-6060
▁बडे	-6061
▁लोह	-6062
▁पाता	-6063
▁रहमत	-6064
▁वकील	-6065
▁जापान	-6066
▁मिलना	-6067
▁हटाने	-6068
▁गांधीजी	-6069
▁जायेंगे	-6070
▁सिफारिश	-6071
▁प्रयोगशाला	-6072
▁दम	-6073
पोषण	-6074
▁कोष	-6075
▁नमक	-6076
▁गहरे	-6077
▁निधन	-6078
▁आमंत्रित	-6079
काय	-6080
दीक	-6081
▁खत	-6082
▁सप	-6083
▁फर्म	-6084
▁करोगे	-6085
▁पीड़ा	-6086
▁बताता	-6087
▁हड्डी	-6088
▁स्ट्रिंग	-6089
एमई	-6090
रात	-6091
▁कब्	-6092
▁जरा	-6093
च्छिक	-6094
▁मोड़	-6095
▁तुल्य	-6096
▁मौलिक	-6097
▁किनारा	-6098
▁गर्भाशय	-6099
▁सामूहिक	-6100
▁सिद्धान्त	-6101
▁पैग़म्बरों	-6102
ंघा	-6103
▁()	-6104
मर्श	-6105
▁करु	-6106
▁रिज	-6107
▁शरण	-6108
▁वरिष्ठ	-6109
▁अनुमोदन	-6110
▁कार्यवाही	-6111
▁प्रोफ़ाइल	-6112
कती	-6113
ेरत	-6114
िकोड	-6115
▁धान	-6116
तायात	-6117
▁पागल	-6118
▁भरने	-6119
▁मूत्र	-6120
▁दक्षिणी	-6121
▁शास्त्र	-6122
▁गिरफ्तार	-6123
निस	-6124
हान	-6125
िकरण	-6126
ग्रहण	-6127
▁चलना	-6128
▁वाहन	-6129
▁स्वभाव	-6130
-3	-6131
▁बडा	-6132
▁भरपूर	-6133
▁काफ़िर	-6134
▁सहेजने	-6135
छो	-6136
▁बहस	-6137
▁शेर	-6138
ज़ूदा	-6139
▁हिकमत	-6140
▁आरक्षित	-6141
▁मुक़ाबले	-6142
▁द्विपक्षीय	-6143
▁गि	-6144
व्यव	-6145
▁अरु	-6146
र्कों	-6147
▁आकलन	-6148
▁संतु	-6149
▁हमको	-6150
▁तुममें	-6151
▁मित्रों	-6152
▁हार्दिक	-6153
ंबे	-6154
▁व्	-6155
नहीं	-6156
▁नील	-6157
▁पेर	-6158
▁माउ	-6159
▁पाये	-6160
▁बताने	-6161
▁हल्का	-6162
▁अस्वीकार	-6163
▁प्रयोजनों	-6164
काने	-6165
ुक्त	-6166
ुसार	-6167
▁घात	-6168
▁अण्ड	-6169
▁समूद	-6170
▁गुणों	-6171
▁कलाकार	-6172
▁झुठलाने	-6173
▁मॉड्यूल	-6174
▁मौज़ूदा	-6175
▁यातायात	-6176
▁विद्यार्थी	-6177
ूण	-6178
भुज	-6179
ैली	-6180
▁31	-6181
▁इल	-6182
बानी	-6183
र्मी	-6184
▁पोष	-6185
▁फिट	-6186
कीर्ण	-6187
▁बांट	-6188
्रेडिट	-6189
▁बॉक्स	-6190
त्याशित	-6191
▁ब्राउज़र	-6192
क्ल	-6193
ोजक	-6194
च्चे	-6195
तन्य	-6196
दस्त	-6197
▁ओपन	-6198
▁परे	-6199
▁बुरे	-6200
▁विरू	-6201
▁रहमान	-6202
▁सम्पन्न	-6203
▁J	-6204
ort	-6205
ज़त	-6206
ैसेरो	-6207
▁डाले	-6208
▁सचिव	-6209
▁आजादी	-6210
▁उठाना	-6211
▁रासाय	-6212
▁अमरीका	-6213
▁अनुकम्पा	-6214
▁ब्रैसेरो	-6215
ंथि	-6216
याय	-6217
▁अवल	-6218
▁सूरज	-6219
▁हँसी	-6220
कोडिंग	-6221
▁फरवरी	-6222
▁बदलना	-6223
▁रोकें	-6224
▁वस्तुत	-6225
▁शर्तों	-6226
▁संपन्न	-6227
▁सत्यापित	-6228
▁साहित्यिक	-6229
▁अच	-6230
▁बिट	-6231
▁भंग	-6232
▁मंग	-6233
▁हान	-6234
▁दुखद	-6235
▁लम्बी	-6236
▁भड़कती	-6237
▁यूआरएल	-6238
▁क्रमांक	-6239
▁समायोजन	-6240
▁शक्तिशाली	-6241
▁आवश्यकताओं	-6242
um	-6243
सास	-6244
▁डु	-6245
▁वसा	-6246
म्परा	-6247
▁ज़ोर	-6248
▁विक्र	-6249
▁जांचें	-6250
▁फ़ैसला	-6251
▁साँचाः	-6252
▁निष्कर्ष	-6253
/-	-6254
बीन	-6255
▁उज	-6256
▁नज	-6257
ation	-6258
▁बनना	-6259
▁रुपए	-6260
▁उर्दू	-6261
▁कोलकाता	-6262
▁८	-6263
ंघन	-6264
लापन	-6265
▁दंत	-6266
▁नाथ	-6267
▁नाप	-6268
▁पते	-6269
▁टिकट	-6270
▁साहस	-6271
▁अवकाश	-6272
▁शान्त	-6273
▁सोचते	-6274
▁अवधारण	-6275
▁परेशान	-6276
अत	-6277
जैसे	-6278
त्रि	-6279
ष्णु	-6280
▁लंदन	-6281
▁करूणा	-6282
▁रामायण	-6283
ँची	-6284
ंसिल	-6285
भावना	-6286
▁सहमति	-6287
▁अंतर्व	-6288
▁परिवेश	-6289
▁महीनों	-6290
▁एल्गोरि	-6291
▁भारतीयों	-6292
af	-6293
लर	-6294
▁तृ	-6295
▁जरुर	-6296
▁युवाओं	-6297
▁प्रेषित	-6298
▁महाराजा	-6299
यदि	-6300
पीएस	-6301
स्तर	-6302
▁टेल	-6303
▁मंडल	-6304
▁रहित	-6305
▁वैसा	-6306
▁हमसे	-6307
▁सीखने	-6308
▁प्रणाल	-6309
▁मुद्दे	-6310
▁शिक्षण	-6311
▁वर्गीकरण	-6312
थित	-6313
▁ओवर	-6314
▁बेर	-6315
स्टिक	-6316
▁झुका	-6317
▁तूने	-6318
▁तीसरा	-6319
▁पीढ़ी	-6320
▁पुष्प	-6321
▁वैदिक	-6322
▁व्यर्थ	-6323
.10	-6324
लाइट	-6325
▁घाव	-6326
पत्ति	-6327
▁अवयव	-6328
▁डाली	-6329
▁बारह	-6330
▁भलाई	-6331
▁ढांचे	-6332
▁बेकार	-6333
▁चैतन्य	-6334
▁दिखाएं	-6335
▁मिलियन	-6336
▁रजिस्टर	-6337
ess	-6338
▁नम	-6339
▁फौ	-6340
ज़ख़	-6341
र्जन	-6342
▁आदत	-6343
▁फलक	-6344
▁सिं	-6345
▁संहिता	-6346
▁बांग्ला	-6347
▁कुफ्फ़ार	-6348
कस	-6349
कीर	-6350
जूर	-6351
रुप	-6352
▁भि	-6353
तकों	-6354
▁सदी	-6355
color	-6356
▁ख़ुश	-6357
▁मुना	-6358
▁वन्य	-6359
▁शाखाओं	-6360
ee	-6361
ve	-6362
सेना	-6363
▁फ़ी	-6364
▁हंस	-6365
योग्य	-6366
▁अब्द	-6367
▁अपराधी	-6368
▁तुर्की	-6369
▁रसूलों	-6370
▁उत्पादक	-6371
▁रिकॉर्ड	-6372
▁प्रश्नों	-6373
▁प्रतिबद्ध	-6374
गेट	-6375
वाब	-6376
सिंह	-6377
▁घुट	-6378
▁फार	-6379
▁रूस	-6380
विन्द	-6381
▁चावल	-6382
▁चाहा	-6383
▁टेली	-6384
▁पिक्	-6385
▁क्रेडिट	-6386
▁कॉन्फ़िगरेशन	-6387
men	-6388
ौरन	-6389
कर्म	-6390
मिया	-6391
स्थि	-6392
▁बहि	-6393
▁शत्रु	-6394
▁सम्रा	-6395
▁सिविल	-6396
▁नहर	-6397
▁यथा	-6398
चिह्न	-6399
▁रासायनिक	-6400
tt	-6401
नाइ	-6402
प्न	-6403
ेंच	-6404
स्कर	-6405
▁परो	-6406
▁बगल	-6407
▁लाम	-6408
▁आश्र	-6409
▁गोपन	-6410
▁हलाक	-6411
▁इलेक्ट्रॉनिक	-6412
नेह	-6413
ोल्ड	-6414
▁उपनि	-6415
▁उपलब्धि	-6416
▁साथियों	-6417
▁उल्लेखनीय	-6418
.12	-6419
कूट	-6420
साई	-6421
▁पच	-6422
राना	-6423
▁माने	-6424
▁आबादी	-6425
▁बढ़ते	-6426
▁एकीकृत	-6427
▁निकालें	-6428
▁अप्रत्याशित	-6429
गामी	-6430
शाही	-6431
▁ह्र	-6432
▁चलती	-6433
▁बनता	-6434
▁मेनू	-6435
स्थापन	-6436
्योंकि	-6437
▁जुड़ी	-6438
▁वांछित	-6439
85	-6440
घन	-6441
वीर	-6442
एक्स	-6443
▁अमल	-6444
▁सड़	-6445
हीनता	-6446
▁इसरा	-6447
▁विज्ञापन	-6448
बैक	-6449
ल्लम	-6450
▁नबी	-6451
▁शब्	-6452
▁अद्व	-6453
▁किला	-6454
▁गद्य	-6455
▁पुराण	-6456
परीक्षा	-6457
▁बाग़ों	-6458
▁शानदार	-6459
▁समझौते	-6460
▁मांसपेश	-6461
माला	-6462
▁इंस	-6463
▁गोली	-6464
▁टेक्	-6465
▁सादा	-6466
▁होटल	-6467
▁बनाएं	-6468
▁भेजना	-6469
▁प्राणी	-6470
▁ज़िन्दगी	-6471
कै	-6472
लभ	-6473
▁आधा	-6474
▁सोम	-6475
▁कैसी	-6476
▁ख़ुद	-6477
▁गीता	-6478
▁फेंक	-6479
▁एक्सट	-6480
▁बिल्ड	-6481
▁परिचित	-6482
▁पुकारा	-6483
▁हाज़िर	-6484
▁विलोपित	-6485
टेल	-6486
ड़ब	-6487
ॉकि	-6488
खाने	-6489
▁उदा	-6490
▁केस	-6491
▁ख़ा	-6492
▁नेक	-6493
▁आमाल	-6494
▁ब्रि	-6495
▁सिंध	-6496
तन्त्र	-6497
▁जम्मू	-6498
▁अमरीकी	-6499
▁चीज़ें	-6500
▁निविदा	-6501
▁९	-6502
अनु	-6503
ोनें	-6504
▁धूप	-6505
▁नकल	-6506
▁अजीब	-6507
▁मिसाल	-6508
▁मैत्री	-6509
▁वर्गों	-6510
▁व्यापारिक	-6511
▁१८	-6512
▁गले	-6513
▁पूज	-6514
परेशन	-6515
▁पूछे	-6516
▁हुकुम	-6517
▁आंकड़े	-6518
▁ज़िक्र	-6519
▁देखेंगे	-6520
.08	-6521
ंचल	-6522
▁(.	-6523
▁औऱ	-6524
बर्ग	-6525
▁किल	-6526
▁आचरण	-6527
▁ज़ूम	-6528
▁वाक्य	-6529
▁अनुदेश	-6530
▁परम्परा	-6531
▁प्राप्तकर्ता	-6532
हु	-6533
▁गेट	-6534
▁डूब	-6535
▁रूट	-6536
▁उपास	-6537
▁पांड	-6538
▁मरम्मत	-6539
▁पुस्तकें	-6540
ट्टा	-6541
प्रण	-6542
राबी	-6543
▁192	-6544
▁बहन	-6545
▁सोल	-6546
▁परिसंप	-6547
▁प्रेषण	-6548
▁बस्तियों	-6549
मंड	-6550
०००	-6551
▁35	-6552
▁sh	-6553
▁एट	-6554
ण्डल	-6555
पक्व	-6556
▁नकद	-6557
ecast	-6558
▁कर्ज	-6559
dition	-6560
तापूर्वक	-6561
▁मिश्रित	-6562
▁forecast	-6563
ाफ	-6564
ric	-6565
ज़ोर	-6566
िन्त	-6567
▁औरत	-6568
▁हमला	-6569
ेक्ट्री	-6570
▁अलार्म	-6571
▁इकाइयों	-6572
▁विटामिन	-6573
▁कार्यकला	-6574
▁हिंदुस्तान	-6575
बाज़	-6576
आख़िर	-6577
▁अकाद	-6578
▁कृति	-6579
▁खोला	-6580
▁जाया	-6581
▁देशी	-6582
▁पंडित	-6583
▁अंग्रेज	-6584
▁आवृत्ति	-6585
▁स्क्रॉल	-6586
ub	-6587
ढा	-6588
तिश	-6589
▁बीस	-6590
र्वेद	-6591
स्फोट	-6592
▁आजकल	-6593
▁मेहन	-6594
▁जंगली	-6595
▁डिजिटल	-6596
▁सरकारों	-6597
रन	-6598
▁K	-6599
.09	-6600
काई	-6601
सलों	-6602
▁असी	-6603
▁गोद	-6604
▁मरी	-6605
▁चिड़ी	-6606
▁मास्ट	-6607
▁अंग्रेज़ी	-6608
▁गर	-6609
खण्ड	-6610
▁मसौ	-6611
▁अर्ज	-6612
▁खोजने	-6613
▁जितने	-6614
▁परजीवी	-6615
पय	-6616
▁ऍ	-6617
र्भ	-6618
्ली	-6619
देवी	-6620
▁वसू	-6621
▁अक्त	-6622
▁आश्व	-6623
▁दुःख	-6624
▁आमदनी	-6625
▁प्लेट	-6626
तू	-6627
ँजी	-6628
जिन	-6629
पटा	-6630
लेशन	-6631
▁आभा	-6632
▁कोर	-6633
▁मुहा	-6634
▁लेगा	-6635
▁शब्दा	-6636
▁हालॉकि	-6637
▁संरक्षक	-6638
▁स्वीकार्य	-6639
सूर	-6640
▁or	-6641
▁बम	-6642
फाइल	-6643
▁तुझ	-6644
▁रसी	-6645
▁इनसे	-6646
▁रीति	-6647
▁उपबंध	-6648
▁नोकिया	-6649
▁उल्लंघन	-6650
▁परिपक्व	-6651
▁प्रजाति	-6652
णता	-6653
ोन्	-6654
ोपण	-6655
▁उछ	-6656
▁कव	-6657
▁खेत	-6658
▁छोड	-6659
संबंध	-6660
▁अड्ड	-6661
▁नेकी	-6662
▁पीछा	-6663
▁शंकर	-6664
▁कोष्ठ	-6665
▁गारंटी	-6666
▁फ्रांस	-6667
▁सर्विस	-6668
▁अर्थात्	-6669
▁परिवारों	-6670
60	-6671
ers	-6672
▁1'	-6673
▁पन	-6674
▁हन	-6675
काना	-6676
तरित	-6677
ल्ले	-6678
▁जाह	-6679
world	-6680
▁श्रेण	-6681
▁हैदरा	-6682
▁जीवाणु	-6683
▁दोज़ख़	-6684
▁नदियों	-6685
चलन	-6686
ियस	-6687
ग्रा	-6688
्रेट	-6689
▁झुक	-6690
▁माय	-6691
▁मुसी	-6692
▁रोका	-6693
▁पढ़ाई	-6694
▁इन्हीं	-6695
▁संचिका	-6696
▁सौभाग्य	-6697
▁Y	-6698
ताप	-6699
भास	-6700
▁29	-6701
▁नाइ	-6702
द्दीन	-6703
ियामत	-6704
▁खतरे	-6705
▁तारे	-6706
▁डराने	-6707
▁तीर्थ	-6708
▁सम्भव	-6709
▁उपक्रम	-6710
▁विडियो	-6711
▁स्पर्श	-6712
▁प्रतिबि	-6713
▁जवाहरलाल	-6714
णे	-6715
▁गईं	-6716
यंत्र	-6717
▁बचपन	-6718
▁गाँधी	-6719
▁बालों	-6720
▁ऑपरेशन	-6721
▁यथार्थ	-6722
▁इंजीनियर	-6723
for	-6724
टरी	-6725
शेर	-6726
ाइम	-6727
▁धूल	-6728
▁किस्	-6729
▁पृथक	-6730
▁भक्त	-6731
▁चक्कर	-6732
▁निरूपित	-6733
▁संगठनों	-6734
▁जिम्मेदार	-6735
▁२०	-6736
क्यू	-6737
ड़की	-6738
भागी	-6739
▁पडे	-6740
गोलिक	-6741
▁जावा	-6742
▁ट्री	-6743
▁नींद	-6744
▁शरीक	-6745
▁सब्र	-6746
▁ताज़ा	-6747
▁ट्रांस	-6748
▁तमिलना	-6749
विड	-6750
श्ता	-6751
▁पटल	-6752
▁पेय	-6753
▁इच्छ	-6754
▁कुर्	-6755
▁खनिज	-6756
▁निवार	-6757
▁अग्रेषित	-6758
▁रै	-6759
ब्बे	-6760
▁केश	-6761
▁बोध	-6762
ष्कार	-6763
▁परिक	-6764
▁कार्बन	-6765
▁कृतज्ञ	-6766
▁निपटान	-6767
▁प्रसाद	-6768
▁मुद्रण	-6769
▁वाक़िफ	-6770
▁गणतंत्र	-6771
वो	-6772
▁ष	-6773
क़त	-6774
ंजलि	-6775
▁फूँ	-6776
▁सतत	-6777
▁औषधि	-6778
▁मौका	-6779
▁आंध्र	-6780
▁अवतरित	-6781
▁ईमानदार	-6782
▁भौगोलिक	-6783
▁ब्राह्मण	-6784
▁अनुस्मारक	-6785
म्बा	-6786
▁देह	-6787
▁समू	-6788
▁अंदा	-6789
▁बचाने	-6790
▁निवेदन	-6791
▁विद्रोह	-6792
ंबा	-6793
राग	-6794
▁हक	-6795
इयां	-6796
▁हिल	-6797
▁प्या	-6798
▁वाकई	-6799
▁निकले	-6800
▁बाक़ी	-6801
▁सृजित	-6802
▁मिटाने	-6803
▁अनुग्रह	-6804
▁क्षमाशील	-6805
▁ईमानदारों	-6806
AR	-6807
ap	-6808
लीन	-6809
ाणु	-6810
▁हॉ	-6811
▁उठे	-6812
▁बेस	-6813
▁सफाई	-6814
▁लम्बे	-6815
▁सोचता	-6816
▁कोरिया	-6817
▁त्वरित	-6818
▁विरूद्ध	-6819
▁रूपांतरण	-6820
▁सुभाषबाबू	-6821
मस	-6822
खाव	-6823
▁उपज	-6824
▁टाल	-6825
▁तरा	-6826
▁बाएँ	-6827
▁वाणी	-6828
▁राजकुमार	-6829
▁रवीन्द्रनाथ	-6830
दूत	-6831
▁चक	-6832
▁संभ	-6833
▁सांप	-6834
▁कोर्ट	-6835
▁खातों	-6836
▁मस्जि	-6837
▁वसूली	-6838
▁पश्चात्	-6839
फो	-6840
ener	-6841
स्टे	-6842
▁छेद	-6843
▁फिल	-6844
▁हरी	-6845
.2013	-6846
▁ईसाई	-6847
▁ज़रा	-6848
▁रखती	-6849
▁लिखते	-6850
▁वंचित	-6851
▁अवज्ञा	-6852
▁डिरेक्ट्री	-6853
▁प्रसंस्करण	-6854
▁वास्तविकता	-6855
ङ्ग	-6856
टिक	-6857
ोडा	-6858
▁ठे	-6859
टकों	-6860
तिपय	-6861
वर्ग	-6862
स्टी	-6863
▁काश	-6864
▁खैर	-6865
▁बही	-6866
▁आगरा	-6867
▁टीका	-6868
क़ुरान	-6869
▁सच्ची	-6870
▁सहेजा	-6871
▁सूचित	-6872
▁जाँचें	-6873
▁नारायण	-6874
▁condition	-6875
ृंग	-6876
▁जॉन	-6877
▁सैन	-6878
▁जुटा	-6879
▁दौरा	-6880
▁सूचक	-6881
▁संपदा	-6882
▁ग्रन्थ	-6883
▁मानवता	-6884
▁साझेदारी	-6885
box	-6886
तिया	-6887
स्मिक	-6888
▁लड़क	-6889
्टवेयर	-6890
▁जिनसे	-6891
▁लगाकर	-6892
▁अक्तूबर	-6893
▁स्रोतों	-6894
▁मास्टर्स	-6895
IL	-6896
ig	-6897
ोश	-6898
ंसक	-6899
ैरह	-6900
ंकार	-6901
समूह	-6902
▁प्रसव	-6903
▁बताना	-6904
▁ज्यादातर	-6905
जब	-6906
वेल	-6907
▁खन	-6908
संगत	-6909
▁आदर	-6910
▁गंध	-6911
▁गुल	-6912
title	-6913
▁बचने	-6914
▁डालने	-6915
▁सरकशी	-6916
▁खरीदने	-6917
▁करूणाकर	-6918
▁विद्वान	-6919
▁फलस्वरूप	-6920
▁परिवर्तनों	-6921
▁अन्तर्राष्ट्रीय	-6922
▁तद	-6923
▁उलट	-6924
▁चिर	-6925
▁नज़	-6926
▁प्य	-6927
क्टरी	-6928
िकेशन	-6929
▁दर्श	-6930
▁बादल	-6931
▁मोती	-6932
▁रेगि	-6933
▁कतिपय	-6934
▁चेन्न	-6935
▁टेलीफ	-6936
▁सहारा	-6937
▁निकालना	-6938
▁उन्होनें	-6939
▁सम्मानित	-6940
2)	-6941
▁/	-6942
टका	-6943
▁घुस	-6944
▁जमी	-6945
▁खजूर	-6946
▁तेरा	-6947
▁ध्रु	-6948
▁मन्द	-6949
▁ब्रेक	-6950
▁रोशनी	-6951
▁दीर्घा	-6952
▁माँगता	-6953
▁सीमाओं	-6954
पृ	-6955
▁१०	-6956
▁यूँ	-6957
▁वेश	-6958
▁इनको	-6959
▁घबरा	-6960
▁अंततः	-6961
▁उपदेश	-6962
▁मतभेद	-6963
▁सुनकर	-6964
▁अवधारणा	-6965
▁आकस्मिक	-6966
▁हैदराबाद	-6967
IN	-6968
नाल	-6969
मेर	-6970
▁पठ	-6971
ंतिक	-6972
▁अहि	-6973
▁मैन	-6974
▁वाई	-6975
▁what	-6976
▁प्रव	-6977
▁यानी	-6978
action	-6979
नेवालो	-6980
▁क़रीब	-6981
▁नोड्स	-6982
▁फ़रमा	-6983
▁विवेक	-6984
निर्देश	-6985
▁खतरनाक	-6986
▁दुर्लभ	-6987
▁हजारों	-6988
▁पार्श्व	-6989
िग	-6990
मैन	-6991
सनी	-6992
लेखा	-6993
▁ऋतु	-6994
▁बिन	-6995
▁कायम	-6996
▁गाँव	-6997
▁शर्त	-6998
▁अपवाद	-6999
▁अवतार	-7000
▁गिनती	-7001
▁पुरूष	-7002
▁अर्जित	-7003
▁प्रातः	-7004
▁समुचित	-7005
▁डेटाबेस	-7006
▁परिश्रम	-7007
▁प्रतिवादी	-7008
ईं	-7009
मों	-7010
णुओं	-7011
.2017	-7012
▁इंजन	-7013
▁कृपा	-7014
▁नौका	-7015
▁बालक	-7016
▁लगने	-7017
हिन्दी	-7018
▁गर्दन	-7019
▁निकला	-7020
▁लगाते	-7021
▁विजेट	-7022
▁अवसरों	-7023
बन	-7024
इंट	-7025
▁वॉ	-7026
ोर्स	-7027
▁जाग	-7028
▁बिग	-7029
sthis	-7030
▁बगैर	-7031
▁रेशम	-7032
▁जिसपर	-7033
▁सोचने	-7034
▁न्यायिक	-7035
▁whatsthis	-7036
ex	-7037
गित	-7038
▁अद्	-7039
▁अशु	-7040
▁खौल	-7041
▁हड़	-7042
▁अतीत	-7043
▁पूछें	-7044
▁फॉर्म	-7045
▁इंतजार	-7046
▁शिक्षकों	-7047
शः	-7048
ुड	-7049
ine	-7050
पहर	-7051
शोर	-7052
▁आवि	-7053
▁मैथ	-7054
▁रस्	-7055
तुम्ह	-7056
▁सिटी	-7057
व्यस्त	-7058
▁तीनों	-7059
▁मुस्क	-7060
▁किराये	-7061
▁पंजाबी	-7062
▁समावेश	-7063
▁स्लाइड	-7064
)-	-7065
☻☻	-7066
नियम	-7067
▁जज़ा	-7068
▁नाते	-7069
▁लायक	-7070
▁दरबार	-7071
▁संतोष	-7072
▁जोड़ना	-7073
▁संयोजन	-7074
▁सम्बंध	-7075
▁सामान्यतया	-7076
ul	-7077
लम	-7078
ख्य	-7079
गान	-7080
बूर	-7081
▁नॉ	-7082
▁तंग	-7083
▁नवी	-7084
▁भूत	-7085
ाइयों	-7086
क्षणिक	-7087
▁ऑफलाइन	-7088
▁नीतियों	-7089
▁पैरामीटर	-7090
▁ईमानवालों	-7091
-4	-7092
bel	-7093
▁0.	-7094
▁भले	-7095
▁उग्र	-7096
▁उतनी	-7097
▁ग्रा	-7098
▁नर्म	-7099
▁बेटी	-7100
▁दीक्षा	-7101
▁मजदूरी	-7102
▁मुहम्मद	-7103
▁हस्तांतरण	-7104
.%	-7105
आत	-7106
ढे	-7107
जूरी	-7108
रखाव	-7109
हारी	-7110
▁उदय	-7111
▁जैन	-7112
▁हाई	-7113
युद्ध	-7114
▁सुनी	-7115
ब्ल्यू	-7116
▁वारिस	-7117
▁प्रबंधित	-7118
▁अनुक्रिया	-7119
un	-7120
पीड	-7121
राक	-7122
क्के	-7123
▁फीस	-7124
▁सद्	-7125
जहन्न	-7126
हारिक	-7127
▁दाख़	-7128
▁शॉर्	-7129
▁संधि	-7130
▁ग्रीन	-7131
▁निचले	-7132
▁फसलों	-7133
▁समझना	-7134
▁दक्षता	-7135
▁स्वप्न	-7136
▁हिमाचल	-7137
पश	-7138
▁कन	-7139
प्रा	-7140
ियरी	-7141
▁मेघ	-7142
▁१९९	-7143
▁आदान	-7144
▁ग़ौर	-7145
▁संकु	-7146
▁नवंबर	-7147
▁बढ़ता	-7148
▁भ्रूण	-7149
▁हटाना	-7150
▁अन्यथा	-7151
▁इंदिरा	-7152
▁तारीख़	-7153
▁सम्राट	-7154
ानिस्तान	-7155
▁अनुसूचित	-7156
ृश	-7157
ect	-7158
श्न	-7159
चाना	-7160
▁असं	-7161
▁श्ल	-7162
▁किले	-7163
▁चारा	-7164
▁जनरल	-7165
▁ड्रा	-7166
▁निषे	-7167
▁पड़ो	-7168
▁हफ्त	-7169
▁इमारत	-7170
▁एशियाई	-7171
▁गोपनीय	-7172
▁विष्णु	-7173
▁स्मारक	-7174
डल	-7175
आरए	-7176
ोधी	-7177
ॉर्ज	-7178
▁फेफ	-7179
▁तेज़	-7180
▁बन्ध	-7181
दाताओं	-7182
▁पशुओं	-7183
▁सतर्क	-7184
▁हारून	-7185
▁अमान्य	-7186
▁सांख्य	-7187
▁वैज्ञानिकों	-7188
कोर	-7189
लाभ	-7190
विर	-7191
ंटित	-7192
ुलित	-7193
▁अव्य	-7194
▁ऊँची	-7195
▁क़ाय	-7196
▁झगड़	-7197
▁ख्वाह	-7198
▁ग्रिड	-7199
▁पड़ने	-7200
▁स्टार	-7201
▁चिल्ला	-7202
▁परोक्ष	-7203
▁जन्मदिन	-7204
एव	-7205
ुखी	-7206
ोरा	-7207
▁कण	-7208
▁तप	-7209
ख्ते	-7210
▁नान	-7211
▁परस	-7212
▁औलाद	-7213
▁असंभव	-7214
▁बनाती	-7215
▁लीजिए	-7216
राष्ट्र	-7217
am	-7218
os	-7219
लेस	-7220
िलों	-7221
▁उन्म	-7222
▁कोमल	-7223
▁चोरी	-7224
▁सुपु	-7225
▁दर्जे	-7226
▁बनायी	-7227
▁संप्र	-7228
श्रेष्ठ	-7229
▁तरीकों	-7230
▁भाषाएँ	-7231
▁सितंबर	-7232
▁सलाहकार	-7233
▁तमिलनाडु	-7234
न्च	-7235
बों	-7236
गारी	-7237
सीडी	-7238
▁फूट	-7239
rance	-7240
▁रखकर	-7241
eneric	-7242
क्रामक	-7243
▁आकर्षण	-7244
▁टेलीफोन	-7245
▁बौद्धिक	-7246
▁मुख्यतः	-7247
▁तुल्यकाल	-7248
up	-7249
नाई	-7250
प्स	-7251
ount	-7252
▁तीर	-7253
▁दार	-7254
▁मील	-7255
▁रुक	-7256
▁धुंध	-7257
▁विषा	-7258
▁सिरे	-7259
▁अखबार	-7260
▁श्वसन	-7261
▁जापानी	-7262
ुश	-7263
ttp	-7264
NAME	-7265
च्ची	-7266
बर्ट	-7267
▁अपर	-7268
▁मत्	-7269
्यस्त	-7270
▁पेशे	-7271
▁वाक़िफ़	-7272
द्म	-7273
फेसर	-7274
▁क्रय	-7275
▁रहीं	-7276
▁इलाहा	-7277
▁कटौती	-7278
▁चीज़े	-7279
▁मस्जिद	-7280
▁आधारभूत	-7281
▁प्रतिरोध	-7282
▁अपराधियों	-7283
गृह	-7284
ताज	-7285
पंथ	-7286
▁190	-7287
▁डिप	-7288
▁पाउ	-7289
▁विजे	-7290
चन्द्र	-7291
▁चेहरा	-7292
▁जोड़ी	-7293
▁पार्ट	-7294
▁फूलों	-7295
▁बोलते	-7296
▁भांति	-7297
▁दाख़िल	-7298
▁प्रतिर	-7299
▁मुकदमा	-7300
▁मुद्रक	-7301
▁साक्ष्य	-7302
▁परिवर्धित	-7303
क़्	-7304
सम्	-7305
िनि	-7306
menu	-7307
यंती	-7308
वश्य	-7309
▁खाल	-7310
▁किंग	-7311
▁गयीं	-7312
▁टाइम	-7313
▁बिगा	-7314
▁तारों	-7315
▁पॉपअप	-7316
▁प्रको	-7317
▁बायाँ	-7318
▁वाद्य	-7319
▁स्कैन	-7320
▁निरन्तर	-7321
▁व्याख्यान	-7322
जिस	-7323
रीद	-7324
▁ओह	-7325
र्ज़	-7326
▁देन	-7327
तीकरण	-7328
भिन्न	-7329
▁आपसी	-7330
▁मूर्ख	-7331
▁स्टॉक	-7332
कांक्षा	-7333
▁ताजमहल	-7334
▁पूर्वक	-7335
▁सेकेंड	-7336
▁उपेक्षा	-7337
▁वस्तुतः	-7338
▁शक्तियों	-7339
▁एक्सटेंशन	-7340
▁क्रियान्व	-7341
ct	-7342
ंधे	-7343
किसी	-7344
▁URI	-7345
▁दिव	-7346
▁बेट	-7347
अच्छा	-7348
▁बरकत	-7349
▁स्वी	-7350
वृद्धि	-7351
▁दोपहर	-7352
▁महामह	-7353
▁रूपये	-7354
▁बहादुर	-7355
▁शेयरों	-7356
▁अभिदाता	-7357
▁विकलांग	-7358
याम	-7359
▁बक	-7360
▁ग्ल	-7361
▁बृह	-7362
▁भटक	-7363
▁2005	-7364
▁अम्ल	-7365
▁किरण	-7366
▁ऊतकों	-7367
▁चलाना	-7368
▁चार्ट	-7369
▁नमूने	-7370
▁मुख्या	-7371
▁वितरित	-7372
▁स्वर्ग	-7373
▁जातियों	-7374
▁संपर्कों	-7375
▁आधे	-7376
▁ऊंट	-7377
▁चश्	-7378
▁पैट	-7379
▁अखिल	-7380
▁अमृत	-7381
▁धोखा	-7382
▁संकलन	-7383
▁रिश्ते	-7384
▁महामहिम	-7385
▁समृद्धि	-7386
खिक	-7387
म्मा	-7388
▁इन्त	-7389
▁एचटी	-7390
▁तात्	-7391
▁धीमी	-7392
▁यकीन	-7393
▁युग्म	-7394
▁पहुँची	-7395
▁देवताओं	-7396
▁परिचालन	-7397
▁संतुष्ट	-7398
▁उपलब्धता	-7399
भवन	-7400
ोकस	-7401
▁चट	-7402
▁शह	-7403
ऊँगा	-7404
गांठ	-7405
हरों	-7406
▁चिक	-7407
▁जनक	-7408
र्दों	-7409
▁अन्ध	-7410
▁आयकर	-7411
▁कब्र	-7412
▁रिज़	-7413
▁विधा	-7414
▁हटकर	-7415
▁मोहलत	-7416
▁लॉगिन	-7417
▁ज़रूरी	-7418
▁सच्चाई	-7419
▁अंग्रेजों	-7420
▁अपेक्षाकृत	-7421
नेस	-7422
रेटर	-7423
▁मीन	-7424
क्तिक	-7425
▁आर्य	-7426
▁चाँद	-7427
▁मानस	-7428
▁अन्दा	-7429
▁निवेद	-7430
▁यूनिट	-7431
▁ग्रंथि	-7432
▁निशानियों	-7433
▁प्रस्तावित	-7434
कंप	-7435
राय	-7436
MAIL	-7437
पर्य	-7438
ुत्त	-7439
▁दरम	-7440
▁गवर्	-7441
▁ज्यो	-7442
▁मोहन	-7443
विमर्श	-7444
▁आंखों	-7445
▁बच्चन	-7446
▁मक्का	-7447
▁सालों	-7448
▁अनुचित	-7449
▁प्रशास	-7450
▁पक्षियों	-7451
▁तन	-7452
▁गेह	-7453
▁शंक	-7454
विचार	-7455
▁चुंब	-7456
▁ट्रा	-7457
▁बाढ़	-7458
▁विनय	-7459
▁होगे	-7460
ाधिकार	-7461
▁निदान	-7462
▁फायदा	-7463
▁निष्ठा	-7464
▁पत्रों	-7465
▁मधुमेह	-7466
▁संगठित	-7467
ुलर	-7468
▁नली	-7469
▁लड़ी	-7470
▁घोड़े	-7471
▁मराठी	-7472
▁सुलझा	-7473
दायित्व	-7474
▁आनुवंश	-7475
▁वर्णित	-7476
▁परेशानी	-7477
▁नियन्त्र	-7478
▁प्रोफेसर	-7479
▁प्रासंगिक	-7480
▁प्रमाणीकरण	-7481
ोधन	-7482
▁ch	-7483
यानक	-7484
▁तस्	-7485
▁दीं	-7486
▁अकार	-7487
▁तनाव	-7488
▁बेहद	-7489
▁सौदा	-7490
▁जरुरी	-7491
▁मेहनत	-7492
▁श्रोत	-7493
▁होगें	-7494
▁हाशिया	-7495
▁एकत्रित	-7496
▁ब्रिटेन	-7497
▁विनिर्माण	-7498
जत	-7499
१९	-7500
थ्म	-7501
परा	-7502
▁दै	-7503
▁मले	-7504
▁यौन	-7505
▁सटी	-7506
▁भीड़	-7507
ध्यक्ष	-7508
व्यापी	-7509
▁छिद्र	-7510
▁पूछता	-7511
▁सुनाई	-7512
▁स्टोर	-7513
▁चुनेंः	-7514
▁पहाड़ों	-7515
▁उत्तरदायी	-7516
ोई	-7517
क़ा	-7518
पाट	-7519
समा	-7520
सिड	-7521
सेवा	-7522
▁नाश	-7523
EMAIL	-7524
indow	-7525
धानिक	-7526
नागरी	-7527
पुरुष	-7528
प्रथम	-7529
▁पदों	-7530
▁शिरा	-7531
▁दुग्ध	-7532
▁दिसंबर	-7533
▁प्रिंट	-7534
▁मानदंड	-7535
▁दरमियान	-7536
▁संवेदनशील	-7537
/1	-7538
हल	-7539
ंशी	-7540
कें	-7541
ज़ल	-7542
▁ऑप	-7543
वर्ण	-7544
▁आधी	-7545
▁पोत	-7546
▁मचा	-7547
▁लाह	-7548
काव्य	-7549
लियों	-7550
▁अनदे	-7551
▁वासी	-7552
▁अर्ज़	-7553
▁काफिर	-7554
▁जयंती	-7555
▁पंचाय	-7556
▁पैरों	-7557
▁विनाश	-7558
▁आकर्षक	-7559
▁समस्याएं	-7560
ंडे	-7561
डेट	-7562
वित	-7563
▁फि	-7564
▁आइए	-7565
▁चूक	-7566
▁रोब	-7567
▁व्र	-7568
▁सकल	-7569
द्वार	-7570
▁अक्ट	-7571
▁कराई	-7572
▁डिबग	-7573
▁सुपर	-7574
▁बहुते	-7575
त्तियों	-7576
▁किराया	-7577
▁तथ्यों	-7578
▁फंक्शन	-7579
▁राजवंश	-7580
▁रिजर्व	-7581
▁प्रवाहित	-7582
▁राजमार्ग	-7583
▁हस्तक्षेप	-7584
ज़्	-7585
निय	-7586
▁छे	-7587
ज्जु	-7588
फ़्त	-7589
▁चोर	-7590
▁जुल	-7591
▁जोड	-7592
मुक्त	-7593
▁नर्स	-7594
▁रसीद	-7595
▁आँखें	-7596
▁दिखाए	-7597
▁पैरवी	-7598
▁बल्ले	-7599
▁मसौदा	-7600
▁लौटने	-7601
▁जर्मनी	-7602
▁टाइम्स	-7603
▁पेट्रोल	-7604
▁राजभाषा	-7605
▁नियंत्रक	-7606
enericName	-7607
▁अनुपस्थित	-7608
ail	-7609
लिये	-7610
▁बुक	-7611
▁भव्य	-7612
▁लकीर	-7613
▁सकने	-7614
france	-7615
▁आश्रम	-7616
▁कालेज	-7617
▁दिलचस्प	-7618
▁विस्फोट	-7619
▁सर्वश्रेष्ठ	-7620
ha	-7621
नोम	-7622
्वल	-7623
▁HT	-7624
ूल्य	-7625
्वान	-7626
▁but	-7627
▁चित	-7628
▁टूल	-7629
▁2006	-7630
▁नामा	-7631
▁बनवा	-7632
▁सिने	-7633
प्रदान	-7634
▁शॉर्टक	-7635
▁दिसम्बर	-7636
▁इंग्लैंड	-7637
sp	-7638
आइ	-7639
बुद	-7640
ानत	-7641
नामा	-7642
ष्मा	-7643
▁कैल	-7644
▁ढाल	-7645
▁नास	-7646
ामंडल	-7647
▁अश्व	-7648
▁चौथा	-7649
▁हाउस	-7650
▁उत्सव	-7651
▁कीटना	-7652
▁पड़ते	-7653
▁मार्क	-7654
▁सेटअप	-7655
▁परसतिश	-7656
▁पर्यवे	-7657
▁पिक्सेल	-7658
▁प्रमाणित	-7659
▁स्वीकारें	-7660
GenericName	-7661
▁उद्देश्यों	-7662
ob	-7663
डक	-7664
किट	-7665
फ़ल	-7666
बेह	-7667
▁छः	-7668
▁मण	-7669
संचार	-7670
▁कहें	-7671
▁देरी	-7672
▁शासक	-7673
▁सहभाग	-7674
▁सहेजना	-7675
▁कार्यरत	-7676
▁प्रकाशना	-7677
▁चुनौतियों	-7678
ॉस	-7679
खों	-7680
▁१२	-7681
बूती	-7682
▁इमे	-7683
▁नाल	-7684
▁सीन	-7685
ियाना	-7686
▁Name	-7687
▁चमकी	-7688
▁फार्	-7689
▁बांस	-7690
▁मारा	-7691
▁सौंद	-7692
▁अंगों	-7693
▁चुनने	-7694
▁टेनिस	-7695
▁बेचने	-7696
▁बोलने	-7697
▁रीसेट	-7698
प्रणाली	-7699
▁खुल्लम	-7700
▁बख्शने	-7701
स्क्रिप्ट	-7702
▁हिन्दुस्तान	-7703
पादक	-7704
बहुत	-7705
▁इधर	-7706
▁लाई	-7707
▁वॉल	-7708
▁बाजू	-7709
स्ट्री	-7710
▁डालते	-7711
▁संवेदना	-7712
▁सिद्धांतों	-7713
मौ	-7714
षी	-7715
ओएस	-7716
डीए	-7717
बेल	-7718
भांश	-7719
श्मन	-7720
ूकता	-7721
▁वाम	-7722
वर्धन	-7723
▁ऊंची	-7724
▁एमएस	-7725
▁पेशा	-7726
▁काटने	-7727
▁जाहिर	-7728
▁दरिया	-7729
▁वृद्ध	-7730
▁शिल्प	-7731
▁अधिकृत	-7732
▁निराशा	-7733
▁बढ़ाना	-7734
▁मुसीबत	-7735
▁स्तरीय	-7736
▁किलोग्राम	-7737
ico	-7738
क्व	-7739
गोश	-7740
बंद	-7741
क्टे	-7742
भारी	-7743
▁कोट	-7744
▁चाप	-7745
▁नाय	-7746
क्तता	-7747
▁कारा	-7748
कारिता	-7749
▁आभासी	-7750
▁इन्द्र	-7751
▁क़ियामत	-7752
▁एनकोडिंग	-7753
▁निर्देशांक	-7754
▁प्रजातियों	-7755
ry	-7756
िणी	-7757
रहित	-7758
▁टेप	-7759
पोरेट	-7760
▁अशोक	-7761
▁डिवा	-7762
▁दार्	-7763
दृष्टि	-7764
▁उपहार	-7765
▁श्लोक	-7766
▁निकलता	-7767
▁कहानियों	-7768
▁कार्यान्वित	-7769
.05	-7770
art	-7771
{0}	-7772
बूझ	-7773
सेन	-7774
▁un	-7775
▁फो	-7776
▁रोम	-7777
नुसार	-7778
▁ज़बर	-7779
▁ज्वर	-7780
▁पाठक	-7781
▁अन्वे	-7782
▁जरुरत	-7783
▁मनाया	-7784
▁अर्पित	-7785
▁करूँगा	-7786
▁मंजूरी	-7787
▁विकिरण	-7788
▁शुरूआत	-7789
▁सेक्टर	-7790
▁पर्यटकों	-7791
▁प्रतिष्ठा	-7792
,1	-7793
ust	-7794
डों	-7795
नानी	-7796
स्ते	-7797
्यूम	-7798
▁अरे	-7799
▁किर	-7800
▁नौकर	-7801
▁प्राप	-7802
▁हल्के	-7803
▁अंशदान	-7804
▁घनिष्ठ	-7805
▁जाएँगी	-7806
▁पूर्णतः	-7807
▁अनुस्मृति	-7808
▁परिस्थिति	-7809
▁वार्तालाप	-7810
▁प्रभावशाली	-7811
गों	-7812
▁90	-7813
▁ढी	-7814
ड्डी	-7815
फीति	-7816
▁आख़	-7817
▁नवा	-7818
▁दत्त	-7819
▁वादी	-7820
▁सेवन	-7821
▁सौदे	-7822
▁कर्सर	-7823
▁जॉर्ज	-7824
▁पाण्ड	-7825
धिकारिक	-7826
ष्टाचार	-7827
▁हार्डवेयर	-7828
TP	-7829
लेन	-7830
ल्फ	-7831
पीसी	-7832
▁गोर	-7833
▁घाट	-7834
▁रिए	-7835
ख़बरी	-7836
▁बाएं	-7837
▁अपलोड	-7838
▁निराश	-7839
▁प्रबल	-7840
▁मल्टी	-7841
▁मध्यस्थ	-7842
▁क्रांतिक	-7843
id	-7844
जय	-7845
वाणी	-7846
▁रहम	-7847
▁होश	-7848
▁ख़ैर	-7849
▁नीला	-7850
▁मोटे	-7851
▁जानती	-7852
▁बारिश	-7853
▁भयानक	-7854
क्योंकि	-7855
▁एजेंसी	-7856
▁नवम्बर	-7857
▁प्रसारण	-7858
▁व्याकरण	-7859
▁अनुमानित	-7860
▁इलाहाबाद	-7861
▁प्राधिकारी	-7862
▁ड़	-7863
▁फू	-7864
ould	-7865
ोत्स	-7866
▁घेर	-7867
▁बूट	-7868
▁भगत	-7869
▁आईटी	-7870
▁पुष्	-7871
▁फलों	-7872
▁मेटा	-7873
▁कोयला	-7874
▁अन्तिम	-7875
▁स्नायु	-7876
▁दस्तावेजों	-7877
टीय	-7878
चेंज	-7879
भाषण	-7880
ूनों	-7881
▁चुक	-7882
▁मोर	-7883
▁आएगी	-7884
▁आन्द	-7885
▁पावर	-7886
▁अलिफ़	-7887
▁बढ़ना	-7888
▁लोकता	-7889
▁समापन	-7890
▁अकादमी	-7891
▁अनुभाग	-7892
▁उपायों	-7893
▁सुपुर्द	-7894
▁स्थितियों	-7895
ख़ा	-7896
▁2.	-7897
ज़ाम	-7898
श्री	-7899
▁कम्	-7900
▁वृह	-7901
▁कुंज	-7902
▁क्रो	-7903
▁खाका	-7904
▁देनी	-7905
क्षरता	-7906
क्सीजन	-7907
▁अपूर्ण	-7908
▁कार्मिक	-7909
▁वर्षगांठ	-7910
▁विस्तारित	-7911
ोदय	-7912
मुना	-7913
सूरत	-7914
▁लाखों	-7915
▁मंदिरों	-7916
▁विद्वानों	-7917
▁लेखापरीक्षा	-7918
▁वाइ	-7919
ग्रही	-7920
▁अनंत	-7921
▁कहती	-7922
▁घेरे	-7923
▁पांव	-7924
क्साइड	-7925
▁दिखता	-7926
▁स्केल	-7927
▁हज़ार	-7928
▁निकलना	-7929
चिकित्सा	-7930
▁अक्टूबर	-7931
▁लानेवालो	-7932
vin	-7933
ायल	-7934
▁02	-7935
ट्ठा	-7936
ताएं	-7937
विंद	-7938
▁उदर	-7939
▁कमर	-7940
▁कैन	-7941
▁चन्द	-7942
▁परित	-7943
▁भेड़	-7944
▁मरने	-7945
▁नतीजा	-7946
ानुभूति	-7947
▁अद्भुत	-7948
▁गतिशील	-7949
▁पड़ोसी	-7950
▁रात्रि	-7951
▁लाभांश	-7952
▁साधनों	-7953
▁अपरिचित	-7954
▁जानेवाले	-7955
▁विक्रेता	-7956
ँक	-7957
ain	-7958
▁उग	-7959
खुदा	-7960
जनों	-7961
▁URL	-7962
▁ठाक	-7963
▁गुस्	-7964
▁रोचक	-7965
▁उपनाम	-7966
▁ज़बान	-7967
▁प्रभु	-7968
▁अपनाने	-7969
▁जिंदगी	-7970
▁ज्योति	-7971
▁झुठलाते	-7972
▁उपयोगिता	-7973
उल	-7974
खु	-7975
.01	-7976
बिट	-7977
▁काँ	-7978
▁सॉल	-7979
▁ऊँचे	-7980
▁कतार	-7981
▁गोला	-7982
▁डिज़	-7983
▁ड्रग	-7984
▁पचास	-7985
▁इंस्ट	-7986
▁उड़ान	-7987
▁डालना	-7988
▁तीसरी	-7989
▁भ्रमण	-7990
▁निवासी	-7991
▁यूनिकोड	-7992
▁शिक्षित	-7993
▁प्रस्तुति	-7994
▁फ़रिश्तों	-7995
▁रखनेवालों	-7996
▁एल्गोरिथ्म	-7997
-9	-7998
ype	-7999
गीय	-8000
ोगी	-8001
▁१६	-8002
आईटी	-8003
ख़्त	-8004
▁तित	-8005
▁मेर	-8006
▁कोने	-8007
▁टीवी	-8008
▁प्रक	-8009
▁जिसमे	-8010
▁पढ़ना	-8011
▁विकार	-8012
▁समितियों	-8013
▁प्रक्रियाओं	-8014
नत	-8015
ॉय	-8016
खने	-8017
गिर	-8018
पोर	-8019
ुरु	-8020
▁इट	-8021
▁भव	-8022
दादा	-8023
देशी	-8024
स्पी	-8025
▁बिख	-8026
यक्तिक	-8027
वादियों	-8028
ार्थियों	-8029
▁श्रीमती	-8030
गानिस्तान	-8031
▁प्लास्टिक	-8032
▁व्यावहारिक	-8033
80	-8034
हट	-8035
ory	-8036
वात	-8037
कांक	-8038
दण्ड	-8039
न्ता	-8040
▁जगत	-8041
▁पित	-8042
▁2015	-8043
▁ऊंचे	-8044
▁कशेर	-8045
▁बंबई	-8046
▁बाहम	-8047
▁सीखा	-8048
त्मकता	-8049
▁पूँजी	-8050
▁श्रव्य	-8051
▁नेअमतों	-8052
▁शैक्षणिक	-8053
▁अनुमतियाँ	-8054
ir	-8055
ंगत	-8056
ड़न	-8057
जिये	-8058
नाडा	-8059
▁वान	-8060
label	-8061
▁घाटा	-8062
▁ढलान	-8063
▁पनाह	-8064
▁योनि	-8065
▁सूरत	-8066
▁जहाँन	-8067
▁कवियों	-8068
▁शर्तें	-8069
▁हथियार	-8070
▁किताबें	-8071
▁हिस्सों	-8072
▁जागरूकता	-8073
ke	-8074
ile	-8075
जरी	-8076
ृष्ट	-8077
▁आएँ	-8078
▁माध	-8079
▁लसी	-8080
▁सज्	-8081
ड़ीसा	-8082
▁आपदा	-8083
▁ब्रॉ	-8084
▁क्रोध	-8085
▁गवाही	-8086
▁वेस्ट	-8087
▁सोचना	-8088
विश्वास	-8089
▁फ्लैग्स	-8090
▁रूपरेखा	-8091
▁विदेशों	-8092
▁सैनिकों	-8093
▁सौंदर्य	-8094
▁आधिकारिक	-8095
▁मानचित्र	-8096
▁शब्दावली	-8097
▁प्रशिक्षित	-8098
य्य	-8099
▁ओल	-8100
▁रन	-8101
ions	-8102
▁खुर	-8103
▁जगा	-8104
▁जनन	-8105
▁झों	-8106
▁बिछ	-8107
▁मधु	-8108
ख्वाह	-8109
▁2014	-8110
▁आघात	-8111
▁एंटर	-8112
▁डरता	-8113
▁दहला	-8114
▁दाएँ	-8115
▁पेपर	-8116
▁संगत	-8117
▁आंत्र	-8118
▁पक्का	-8119
▁बकाया	-8120
▁अभिन्न	-8121
▁आयातित	-8122
▁इसराईल	-8123
▁चित्रण	-8124
▁देखोगे	-8125
▁द्रव्य	-8126
▁पैटर्न	-8127
▁अद्वितीय	-8128
▁तारामंडल	-8129
▁राष्ट्रों	-8130
▁189	-8131
▁चैट	-8132
▁तैर	-8133
▁फीड	-8134
▁मौन	-8135
वश्यक	-8136
▁गठित	-8137
▁नाना	-8138
▁बताए	-8139
▁साइन	-8140
▁स्वै	-8141
▁उतारा	-8142
▁खोलना	-8143
▁मानों	-8144
▁हितों	-8145
▁नवीनतम	-8146
▁पर्यटक	-8147
▁समुच्च	-8148
▁अनुशासन	-8149
▁पुरुषों	-8150
▁रचनात्मक	-8151
▁रेगिस्तान	-8152
टके	-8153
पीठ	-8154
र्ची	-8155
▁अलब	-8156
▁आशय	-8157
▁दिश	-8158
▁बलि	-8159
▁कपड़ा	-8160
▁पत्ते	-8161
▁वापिस	-8162
▁दर्दनाक	-8163
▁ज़ालिमों	-8164
IS	-8165
ef	-8166
माद	-8167
▁खजा	-8168
▁दाँ	-8169
▁पठन	-8170
िकारक	-8171
▁घंटा	-8172
▁त्यो	-8173
▁नेको	-8174
▁परदा	-8175
▁पाइप	-8176
▁मोर्	-8177
▁दबाएँ	-8178
▁दायाँ	-8179
▁सहयोगी	-8180
▁आदमियों	-8181
▁पहुँचने	-8182
▁प्रचालन	-8183
▁बंदरगाह	-8184
▁ईमानवाले	-8185
gu	-8186
चौ	-8187
-19	-8188
ैंट	-8189
दिता	-8190
फूज़	-8191
वाने	-8192
▁ऑब्	-8193
▁नस्	-8194
▁मजा	-8195
▁इसमे	-8196
▁दौरे	-8197
▁राधा	-8198
▁अभिने	-8199
▁काटें	-8200
▁मतदान	-8201
ंत्रिकी	-8202
▁वस्तुएँ	-8203
▁प्रतिदान	-8204
▁सम्पत्ति	-8205
▁परहेज़गार	-8206
भंग	-8207
क्चर	-8208
राइट	-8209
रानी	-8210
▁अनो	-8211
▁बैल	-8212
▁झूठे	-8213
▁पौधा	-8214
▁लानत	-8215
▁अभयार	-8216
▁पकड़े	-8217
▁बजाएँ	-8218
▁मिलान	-8219
▁रवाना	-8220
▁स्राव	-8221
▁दरवाजे	-8222
▁निकाले	-8223
▁निवारण	-8224
▁सूचकांक	-8225
▁स्ट्रीम	-8226
▁असमर्थित	-8227
▁आयुर्वेद	-8228
▁निर्माता	-8229
▁प्रेमचन्द	-8230
हृ	-8231
ूलन	-8232
▁70	-8233
िलिक	-8234
▁कवर	-8235
▁सरी	-8236
द्रास	-8237
शिक्ष	-8238
▁2007	-8239
▁ऊंचा	-8240
▁नायक	-8241
▁कच्चे	-8242
▁गार्ड	-8243
▁जैविक	-8244
▁रूपों	-8245
▁हरिया	-8246
▁छवियों	-8247
▁दुर्गा	-8248
▁दुश्मन	-8249
▁अध्यापक	-8250
▁शॉर्टकट	-8251
▁सापेक्ष	-8252
▁अंतर्वस्तु	-8253
ah	-8254
किम	-8255
बुक	-8256
▁75	-8257
क्ष्	-8258
ोग्य	-8259
▁ढूँढ	-8260
▁लाएँ	-8261
▁विराम	-8262
▁वृक्क	-8263
▁मिटाया	-8264
▁इस्लामी	-8265
▁निवेदित	-8266
▁प्रतिकूल	-8267
▁मुख्यालय	-8268
▁वर्गीकृत	-8269
निर	-8270
पशप	-8271
बरत	-8272
सरत	-8273
ुति	-8274
दानी	-8275
▁बचे	-8276
▁भरत	-8277
ोग्रा	-8278
▁गपशप	-8279
▁नेमत	-8280
निर्भर	-8281
▁किशोर	-8282
▁नक्शे	-8283
▁श्वास	-8284
▁ग्रस्त	-8285
▁छोड़ने	-8286
▁सन्देश	-8287
▁क्रिस्ट	-8288
▁मुकाबले	-8289
▁देनेवाला	-8290
1}	-8291
ड्	-8292
▁गे	-8293
यंकर	-8294
शनिक	-8295
ोदित	-8296
▁कंक	-8297
▁सैक	-8298
दर्शक	-8299
्यारह	-8300
▁आईपी	-8301
▁नींव	-8302
▁रावण	-8303
▁अन्तः	-8304
▁कामया	-8305
▁ट्यूब	-8306
▁ठाकुर	-8307
▁तकलीफ	-8308
▁बैटरी	-8309
▁सैन्य	-8310
▁आह्वान	-8311
▁चुपचाप	-8312
▁स्वाधीन	-8313
▁निवेशकों	-8314
▁उत्पादकता	-8315
▁देशवासियों	-8316
कॉ	-8317
गिक	-8318
शान	-8319
▁32	-8320
ऊंगा	-8321
जारी	-8322
यायी	-8323
ादिर	-8324
▁करम	-8325
▁साख	-8326
र्देश	-8327
▁आंबे	-8328
▁आहरण	-8329
▁गोवा	-8330
▁दलील	-8331
▁मीम॰	-8332
▁समेट	-8333
▁ज़लील	-8334
▁देखिए	-8335
▁बिस्त	-8336
▁भारती	-8337
▁सकताः	-8338
स्क्रीन	-8339
▁कमज़ोर	-8340
▁कीमतों	-8341
▁मज़बूत	-8342
▁मददगार	-8343
▁विंडोज़	-8344
▁उत्कृष्टता	-8345
▁जक	-8346
क्से	-8347
धारक	-8348
यर्स	-8349
र्तग	-8350
▁रेट	-8351
▁लीग	-8352
▁लॉक	-8353
......	-8354
क्रमित	-8355
▁कराता	-8356
▁जर्मन	-8357
▁हल्की	-8358
▁किनारों	-8359
▁दीवारों	-8360
▁रिएक्टर	-8361
▁स्मार्ट	-8362
▁संकल्पना	-8363
▁विशेषताएं	-8364
▁translated	-8365
▁परियोजनाएं	-8366
▁स्थानांतरित	-8367
eg	-8368
लु	-8369
फेस	-8370
ैनी	-8371
्रम	-8372
▁उक	-8373
मुखी	-8374
लंका	-8375
▁बरस	-8376
▁मुआ	-8377
डियों	-8378
▁ख़ान	-8379
▁छिपी	-8380
▁समतल	-8381
ज्ञानी	-8382
▁कामों	-8383
▁सिखाया	-8384
▁स्तरों	-8385
▁प्रपत्र	-8386
▁प्रवासी	-8387
▁निःशुल्क	-8388
▁सेटिंग्स	-8389
▁आस्ट्रेलिया	-8390
▁उत्तरदायित्व	-8391
han	-8392
दाद	-8393
टीपी	-8394
ाइंट	-8395
▁बड़	-8396
▁रिट	-8397
▁संब	-8398
▁कुकी	-8399
▁पायी	-8400
यात्रा	-8401
▁अपनाई	-8402
▁उपभोग	-8403
▁न्यास	-8404
▁अनुकरण	-8405
▁अनुपालन	-8406
▁बहुतेरे	-8407
▁संग्रहण	-8408
▁उत्पादित	-8409
▁कहानियाँ	-8410
▁प्रोफाइल	-8411
▁समायोजित	-8412
▁कार्यकारी	-8413
end	-8414
शास	-8415
कक्ष	-8416
ड़का	-8417
प्पा	-8418
फ़्र	-8419
▁हँस	-8420
▁करूँ	-8421
▁टकरा	-8422
▁पैनल	-8423
▁फर्क	-8424
▁सजदे	-8425
▁पड़ना	-8426
▁पुनर्व	-8427
▁यात्री	-8428
▁विक्रय	-8429
▁आंबेडकर	-8430
▁चिपकाएँ	-8431
भाई	-8432
▁घृ	-8433
▁शर	-8434
एसएस	-8435
▁अवत	-8436
▁दूँ	-8437
▁शीत	-8438
▁सना	-8439
वर्सन	-8440
ष्कृत	-8441
▁2013	-8442
▁2020	-8443
▁अतएव	-8444
▁आरेख	-8445
▁उज्ज	-8446
▁सुगम	-8447
संरचना	-8448
▁एजेंट	-8449
▁पर्दा	-8450
▁संतान	-8451
▁सकेगी	-8452
▁नेताजी	-8453
▁सार्वभ	-8454
▁मज़दूरी	-8455
▁रोगियों	-8456
▁साझीदार	-8457
▁परंपरागत	-8458
▁सर्वप्रथम	-8459
▁सहानुभूति	-8460
▁शल्यक्रिया	-8461
Sh	-8462
टर्स	-8463
पश्च	-8464
्याम	-8465
▁पिघ	-8466
▁बीत	-8467
चंद्र	-8468
▁टोकन	-8469
▁ताजा	-8470
▁मौजि	-8471
▁सिमु	-8472
▁अवशेष	-8473
▁औरतों	-8474
▁खरगोश	-8475
▁ज़कात	-8476
▁वयस्क	-8477
▁अहिंसा	-8478
▁उड़ीसा	-8479
▁उपग्रह	-8480
▁सड़कों	-8481
▁सुनवाई	-8482
▁भावनाओं	-8483
▁मित्रता	-8484
▁रिज़र्व	-8485
▁गठ	-8486
-200	-8487
टिंग	-8488
▁बेन	-8489
▁मुर	-8490
▁शीट	-8491
पृष्ठ	-8492
लिस्ट	-8493
सूचना	-8494
▁http	-8495
▁आपात	-8496
▁कॉर्	-8497
▁बिछा	-8498
▁आस्था	-8499
▁संचरण	-8500
▁कहलाता	-8501
▁भगवान्	-8502
▁सिस्को	-8503
▁अवस्थित	-8504
▁विश्राम	-8505
▁शब्दकोश	-8506
▁सम्बद्ध	-8507
▁गुणसूत्र	-8508
ext	-8509
कर्	-8510
ताई	-8511
दोष	-8512
न्य	-8513
राव	-8514
लंब	-8515
लीम	-8516
हाद	-8517
▁अखंड	-8518
▁आईसी	-8519
▁उठता	-8520
▁कतरा	-8521
▁ग्लो	-8522
▁चुनी	-8523
▁निशा	-8524
▁जिलों	-8525
▁संचित	-8526
र्याप्त	-8527
▁अवलोकन	-8528
▁दिखाते	-8529
▁मामूली	-8530
प्लिकेशन	-8531
▁निमंत्र	-8532
▁स्कूलों	-8533
▁अभयारण्य	-8534
▁याचिकाकर्ता	-8535
▁ः	-8536
कोड	-8537
जना	-8538
नगर	-8539
▁ऊन	-8540
म्बे	-8541
ोल्ट	-8542
▁एकड़	-8543
▁डालर	-8544
▁बुढ़	-8545
▁असत्य	-8546
▁लगेगा	-8547
▁अर्जुन	-8548
▁मद्रास	-8549
▁महफूज़	-8550
▁रचनाओं	-8551
▁लेखकों	-8552
▁सहभागी	-8553
▁अधिवेशन	-8554
▁अनुसूची	-8555
▁महासागर	-8556
▁सबवर्सन	-8557
▁कृतज्ञता	-8558
40	-8559
.00	-8560
र्इ	-8561
▁उम	-8562
चरित	-8563
वेदी	-8564
शिंग	-8565
▁नाभ	-8566
▁नेप	-8567
▁माफ	-8568
▁रेत	-8569
▁वेग	-8570
च्चार	-8571
ब्लिक	-8572
▁आगमन	-8573
▁मज़े	-8574
▁मोदी	-8575
▁श्ले	-8576
▁आकारः	-8577
▁त्रिप	-8578
▁मजबूर	-8579
▁रंगों	-8580
▁अलबत्ता	-8581
▁किताबों	-8582
▁चुंबकीय	-8583
▁ड्राइवर	-8584
▁मजदूरों	-8585
▁ज़बरदस्त	-8586
▁परिपूर्ण	-8587
▁स्वादिष्ट	-8588
▁प्रतिस्पर्धा	-8589
-5	-8590
.03	-8591
.07	-8592
ock	-8593
परक	-8594
rica	-8595
गमूल	-8596
लब्ध	-8597
▁अंज	-8598
▁दमन	-8599
▁नरम	-8600
्रपान	-8601
▁इण्ड	-8602
▁पूरक	-8603
▁लपेट	-8604
▁सब्ज	-8605
▁क़ायम	-8606
▁क्रोम	-8607
प्ताहिक	-8608
▁पुर्तग	-8609
▁माइक्र	-8610
▁सृष्टि	-8611
▁प्रदत्त	-8612
▁निरपेक्ष	-8613
▁फ़रिश्ते	-8614
ML	-8615
ंर	-8616
आस	-8617
खना	-8618
फ़े	-8619
फ्फ	-8620
मंद	-8621
म्य	-8622
ोलो	-8623
▁लल	-8624
क्षे	-8625
▁खाओ	-8626
▁डेम	-8627
▁गनोम	-8628
▁अमानत	-8629
▁पढ़ें	-8630
▁बुखार	-8631
▁इलाकों	-8632
▁वर्गमूल	-8633
▁विचित्र	-8634
▁प्रतिवर्ष	-8635
डम	-8636
▁`	-8637
ert	-8638
ब्ध	-8639
▁अठ	-8640
चक्र	-8641
ुम्ब	-8642
▁तदन	-8643
बन्दी	-8644
▁2017	-8645
▁माला	-8646
▁रोमा	-8647
▁गुलाम	-8648
▁चिंतन	-8649
▁मुल्क	-8650
▁विधिक	-8651
▁सेकंड	-8652
सामग्री	-8653
▁तत्त्व	-8654
▁बिगाड़	-8655
▁भंडारित	-8656
ER	-8657
og	-8658
िद	-8659
ौन	-8660
gle	-8661
मुझे	-8662
▁लहर	-8663
▁विप	-8664
▁विय	-8665
शास्त	-8666
शीर्ष	-8667
▁कन्न	-8668
▁गोरा	-8669
▁दलों	-8670
▁संकल	-8671
▁समीप	-8672
▁अर्जी	-8673
▁घुमाव	-8674
▁टैगोर	-8675
▁नामों	-8676
▁मर्या	-8677
व्यवहार	-8678
▁उद्यमी	-8679
▁खुल्ला	-8680
▁मेजबान	-8681
▁ब्राउज़	-8682
▁मनोरंजन	-8683
▁गतिविधियां	-8684
▁z	-8685
िएशन	-8686
▁एंट	-8687
▁धनी	-8688
▁लेट	-8689
▁हॉल	-8690
प्रेस	-8691
स्वती	-8692
▁डेवल	-8693
▁फौरन	-8694
▁अभिया	-8695
▁दरख्त	-8696
▁पत्ता	-8697
▁व्यास	-8698
▁स्नान	-8699
▁टुकड़ा	-8700
▁डिवाइस	-8701
▁कड़ियाँ	-8702
▁पुकारते	-8703
▁ब्रह्मा	-8704
▁संप्रती	-8705
▁पारदर्शी	-8706
▁उम्मीदवार	-8707
▁अनुकम्पाओं	-8708
▁हस्ताक्षरित	-8709
▁01	-8710
▁45	-8711
रेशन	-8712
ुल्य	-8713
▁जबर	-8714
▁ताक	-8715
▁बसा	-8716
▁शनि	-8717
ताबिक	-8718
▁झूठा	-8719
▁माफ़	-8720
▁हर्ष	-8721
▁अतिथि	-8722
▁भूगोल	-8723
▁मुफ्त	-8724
▁हममें	-8725
निर्माण	-8726
▁अस्थिर	-8727
▁ग्यारह	-8728
▁तुरन्त	-8729
▁अक्षरों	-8730
▁अभिभाषण	-8731
▁लाभप्रद	-8732
▁काफ़िरों	-8733
▁शास्त्री	-8734
▁प्राणियों	-8735
▁साप्ताहिक	-8736
ID	-8737
are	-8738
कथा	-8739
तीन	-8740
यता	-8741
हरण	-8742
▁इश	-8743
▁गज	-8744
▁छव	-8745
▁११	-8746
ahoo	-8747
कृमि	-8748
पुरा	-8749
▁खाई	-8750
▁घने	-8751
▁पिन	-8752
▁मोल	-8753
स्राव	-8754
▁आजाद	-8755
संबंधी	-8756
▁अंतरा	-8757
▁ट्रेड	-8758
▁बोलना	-8759
▁भयंकर	-8760
▁इसलिये	-8761
▁दिशानि	-8762
▁पाएंगे	-8763
▁शस्त्र	-8764
▁क्लाइंट	-8765
▁मुताबिक	-8766
▁आकांक्षा	-8767
▁दार्शनिक	-8768
▁बांग्लादेश	-8769
39	-8770
tic	-8771
तिल	-8772
ंटिक	-8773
क्रा	-8774
बिया	-8775
▁टोक	-8776
▁डिफ	-8777
▁फोट	-8778
▁बाय	-8779
▁रोड	-8780
▁शैल	-8781
त्तीस	-8782
दाबाद	-8783
बाक्स	-8784
▁नानक	-8785
▁मोटा	-8786
▁उठाकर	-8787
▁किराए	-8788
▁नम्बर	-8789
▁निंदा	-8790
▁धर्मों	-8791
▁पोर्टल	-8792
▁साक्षा	-8793
▁अत्याचार	-8794
▁संरक्षित	-8795
▁स्वच्छता	-8796
▁विचारधारा	-8797
▁प्रणालियों	-8798
▁क्रांतिकारी	-8799
45	-8800
pp	-8801
बस	-8802
.02	-8803
859	-8804
ital	-8805
आईसी	-8806
एमएस	-8807
कोटा	-8808
साफ़	-8809
▁इता	-8810
▁ऑटो	-8811
▁घंट	-8812
▁लची	-8813
मिश्र	-8814
▁आईएस	-8815
▁किमी	-8816
▁क्लब	-8817
▁गुर्	-8818
▁नारी	-8819
▁पोषक	-8820
▁बेहत	-8821
▁सटीक	-8822
▁अनियम	-8823
▁परवाह	-8824
▁विलंब	-8825
▁प्रचुर	-8826
▁शृंखला	-8827
▁भागीदार	-8828
▁विकासशील	-8829
-7	-8830
erm	-8831
बिन	-8832
▁वध	-8833
आईडी	-8834
▁नाव	-8835
▁लाप	-8836
▁शोथ	-8837
ग्राह	-8838
बाज़ी	-8839
▁अभिर	-8840
▁ईस्ट	-8841
▁जंतु	-8842
▁तरंग	-8843
▁मेगा	-8844
▁मेवे	-8845
▁फारसी	-8846
▁लसीका	-8847
▁शिश्न	-8848
ख्तेयार	-8849
▁नस्लों	-8850
▁पेड़ों	-8851
▁कविताओं	-8852
▁परिपत्र	-8853
▁विख्यात	-8854
▁साक्षरता	-8855
▁सूचीबद्ध	-8856
AP	-8857
\\	-8858
ौफ	-8859
ard	-8860
चों	-8861
िकर	-8862
गंगा	-8863
न्ने	-8864
▁एटी	-8865
▁आजीव	-8866
▁भ्रम	-8867
▁सदृश	-8868
▁समेक	-8869
पीडीएफ	-8870
▁अफसोस	-8871
▁पाउंड	-8872
▁रहोगे	-8873
▁रोबोट	-8874
▁टिप्पण	-8875
▁दुबारा	-8876
▁फरमाया	-8877
▁बैकेंड	-8878
▁मास्टर	-8879
▁अपशिष्ट	-8880
▁संक्षेप	-8881
▁संग्राम	-8882
▁कार्यशील	-8883
▁दीक्षांत	-8884
▁शक्तियां	-8885
▁संग्रहित	-8886
▁क्षेत्रफल	-8887
▁स्थानांतरण	-8888
ुका	-8889
चालक	-8890
ढ़ने	-8891
प्ले	-8892
स्की	-8893
ोहित	-8894
▁कुर	-8895
▁पवन	-8896
▁शपथ	-8897
▁अभिम	-8898
▁आवेद	-8899
▁डिस्	-8900
▁पुणे	-8901
▁मुहर	-8902
▁रंगः	-8903
▁जानकर	-8904
▁टेस्ट	-8905
▁निकास	-8906
▁सौंपा	-8907
▁स्टाफ	-8908
त्रियों	-8909
▁निरस्त	-8910
▁बिस्तर	-8911
▁लार्वा	-8912
▁अनियमित	-8913
▁लक्ष्मी	-8914
▁समुच्चय	-8915
▁दिशानिर्देश	-8916
ंडर	-8917
गिन	-8918
वटी	-8919
सुर	-8920
ateg	-8921
पंथी	-8922
▁एजे	-8923
▁मुक	-8924
▁गणेश	-8925
▁नजात	-8926
▁निवल	-8927
▁बाबा	-8928
▁हिमन	-8929
▁क्रिस	-8930
▁पड़ोस	-8931
▁परिपथ	-8932
▁सुदूर	-8933
▁उन्नयन	-8934
▁रखरखाव	-8935
▁सांसार	-8936
▁हनुमान	-8937
▁अनुयायी	-8938
▁कानूनों	-8939
▁क्रमादेश	-8940
▁देवनागरी	-8941
▁वैयक्तिक	-8942
▁संभावनाएं	-8943
ऍं	-8944
काज	-8945
डोर	-8946
बीस	-8947
िंट	-8948
▁शव	-8949
▁(200	-8950
▁2008	-8951
▁बाँध	-8952
▁बिंब	-8953
▁मिया	-8954
▁लोहे	-8955
क्यांश	-8956
▁आंखें	-8957
▁पूछते	-8958
▁सिन्ध	-8959
▁सेंटर	-8960
▁क्रमशः	-8961
▁नारियल	-8962
▁मन्दिर	-8963
▁हिन्दु	-8964
▁अनुभूति	-8965
▁आन्दोलन	-8966
▁गुजराती	-8967
▁चमत्कार	-8968
▁लक्ष्यों	-8969
▁अपर्याप्त	-8970
▁प्रस्थिति	-8971
▁शास्त्रीय	-8972
ter	-8973
विष	-8974
्टन	-8975
जोरी	-8976
ब्बत	-8977
स्टन	-8978
स्पद	-8979
▁असंत	-8980
▁ठहरे	-8981
▁सबका	-8982
▁अभिनय	-8983
▁आखिरी	-8984
▁पढ़ते	-8985
▁संघीय	-8986
▁संतति	-8987
▁छोड़ना	-8988
▁पॉलिसी	-8989
▁मानकों	-8990
▁रणनीति	-8991
▁व्यायाम	-8992
▁अनुमोदित	-8993
▁आनुवंशिक	-8994
▁श्रीलंका	-8995
▁पूर्ववर्ती	-8996
Ch	-8997
हू	-8998
ंजा	-8999
पाठ	-9000
महा	-9001
ाहट	-9002
बंधन	-9003
ूर्व	-9004
▁गरम	-9005
▁बकर	-9006
▁मर्	-9007
▁लाओ	-9008
▁घातक	-9009
▁रसोई	-9010
▁सर्प	-9011
▁सुनो	-9012
▁इंद्र	-9013
▁एजेंस	-9014
▁दवाओं	-9015
▁पुष्ट	-9016
▁ब्लॉक	-9017
▁मुहलत	-9018
▁लॉन्च	-9019
ategory	-9020
▁अधिकरण	-9021
▁डेल्टा	-9022
▁आंकड़ों	-9023
▁जाएँगें	-9024
▁दूरसंचार	-9025
▁क्षतिपूर्ति	-9026
वाय	-9027
हक़	-9028
ैंस	-9029
ोही	-9030
▁(2	-9031
▁जॉ	-9032
▁बछ	-9033
ँचना	-9034
छोटे	-9035
शियन	-9036
ालों	-9037
▁बरफ	-9038
रिलिक	-9039
ोत्सव	-9040
▁इबरत	-9041
▁क्षय	-9042
▁गोया	-9043
▁फ्री	-9044
▁स्वे	-9045
▁पूजते	-9046
▁स्नेह	-9047
जहन्नुम	-9048
▁असफलता	-9049
▁बढ़िया	-9050
▁विलियम	-9051
▁सेवाएँ	-9052
▁हड़ताल	-9053
▁दोस्तों	-9054
▁पूर्णता	-9055
▁फ़ंक्शन	-9056
▁अनुप्रयोगों	-9057
ैब	-9058
दरी	-9059
रोग	-9060
शिप	-9061
कारक	-9062
लाया	-9063
लीफ़	-9064
वीएस	-9065
▁कूद	-9066
▁कैद	-9067
▁छोर	-9068
▁फर्	-9069
▁वहन	-9070
केतिक	-9071
▁कमाई	-9072
▁गाने	-9073
▁तख्त	-9074
▁बजाए	-9075
▁सोना	-9076
▁असमान	-9077
▁इताअत	-9078
▁खाड़ी	-9079
▁खेतों	-9080
▁दूँगा	-9081
▁पथभ्र	-9082
▁मानने	-9083
▁लेखकः	-9084
▁अर्द्ध	-9085
▁गरीबों	-9086
▁प्रौढ़	-9087
▁मुद्दा	-9088
▁पर्वतीय	-9089
▁सांसारिक	-9090
▁आज्ञाकारी	-9091
▁परिकल्पना	-9092
▁प्राधिकृत	-9093
,5	-9094
.7	-9095
ंचन	-9096
जिंग	-9097
▁फुल	-9098
▁बां	-9099
▁भोज	-9100
▁हिर	-9101
▁उपर्	-9102
▁नासा	-9103
▁मणिप	-9104
▁अल्फा	-9105
▁क्लास	-9106
▁पूछना	-9107
▁दीवाना	-9108
▁अस्वीकृत	-9109
▁एचटीएमएल	-9110
eb	-9111
ूसु	-9112
▁झे	-9113
मानत	-9114
रांत	-9115
र्षि	-9116
सूचक	-9117
हासन	-9118
▁सुम	-9119
व्यों	-9120
संख्य	-9121
▁अंडा	-9122
▁देहा	-9123
▁मंदी	-9124
▁माया	-9125
▁पट्टे	-9126
▁उच्चतर	-9127
▁चित्रों	-9128
▁इन्होंने	-9129
▁उत्सर्जन	-9130
▁धूम्रपान	-9131
▁क्रियाकला	-9132
▁पंक्तियों	-9133
▁विषयवस्तु	-9134
दिश	-9135
▁08	-9136
शोधन	-9137
ुतोष	-9138
▁इंज	-9139
▁पहे	-9140
बॉक्स	-9141
▁दुखी	-9142
▁सबूत	-9143
▁असफलः	-9144
▁जगहों	-9145
▁बताते	-9146
▁अन्याय	-9147
▁फिटकार	-9148
▁समर्पण	-9149
▁सिनेमा	-9150
▁चाहूंगा	-9151
▁सितम्बर	-9152
▁स्थिरता	-9153
▁ट्रैकिंग	-9154
▁साइरिलिक	-9155
▁प्रतिज्ञा	-9156
▁उपलब्धियों	-9157
3)	-9158
ुख	-9159
ग्व	-9160
प्प	-9161
मंच	-9162
▁ढ़	-9163
मिति	-9164
▁फीट	-9165
▁फौज	-9166
पुस्त	-9167
ष्ठान	-9168
▁एण्ड	-9169
▁कलाम	-9170
▁भरना	-9171
▁वसूल	-9172
▁कार्ट	-9173
▁खुराक	-9174
▁खुलने	-9175
▁खेलने	-9176
▁नामित	-9177
▁माहौल	-9178
▁मुम्ब	-9179
▁शुष्क	-9180
त्तियां	-9181
▁मुकदमे	-9182
▁स्नातक	-9183
प्रदायिक	-9184
१०	-9185
ंजक	-9186
ट्ठ	-9187
ोला	-9188
न्थि	-9189
ारिज	-9190
▁पैन	-9191
▁म्यू	-9192
▁अवतरण	-9193
▁कनाडा	-9194
▁ग्रेड	-9195
▁छोड़े	-9196
▁तुर्क	-9197
▁मंजूर	-9198
▁मारते	-9199
▁यौगिक	-9200
▁लंबवत	-9201
▁लाहौर	-9202
▁इस्पात	-9203
▁मत्स्य	-9204
▁सर्वथा	-9205
▁स्थलों	-9206
▁समाजवादी	-9207
▁सांकेतिक	-9208
▁भ्रष्टाचार	-9209
▁इंजीनियरिंग	-9210
ोफ	-9211
अंग	-9212
समझ	-9213
▁उधर	-9214
▁फाइ	-9215
▁लखन	-9216
वारिक	-9217
▁इल्म	-9218
▁गायब	-9219
▁पढ़े	-9220
▁पर्ण	-9221
▁मुख़	-9222
▁समयः	-9223
▁इकट्ठे	-9224
▁लक्षणों	-9225
वैज्ञानिक	-9226
▁संस्थाएं	-9227
डब	-9228
अर्	-9229
नीस	-9230
ject	-9231
कावट	-9232
तत्व	-9233
वालय	-9234
ापुर	-9235
ुलिप	-9236
▁org	-9237
▁टॉम	-9238
▁बफर	-9239
ोरिया	-9240
्यूरो	-9241
▁2001	-9242
▁अंधा	-9243
▁डालो	-9244
▁फ्रा	-9245
▁बांड	-9246
▁लगाई	-9247
▁अंकुर	-9248
▁चित्त	-9249
▁दशकों	-9250
▁भित्त	-9251
▁स्वाय	-9252
▁हास्य	-9253
▁अन्जाम	-9254
▁राजाओं	-9255
▁संबन्ध	-9256
▁बेटियाँ	-9257
▁स्टार्ट	-9258
▁लोकतांत्रिक	-9259
थाम	-9260
▁डू	-9261
ोसिस	-9262
▁500	-9263
▁ऊँट	-9264
▁घों	-9265
▁राव	-9266
ोनिया	-9267
▁ईरान	-9268
▁फूँक	-9269
▁रत्न	-9270
▁शर्म	-9271
▁स्का	-9272
▁हरित	-9273
िस्तान	-9274
▁ग्रुप	-9275
▁दर्शक	-9276
▁दूंगा	-9277
▁गिरावट	-9278
▁श्रोता	-9279
▁कार्यकाल	-9280
▁हानिकारक	-9281
▁निष्पादित	-9282
दक	-9283
.06	-9284
पत्	-9285
वाक	-9286
▁36	-9287
▁IS	-9288
▁रम	-9289
ब्रू	-9290
लेटर	-9291
▁185	-9292
▁एपी	-9293
▁हकी	-9294
ार्कट	-9295
▁गुज़	-9296
▁बंधन	-9297
▁वैसी	-9298
स्वामी	-9299
▁कानों	-9300
▁बदलते	-9301
▁बर्तन	-9302
▁शिविर	-9303
▁हफ्ते	-9304
▁should	-9305
▁पहलुओं	-9306
▁पूछताछ	-9307
पैग़म्बर	-9308
▁विभागों	-9309
▁संस्कार	-9310
▁औजारपट्टी	-9311
▁पुनर्प्राप्त	-9312
ंगर	-9313
राइ	-9314
सेक	-9315
ालन	-9316
▁पग	-9317
▁उखा	-9318
▁कुद	-9319
▁गढ़	-9320
▁भोग	-9321
▁शिर	-9322
▁सैर	-9323
क़्ति	-9324
ट्रिक	-9325
दायगी	-9326
▁एंटी	-9327
▁ठंडा	-9328
▁पीले	-9329
▁विज़	-9330
▁सन्त	-9331
▁कट्टर	-9332
▁तृतीय	-9333
▁संकुल	-9334
▁सीआरए	-9335
▁पहचाना	-9336
▁मुम्बई	-9337
▁लाएँगे	-9338
▁आजीविका	-9339
▁ग्रीष्म	-9340
▁निधियों	-9341
▁प्रतिफल	-9342
▁शब्दकूट	-9343
▁सरदारों	-9344
▁सुंदरता	-9345
▁कुंजीपटल	-9346
▁Q	-9347
ary	-9348
चयन	-9349
याद	-9350
संघ	-9351
िट्	-9352
▁गत	-9353
lect	-9354
व्यू	-9355
व्रत	-9356
▁BAR	-9357
▁अटक	-9358
-8859	-9359
क्टेड	-9360
शियों	-9361
▁विदा	-9362
िकीकरण	-9363
▁नोटिस	-9364
▁प्रीम	-9365
▁मौखिक	-9366
▁लम्बा	-9367
▁स्थूल	-9368
▁आचार्य	-9369
▁एकीकरण	-9370
▁निर्वाह	-9371
▁नीतियां	-9372
▁विकल्पः	-9373
▁विवेकान	-9374
▁कंपनियां	-9375
▁कोशिकाएं	-9376
▁विकल्पों	-9377
▁विन्यस्त	-9378
▁संक्रामक	-9379
▁translate	-9380
▁प्रौद्योगिक	-9381
उथ	-9382
सह	-9383
ton	-9384
▁२५	-9385
एफसी	-9386
▁गुट	-9387
▁धरो	-9388
▁पडा	-9389
▁सवे	-9390
दाश्त	-9391
बार्ड	-9392
मानों	-9393
▁क़दम	-9394
▁कृमि	-9395
▁घुसा	-9396
▁चार्	-9397
▁जवान	-9398
▁ड्यू	-9399
▁बढ़ी	-9400
▁बहुल	-9401
▁ब्यौ	-9402
▁मारी	-9403
▁सूखा	-9404
▁हरेक	-9405
▁आबंटन	-9406
▁मारने	-9407
▁रंगीन	-9408
▁निर्धन	-9409
▁प्रक्रम	-9410
▁प्रतिभू	-9411
▁संतुलित	-9412
▁सरस्वती	-9413
▁वाक्यांश	-9414
▁श्रेणियों	-9415
▁न्यायालयों	-9416
खल	-9417
.04	-9418
ठीक	-9419
बुल	-9420
ालू	-9421
▁लू	-9422
एसएल	-9423
भूषण	-9424
माही	-9425
सीमा	-9426
ॉर्म	-9427
▁असह	-9428
▁जन्	-9429
▁मेड	-9430
▁हेम	-9431
▁क्यो	-9432
▁टिका	-9433
▁फायर	-9434
▁सन्न	-9435
▁समझो	-9436
क्षमता	-9437
▁उपाधि	-9438
▁ख़त्म	-9439
▁तदबीर	-9440
▁निर्व	-9441
▁पिक्स	-9442
▁वैष्ण	-9443
▁साकार	-9444
▁गर्भाव	-9445
▁छिपाते	-9446
▁निम्ना	-9447
▁प्रताप	-9448
▁यूनानी	-9449
▁विनम्र	-9450
▁तीव्रता	-9451
▁बर्निंग	-9452
▁इंजीनियरी	-9453
▁एप्लिकेशन	-9454
▁पेट्रोलियम	-9455
-%	-9456
▁·	-9457
थ्य	-9458
दीन	-9459
पीजी	-9460
शीदा	-9461
स्वी	-9462
ुमारी	-9463
▁गुंज	-9464
▁गुहा	-9465
▁चलकर	-9466
▁बढ़ो	-9467
▁बाइट	-9468
▁रहकर	-9469
कोशिका	-9470
पोरेशन	-9471
▁सरलता	-9472
▁अस्थाई	-9473
▁उच्चार	-9474
▁निपटने	-9475
▁मिटाकर	-9476
▁फॉर्मेट	-9477
▁आस्तियों	-9478
▁अत्याचारी	-9479
▁बीमारियों	-9480
▁अफगानिस्तान	-9481
1)	-9482
ss	-9483
व्	-9484
ॉं	-9485
ग़ल	-9486
वाट	-9487
ायन	-9488
ोंग	-9489
विया	-9490
▁अज़	-9491
▁असा	-9492
▁काय	-9493
▁पसी	-9494
▁ह्य	-9495
▁१९८	-9496
oogle	-9497
yahoo	-9498
ज्ञाप	-9499
नियों	-9500
▁पटेल	-9501
▁पाती	-9502
▁वर्क	-9503
▁सिया	-9504
क्रिप्	-9505
म्प्ले	-9506
▁आयातक	-9507
▁दहकती	-9508
▁त्योहार	-9509
▁सुधारने	-9510
▁हड्डियों	-9511
गुआ	-9512
ट्ठी	-9513
न्सी	-9514
ब्रा	-9515
हार्	-9516
ान्स	-9517
▁ज्य	-9518
▁पतन	-9519
ार्थक	-9520
▁2012	-9521
▁गड़ब	-9522
▁जीने	-9523
▁दरें	-9524
▁पिंड	-9525
▁शाहज	-9526
▁हमले	-9527
▁कस्टम	-9528
▁क़द्र	-9529
▁चरणों	-9530
▁पकड़ा	-9531
▁प्रभा	-9532
▁क़ुबूल	-9533
▁जिन्ना	-9534
▁दुर्बल	-9535
▁पत्तों	-9536
▁पिताजी	-9537
▁प्रलेख	-9538
▁कोविन्द	-9539
▁केंद्रों	-9540
▁पथभ्रष्ट	-9541
▁परिणामों	-9542
▁नियन्त्रण	-9543
▁स्वाधीनता	-9544
▁विकिपीडियाः	-9545
ON	-9546
जै	-9547
वंत	-9548
ारह	-9549
ूदी	-9550
ॉजी	-9551
iver	-9552
उसकी	-9553
टिया	-9554
▁जोश	-9555
▁विघ	-9556
▁हेल	-9557
▁चमत्	-9558
▁पटना	-9559
▁बार्	-9560
▁मंज़	-9561
▁मापन	-9562
▁रूचि	-9563
▁सूखे	-9564
लांटिक	-9565
▁आश्रय	-9566
▁कारगर	-9567
▁तेज़ी	-9568
▁एनपीएस	-9569
▁नाटकों	-9570
▁काफिरों	-9571
▁जरूरतों	-9572
▁प्रतिमा	-9573
▁महादेवी	-9574
▁विशुद्ध	-9575
▁सिंहासन	-9576
▁उपर्युक्त	-9577
▁केन्द्रों	-9578
▁प्रतिबिंब	-9579
▁विशेषताओं	-9580
थल	-9581
ेत	-9582
ent	-9583
ome	-9584
थिल	-9585
दती	-9586
▁हौ	-9587
▁१४	-9588
न्दन	-9589
सिया	-9590
▁अटल	-9591
▁ऋषि	-9592
▁चौक	-9593
▁नाज	-9594
▁वसी	-9595
▁अंचल	-9596
▁अहमद	-9597
▁किन्	-9598
▁पीला	-9599
▁फोकस	-9600
▁बेगम	-9601
▁मधुर	-9602
▁रूसी	-9603
▁खौलते	-9604
▁जहाज़	-9605
▁नजदीक	-9606
▁खिड़की	-9607
▁तीक्ष्	-9608
▁प्रवर्	-9609
▁संकीर्ण	-9610
▁सशस्त्र	-9611
▁सुनेंगे	-9612
▁स्त्रोत	-9613
▁राष्ट्री	-9614
▁लड़कियों	-9615
▁हिन्दुओं	-9616
▁प्रतिबन्ध	-9617
▁प्रस्तावों	-9618
4)	-9619
दह	-9620
ुए	-9621
ज्ह	-9622
नेल	-9623
ादर	-9624
्टे	-9625
उनके	-9626
▁थाम	-9627
▁मोट	-9628
▁(197	-9629
▁आयाम	-9630
▁चर्च	-9631
▁दण्ड	-9632
▁बदली	-9633
ेन्द्र	-9634
▁अपडेट	-9635
▁अर्जन	-9636
▁केलिए	-9637
▁मार्ट	-9638
▁उर्वरक	-9639
▁चेन्नई	-9640
▁रंगमंच	-9641
▁वास्तु	-9642
▁स्थगित	-9643
▁उन्मूलन	-9644
▁लाभदायक	-9645
▁सूचनाएँ	-9646
▁एक्सचेंज	-9647
▁पत्तियों	-9648
▁प्रेमचंद	-9649
▁वरीयताएँ	-9650
▁विशेषाधिकार	-9651
▁प्रस्तुतीकरण	-9652
कोण	-9653
ोहण	-9654
उनकी	-9655
खड़ा	-9656
न्टी	-9657
पूरा	-9658
वानि	-9659
हाक़	-9660
िटरी	-9661
▁अवश	-9662
▁मग़	-9663
▁मुअ	-9664
▁लूट	-9665
Short	-9666
ियामक	-9667
▁अन्न	-9668
▁कापी	-9669
▁पतली	-9670
▁पाचन	-9671
▁रुख़	-9672
▁दिव्य	-9673
▁श्रेय	-9674
स्तियां	-9675
▁आख़ेरत	-9676
▁इसहाक़	-9677
▁नियोजन	-9678
▁सन्देह	-9679
▁दरवाज़े	-9680
▁प्रारम्भिक	-9681
od	-9682
ड़ो	-9683
बिर	-9684
ोत्	-9685
▁कछ	-9686
▁वग	-9687
▁शत	-9688
गणित	-9689
नायक	-9690
बड़े	-9691
राइड	-9692
श्चय	-9693
श्ती	-9694
ुकला	-9695
Count	-9696
बल्यू	-9697
▁छाती	-9698
▁दोषी	-9699
▁नोडल	-9700
▁बढ़े	-9701
▁मृदा	-9702
▁वाहक	-9703
▁समझे	-9704
विद्या	-9705
स्फीति	-9706
▁डेविड	-9707
▁नलिका	-9708
▁शर्मा	-9709
▁अब्दुल	-9710
▁आशुतोष	-9711
▁सर्वज्ञ	-9712
▁वित्तपोषण	-9713
-6	-9714
In	-9715
li	-9716
ंय	-9717
टु	-9718
ंगो	-9719
बंदी	-9720
सर्ग	-9721
स्टा	-9722
ूर्त	-9723
▁300	-9724
▁तौल	-9725
▁बला	-9726
▁बसे	-9727
▁बाघ	-9728
▁सेन	-9729
▁खोले	-9730
▁तेलु	-9731
▁बनते	-9732
▁ब्ला	-9733
▁यूसु	-9734
▁रिहा	-9735
▁शोषण	-9736
▁धरोहर	-9737
▁संयोग	-9738
▁सिंधु	-9739
▁तकलीफ़	-9740
▁तस्बीह	-9741
▁अन्वेषण	-9742
▁आसमानों	-9743
▁पृष्ठों	-9744
▁गुनाहगार	-9745
▁प्रवर्तन	-9746
▁संप्रतीक	-9747
▁कार्यालयों	-9748
',	-9749
.6	-9750
उसका	-9751
डेटा	-9752
द्दा	-9753
प्रो	-9754
म्बई	-9755
र्मा	-9756
▁अश्	-9757
▁कमे	-9758
▁कसौ	-9759
▁फॉर	-9760
▁वें	-9761
▁हैस	-9762
ंद्रह	-9763
रुद्ध	-9764
▁इष्ट	-9765
▁कमरा	-9766
▁लखनऊ	-9767
▁सपने	-9768
eeting	-9769
▁इंसान	-9770
▁गेहूं	-9771
▁मैथुन	-9772
▁शिष्ट	-9773
▁संकाय	-9774
▁स्टाक	-9775
▁अज्ञान	-9776
▁आबंटित	-9777
▁चिंतित	-9778
▁छत्तीस	-9779
▁ड्रग्स	-9780
▁दृढ़ता	-9781
क्रिप्शन	-9782
▁गुनाहों	-9783
▁महिलाएं	-9784
▁हरियाणा	-9785
▁प्रवृत्त	-9786
नक	-9787
ंजर	-9788
केश	-9789
बना	-9790
▁48	-9791
▁an	-9792
व्यय	-9793
्रीट	-9794
▁चूँ	-9795
▁बुत	-9796
▁सघन	-9797
istan	-9798
मण्डल	-9799
▁अनाथ	-9800
▁उक्त	-9801
▁उपजा	-9802
▁झुंड	-9803
▁फैली	-9804
▁वनों	-9805
▁अभिला	-9806
▁ऑंखों	-9807
▁पीड़क	-9808
▁बहुमत	-9809
▁विधाय	-9810
▁उत्सुक	-9811
▁उदासीन	-9812
▁पकड़ने	-9813
▁प्रशंस	-9814
▁यूनियन	-9815
▁लक्ष्मण	-9816
▁सतर्कता	-9817
▁पूर्णतया	-9818
,3	-9819
lic	-9820
ंदे	-9821
ाइस	-9822
कर्ण	-9823
▁अपी	-9824
▁एकक	-9825
▁कों	-9826
▁सिख	-9827
नेरिक	-9828
▁बंधक	-9829
रेटिंग	-9830
▁फायदे	-9831
▁सहेजी	-9832
▁अधिष्ठ	-9833
▁भेदभाव	-9834
▁महर्षि	-9835
▁प्रबन्धन	-9836
▁सम्पादित	-9837
▁होनेवाली	-9838
▁वास्तुकला	-9839
per	-9840
तिर	-9841
▁(0	-9842
गन्ध	-9843
जन्य	-9844
▁पिर	-9845
▁भूट	-9846
▁मुश	-9847
निहित	-9848
भक्ति	-9849
▁2011	-9850
▁आचार	-9851
▁छाँट	-9852
▁जीते	-9853
▁धारक	-9854
▁नीले	-9855
▁बनती	-9856
▁विषम	-9857
▁समता	-9858
▁कुदरत	-9859
▁सीखना	-9860
▁सुगंध	-9861
▁कुफ़्र	-9862
▁ठहराते	-9863
▁उत्पत्ति	-9864
▁संस्थापन	-9865
▁सिमुलेशन	-9866
▁क्रियान्वयन	-9867
गीर	-9868
तरह	-9869
ध्द	-9870
राई	-9871
सरे	-9872
िवि	-9873
▁Ch	-9874
▁झी	-9875
▁लड	-9876
भवती	-9877
वाहक	-9878
षकों	-9879
ियॉँ	-9880
▁अंट	-9881
▁कैर	-9882
.2018	-9883
जेक्ट	-9884
वाहिक	-9885
्रीकी	-9886
▁क्री	-9887
▁क्ले	-9888
▁मदों	-9889
▁राष्	-9890
ग्रन्थ	-9891
▁अनन्त	-9892
▁तत्पर	-9893
▁बाइंड	-9894
▁मरियम	-9895
▁समाना	-9896
▁करूंगा	-9897
▁पंद्रह	-9898
▁मुर्गी	-9899
▁प्रमाणन	-9900
▁फ़ॉर्मेट	-9901
▁स्वायत्त	-9902
▁सत्याग्रह	-9903
▁पूर्वोत्तर	-9904
▁परहेज़गारों	-9905
ंबू	-9906
तीब	-9907
▁is	-9908
▁सँ	-9909
ख़ास	-9910
न्टन	-9911
माइश	-9912
सलाम	-9913
सीपी	-9914
▁तक़	-9915
▁बिर	-9916
▁यहा	-9917
▁शाल	-9918
द्रिक	-9919
वक्ता	-9920
शिल्प	-9921
▁इजरा	-9922
▁इनाम	-9923
▁चेता	-9924
▁जुदा	-9925
▁त्यौ	-9926
▁दरों	-9927
▁दादी	-9928
▁नेवि	-9929
▁भण्ड	-9930
▁सॉफ़	-9931
▁हुये	-9932
▁एहसान	-9933
▁भीतरी	-9934
▁आरोग्य	-9935
▁उन्नति	-9936
▁कौंसिल	-9937
▁प्रेमी	-9938
▁मुहाफ़	-9939
▁विकृति	-9940
▁आश्वासन	-9941
▁राजनयिक	-9942
▁वक्तव्य	-9943
▁समकालीन	-9944
▁निर्णायक	-9945
▁रेखांकित	-9946
.3	-9947
नम	-9948
सद	-9949
ज्र	-9950
टुक	-9951
नें	-9952
उसके	-9953
रियल	-9954
वकों	-9955
▁अमी	-9956
▁इजा	-9957
▁उलझ	-9958
▁तुन	-9959
▁नित	-9960
▁पुत	-9961
▁बोर	-9962
▁मैच	-9963
▁साँ	-9964
▁पीना	-9965
▁मिलन	-9966
▁रंजन	-9967
▁द्रुत	-9968
▁निभाई	-9969
▁वैद्य	-9970
▁गवर्नर	-9971
▁पेशेवर	-9972
▁लोकसभा	-9973
▁सीवीएस	-9974
▁नाबार्ड	-9975
▁प्रदेशों	-9976
फन	-9977
mat	-9978
जुल	-9979
पोष	-9980
वेट	-9981
▁☻☻	-9982
star	-9983
तनाम	-9984
▁आइट	-9985
▁घोर	-9986
▁ताश	-9987
▁विस	-9988
▁वक्ष	-9989
▁सिंग	-9990
स्पष्ट	-9991
▁उर्वर	-9992
▁क़ब्र	-9993
▁घनत्व	-9994
▁बंगला	-9995
▁बनावट	-9996
▁अभिप्र	-9997
▁कुशलता	-9998
▁लड़कों	-9999
▁निष्पक्ष	-10000
▁केन्द्रित	-10001
▁सुपुर्दगी	-10002
%)	-10003
aj	-10004
दौ	-10005
ुद	-10006
रना	-10007
ापा	-10008
▁ठा	-10009
गोचर	-10010
बिले	-10011
सिंग	-10012
▁एनी	-10013
▁टेक	-10014
▁मनी	-10015
न्हें	-10016
▁अभिश	-10017
▁कोटा	-10018
▁पहने	-10019
▁फैले	-10020
▁सबकी	-10021
▁सरपर	-10022
▁स्पे	-10023
ुदायों	-10024
▁कमीशन	-10025
▁खासकर	-10026
▁गीतों	-10027
▁चार्ज	-10028
▁बूढ़े	-10029
▁शासित	-10030
▁अनुबंध	-10031
▁निकलते	-10032
▁परिमाण	-10033
▁ब्यूरो	-10034
▁मिथ्या	-10035
▁सेनाओं	-10036
▁हिब्रू	-10037
▁उपनिवेश	-10038
▁गर्भवती	-10039
▁मोहम्मद	-10040
▁उल्लेखित	-10041
▁परिदृश्य	-10042
▁पारिवारिक	-10043
▁स्वतन्त्र	-10044
▁कार्यकलापों	-10045
अब	-10046
oun	-10047
▁‘%	-10048
ड़ें	-10049
मापी	-10050
▁187	-10051
▁खपत	-10052
▁चूर	-10053
▁तने	-10054
▁थाई	-10055
▁दूत	-10056
▁सीट	-10057
तानों	-10058
लेमान	-10059
हमारे	-10060
▁कहकर	-10061
▁गयाः	-10062
▁बहती	-10063
▁यानि	-10064
▁सजीव	-10065
africa	-10066
▁क़रार	-10067
▁क़ाबू	-10068
▁नाट्य	-10069
बेहिश्त	-10070
▁आयुक्त	-10071
▁कर्मों	-10072
▁हिम्मत	-10073
▁उद्यमों	-10074
▁एमएसएमई	-10075
▁त्यौहार	-10076
▁दर्शाया	-10077
▁मर्यादा	-10078
▁अनिश्चित	-10079
▁दिलचस्पी	-10080
▁हड्डियाँ	-10081
▁परिपक्वता	-10082
▁गर्भावस्था	-10083
▁पुनरावृत्ति	-10084
ase	-10085
जीत	-10086
ड्स	-10087
बरे	-10088
आईबी	-10089
▁दाल	-10090
▁ध्य	-10091
▁नाच	-10092
▁रुस	-10093
▁रूह	-10094
▁लेब	-10095
नीकरण	-10096
▁1957	-10097
▁2010	-10098
▁अमीर	-10099
▁असुर	-10100
▁धमकी	-10101
▁लेनी	-10102
▁सुखद	-10103
▁जमारा	-10104
▁जोज़े	-10105
▁बक्से	-10106
▁बम्बई	-10107
▁माणिक	-10108
▁राजेश	-10109
▁वायुम	-10110
▁विक्ष	-10111
Country	-10112
▁दिखायी	-10113
▁पुनर्भ	-10114
▁नामांकन	-10115
▁सुधारों	-10116
▁फरिश्तों	-10117
▁संदर्भित	-10118
▁सांख्यिकी	-10119
▁आत्मनिर्भर	-10120
▁महाविद्यालय	-10121
▁मैत्रीपूर्ण	-10122
रह	-10123
एनए	-10124
वना	-10125
time	-10126
दिवस	-10127
नुअल	-10128
विले	-10129
ालीस	-10130
ैक्स	-10131
▁ऊर्	-10132
▁डाइ	-10133
▁थीम	-10134
▁थोक	-10135
▁शेख	-10136
एशिया	-10137
ग़ैरह	-10138
मेन्ट	-10139
▁गौतम	-10140
▁पद्म	-10141
▁मौके	-10142
▁खेलों	-10143
▁चुपके	-10144
▁जमाने	-10145
▁जीवंत	-10146
▁दर्जा	-10147
▁आपत्ति	-10148
▁कारकों	-10149
▁छवियाँ	-10150
▁दिवसीय	-10151
▁नज़दीक	-10152
▁भौतिकी	-10153
▁मशीनों	-10154
▁महाराज	-10155
▁शान्ति	-10156
▁कोरियाई	-10157
▁छत्तीसगढ़	-10158
▁पंक्तिबद्ध	-10159
ठक	-10160
ati	-10161
क़े	-10162
युग	-10163
ोनी	-10164
▁03	-10165
ंबार	-10166
▁चरम	-10167
▁बान	-10168
ख़्या	-10169
▁विगत	-10170
▁सेतु	-10171
ोग्राफ	-10172
▁उत्पा	-10173
▁कमेटी	-10174
▁चूँकि	-10175
▁ध्रुव	-10176
▁रुपया	-10177
▁लॉगइन	-10178
▁उद्धरण	-10179
▁घुमाएँ	-10180
▁नवीकरण	-10181
▁पोशीदा	-10182
▁मजबूती	-10183
▁वर्ल्ड	-10184
▁चलचित्र	-10185
▁पैदावार	-10186
▁सचिवालय	-10187
▁अनुपलब्ध	-10188
▁फ़ाइलनाम	-10189
▁माध्यमिक	-10190
▁निर्देशित	-10191
▁मांसपेशियों	-10192
8)	-10193
red	-10194
फान	-10195
मनी	-10196
लें	-10197
ाइश	-10198
िशा	-10199
▁${	-10200
▁१३	-10201
▁१७	-10202
ghan	-10203
गरीय	-10204
▁mon	-10205
▁कंस	-10206
▁रिच	-10207
.2012	-10208
आधारी	-10209
▁जीता	-10210
▁यज्ञ	-10211
indows	-10212
▁काटना	-10213
▁ज़रिए	-10214
▁देखती	-10215
▁प्रया	-10216
▁रस्सी	-10217
▁ह्रास	-10218
▁नीलामी	-10219
विज्ञानी	-10220
▁चिड़िया	-10221
ghanistan	-10222
▁ईमानदारी	-10223
▁निमंत्रण	-10224
▁प्रीमियम	-10225
▁रखनेवाले	-10226
▁संक्रमित	-10227
▁अभिव्यक्त	-10228
▁बुद्धिमान	-10229
▁प्रोग्रामिंग	-10230
sh	-10231
एआर	-10232
जील	-10233
तको	-10234
शकर	-10235
न्हा	-10236
स्के	-10237
▁कीं	-10238
▁फंड	-10239
▁1000	-10240
▁ऋणों	-10241
▁कोल्	-10242
▁क्षु	-10243
▁डेलि	-10244
▁बीबी	-10245
▁मेरु	-10246
▁मेले	-10247
▁आशंका	-10248
▁औषधीय	-10249
▁काल्प	-10250
▁टेम्प	-10251
▁मंगोल	-10252
▁मेहरा	-10253
▁वेदों	-10254
▁साधना	-10255
▁स्कीम	-10256
▁रोकथाम	-10257
▁वृत्ता	-10258
▁जानेवाली	-10259
▁देनेवाली	-10260
▁मूल्यवान	-10261
▁उपभोक्ताओं	-10262
Reg	-10263
ंधा	-10264
डाई	-10265
ण्ठ	-10266
तीस	-10267
▁ढु	-10268
टेनर	-10269
थरों	-10270
▁डरे	-10271
▁मूस	-10272
state	-10273
रेखित	-10274
▁अष्ट	-10275
▁एनआई	-10276
▁कैले	-10277
▁टाइल	-10278
▁निका	-10279
▁बैठी	-10280
▁मेला	-10281
▁इरादा	-10282
▁एकांत	-10283
▁कब्जा	-10284
▁करुणा	-10285
▁बैठने	-10286
▁वायरस	-10287
▁क़ुदरत	-10288
▁पाएँगे	-10289
▁मणिपुर	-10290
▁सेवानि	-10291
▁काल्पनिक	-10292
▁समुदायों	-10293
▁प्रगतिशील	-10294
▁प्रतिबद्धता	-10295
tr	-10296
जुट	-10297
▁एप	-10298
▁गॉ	-10299
ईमान	-10300
ज्या	-10301
▁अणु	-10302
▁एंप	-10303
▁खड़	-10304
▁मरे	-10305
▁ऑफिस	-10306
▁घायल	-10307
▁चोटी	-10308
▁फाइन	-10309
▁मुकर	-10310
▁मृतक	-10311
▁सपना	-10312
ढ़ियों	-10313
प्रदेश	-10314
भारतीय	-10315
ुदायिक	-10316
▁तलवार	-10317
▁प्रगा	-10318
▁महान्	-10319
▁विभेद	-10320
▁ख़राबी	-10321
▁पुत्री	-10322
▁मधुमक्	-10323
▁लैंगिक	-10324
▁बेहिश्त	-10325
▁मुकाबला	-10326
▁अत्याधिक	-10327
▁प्रस्थान	-10328
▁आश्चर्यजनक	-10329
▁पारदर्शिता	-10330
पता	-10331
विच	-10332
ारस	-10333
▁छल	-10334
▁हॆ	-10335
Char	-10336
किरा	-10337
शैली	-10338
▁आलू	-10339
▁उजा	-10340
फ्फुस	-10341
विधिक	-10342
हार्य	-10343
▁कारी	-10344
▁दुष्	-10345
▁शाही	-10346
▁समया	-10347
क्सिको	-10348
▁अड्डा	-10349
▁आगामी	-10350
▁घंटों	-10351
▁ध्येय	-10352
▁मनाही	-10353
▁वसीयत	-10354
▁हिमनद	-10355
▁नामकरण	-10356
▁पाठकों	-10357
▁माननीय	-10358
▁हेक्टे	-10359
▁वृक्षों	-10360
▁अभियुक्त	-10361
▁उत्तेजित	-10362
,%	-10363
II	-10364
बम	-10365
ंड़	-10366
चें	-10367
▁09	-10368
▁33	-10369
▁थक	-10370
मस्त	-10371
मोहन	-10372
स्का	-10373
ॉर्क	-10374
▁अड़	-10375
▁खाम	-10376
▁शार	-10377
ज्ज़त	-10378
न्नों	-10379
▁गाइड	-10380
▁घृणा	-10381
▁पठित	-10382
▁पढ़ी	-10383
▁मद्य	-10384
▁लीटर	-10385
▁साँस	-10386
▁हैंड	-10387
स्परिक	-10388
▁गिरने	-10389
▁ढूँढ़	-10390
▁नवजात	-10391
▁न्यूय	-10392
▁फिरते	-10393
▁बरबाद	-10394
▁करवाया	-10395
▁लम्बाई	-10396
▁वैष्णव	-10397
▁संकुचन	-10398
▁गंभीरता	-10399
▁प्रदाता	-10400
▁आविष्कार	-10401
▁न्यायपालिका	-10402
▁विनिर्दिष्ट	-10403
बला	-10404
रेज	-10405
वुड	-10406
िले	-10407
ैला	-10408
ोडे	-10409
▁शू	-10410
बन्द	-10411
य्या	-10412
रेखण	-10413
वाड़	-10414
▁आयत	-10415
▁कटा	-10416
नीयता	-10417
▁आइटम	-10418
▁कालि	-10419
▁चलें	-10420
▁दस्त	-10421
▁धमनी	-10422
▁ब्ले	-10423
▁संतृ	-10424
▁स्लो	-10425
पत्रों	-10426
श्लेषण	-10427
▁अनुमत	-10428
▁घटकों	-10429
▁घोड़ा	-10430
▁झगड़ा	-10431
▁भागने	-10432
▁भिक्ष	-10433
▁मंजिल	-10434
▁वर्षो	-10435
▁कानपुर	-10436
▁देखिये	-10437
▁नर्मदा	-10438
▁पड़ेगी	-10439
▁मन्त्र	-10440
▁अस्पष्ट	-10441
▁खूबसूरत	-10442
▁अधिसूचित	-10443
▁नियोक्ता	-10444
▁पारिस्थित	-10445
▁झुठलानेवालों	-10446
22	-10447
ब्स	-10448
श्क	-10449
▁३०	-10450
कहीं	-10451
ज़ाह	-10452
सन्न	-10453
सिडी	-10454
▁इना	-10455
▁पदक	-10456
▁मित	-10457
▁रोल	-10458
▁लवण	-10459
▁सूझ	-10460
▁खादी	-10461
▁खोली	-10462
▁धोखे	-10463
▁मृदु	-10464
▁लगना	-10465
वेदिता	-10466
▁एकजुट	-10467
▁चढ़ाई	-10468
▁बदलता	-10469
▁ब्लॉग	-10470
▁यमुना	-10471
▁राज़ी	-10472
▁लिपिक	-10473
▁विषयः	-10474
▁हटाया	-10475
▁अखंडता	-10476
▁संज्ञा	-10477
▁उच्चारण	-10478
▁वीकार्ड	-10479
▁अमानतदार	-10480
▁आतंकवादी	-10481
afghanistan	-10482
▁सॉफ़्टवेयर	-10483
▁उत्तराधिकारी	-10484
▁प्रतिभूतियों	-10485
?-	-10486
रज	-10487
▁०	-10488
iss	-10489
लिन	-10490
सें	-10491
एसटी	-10492
र्मर	-10493
विंग	-10494
ुत्व	-10495
ूस्त	-10496
▁ग्व	-10497
▁सता	-10498
नीतिक	-10499
र्मित	-10500
विवाद	-10501
▁आपरा	-10502
▁कोटि	-10503
▁जोशी	-10504
▁दीपा	-10505
▁पौंड	-10506
प्रेशन	-10507
मूर्ति	-10508
▁इंकार	-10509
▁इन्टर	-10510
▁ख़र्च	-10511
▁मिस्र	-10512
▁लड़ने	-10513
▁सवेरे	-10514
वैधानिक	-10515
▁हैसियत	-10516
▁ड्राफ्ट	-10517
▁महाद्वीप	-10518
राष्ट्रपति	-10519
▁अध्यक्षता	-10520
▁सामुदायिक	-10521
▁मुहाफ़ज़ाह	-10522
15	-10523
rip	-10524
िक़	-10525
▁04	-10526
लिता	-10527
्युन	-10528
▁अबु	-10529
▁छंद	-10530
योजना	-10531
▁menu	-10532
▁नुक़	-10533
▁पौरा	-10534
▁बाँट	-10535
▁भुला	-10536
आर्थिक	-10537
▁नक्शा	-10538
▁वीर्य	-10539
▁सख्ती	-10540
ोग्राफी	-10541
▁इज्ज़त	-10542
▁शिशुओं	-10543
▁हालिया	-10544
▁इंटरफेस	-10545
▁प्रशासक	-10546
▁खुशख़बरी	-10547
▁कार्यकलाप	-10548
समी	-10549
साफ	-10550
▁on	-10551
सिटी	-10552
▁कवक	-10553
▁गिल	-10554
▁मिर	-10555
मावली	-10556
वर्धक	-10557
▁मुआव	-10558
▁असफ़ल	-10559
▁कोयले	-10560
▁चुनना	-10561
▁डिबगर	-10562
▁बातिल	-10563
▁विधवा	-10564
▁हटाएं	-10565
▁अफ़सोस	-10566
▁अभियोग	-10567
▁दरवाजा	-10568
▁दांतों	-10569
▁रविवार	-10570
▁समेकित	-10571
शास्त्री	-10572
▁प्रगाढ़	-10573
▁वॉल्यूम	-10574
▁सरपरस्त	-10575
▁कठिनाइयों	-10576
▁पारस्परिक	-10577
Cal	-10578
निश	-10579
गुना	-10580
ज़ूद	-10581
देशक	-10582
नाशी	-10583
▁150	-10584
▁झलक	-10585
▁ठंड	-10586
▁फाल	-10587
▁रपट	-10588
र्तिक	-10589
▁(199	-10590
▁1999	-10591
▁कृषक	-10592
▁चालक	-10593
▁जूते	-10594
▁फ़ोन	-10595
▁रुजू	-10596
र्निया	-10597
▁month	-10598
▁कसौटी	-10599
▁कीड़े	-10600
▁कुष्ठ	-10601
▁पित्त	-10602
▁मकबरा	-10603
▁महिमा	-10604
▁शिष्य	-10605
▁साम्य	-10606
▁इच्छुक	-10607
▁बंगाली	-10608
▁भाइयों	-10609
▁अंतरफलक	-10610
▁कुंजीपट	-10611
▁अंटार्कट	-10612
▁करनेवाली	-10613
▁गुनाहगारों	-10614
.-	-10615
10	-10616
ue	-10617
ह्	-10618
Imp	-10619
usa	-10620
संप	-10621
ोशी	-10622
▁मठ	-10623
पैदा	-10624
वायर	-10625
▁दाब	-10626
▁मणी	-10627
▁मसू	-10628
▁मों	-10629
ज्जित	-10630
निवेश	-10631
पुष्प	-10632
लाधार	-10633
विशेष	-10634
▁चलाए	-10635
▁पहना	-10636
▁बताओ	-10637
▁लगीं	-10638
▁स्नि	-10639
▁अंगूर	-10640
▁फैसले	-10641
ट्रिक्स	-10642
▁Google	-10643
▁अप्रति	-10644
▁आरक्षण	-10645
▁कामकाज	-10646
▁ग्रसनी	-10647
▁ढूंढने	-10648
▁दादाओं	-10649
▁परिषद्	-10650
▁बरसाया	-10651
▁वृद्धा	-10652
▁संख्याः	-10653
▁अभिप्राय	-10654
▁शिकायतों	-10655
▁संवैधानिक	-10656
ategoryName	-10657
.4	-10658
ip	-10659
ईस	-10660
उत्	-10661
नरी	-10662
रणी	-10663
वाइ	-10664
▁1/2	-10665
▁भीम	-10666
▁मदर	-10667
▁लौह	-10668
▁HTML	-10669
▁एसोस	-10670
▁झाड़	-10671
▁दायर	-10672
▁पराग	-10673
▁पुरी	-10674
▁फेरा	-10675
▁लिफा	-10676
▁इंगित	-10677
▁खुदरा	-10678
▁नियति	-10679
▁पक्षा	-10680
▁बक्सा	-10681
▁बचाया	-10682
▁माउंट	-10683
▁मौसमः	-10684
▁स्पैम	-10685
िश्रमिक	-10686
▁क़ादिर	-10687
▁कुर्सी	-10688
▁चट्टान	-10689
▁महावीर	-10690
▁फेफड़ों	-10691
▁पहुंचाने	-10692
▁अर्थशास्त्र	-10693
▁कार्यपालिका	-10694
▁श्रद्धांजलि	-10695
▁साक्षात्कार	-10696
",	-10697
6)	-10698
आम	-10699
इश	-10700
ece	-10701
esh	-10702
int	-10703
out	-10704
असल	-10705
ख़ी	-10706
ोना	-10707
lock	-10708
अपना	-10709
चारा	-10710
न्नी	-10711
पर्व	-10712
▁पला	-10713
▁पैक	-10714
▁बगी	-10715
थियों	-10716
न्नति	-10717
▁कटाई	-10718
▁द्रो	-10719
▁मंडप	-10720
▁मरना	-10721
▁मॉनी	-10722
▁सूअर	-10723
▁एक्से	-10724
▁चलेगा	-10725
▁तुलसी	-10726
▁दीवान	-10727
▁बन्दा	-10728
विन्यास	-10729
▁एक्सेस	-10730
▁गुर्दे	-10731
▁चतुर्थ	-10732
▁सर्किट	-10733
▁आपराधिक	-10734
▁सार्वभौ	-10735
▁हिंदुओं	-10736
▁पारिश्रमिक	-10737
\"	-10738
णित	-10739
तौर	-10740
नीत	-10741
पड़	-10742
बास	-10743
हें	-10744
▁2,	-10745
▁नख	-10746
▁नट	-10747
mage	-10748
मांड	-10749
ापित	-10750
ॉफ्ट	-10751
▁आरा	-10752
▁थाः	-10753
▁पढा	-10754
चरिता	-10755
न्तरण	-10756
बरदार	-10757
शासित	-10758
हमारी	-10759
्रेषण	-10760
▁कमिट	-10761
▁तटीय	-10762
▁पेंट	-10763
▁बैंड	-10764
▁मोटी	-10765
▁लशकर	-10766
▁लिखत	-10767
▁हुईं	-10768
▁एहसास	-10769
▁डायरे	-10770
▁बैठकर	-10771
▁लगाएँ	-10772
▁समझती	-10773
▁अपनाना	-10774
▁प्रवास	-10775
▁बेहश्त	-10776
▁लेनदेन	-10777
▁साइकिल	-10778
▁अपमानित	-10779
▁सहभागिता	-10780
->	-10781
.2	-10782
ँघ	-10783
पस	-10784
कुर	-10785
घ्न	-10786
साल	-10787
ट्टे	-10788
ण्डा	-10789
पुरी	-10790
सेवक	-10791
▁115	-10792
▁कलम	-10793
▁साद	-10794
▁साय	-10795
KChar	-10796
अच्छे	-10797
ड़ाना	-10798
लियां	-10799
▁अवगत	-10800
▁ग्ले	-10801
▁तिलक	-10802
▁बर्न	-10803
▁बेतर	-10804
▁रूजू	-10805
▁स्टो	-10806
▁२००८	-10807
▁अमिता	-10808
▁कम्पन	-10809
▁दोहरी	-10810
▁अदायगी	-10811
▁तिमाही	-10812
▁राजदूत	-10813
▁किन्हीं	-10814
▁डिज़ाइन	-10815
▁ब्राह्म	-10816
▁मुर्दों	-10817
▁शुक्राणु	-10818
▁द्विआधारी	-10819
CategoryName	-10820
▁विमानक्षेत्रों	-10821
Con	-10822
एफ़	-10823
गना	-10824
वचन	-10825
ूपी	-10826
▁65	-10827
▁जौ	-10828
डीआई	-10829
्त्र	-10830
▁अवर	-10831
▁इल्	-10832
▁उठी	-10833
▁जलन	-10834
▁नरे	-10835
▁स्फ	-10836
▁हृद	-10837
प्लेट	-10838
▁2003	-10839
▁कपास	-10840
▁केबल	-10841
lation	-10842
▁अहसास	-10843
▁डकोटा	-10844
▁निपटा	-10845
▁मूलतः	-10846
▁स्टेज	-10847
▁चिन्ता	-10848
▁स्थानः	-10849
▁आज़माइश	-10850
▁बेहतरीन	-10851
▁बहुमूल्य	-10852
▁एक्सप्रेस	-10853
▁दृष्टिगोचर	-10854
▁पर्यावरणीय	-10855
ov	-10856
इए	-10857
थो	-10858
बद	-10859
lay	-10860
ond	-10861
कोस	-10862
डाक	-10863
मिट	-10864
लोक	-10865
हला	-10866
▁कं	-10867
ypro	-10868
ण्डी	-10869
▁{1}	-10870
▁काठ	-10871
▁चैक	-10872
▁यूट	-10873
टेक्स	-10874
म्भीर	-10875
ोरियम	-10876
▁ताला	-10877
▁पितृ	-10878
▁फज़ल	-10879
▁बराम	-10880
▁स्या	-10881
▁हमपर	-10882
कृष्णन	-10883
▁गोपाल	-10884
▁लेखों	-10885
▁स्पेन	-10886
तापूर्ण	-10887
▁अनदेखा	-10888
▁उभारें	-10889
▁जुड़ने	-10890
▁फ़रवरी	-10891
▁अनुसारः	-10892
▁ऋणात्मक	-10893
▁दोहराएँ	-10894
▁पात्रता	-10895
▁सूचनाओं	-10896
▁तुल्यकालन	-10897
▁मंत्रियों	-10898
▁एक्सप्रेशन	-10899
▁प्रतिरक्षा	-10900
भे	-10901
’’	-10902
▁\	-10903
कोट	-10904
तेह	-10905
लना	-10906
स्र	-10907
ौमे	-10908
एसडी	-10909
कम्प	-10910
र्चे	-10911
▁अनू	-10912
▁करत	-10913
▁गों	-10914
▁निब	-10915
vince	-10916
ोपड़ी	-10917
▁चंडी	-10918
▁टूटी	-10919
▁फ़ाय	-10920
ानुसार	-10921
▁अगलों	-10922
▁आवंटन	-10923
▁चिंघा	-10924
▁जेम्स	-10925
▁भूटान	-10926
▁राजपू	-10927
▁रोकना	-10928
▁व्यंग	-10929
▁अदृश्य	-10930
▁तेलुगु	-10931
▁देखरेख	-10932
▁बढ़ाया	-10933
▁राजकीय	-10934
▁विपक्ष	-10935
▁सिक्का	-10936
▁सीमांत	-10937
▁सौहार्	-10938
italypro	-10939
▁प्रकारः	-10940
▁बेतरतीब	-10941
▁निवेदिता	-10942
▁माइक्रोस	-10943
▁यात्रियों	-10944
▁विशेषज्ञता	-10945
italyprovince	-10946
ऐं	-10947
ser	-10948
िटर	-10949
भाजन	-10950
स्वा	-10951
▁188	-10952
▁ऑर्	-10953
▁बग़	-10954
▁बें	-10955
▁मकर	-10956
विष्ट	-10957
विहीन	-10958
▁अतिक	-10959
▁ऑप्ट	-10960
▁ठेके	-10961
▁थैली	-10962
▁निगल	-10963
▁पैदल	-10964
Region	-10965
▁ख़याल	-10966
▁चालीस	-10967
▁निचला	-10968
▁निबंध	-10969
▁सवारी	-10970
▁नवाचार	-10971
▁निवेशक	-10972
▁मतदाता	-10973
▁मशीनरी	-10974
▁समझाने	-10975
▁समझाया	-10976
▁हाइड्र	-10977
▁उत्प्रे	-10978
▁द्वीपों	-10979
▁मलेरिया	-10980
▁मोमिनीन	-10981
▁सुचरिता	-10982
▁कहानियां	-10983
▁पासपोर्ट	-10984
▁बाइंडिंग	-10985
▁एजेंसियों	-10986
▁प्रतिष्ठान	-10987
ठाई	-10988
तुर	-10989
विस	-10990
ौना	-10991
rome	-10992
चालय	-10993
चुअल	-10994
ड़कर	-10995
नाशक	-10996
र्षण	-10997
हानी	-10998
▁अचल	-10999
▁अप्	-11000
▁घसी	-11001
▁चाइ	-11002
▁मक़	-11003
▁मेट	-11004
▁सिड	-11005
फार्म	-11006
ुमेंट	-11007
▁असम्	-11008
▁तैना	-11009
▁थोडा	-11010
▁पाकर	-11011
▁बहाल	-11012
▁मोनो	-11013
▁यूएस	-11014
▁यूरे	-11015
▁लेंस	-11016
▁विवश	-11017
ग्राही	-11018
त्यक्ष	-11019
▁needs	-11020
▁अठारह	-11021
▁ऑफसेट	-11022
▁कच्चा	-11023
▁जयपुर	-11024
▁पृथक्	-11025
▁अस्त्र	-11026
▁कीमिया	-11027
▁गम्भीर	-11028
▁प्रेरक	-11029
▁आनेवाली	-11030
▁तीक्ष्ण	-11031
▁दीपावली	-11032
▁सार्वभौमिक	-11033
▁ऑस्ट्रेलिया	-11034
ोपन	-11035
▁ऐल	-11036
अंदा	-11037
ख़लू	-11038
▁केन	-11039
▁कौर	-11040
▁जत्	-11041
▁झाँ	-11042
▁झार	-11043
▁लूप	-11044
arely	-11045
चर्या	-11046
ब्राल	-11047
▁उष्ण	-11048
▁कल्प	-11049
▁चाचा	-11050
▁छांट	-11051
▁मेलब	-11052
▁संकर	-11053
▁सल्त	-11054
▁सोलह	-11055
नामकरण	-11056
स्तरीय	-11057
▁आईएसओ	-11058
▁इन्ते	-11059
▁कोर्स	-11060
▁खारिज	-11061
▁ग्रीक	-11062
▁घटाना	-11063
▁तार्क	-11064
▁देगें	-11065
▁फील्ड	-11066
▁मिलें	-11067
▁रक्षक	-11068
▁विनोद	-11069
▁rarely	-11070
▁उपासना	-11071
▁कुत्ते	-11072
▁गुप्ता	-11073
▁निकासी	-11074
▁नौसेना	-11075
▁पैमाना	-11076
▁मणीलाल	-11077
▁मुहैया	-11078
▁शासकों	-11079
▁समर्थक	-11080
▁अभिलेखा	-11081
▁द्वारका	-11082
▁नियोजित	-11083
▁पर्वतों	-11084
▁श्लोकों	-11085
▁अवसंरचना	-11086
▁हेक्टेयर	-11087
▁माननेवाले	-11088
▁पर्यवेक्षण	-11089
".	-11090
19	-11091
im	-11092
ial	-11093
ंगन	-11094
ंती	-11095
स्ड	-11096
▁यश	-11097
crip	-11098
डीपी	-11099
ध्वा	-11100
शियम	-11101
▁आगम	-11102
▁मात	-11103
▁मेम	-11104
icode	-11105
ितानी	-11106
▁अकृत	-11107
▁पताः	-11108
▁बताई	-11109
▁मरीज	-11110
▁म्या	-11111
▁रोटी	-11112
▁वज़न	-11113
▁वल्ल	-11114
▁विलय	-11115
▁शंकु	-11116
▁सर्क	-11117
▁ऑंखें	-11118
▁कन्या	-11119
▁क़्या	-11120
▁गुम्ब	-11121
▁जमानत	-11122
▁भरेंः	-11123
▁मुर्ग	-11124
▁विस्म	-11125
▁स्थाई	-11126
▁आर्द्र	-11127
▁क्रमिक	-11128
▁खींचने	-11129
▁जानकार	-11130
▁ठहराया	-11131
▁विफलता	-11132
▁सार्थक	-11133
परिवर्तन	-11134
▁काउंसिल	-11135
▁तदनुसार	-11136
▁महाकाव्य	-11137
▁विशेषताएँ	-11138
▁प्रतिबंधित	-11139
▁सूक्ष्मदर्शी	-11140
ैड	-11141
आया	-11142
चिप	-11143
वलय	-11144
सन्	-11145
हेल	-11146
stel	-11147
आरसी	-11148
च्छद	-11149
जाति	-11150
भक्त	-11151
रिंग	-11152
शन्स	-11153
▁ग्न	-11154
▁पीट	-11155
▁भाप	-11156
▁मेक	-11157
▁यान	-11158
ग़रज़	-11159
त्तरी	-11160
मान्य	-11161
▁अश्र	-11162
▁उड़न	-11163
▁उलटे	-11164
▁एंपे	-11165
▁कथित	-11166
▁क्रे	-11167
▁चौदह	-11168
▁मुरा	-11169
▁लाम॰	-11170
बुद्धि	-11171
▁औरतें	-11172
▁घुटने	-11173
▁रोकता	-11174
▁विकृत	-11175
▁असंख्य	-11176
▁प्रामा	-11177
▁मिटाएं	-11178
▁सिक्के	-11179
▁अनिवासी	-11180
▁कैलेंडर	-11181
▁विधियों	-11182
▁सिक्किम	-11183
▁हाइलाइट	-11184
▁द्वितीयक	-11185
▁पूर्णांक	-11186
▁विजेताओं	-11187
▁श्रमिकों	-11188
▁चमत्कारों	-11189
▁प्रदर्शनी	-11190
▁प्रातःकाल	-11191
▁ं	-11192
ver	-11193
उसी	-11194
मैप	-11195
ूमत	-11196
ोधक	-11197
▁लह	-11198
ब्ला	-11199
िंगर	-11200
्टिक	-11201
▁क्य	-11202
▁जूट	-11203
▁मैप	-11204
▁मोज	-11205
▁लाय	-11206
मूल्य	-11207
▁एक्ट	-11208
▁घिरा	-11209
▁डराओ	-11210
▁फेरे	-11211
▁राज़	-11212
▁रोमन	-11213
▁लिहा	-11214
▁लोगे	-11215
▁सभ्य	-11216
फ़ारिश	-11217
▁खोजना	-11218
▁गोदाम	-11219
▁जमींद	-11220
▁झुकाव	-11221
▁नगरों	-11222
▁बेमेल	-11223
▁बेरोज	-11224
▁मायने	-11225
कर्त्ता	-11226
▁उल्लास	-11227
▁फाइलें	-11228
▁मॉनीटर	-11229
▁व्यतीत	-11230
▁आमंत्रण	-11231
▁पौराणिक	-11232
▁मार्टिन	-11233
▁मेंटेनर	-11234
▁यांत्रिक	-11235
▁अधिकारिता	-11236
▁फ़ोल्डरों	-11237
▁श्रीकृष्ण	-11238
ोब	-11239
New	-11240
कोच	-11241
दीप	-11242
न्ग	-11243
ल्ज	-11244
ुवा	-11245
▁it	-11246
▁अँग	-11247
▁कोइ	-11248
▁खनन	-11249
▁सुप	-11250
गाड़ी	-11251
च्छाद	-11252
पीडित	-11253
▁अँधे	-11254
▁उदास	-11255
▁टेबल	-11256
▁मच्छ	-11257
▁साइड	-11258
▁स्पी	-11259
▁block	-11260
▁चुम्ब	-11261
▁जिज्ञ	-11262
▁ट्रेन	-11263
▁पेरिस	-11264
▁बन्दर	-11265
▁मारता	-11266
▁सज्जन	-11267
▁ग्रीवा	-11268
▁ट्रस्ट	-11269
▁निस्बत	-11270
▁प्रचलन	-11271
▁फ़ैसले	-11272
▁सेकण्ड	-11273
ब्राल्टर	-11274
▁जेनेरिक	-11275
▁सौहार्द	-11276
▁तात्पर्य	-11277
▁निश्चिन्त	-11278
.8	-11279
iz	-11280
iew	-11281
रंग	-11282
लिफ	-11283
लुक	-11284
ंगें	-11285
टाना	-11286
ाम्ब	-11287
▁अमा	-11288
त्रिक	-11289
दस्ती	-11290
▁2009	-11291
▁अभिस	-11292
▁अहले	-11293
▁कम्ब	-11294
▁कुल्	-11295
▁खगोल	-11296
▁छुपी	-11297
▁बनाओ	-11298
▁रीढ़	-11299
▁साम्	-11300
ermiss	-11301
select	-11302
पश्चिम	-11303
सरकारी	-11304
▁इंजिन	-11305
▁उद्गम	-11306
▁ठहरने	-11307
▁सपनों	-11308
▁हालात	-11309
▁एंपेथी	-11310
▁कमजोरी	-11311
▁टेलीवि	-11312
▁पकड़कर	-11313
▁भण्डार	-11314
▁मूत्रा	-11315
▁मैनुअल	-11316
▁यूआरआई	-11317
▁प्रोसेस	-11318
▁फैक्टरी	-11319
▁विधानसभा	-11320
▁संख्याओं	-11321
▁समितियां	-11322
▁अपीलार्थी	-11323
▁अनुपस्थिति	-11324
▁प्रतिस्थापन	-11325
.?	-11326
IME	-11327
इंग	-11328
खें	-11329
गेह	-11330
डेड	-11331
देय	-11332
शंस	-11333
ितु	-11334
िनो	-11335
क़ात	-11336
गमगा	-11337
दक्ष	-11338
रणीय	-11339
साना	-11340
▁असु	-11341
▁गली	-11342
चित्य	-11343
र्करा	-11344
विश्व	-11345
▁2002	-11346
▁आयतन	-11347
▁ग़लत	-11348
▁शंका	-11349
istbox	-11350
▁बढावा	-11351
▁रेज़ा	-11352
▁रेडिय	-11353
▁शिथिल	-11354
▁स्पूल	-11355
▁करवाने	-11356
▁घटनाएं	-11357
▁चुकौती	-11358
▁निष्का	-11359
▁प्रचंड	-11360
▁ऑक्सीजन	-11361
▁कंट्रोल	-11362
▁क़िस्मः	-11363
▁गुंजाइश	-11364
▁चार्ल्स	-11365
▁पत्थरों	-11366
▁फिल्मों	-11367
▁सुलेमान	-11368
▁सैकड़ों	-11369
▁अधिग्रहण	-11370
▁ऑब्जेक्ट	-11371
▁निरीक्षक	-11372
▁वार्षिकी	-11373
▁विधायिका	-11374
▁सिफ़ारिश	-11375
▁उत्तमकारों	-11376
ian	-11377
our	-11378
ँगा	-11379
किक	-11380
दिल	-11381
फ्ल	-11382
भीत	-11383
▁अछ	-11384
ज़ेए	-11385
ण्डर	-11386
बैठक	-11387
हाइट	-11388
ूंगी	-11389
▁col	-11390
▁इंट	-11391
▁गला	-11392
▁ठान	-11393
▁बोन	-11394
नेशनल	-11395
▁(196	-11396
▁2016	-11397
▁अज्र	-11398
▁आड़ा	-11399
▁करों	-11400
▁धड़क	-11401
▁पाँव	-11402
▁बीवी	-11403
▁मेनन	-11404
▁वस्त	-11405
▁उपनिष	-11406
▁गिरवी	-11407
▁दायरे	-11408
▁पत्तन	-11409
▁सोसाय	-11410
ोनेशिया	-11411
▁पुरातन	-11412
▁फ़ाइलः	-11413
▁ब्रेकप	-11414
▁वाज़ेए	-11415
▁स्कीमा	-11416
▁unicode	-11417
▁बागवानी	-11418
▁मोड्यूल	-11419
▁लाभकारी	-11420
▁विनियमन	-11421
▁ब्रितानी	-11422
▁पंक्तियाँ	-11423
KCharselect	-11424
▁विशेषज्ञों	-11425
.–	-11426
/2	-11427
est	-11428
raj	-11429
खोर	-11430
गाव	-11431
धना	-11432
वेग	-11433
्ती	-11434
▁पण	-11435
▁रथ	-11436
गांव	-11437
दीक़	-11438
▁कंठ	-11439
▁कटि	-11440
▁चबा	-11441
▁तान	-11442
▁नें	-11443
▁बाइ	-11444
▁बास	-11445
▁मुल	-11446
▁सुस	-11447
गुप्त	-11448
ड्यूल	-11449
ोजीशन	-11450
▁परमा	-11451
▁युवक	-11452
▁रिंग	-11453
प्रकाश	-11454
▁अनजान	-11455
▁कंपोज	-11456
▁छोड़ो	-11457
▁जीर्ण	-11458
▁रखेगा	-11459
▁सुप्र	-11460
उच्छेदन	-11461
▁अप्रिय	-11462
▁आवासीय	-11463
▁ग्लोबल	-11464
▁पंचायत	-11465
▁स्वरुप	-11466
तुम्हारे	-11467
▁दर्शाने	-11468
▁नैतिकता	-11469
▁मंत्रिम	-11470
▁सूत्रकृमि	-11471
▁निम्नानुसार	-11472
गं	-11473
नस	-11474
-20	-11475
कैल	-11476
कोई	-11477
फेर	-11478
हनी	-11479
िके	-11480
roup	-11481
निधि	-11482
मेशन	-11483
वाहा	-11484
सरता	-11485
▁अरा	-11486
▁आमा	-11487
▁आला	-11488
▁आली	-11489
▁कस्	-11490
▁कॉम	-11491
▁छान	-11492
▁भया	-11493
▁सडक	-11494
वृक्ष	-11495
स्पेस	-11496
▁उठना	-11497
▁उतने	-11498
▁घमंड	-11499
▁चयनक	-11500
▁तनिक	-11501
▁ताना	-11502
▁नामे	-11503
▁पाकी	-11504
▁राजी	-11505
न्दर्य	-11506
▁उल्टा	-11507
▁चिन्त	-11508
▁जिक्र	-11509
▁दिखने	-11510
्यूटिंग	-11511
▁जंगलों	-11512
▁बनवाया	-11513
▁मापदंड	-11514
▁मौज़ूद	-11515
▁रिसालत	-11516
▁वग़ैरह	-11517
▁अग्रसार	-11518
▁एनआईओएस	-11519
▁दर्शाती	-11520
▁दुरूस्त	-11521
▁स्वदेशी	-11522
▁चन्द्रमा	-11523
▁चमकीलापन	-11524
▁संभावनाओं	-11525
▁स्वैच्छिक	-11526
,–	-11527
12	-11528
EN	-11529
ख्	-11530
धरी	-11531
पाक	-11532
ौली	-11533
▁05	-11534
गर्भ	-11535
जोड़	-11536
त्सा	-11537
निटर	-11538
ल्पी	-11539
ायों	-11540
▁खोख	-11541
▁नाख	-11542
▁पिय	-11543
▁फिन	-11544
▁मजे	-11545
▁रवै	-11546
▁राइ	-11547
▁सबक	-11548
▁सिम	-11549
▁सोन	-11550
मितीय	-11551
ालयों	-11552
▁असीम	-11553
▁ईर्ष	-11554
▁क्वा	-11555
▁टैंक	-11556
▁पडता	-11557
▁पूंछ	-11558
▁पेटी	-11559
▁पैरा	-11560
▁फर्श	-11561
▁बदरू	-11562
▁लाठी	-11563
▁सरोज	-11564
▁सूरी	-11565
▁होली	-11566
▁उल्टी	-11567
▁जार्ज	-11568
▁धब्बे	-11569
▁नाड़ी	-11570
▁परमिट	-11571
▁पेशाब	-11572
▁फ़ोटो	-11573
▁ब्लैक	-11574
▁विहार	-11575
▁श्रवण	-11576
▁ख्याति	-11577
▁जनजाति	-11578
▁पब्लिक	-11579
▁संरेखण	-11580
▁क़ब्रों	-11581
▁सन्दर्भ	-11582
आज	-11583
ऊं	-11584
ंभी	-11585
अज़	-11586
वृत	-11587
ूरा	-11588
्यक	-11589
▁44	-11590
गणना	-11591
चन्द	-11592
ज़ों	-11593
▁पदा	-11594
▁मरु	-11595
▁वोट	-11596
देशीय	-11597
ध्याय	-11598
▁अफसर	-11599
▁गुदा	-11600
▁फ्ला	-11601
▁बाईं	-11602
▁बापू	-11603
▁रीडर	-11604
▁वारा	-11605
▁सवाब	-11606
▁सीपी	-11607
▁सोचो	-11608
▁सोया	-11609
rajesh	-11610
नाइटेड	-11611
रीक्षण	-11612
▁अंकों	-11613
▁किसने	-11614
▁गुच्छ	-11615
▁पत्रक	-11616
▁फुहार	-11617
▁मलाशय	-11618
▁महीना	-11619
▁राक्ष	-11620
▁रुसवा	-11621
▁लाभों	-11622
▁संभोग	-11623
▁अंडमान	-11624
▁अंधेरे	-11625
▁उपसर्ग	-11626
▁फाइलों	-11627
▁सदियों	-11628
▁डेलिगेट	-11629
▁तार्किक	-11630
▁नुक़सान	-11631
▁नियमावली	-11632
▁प्रतिरूप	-11633
चाई	-11634
यित	-11635
▁२१	-11636
ंप्ट	-11637
एसआई	-11638
▁ग़ु	-11639
▁जता	-11640
▁लैन	-11641
ंसीसी	-11642
कानों	-11643
लैण्ड	-11644
स्कोप	-11645
ान्तर	-11646
ुपयोग	-11647
ोलॉजी	-11648
▁एसिड	-11649
▁तिरु	-11650
▁बेपर	-11651
▁भाजक	-11652
▁सीने	-11653
म्परिक	-11654
▁अगरचे	-11655
▁अवसाद	-11656
▁उखाड़	-11657
▁खेलते	-11658
▁ज़िला	-11659
▁फॉन्ट	-11660
▁बीजों	-11661
▁महानि	-11662
▁रातों	-11663
▁जाएंगी	-11664
▁तोड़ने	-11665
▁नाटकीय	-11666
▁मानोगे	-11667
▁सभापति	-11668
▁स्वराज	-11669
▁Windows	-11670
▁चित्रित	-11671
▁जन्मजात	-11672
▁फ़रमाया	-11673
▁फुफ्फुस	-11674
▁व्याप्त	-11675
▁उत्तेजना	-11676
▁उद्यमिता	-11677
▁प्रसारित	-11678
ढी	-11679
शर	-11680
one	-11681
ont	-11682
कोल	-11683
डीओ	-11684
ाहे	-11685
ोज़	-11686
▁ww	-11687
▁चह	-11688
▁लघ	-11689
कुफ्	-11690
ण्डे	-11691
विद्	-11692
▁www	-11693
▁कां	-11694
▁खली	-11695
▁गौण	-11696
▁चंद	-11697
▁नूर	-11698
▁पदो	-11699
▁वात	-11700
▁१००	-11701
ख़ाना	-11702
▁आर्क	-11703
▁कॉलम	-11704
▁क्षम	-11705
▁गाथा	-11706
▁पद्य	-11707
▁सींग	-11708
धारकों	-11709
सरतापा	-11710
▁चतुर्	-11711
▁चूर्ण	-11712
▁रोमान	-11713
▁लौटकर	-11714
▁वगैरह	-11715
▁सनातन	-11716
▁सुनना	-11717
▁स्क्व	-11718
▁स्टेड	-11719
म्प्लेट	-11720
सामान्य	-11721
▁अशुद्ध	-11722
▁चाहेगा	-11723
▁तात्या	-11724
▁दौड़ते	-11725
▁नीतिगत	-11726
▁बुलन्द	-11727
▁लगेंगे	-11728
▁अनुलग्न	-11729
▁क्रोमियम	-11730
▁रखनेवाला	-11731
ermissions	-11732
▁अपरिहार्य	-11733
▁प्रावधानों	-11734
75	-11735
अस	-11736
शै	-11737
ुण	-11738
-11	-11739
छता	-11740
न्ज	-11741
रीक	-11742
वला	-11743
गीता	-11744
बरील	-11745
बलीस	-11746
र्णय	-11747
ल्लत	-11748
ोचित	-11749
▁अपा	-11750
▁केक	-11751
▁जीभ	-11752
▁डबल	-11753
▁तेर	-11754
▁धुन	-11755
▁सती	-11756
▁सिग	-11757
ानिया	-11758
▁1947	-11759
▁इटली	-11760
▁उतरे	-11761
▁उपरो	-11762
▁छापा	-11763
▁झूठी	-11764
▁भृंग	-11765
▁हंसी	-11766
डबल्यू	-11767
वीक्षा	-11768
▁इबलीस	-11769
▁इलाके	-11770
▁जिनपर	-11771
▁डिम्ब	-11772
▁बिन्द	-11773
▁रोकते	-11774
▁बहुभुज	-11775
▁योद्धा	-11776
▁शेयर्स	-11777
▁श्रोणि	-11778
▁अकृतज्ञ	-11779
▁अभिकल्प	-11780
▁अवरुद्ध	-11781
▁जनजातीय	-11782
▁टेक्स्ट	-11783
▁पाबन्दी	-11784
▁मौद्रिक	-11785
▁समयावधि	-11786
▁जादूगरों	-11787
▁प्रक्रमण	-11788
▁साझीदारी	-11789
stellation	-11790
▁बदरूद्दीन	-11791
▁पुनर्नामकरण	-11792
kt	-11793
बक	-11794
यस	-11795
der	-11796
चंद	-11797
जरत	-11798
नाद	-11799
फोन	-11800
सात	-11801
ुली	-11802
ूदा	-11803
्रल	-11804
पत्य	-11805
पहले	-11806
ोपाल	-11807
▁गरि	-11808
▁पथः	-11809
▁माई	-11810
▁रूम	-11811
▁सिन	-11812
▁हुम	-11813
ज़मीन	-11814
विकास	-11815
▁type	-11816
▁अंधे	-11817
▁आर्ट	-11818
▁क्ली	-11819
▁घेरा	-11820
▁तालि	-11821
▁दन्त	-11822
▁यादृ	-11823
▁वृषण	-11824
क्षेपण	-11825
ध्वाधर	-11826
प्रिंट	-11827
▁क्रूर	-11828
▁खर्चे	-11829
▁जायगा	-11830
▁तुच्छ	-11831
▁नोट्स	-11832
▁पट्टा	-11833
▁प्रवी	-11834
▁मिटाए	-11835
▁मियाद	-11836
▁मुंशी	-11837
▁सहेजे	-11838
तकोत्तर	-11839
▁कैन्टन	-11840
▁बलिदान	-11841
▁भेड़ों	-11842
▁विलम्ब	-11843
▁सिन्धु	-11844
▁फार्मेट	-11845
▁भिन्नता	-11846
▁सम्पादन	-11847
▁निर्णयों	-11848
▁पुनर्वास	-11849
▁मेलबॉक्स	-11850
▁पुर्तगाली	-11851
▁साफ्टवेयर	-11852
▁तुल्यकालित	-11853
▁परहेज़गारी	-11854
▁प्राप्तकर्ताओं	-11855
रिश	-11856
ापे	-11857
▁In	-11858
▁खट	-11859
▁बृ	-11860
गोया	-11861
न्टर	-11862
बड़ी	-11863
▁are	-11864
▁उज्	-11865
▁जर्	-11866
▁जेब	-11867
▁नेम	-11868
▁हर्	-11869
कर्मी	-11870
पुत्र	-11871
शियां	-11872
ारायण	-11873
▁अभ्य	-11874
▁आमने	-11875
▁ख़ौफ	-11876
▁गामा	-11877
▁जगन्	-11878
▁जाली	-11879
▁पथरी	-11880
▁फोलो	-11881
▁व्रत	-11882
▁हाइड	-11883
संख्यक	-11884
हिस्ता	-11885
▁इक्का	-11886
▁चौबीस	-11887
▁दुसरे	-11888
▁नोटों	-11889
▁फैक्स	-11890
▁बदलती	-11891
▁बर्ता	-11892
▁बुर्ज	-11893
▁भेजते	-11894
▁मलयाल	-11895
▁मैसूर	-11896
▁सॉकेट	-11897
▁अग्रसर	-11898
▁कीमतें	-11899
▁नेटवर्	-11900
▁मेडिकल	-11901
▁मेहमान	-11902
▁संदेशः	-11903
▁इकाइयां	-11904
▁ख्वाहिश	-11905
▁डब्ल्यू	-11906
▁प्रांप्ट	-11907
▁संस्थापक	-11908
▁स्टेडियम	-11909
▁मुद्रास्फीति	-11910
एओ	-11911
लौ	-11912
नोट	-11913
वही	-11914
सना	-11915
ौरी	-11916
▁34	-11917
▁अघ	-11918
▁नं	-11919
द्रव	-11920
शाखा	-11921
शिला	-11922
ाप्र	-11923
ुकता	-11924
ोषित	-11925
▁उज़	-11926
▁पंथ	-11927
▁पीप	-11928
▁शाक	-11929
दिग्ध	-11930
देश्य	-11931
होंने	-11932
▁1948	-11933
▁आभास	-11934
▁पढ़ो	-11935
▁पूछो	-11936
▁बचना	-11937
▁रुग्	-11938
▁लगों	-11939
▁शीशे	-11940
▁सिंक	-11941
▁आवधिक	-11942
▁पच्ची	-11943
▁ललिता	-11944
▁औचित्य	-11945
▁क्षिति	-11946
▁मानसून	-11947
▁विवरणी	-11948
▁सल्तनत	-11949
▁दर्शकों	-11950
▁पहुँचना	-11951
▁मछलियों	-11952
▁संकेतों	-11953
▁सोसायटी	-11954
▁अहमदाबाद	-11955
▁क्षमताओं	-11956
▁प्रकोष्ठ	-11957
▁यादृच्छिक	-11958
▁दीर्घकालीन	-11959
35	-11960
उंट	-11961
कोप	-11962
यूर	-11963
वाज	-11964
शूल	-11965
ूसर	-11966
ोली	-11967
▁le	-11968
▁me	-11969
▁छी	-11970
▁षड	-11971
▁२२	-11972
/201	-11973
क्टी	-11974
देखो	-11975
पीछे	-11976
मेरा	-11977
श्मी	-11978
सर्व	-11979
▁अक़	-11980
▁फलन	-11981
▁शहद	-11982
▁शिल	-11983
▁सफर	-11984
▁हीन	-11985
▁१९७	-11986
पुराण	-11987
माण्ड	-11988
ान्ति	-11989
▁1950	-11990
▁NAME	-11991
▁काया	-11992
▁झोंक	-11993
▁टाटा	-11994
▁डुबो	-11995
▁दीदी	-11996
▁पोशा	-11997
▁फ़्र	-11998
▁बंगल	-11999
▁लौटे	-12000
▁वरन्	-12001
अंग्रे	-12002
ड़ियां	-12003
फ्रेंस	-12004
वर्तित	-12005
▁अंडों	-12006
▁जीवनी	-12007
▁देयता	-12008
▁सरीही	-12009
▁साहिब	-12010
▁अमिताभ	-12011
▁अलमस्त	-12012
▁उद्धृत	-12013
▁छाँटें	-12014
▁नेपाली	-12015
▁विजेता	-12016
▁मौजिज़ा	-12017
▁संख़्या	-12018
▁अधिकाधिक	-12019
▁अनुकूलित	-12020
▁एख्तेयार	-12021
▁एटलांटिक	-12022
▁सम्मिश्र	-12023
▁होनेवाला	-12024
▁प्रियव्रत	-12025
▁संस्थापना	-12026
▁क्रियाकलाप	-12027
▁पहचानकर्ता	-12028
▁अंटार्कटिका	-12029
उद	-12030
रब	-12031
-15	-12032
जिर	-12033
दें	-12034
नास	-12035
सील	-12036
▁ऑल	-12037
▁ओज	-12038
कुशल	-12039
न्डर	-12040
न्डी	-12041
माईल	-12042
वारा	-12043
ीर्ण	-12044
ोगिक	-12045
▁अमन	-12046
▁इतर	-12047
▁एंव	-12048
▁चलन	-12049
▁जमे	-12050
▁फोर	-12051
▁रंज	-12052
▁लात	-12053
▁शेल	-12054
खियों	-12055
जीवित	-12056
ष्टिक	-12057
▁(198	-12058
▁2004	-12059
▁अम्ब	-12060
▁अर्श	-12061
▁मादक	-12062
▁मीरा	-12063
▁विला	-12064
▁स्के	-12065
▁हरकत	-12066
format	-12067
क्षत्र	-12068
▁तकिया	-12069
▁दुहरा	-12070
▁यहूदी	-12071
▁विजयी	-12072
▁विषयक	-12073
▁वृंदा	-12074
▁Chrome	-12075
▁अविश्व	-12076
▁कदाचित	-12077
▁करवाना	-12078
▁गुम्बद	-12079
▁नाइट्र	-12080
▁प्लेयर	-12081
▁फैलाया	-12082
▁बर्ताव	-12083
▁संकेतन	-12084
▁संसूचक	-12085
▁अभिनेता	-12086
▁उपरोक्त	-12087
▁कलात्मक	-12088
▁डिस्कने	-12089
▁पूर्वान	-12090
▁विलक्षण	-12091
▁कामगारों	-12092
▁मूत्राशय	-12093
▁यूरेनियम	-12094
▁संप्रदाय	-12095
▁सामान्यत	-12096
▁उद्यमियों	-12097
▁उपन्यासों	-12098
▁वाक़िफकार	-12099
▁अवज्ञाकारी	-12100
▁राधाकृष्णन	-12101
OL	-12102
ev	-12103
eck	-12104
शमन	-12105
ैंप	-12106
▁II	-12107
▁उच	-12108
▁रग	-12109
टीआई	-12110
पड़े	-12111
ारसी	-12112
▁एंज	-12113
▁एफ़	-12114
▁एलब	-12115
▁गैल	-12116
▁दृश	-12117
▁मोम	-12118
▁रेस	-12119
▁हा॰	-12120
ंजस्य	-12121
सुधार	-12122
ुत्तर	-12123
▁"{0}	-12124
▁2018	-12125
▁इन्द	-12126
▁जलीय	-12127
▁तुलन	-12128
▁धीमा	-12129
▁भट्ट	-12130
▁वृहत	-12131
▁हेडर	-12132
CalImp	-12133
निश्चय	-12134
▁अपितु	-12135
▁जानें	-12136
▁ज्वार	-12137
▁नाफ़र	-12138
▁नाराज	-12139
▁मध्या	-12140
▁राहुल	-12141
▁सर्दी	-12142
निर्मित	-12143
▁अनुयाय	-12144
▁क्योकि	-12145
▁गणितीय	-12146
▁पीडीएफ	-12147
▁प्रकोप	-12148
▁बिल्ली	-12149
▁भ्रमित	-12150
▁मलयालम	-12151
▁वाशिंग	-12152
▁अखबारों	-12153
▁अनुकूलन	-12154
▁जगन्नाथ	-12155
▁त्रिकोण	-12156
▁दुकानों	-12157
▁निकोबार	-12158
▁समाजवाद	-12159
▁स्थितिः	-12160
▁संस्थागत	-12161
▁सब्जियों	-12162
▁सुस्पष्ट	-12163
▁सौन्दर्य	-12164
▁अप्रत्यक्ष	-12165
▁प्रतिबिम्ब	-12166
▁आत्मविश्वास	-12167
▁स्नातकोत्तर	-12168
Constellation	-12169
.9	-12170
to	-12171
िआ	-12172
ong	-12173
टाइ	-12174
टित	-12175
पीय	-12176
िसा	-12177
▁1%	-12178
▁आड	-12179
▁चख	-12180
enef	-12181
आईएस	-12182
केशन	-12183
णाचल	-12184
द्वि	-12185
राहट	-12186
ार्ग	-12187
्रमण	-12188
▁खरा	-12189
▁घोल	-12190
▁चीख	-12191
▁जना	-12192
▁हम्	-12193
तनामी	-12194
▁क्षे	-12195
▁चांद	-12196
▁छड़ी	-12197
▁दाने	-12198
▁निपु	-12199
▁महार	-12200
▁वहॉँ	-12201
ग्राहक	-12202
टुकड़े	-12203
▁"{0}"	-12204
▁खरीदा	-12205
▁जीतने	-12206
▁ट्रिब	-12207
▁दरअसल	-12208
▁निगेह	-12209
▁ब्रह्	-12210
▁मीनार	-12211
▁हकदार	-12212
iCalImp	-12213
जनात्मक	-12214
संस्कृत	-12215
▁अश्लील	-12216
▁निद्रा	-12217
▁पोजीशन	-12218
▁मुहताज	-12219
▁मॉनिटर	-12220
▁सूरदास	-12221
▁अनुभवों	-12222
▁घरवालों	-12223
▁बारंबार	-12224
▁मिलेंगे	-12225
▁स्निपेट	-12226
▁प्रख्यात	-12227
▁परिसंपत्ति	-12228
▁ज़िम्मेदारी	-12229
▁प्रतिस्थापित	-12230
ces	-12231
gre	-12232
key	-12233
सुन	-12234
सेफ	-12235
ाम्	-12236
▁घम	-12237
▁ठो	-12238
able	-12239
क्रे	-12240
चेरी	-12241
निष्	-12242
लिंक	-12243
सेसर	-12244
ृश्य	-12245
्यूब	-12246
▁बाण	-12247
▁यों	-12248
ारोपण	-12249
▁आलोक	-12250
▁उलटी	-12251
▁औरंग	-12252
▁कपिल	-12253
▁गांठ	-12254
▁चलाई	-12255
▁नाफर	-12256
▁पैग़	-12257
▁मस्त	-12258
▁लोकल	-12259
▁संचय	-12260
enefit	-12261
ियारों	-12262
▁असंगत	-12263
▁आलेखी	-12264
▁इशारा	-12265
▁उपहास	-12266
▁गरिमा	-12267
▁चश्मा	-12268
▁पैकेट	-12269
▁प्रसू	-12270
▁बारीक	-12271
▁भूकंप	-12272
▁विखंड	-12273
▁सिंधी	-12274
▁सॉल्व	-12275
▁अहंकार	-12276
▁आदेशों	-12277
▁उन्नीस	-12278
▁खाद्या	-12279
▁बादलों	-12280
▁बिलियन	-12281
▁राजकोष	-12282
▁लक्षित	-12283
▁सामग्र	-12284
▁सुलझाने	-12285
▁ऑपरेटिंग	-12286
▁कीमियागर	-12287
▁चुनौतियां	-12288
▁स्वरयंत्र	-12289
▁परिवर्तनीय	-12290
▁सांप्रदायिक	-12291
धु	-12292
ऐसा	-12293
चुप	-12294
िमय	-12295
▁55	-12296
▁दब	-12297
एंगे	-12298
योजन	-12299
वियत	-12300
ॉर्ट	-12301
▁अजन	-12302
▁एनि	-12303
▁नौज	-12304
▁पों	-12305
ोध्या	-12306
▁अकड़	-12307
▁आन्त	-12308
▁कंधे	-12309
▁कड़ा	-12310
▁कणों	-12311
▁तश्त	-12312
▁पाएँ	-12313
▁फ़्ल	-12314
▁बीते	-12315
▁सहसा	-12316
▁सेवक	-12317
शीर्षक	-12318
▁इनायत	-12319
▁चलाएं	-12320
▁जिंदा	-12321
▁दुर्ग	-12322
▁नाजुक	-12323
▁पलटना	-12324
▁प्रफु	-12325
▁बदकार	-12326
डब्ल्यू	-12327
▁कामयाब	-12328
▁कारीगर	-12329
▁चित्रा	-12330
▁जोरदार	-12331
▁तरीक़े	-12332
▁विरोधा	-12333
▁सीमाएं	-12334
▁अधीनस्थ	-12335
▁विवादों	-12336
▁स्वचलित	-12337
▁आकाशगंगा	-12338
▁कार्यभार	-12339
▁संगमर्मर	-12340
▁होनेवाले	-12341
▁ग्राफिक्स	-12342
▁पारम्परिक	-12343
▁प्रजातियां	-12344
▁कार्यक्षेत्र	-12345
cc	-12346
ep	-12347
ैप	-12348
-10	-12349
खलन	-12350
त्थ	-12351
दित	-12352
मगर	-12353
ल्थ	-12354
▁07	-12355
▁औस	-12356
वाहन	-12357
िकार	-12358
▁किट	-12359
▁चूह	-12360
▁निम	-12361
▁बुध	-12362
▁रेग	-12363
▁वाज	-12364
वार्ष	-12365
विस्त	-12366
स्केप	-12367
▁कॉफी	-12368
▁खाया	-12369
▁जमने	-12370
▁जीना	-12371
▁तेरह	-12372
▁रखनी	-12373
▁लाला	-12374
▁शाका	-12375
escrip	-12376
स्थायी	-12377
▁ऊष्मा	-12378
▁खरीदी	-12379
▁ग्रेट	-12380
▁जड़ें	-12381
▁टिड्ड	-12382
▁दोहरे	-12383
▁बूढ़ा	-12384
▁मारना	-12385
▁लौटना	-12386
▁सहदेव	-12387
चिकित्स	-12388
व्यक्ति	-12389
▁कोष्ठक	-12390
▁खींचना	-12391
▁पीआईबी	-12392
▁रोमांच	-12393
▁विभाजक	-12394
▁क़ाबिले	-12395
▁किस्में	-12396
▁चिंघाड़	-12397
▁पहाड़ियों	-12398
▁व्यापारियों	-12399
ge	-12400
39;	-12401
अगर	-12402
ज़ि	-12403
जाज	-12404
ठों	-12405
यरी	-12406
सुम	-12407
िलि	-12408
डियम	-12409
तारी	-12410
नामी	-12411
पट्ट	-12412
यानी	-12413
सीआर	-12414
हमने	-12415
▁how	-12416
▁एला	-12417
▁बाई	-12418
▁मरण	-12419
▁रघु	-12420
▁रिफ	-12421
▁शौक	-12422
िक्की	-12423
▁#39;	-12424
▁कचरे	-12425
▁खाती	-12426
▁गोल्	-12427
▁झुके	-12428
▁नामए	-12429
▁पिला	-12430
▁भागे	-12431
प्रधान	-12432
▁उर्जा	-12433
▁कारों	-12434
▁चतुष्	-12435
▁प्रसि	-12436
▁भयभीत	-12437
▁भूभाग	-12438
▁मौसमी	-12439
▁शाश्व	-12440
▁हिंदु	-12441
▁गुच्छे	-12442
▁चमकदार	-12443
▁दिलाने	-12444
▁निकाली	-12445
▁शनिवार	-12446
▁समांतर	-12447
▁सीमेंट	-12448
▁असमानता	-12449
▁कीबोर्ड	-12450
▁चुनावों	-12451
▁निर्दोष	-12452
▁संदिग्ध	-12453
▁संबन्धी	-12454
▁पक्षाघात	-12455
▁श्रेणीःअ	-12456
▁अनुयायियों	-12457
▁प्रायद्वीप	-12458
▁उपयोक्तानाम	-12459
▁परिसंपत्तियां	-12460
OD	-12461
ts	-12462
अव	-12463
ऋण	-12464
पौ	-12465
यद	-12466
सौ	-12467
kaj	-12468
चने	-12469
यीं	-12470
ेंग	-12471
▁3,	-12472
▁‘‘	-12473
इयाँ	-12474
गेटर	-12475
र्पण	-12476
हाली	-12477
ान्व	-12478
▁186	-12479
▁केर	-12480
▁कैम	-12481
▁खां	-12482
▁जुट	-12483
▁मैक	-12484
▁सरो	-12485
▁स्ल	-12486
kajha	-12487
नमेंट	-12488
न्दरी	-12489
वित्त	-12490
ूर्वक	-12491
▁इमेज	-12492
▁कपूर	-12493
▁कर्क	-12494
▁फ़ीड	-12495
▁लाइट	-12496
▁संपी	-12497
▁सूखी	-12498
▁स्टे	-12499
▁☻☻☻☻	-12500
जेक्शन	-12501
ड़ियाँ	-12502
माताओं	-12503
▁ख़रीद	-12504
▁गुनेह	-12505
▁तालीम	-12506
▁बोलता	-12507
▁मक्खी	-12508
▁माइकल	-12509
▁स्पर्	-12510
प्रतिशत	-12511
▁असीमित	-12512
▁एकाधिक	-12513
▁कठोरता	-12514
▁गुस्सा	-12515
▁जाऊँगा	-12516
▁दूरभाष	-12517
▁नमूनों	-12518
▁निकटतम	-12519
▁लिफाफा	-12520
▁सर्जरी	-12521
▁अद्यतनी	-12522
▁आदर्शों	-12523
▁आहिस्ता	-12524
▁बाजारों	-12525
▁रोज़गार	-12526
▁सिक्कों	-12527
rajeshkajha	-12528
▁हिन्दुस्तानी	-12529
AS	-12530
lu	-12531
रथ	-12532
ber	-12533
एगी	-12534
फ़त	-12535
बाप	-12536
वकू	-12537
ुनि	-12538
्रह	-12539
२००	-12540
▁37	-12541
▁लय	-12542
इतना	-12543
ताबे	-12544
नुमा	-12545
न्दे	-12546
सख्त	-12547
समें	-12548
ुलकर	-12549
्विन	-12550
▁उछल	-12551
▁टर्	-12552
▁डाँ	-12553
▁फिस	-12554
▁बनो	-12555
▁बिक	-12556
▁सरा	-12557
▁साई	-12558
आयामी	-12559
वाद्य	-12560
हिन्द	-12561
▁item	-12562
▁अनवर	-12563
▁कसरत	-12564
▁कैदी	-12565
▁क्षी	-12566
▁तंतु	-12567
▁शोभा	-12568
▁सदिश	-12569
▁साहा	-12570
्रास्ट	-12571
▁check	-12572
▁आस्ति	-12573
▁डालता	-12574
▁धक्का	-12575
▁पठनीय	-12576
▁पहेली	-12577
▁पाओगे	-12578
▁बाधित	-12579
▁मिर्च	-12580
▁आउटलुक	-12581
▁उत्थान	-12582
▁आदिवासी	-12583
▁उच्छेदन	-12584
▁विभागीय	-12585
▁वियतनाम	-12586
▁संकुचित	-12587
▁सब्सिडी	-12588
▁गोपनीयता	-12589
▁कार्यशाला	-12590
▁मध्यवर्ती	-12591
▁हाइड्रोजन	-12592
▁पुनर्भंडार	-12593
▁मार्गदर्शक	-12594
▁उत्तराधिकार	-12595
24	-12596
-\\	-12597
ँगे	-12598
जाद	-12599
र्घ	-12600
षेक	-12601
हूर	-12602
ालु	-12603
▁कफ	-12604
▁२६	-12605
ंगनी	-12606
अक्ष	-12607
चाने	-12608
ज्जत	-12609
फ्रे	-12610
सेंट	-12611
ुकूल	-12612
▁ऑंक	-12613
▁जंक	-12614
▁तमा	-12615
▁दाद	-12616
▁नहा	-12617
▁बेज	-12618
▁हाय	-12619
ज़ाबे	-12620
दोनों	-12621
▁अदाल	-12622
▁अनुभ	-12623
▁काबू	-12624
▁काशी	-12625
▁कुशा	-12626
▁क्वे	-12627
▁दफ्त	-12628
▁बीजा	-12629
▁मीठा	-12630
▁लाये	-12631
▁शरार	-12632
▁सुलभ	-12633
चित्रण	-12634
न्त्री	-12635
▁अट्ठा	-12636
▁अण्डे	-12637
▁निस्प	-12638
▁पढ़कर	-12639
▁पढ़ता	-12640
▁फीसदी	-12641
▁बग़ैर	-12642
▁बागान	-12643
▁लिखकर	-12644
▁वैधता	-12645
▁अंतरिम	-12646
▁गुणांक	-12647
▁चिकित्	-12648
▁चेतावन	-12649
▁मैनेजर	-12650
▁विषाणु	-12651
▁स्टाइल	-12652
▁अयोध्या	-12653
▁कीटनाशक	-12654
▁गाँधीजी	-12655
▁निगाहें	-12656
▁पहचानने	-12657
▁बादशाही	-12658
▁समन्वित	-12659
▁निर्देशों	-12660
▁विश्वयुद्ध	-12661
▁जावास्क्रिप्ट	-12662
▁ऎ	-12663
:00	-12664
अली	-12665
जनी	-12666
तबा	-12667
पुन	-12668
लीस	-12669
▁जठ	-12670
तबली	-12671
फ़्ट	-12672
रापन	-12673
्राण	-12674
▁आशी	-12675
▁कमल	-12676
▁कवच	-12677
▁खेद	-12678
▁टॉप	-12679
▁तड़	-12680
▁दुम	-12681
▁पका	-12682
▁पाम	-12683
▁रुख	-12684
त्तूर	-12685
िकाएं	-12686
▁उसमे	-12687
▁करोड	-12688
▁चश्म	-12689
▁चादर	-12690
▁तबाह	-12691
▁बलों	-12692
▁बुकम	-12693
▁बुझा	-12694
▁लीला	-12695
जीरिया	-12696
▁अब्दु	-12697
▁आभूषण	-12698
▁ज्वाल	-12699
▁त्रिज	-12700
▁दिखला	-12701
▁बहाना	-12702
▁बेवकू	-12703
▁मज्जा	-12704
▁मानकर	-12705
▁स्पेस	-12706
▁आपरेशन	-12707
▁उन्मुख	-12708
▁क्रेता	-12709
▁जोड़ते	-12710
▁डेवलपर	-12711
▁पेटेंट	-12712
▁प्रहार	-12713
▁बेहूदा	-12714
▁भाषाएं	-12715
▁रिचर्ड	-12716
▁वृत्ति	-12717
▁संबधित	-12718
▁सोवियत	-12719
▁कारखाने	-12720
▁निधियां	-12721
▁सेनापति	-12722
▁क्रमबद्ध	-12723
▁परमात्मा	-12724
▁मांसपेशी	-12725
Permissions	-12726
▁आधुनिकीकरण	-12727
of	-12728
कटि	-12729
ग़ा	-12730
सिब	-12731
▁CO	-12732
ring	-12733
ंकृत	-12734
कारे	-12735
ज़रत	-12736
फ़ोन	-12737
फ्ता	-12738
र्गी	-12739
र्तन	-12740
लाबी	-12741
ियोप	-12742
ेशकश	-12743
▁अहं	-12744
▁कन्	-12745
▁कल्	-12746
▁काफ	-12747
▁गुज	-12748
▁भरण	-12749
▁सेब	-12750
▁आइसल	-12751
▁चौथे	-12752
▁डिजी	-12753
▁डूबो	-12754
▁थीटा	-12755
▁दुरा	-12756
▁नरसि	-12757
▁परिच	-12758
▁फतेह	-12759
▁रूढ़	-12760
▁लाकर	-12761
ग्रहीत	-12762
▁काष्ठ	-12763
▁मख़लू	-12764
▁मस्ती	-12765
▁समरूप	-12766
▁सस्ता	-12767
▁खींचें	-12768
▁नारंगी	-12769
▁पादपों	-12770
▁फ्रेंच	-12771
▁बढ़ाता	-12772
▁बैठकों	-12773
▁मज़दूर	-12774
▁शाश्वत	-12775
▁शिकारी	-12776
▁समझदार	-12777
किस्तानी	-12778
▁परिप्रे	-12779
▁प्रलेखन	-12780
▁मिसालें	-12781
▁स्वार्थ	-12782
▁उल्लिखित	-12783
▁कॉपीराइट	-12784
▁चेतावनीः	-12785
▁सक्रियता	-12786
▁सामंजस्य	-12787
escription	-12788
▁टैम्प्लेट	-12789
▁निवासियों	-12790
▁प्रायोगिक	-12791
▁विवेकानंद	-12792
▁प्रत्याशित	-12793
▁वाक़िफ़कार	-12794
▁प्रौद्योगिकियों	-12795
IC	-12796
कौ	-12797
२०	-12798
५०	-12799
धिर	-12800
हीद	-12801
ीयर	-12802
ुना	-12803
ुरू	-12804
▁`%	-12805
----	-12806
unit	-12807
ज़रा	-12808
मूसा	-12809
विता	-12810
ुप्त	-12811
▁ऋणी	-12812
▁खोद	-12813
▁बूँ	-12814
▁मसी	-12815
▁लोम	-12816
कार्ब	-12817
त्विक	-12818
बिनेट	-12819
स्टेट	-12820
ालैंड	-12821
▁थकान	-12822
▁दीपू	-12823
▁धुरी	-12824
▁परदे	-12825
▁बोतल	-12826
▁भ्रा	-12827
▁युगल	-12828
▁अभ्या	-12829
▁आज़ाद	-12830
▁खुजली	-12831
▁चलाते	-12832
▁निर्म	-12833
▁पत्ती	-12834
▁पेशकश	-12835
▁फाइनल	-12836
▁बलराम	-12837
▁बेलार	-12838
▁शुभार	-12839
▁सियार	-12840
▁स्टील	-12841
मुसलमान	-12842
्यात्मक	-12843
▁उत्तरः	-12844
▁ज़रुरत	-12845
▁डिब्बा	-12846
▁नदियाँ	-12847
▁निकलती	-12848
▁निर्या	-12849
▁भूमिगत	-12850
▁मार्केट	-12851
▁शीर्षकः	-12852
▁अफ़्रीका	-12853
▁एक्सएमएल	-12854
▁तत्कालीन	-12855
▁पासवर्डः	-12856
▁कार्यदिवस	-12857
▁जाननेवाला	-12858
▁प्रतिवेदन	-12859
▁स्टार्टअप	-12860
▁ब्रेकपाइंट	-12861
▁शांतिपूर्ण	-12862
▁प्रस्तुतिकरण	-12863
िण	-12864
केन	-12865
फाय	-12866
मरी	-12867
लाव	-12868
संक	-12869
▁घू	-12870
ader	-12871
क़ूब	-12872
पकों	-12873
पाती	-12874
मध्य	-12875
वासन	-12876
हानि	-12877
▁चूस	-12878
▁फटा	-12879
साइटी	-12880
▁अंगू	-12881
▁क़दर	-12882
▁खेला	-12883
▁टोपी	-12884
▁बेचा	-12885
▁मेजर	-12886
▁लाता	-12887
▁लापर	-12888
▁वज्र	-12889
ष्णुता	-12890
▁अकारथ	-12891
▁अड्डे	-12892
▁बट्टा	-12893
▁बेचैन	-12894
▁मापने	-12895
▁लुप्त	-12896
▁श्याम	-12897
▁सावधि	-12898
▁सौदों	-12899
▁अलिफ़॰	-12900
▁जागरूक	-12901
▁पहुंची	-12902
▁बढ़ाकर	-12903
▁बराबरी	-12904
▁माँगने	-12905
▁व्यंजन	-12906
▁सुसंगत	-12907
▁सूर्या	-12908
▁हुकूमत	-12909
▁ईर्ष्या	-12910
▁तकनीकों	-12911
▁निकालते	-12912
▁स्थानिक	-12913
▁कुंजियाँ	-12914
▁क्रियाओं	-12915
▁ट्रिब्यू	-12916
▁निदेशालय	-12917
▁तात्कालिक	-12918
▁दायित्वों	-12919
▁फ्रांसीसी	-12920
▁श्रेष्ठता	-12921
7)	-12922
गह	-12923
सक	-12924
करे	-12925
बॉल	-12926
शीट	-12927
ैरा	-12928
▁ईस	-12929
▁ऐन	-12930
▁कॅ	-12931
आईपी	-12932
दत्त	-12933
राग़	-12934
ष्ठी	-12935
▁inl	-12936
▁अधो	-12937
▁कैप	-12938
▁गड्	-12939
▁घटी	-12940
▁छुआ	-12941
▁ज़े	-12942
▁जाम	-12943
▁भैं	-12944
▁०००	-12945
फॉर्म	-12946
ह्नों	-12947
▁आर्ग	-12948
▁इक्व	-12949
▁उकसा	-12950
▁ताबे	-12951
▁दाएं	-12952
▁बंदी	-12953
▁बनें	-12954
▁बहरे	-12955
▁युसु	-12956
▁वाक्	-12957
▁सुल्	-12958
दिहानी	-12959
ार्बुद	-12960
्यूटरी	-12961
▁अजनबी	-12962
▁उड़ने	-12963
▁कहावत	-12964
▁कीमती	-12965
▁तस्वी	-12966
▁परवलय	-12967
▁पायथन	-12968
▁पुण्य	-12969
▁सस्ती	-12970
साहित्य	-12971
▁उपरांत	-12972
▁दाहिना	-12973
▁पराजित	-12974
▁मुलायम	-12975
▁सिगरेट	-12976
▁अवशिष्ट	-12977
▁क्षितिज	-12978
▁ग्रंथों	-12979
▁बकरियों	-12980
प्रक्रिया	-12981
▁ज्ञानवान	-12982
▁प्रफुल्ल	-12983
▁संतृप्ति	-12984
▁यांत्रिकी	-12985
▁याददिहानी	-12986
▁हस्तांतरित	-12987
▁दुर्भाग्यवश	-12988
▁अभियांत्रिकी	-12989
if	-12990
ॉम	-12991
्भ	-12992
१८	-12993
API	-12994
एंट	-12995
ठाक	-12996
णसी	-12997
दून	-12998
धीय	-12999
फली	-13000
फिन	-13001
शीन	-13002
▁इज	-13003
▁मॅ	-13004
एण्ड	-13005
करार	-13006
जाने	-13007
डाउन	-13008
दीकी	-13009
नाइट	-13010
वाया	-13011
▁एम्	-13012
▁पोट	-13013
▁लाज	-13014
गाकार	-13015
बुद्ध	-13016
लीकरण	-13017
ुष्टि	-13018
▁2019	-13019
▁अकसर	-13020
▁अकाल	-13021
▁एलबम	-13022
▁गाना	-13023
▁गिनी	-13024
▁जबतक	-13025
▁ज्ञा	-13026
▁डायल	-13027
▁पूति	-13028
▁मल्ल	-13029
▁शिवा	-13030
▁साधु	-13031
▁सुने	-13032
आधारित	-13033
पक्षीय	-13034
▁अंत्य	-13035
▁अपठित	-13036
▁उपवास	-13037
▁चौधरी	-13038
▁छुट्ट	-13039
▁पक्की	-13040
▁बजाने	-13041
▁लगाये	-13042
▁सेंटी	-13043
▁अनुरुप	-13044
▁कपड़ों	-13045
▁काउंटर	-13046
▁घुसाएँ	-13047
▁दिखानी	-13048
▁निर्गत	-13049
▁बनायें	-13050
▁मुअय्य	-13051
▁मुनाफा	-13052
▁विद्यु	-13053
▁कलाकृति	-13054
▁ज्वालाम	-13055
▁निकालकर	-13056
▁पहुंचना	-13057
▁वृंदावन	-13058
▁टेम्पलेट	-13059
▁निर्भरता	-13060
▁inlistbox	-13061
▁भागीदारों	-13062
▁उपलब्धियां	-13063
ph	-13064
ore	-13065
कित	-13066
चैन	-13067
जीन	-13068
फूल	-13069
भोज	-13070
मेय	-13071
याप	-13072
वरा	-13073
सिस	-13074
िगा	-13075
▁मग	-13076
▁यी	-13077
अधिक	-13078
ज़गी	-13079
▁कसम	-13080
▁ग़म	-13081
▁यंग	-13082
क्स्ट	-13083
चिन्ह	-13084
न्ध्र	-13085
पात्र	-13086
▁अभिप	-13087
▁परिल	-13088
▁बहाव	-13089
▁लेखे	-13090
▁शीतल	-13091
▁हकीम	-13092
क्षकों	-13093
▁अपहरण	-13094
▁अल्पा	-13095
▁आवेदक	-13096
▁चौथाई	-13097
▁टेक्न	-13098
▁दर्पण	-13099
▁निकली	-13100
▁निचली	-13101
▁बताये	-13102
▁मुझको	-13103
▁लंबित	-13104
▁स्कंध	-13105
▁हाइपर	-13106
▁10,000	-13107
▁आइलैंड	-13108
▁कंपोजर	-13109
▁कराधान	-13110
▁थोरियम	-13111
▁दिशाओं	-13112
▁निभाता	-13113
▁नौजवान	-13114
▁परिक्र	-13115
▁संवेदी	-13116
▁सवालों	-13117
▁वचनबद्ध	-13118
▁अनुक्रमण	-13119
▁बुकमार्क	-13120
▁समानांतर	-13121
▁सिंगापुर	-13122
▁पड़ोसियों	-13123
▁दीर्घकालिक	-13124
▁क्षतिग्रस्त	-13125
▁श्रेणीःभारत	-13126
SV	-13127
ुग	-13128
ोथ	-13129
ive	-13130
टेर	-13131
माई	-13132
लता	-13133
षाण	-13134
▁टु	-13135
▁फं	-13136
पेटी	-13137
▁अले	-13138
▁आति	-13139
▁जेन	-13140
▁तख़	-13141
▁फेल	-13142
spain	-13143
काण्ड	-13144
कास्ट	-13145
बूझकर	-13146
ाइटिस	-13147
▁'{0}	-13148
▁MAPI	-13149
▁अरुण	-13150
▁अर्ह	-13151
▁औसतन	-13152
▁रखिए	-13153
▁रोते	-13154
▁लंका	-13155
▁स्कै	-13156
▁२००७	-13157
वाहिनी	-13158
सेकेंड	-13159
▁अनन्य	-13160
▁उजागर	-13161
▁एटीएम	-13162
▁ओलम्प	-13163
▁कराते	-13164
▁कार्ल	-13165
▁गुलाब	-13166
▁चाँदी	-13167
▁डालकर	-13168
▁निषेध	-13169
▁बताती	-13170
▁बरहक़	-13171
▁महोदय	-13172
▁राजीव	-13173
▁सहारे	-13174
ोर्निया	-13175
▁अधिप्र	-13176
▁अभिकरण	-13177
▁कुत्ता	-13178
▁जटिलता	-13179
▁परिहास	-13180
▁भ्रष्ट	-13181
▁गर्भपात	-13182
▁रक्तचाप	-13183
▁स्ट्रीट	-13184
▁स्तंभों	-13185
▁अन्दाज़ा	-13186
▁अभिलेखों	-13187
▁एसोसिएशन	-13188
▁क्षेत्रक	-13189
▁गतिशीलता	-13190
▁त्रिज्या	-13191
▁जिब्राल्टर	-13192
▁मंत्रिमंडल	-13193
▁पुनःप्राप्त	-13194
pu	-13195
टू	-13196
गुल	-13197
झान	-13198
सिल	-13199
ूरक	-13200
ोड़	-13201
▁06	-13202
▁इर	-13203
▁कथ	-13204
▁गह	-13205
एमपी	-13206
चढ़ा	-13207
डीएम	-13208
पेशी	-13209
बामा	-13210
मेरी	-13211
सहाय	-13212
ालिस	-13213
िलास	-13214
▁squ	-13215
▁अनप	-13216
▁अनल	-13217
▁खरे	-13218
▁गुन	-13219
▁घुम	-13220
▁जोध	-13221
▁शिम	-13222
ताकार	-13223
तियाँ	-13224
धिकरण	-13225
नालॉग	-13226
महिला	-13227
शुद्ध	-13228
संहार	-13229
ारिका	-13230
▁उगाई	-13231
▁कच्छ	-13232
▁जनित	-13233
▁तुम्	-13234
▁नहला	-13235
▁पीते	-13236
▁फिल्	-13237
▁मजाक	-13238
▁मर्द	-13239
▁रचित	-13240
object	-13241
▁अनोखा	-13242
▁ईरानी	-13243
▁उगाया	-13244
▁उम्मत	-13245
▁चलाता	-13246
▁जातीय	-13247
▁टैक्स	-13248
▁डीएनए	-13249
▁मास्क	-13250
▁सभाओं	-13251
▁अमृतसर	-13252
▁आरेखित	-13253
▁कम्युन	-13254
▁जुटाने	-13255
▁जोड़ता	-13256
▁तुर्क़	-13257
▁दोस्ती	-13258
▁पाश्चा	-13259
▁मुख़्य	-13260
▁रेटिंग	-13261
▁स्लाइस	-13262
▁फरिश्ते	-13263
▁मातृवंश	-13264
▁संपीडित	-13265
▁सूचनाएं	-13266
▁अवस्थिति	-13267
▁निगेहबान	-13268
▁यूनाइटेड	-13269
▁निर्वाचित	-13270
▁रूपांतरित	-13271
▁विशिष्टता	-13272
▁न्यायाधीशों	-13273
▁प्रविष्टियों	-13274
▁इलेक्ट्रॉनिक्स	-13275
ंए	-13276
ोभ	-13277
इये	-13278
एटी	-13279
बात	-13280
ायब	-13281
ोरी	-13282
▁An	-13283
▁औप	-13284
▁बँ	-13285
ania	-13286
छेदन	-13287
ज़ाज	-13288
दिया	-13289
पद्ध	-13290
बिंद	-13291
बोर्	-13292
मरने	-13293
िप्स	-13294
▁अलं	-13295
▁चर्	-13296
▁जहर	-13297
▁फुस	-13298
▁बाज	-13299
▁बोह	-13300
▁मता	-13301
▁मृग	-13302
▁लीज	-13303
▁शिष	-13304
ज्जुब	-13305
मार्क	-13306
▁आभार	-13307
▁इर्द	-13308
▁ईश्व	-13309
▁कांच	-13310
▁केले	-13311
▁चाहो	-13312
▁चौकी	-13313
▁तुनक	-13314
▁नुत्	-13315
▁पीटर	-13316
▁माइम	-13317
▁मोचन	-13318
▁यकृत	-13319
▁वकाल	-13320
▁सीसा	-13321
पूर्वी	-13322
▁ऑंकडा	-13323
▁क्रैश	-13324
▁ख़ाका	-13325
▁जलाने	-13326
▁दफ्तर	-13327
▁नित्य	-13328
▁पंखों	-13329
▁बन्धक	-13330
▁बिखरे	-13331
▁बेटों	-13332
▁भरोसे	-13333
▁विलेख	-13334
▁एयरलाइ	-13335
▁कीजिये	-13336
▁चश्में	-13337
▁चेहरों	-13338
▁पैग़ाम	-13339
▁बुलाने	-13340
▁आश्वस्त	-13341
▁उज्ज्वल	-13342
▁गोलाकार	-13343
▁वर्चुअल	-13344
▁संभालने	-13345
▁तस्वीरें	-13346
▁मानदंडों	-13347
▁मेहरबानी	-13348
▁रामकृष्ण	-13349
▁पैरामीटर्स	-13350
▁परिप्रेक्ष्य	-13351
डऋ	-13352
ोत	-13353
-12	-13354
ith	-13355
tin	-13356
ult	-13357
गरि	-13358
पैड	-13359
बाग	-13360
वने	-13361
सैन	-13362
▁38	-13363
▁एर	-13364
▁५०	-13365
जेशन	-13366
म्बी	-13367
ियास	-13368
▁कलन	-13369
▁नफर	-13370
▁नशी	-13371
▁पूल	-13372
▁फास	-13373
▁मोन	-13374
▁रेप	-13375
▁सहि	-13376
▁साज	-13377
▁हता	-13378
उत्तर	-13379
▁घंटी	-13380
▁दवाई	-13381
▁नाशु	-13382
▁पिंज	-13383
▁पीसी	-13384
▁फिरे	-13385
▁बाबत	-13386
▁बायो	-13387
▁रिली	-13388
▁लाज़	-13389
▁सचिन	-13390
ंत्रित	-13391
सिस्टम	-13392
ार्श्व	-13393
▁कच्ची	-13394
▁खांसी	-13395
▁छक्का	-13396
▁जरिये	-13397
▁दुर्व	-13398
▁बहुधा	-13399
▁बैठना	-13400
▁भाड़ा	-13401
▁महंगा	-13402
▁मैनें	-13403
▁वक़्त	-13404
वर्तनीय	-13405
▁कीर्ति	-13406
▁डालेगा	-13407
▁तन्त्र	-13408
▁बुकिंग	-13409
▁मुखिया	-13410
▁विज़ेट	-13411
▁सम्मुख	-13412
▁ढूंढेंः	-13413
▁पात्रों	-13414
▁पूंजीगत	-13415
▁मार्जिन	-13416
▁यूनिवर्	-13417
▁शुरुआती	-13418
▁साझेदार	-13419
▁सोसाइटी	-13420
▁आपूर्तिक	-13421
▁गुमराहों	-13422
▁प्रतिद्व	-13423
▁रहनेवाली	-13424
▁विनम्रता	-13425
▁मध्यस्थता	-13426
▁राजकुमारी	-13427
▁हस्तशिल्प	-13428
▁पूर्वानुमान	-13429
▁प्रतिपूर्ति	-13430
St	-13431
्थ	-13432
ँसी	-13433
पटी	-13434
बाइ	-13435
ैरी	-13436
▁1)	-13437
▁झर	-13438
इसके	-13439
जन्म	-13440
वृति	-13441
वेली	-13442
शेखर	-13443
श्कर	-13444
सायी	-13445
स्पे	-13446
ान्ट	-13447
ारंभ	-13448
ूकोज	-13449
▁कैट	-13450
▁कोच	-13451
▁जुन	-13452
▁मुस	-13453
▁हंग	-13454
र्वाद	-13455
▁किशो	-13456
▁खिंच	-13457
▁झुकी	-13458
▁ठंडी	-13459
▁दाँत	-13460
▁दाता	-13461
▁नकली	-13462
▁पतला	-13463
▁बाली	-13464
▁रेशे	-13465
▁शिला	-13466
▁सेमी	-13467
क़ुरआन	-13468
प्रभाव	-13469
प्रसार	-13470
वर्षीय	-13471
ान्वित	-13472
▁Image	-13473
▁अतिशय	-13474
▁कराती	-13475
▁कोलंब	-13476
▁खजाने	-13477
▁दिखाओ	-13478
▁बहुता	-13479
▁बांटा	-13480
▁रियाय	-13481
▁समूचे	-13482
▁सिग्न	-13483
▁आश्रित	-13484
▁उतारने	-13485
▁कार्लो	-13486
▁तश्तरी	-13487
▁पुनर्ग	-13488
▁मंत्रि	-13489
▁विमानन	-13490
▁संकलित	-13491
▁सजावटी	-13492
निरपेक्ष	-13493
▁आखिरकार	-13494
▁ख़बरदार	-13495
▁जीवाश्म	-13496
▁वाराणसी	-13497
▁दृष्टांत	-13498
▁फ़ोल्डरः	-13499
▁कंट्रास्ट	-13500
▁परिवीक्षा	-13501
▁प्लेलिस्ट	-13502
▁शिष्टमंडल	-13503
▁संगठनात्मक	-13504
▁विश्वव्यापी	-13505
ED	-13506
ऑफ	-13507
isc	-13508
rom	-13509
काट	-13510
जूज	-13511
टेक	-13512
थिक	-13513
सेज	-13514
ालो	-13515
ुर्	-13516
▁उँ	-13517
▁ओं	-13518
▁डै	-13519
बख्त	-13520
राने	-13521
वहार	-13522
सिला	-13523
हाउस	-13524
▁घिर	-13525
▁डोम	-13526
▁दीख	-13527
▁पें	-13528
▁बूझ	-13529
▁भड़	-13530
▁यती	-13531
▁लाद	-13532
▁लोप	-13533
▁सफ़	-13534
▁सुष	-13535
▁१९६	-13536
मियों	-13537
षिद्ध	-13538
ोनियम	-13539
▁HTTP	-13540
▁उठकर	-13541
▁कराए	-13542
▁कैल्	-13543
▁गुणन	-13544
▁परिर	-13545
▁बूंद	-13546
▁सैंड	-13547
▁ख़राब	-13548
▁गेटवे	-13549
▁चौड़ा	-13550
▁त्रास	-13551
▁दिखती	-13552
▁निलंब	-13553
▁पर्दे	-13554
▁पालतू	-13555
▁बायें	-13556
▁बुलाए	-13557
▁मुन्त	-13558
▁हँसते	-13559
कैलेंडर	-13560
▁ड्यूटी	-13561
▁फ़ॉर्म	-13562
▁महानगर	-13563
▁रिश्ता	-13564
▁ऑप्टिकल	-13565
▁कारावास	-13566
▁काश्मीर	-13567
▁खड़खड़ा	-13568
▁गुज़रते	-13569
▁ज्यादती	-13570
▁टुकड़ों	-13571
▁ताज्जुब	-13572
▁नरेंद्र	-13573
▁रिश्तों	-13574
▁शाहजहाँ	-13575
▁क्रिस्टल	-13576
▁बल्लेबाज	-13577
▁संतोषजनक	-13578
▁सुसज्जित	-13579
▁क्रोएशिया	-13580
▁प्रायोजित	-13581
▁अभिलेखागार	-13582
▁पत्रकारिता	-13583
▁राज्यपालों	-13584
▁प्रत्युत्तर	-13585
▁मनोवैज्ञानिक	-13586
SS	-13587
▁|	-13588
एसी	-13589
डेन	-13590
िटे	-13591
▁*.	-13592
▁CD	-13593
▁घी	-13594
▁मथ	-13595
इन्स	-13596
गण्य	-13597
गेशन	-13598
ज्वर	-13599
टिका	-13600
पाही	-13601
पेयी	-13602
▁अभा	-13603
▁अस्	-13604
▁एबी	-13605
▁छीन	-13606
▁न्य	-13607
▁व्ह	-13608
▁सान	-13609
▁हिच	-13610
ction	-13611
जुर्ग	-13612
त्नों	-13613
न्दों	-13614
फोर्ड	-13615
बिंदु	-13616
र्जित	-13617
शंसित	-13618
शून्य	-13619
हत्या	-13620
▁अटकल	-13621
▁खेले	-13622
▁घण्ट	-13623
▁चतुर	-13624
▁छाँव	-13625
▁दीपक	-13626
▁धनुष	-13627
▁पर्स	-13628
▁बहके	-13629
▁बाला	-13630
▁सुखी	-13631
गणितीय	-13632
ट्रपति	-13633
संग्रह	-13634
▁अधिनि	-13635
▁काबुल	-13636
▁कालीन	-13637
▁घटाने	-13638
▁ड्रैग	-13639
▁पलटकर	-13640
▁बछड़े	-13641
▁रेंडर	-13642
▁वकालत	-13643
▁हाजिर	-13644
▁इनलाइन	-13645
▁कृष्णा	-13646
▁निबन्ध	-13647
▁मजिस्ट	-13648
▁रुकावट	-13649
▁वाल्मी	-13650
चिकित्सक	-13651
▁अन्यत्र	-13652
▁कित्तूर	-13653
▁चंडीगढ़	-13654
▁जबरदस्त	-13655
▁जातियां	-13656
▁दरवाज़ा	-13657
▁परीक्षक	-13658
▁प्रशंसक	-13659
▁महामारी	-13660
▁पदोन्नति	-13661
▁प्रक्षेप	-13662
▁वर्गाकार	-13663
▁स्थापत्य	-13664
▁पाश्चात्य	-13665
▁चिकित्सकीय	-13666
▁ज़िम्मेदार	-13667
95	-13668
ॅल	-13669
ack	-13670
अभी	-13671
इन्	-13672
कूद	-13673
छित	-13674
पोल	-13675
भ्य	-13676
वेज	-13677
हिन	-13678
ायु	-13679
एससी	-13680
विड़	-13681
िद्र	-13682
▁120	-13683
▁अवा	-13684
▁आवक	-13685
▁इको	-13686
▁चों	-13687
▁तज़	-13688
▁पाश	-13689
▁बढे	-13690
ertor	-13691
चित्त	-13692
▁अधिर	-13693
▁अनाम	-13694
▁उठने	-13695
▁ख्वा	-13696
▁गिरी	-13697
▁घुड़	-13698
▁चारे	-13699
▁पोर्	-13700
▁यथास	-13701
▁सिंड	-13702
▁सोचे	-13703
▁सोते	-13704
वाहाटी	-13705
िपूर्ण	-13706
▁एकिगा	-13707
▁एरिया	-13708
▁कंसोल	-13709
▁ख़ुशी	-13710
▁खेलना	-13711
▁तिहाई	-13712
▁बनारस	-13713
▁मलामत	-13714
▁रोज़े	-13715
▁स्काइ	-13716
puertor	-13717
▁खिलाने	-13718
▁मिलाएं	-13719
▁वर्णनः	-13720
▁वाहनों	-13721
▁शाखाएं	-13722
▁हटायें	-13723
निर्धारण	-13724
▁निकायों	-13725
▁प्रवृति	-13726
▁बुद्धिम	-13727
▁हाइड्रो	-13728
▁अनावश्यक	-13729
▁परिष्कृत	-13730
▁प्रभावों	-13731
▁संप्रेषण	-13732
puertorico	-13733
▁चिकित्सीय	-13734
▁नाइट्रोजन	-13735
▁न्यूयॉर्क	-13736
▁कार्यकर्ता	-13737
▁भविष्यवाणी	-13738
?।	-13739
ङा	-13740
तौ	-13741
▁—	-13742
bia	-13743
lat	-13744
ंतक	-13745
रिस	-13746
▁एं	-13747
▁वं	-13748
क्षय	-13749
चारे	-13750
जोरम	-13751
निस्	-13752
बड़ा	-13753
रूपण	-13754
सिले	-13755
ार्ध	-13756
▁एसी	-13757
▁कटक	-13758
▁जैक	-13759
▁दोग	-13760
▁धड़	-13761
▁धरा	-13762
▁पौध	-13763
▁बची	-13764
▁बीप	-13765
▁मनु	-13766
▁विए	-13767
▁शाप	-13768
▁हेड	-13769
ब्दिक	-13770
स्टीट	-13771
▁अनिय	-13772
▁किसे	-13773
▁जादा	-13774
▁दिखे	-13775
▁पायल	-13776
▁फ्ले	-13777
▁भूरा	-13778
▁सपाट	-13779
▁सिकु	-13780
त्तव्य	-13781
स्तिष्	-13782
्तिहान	-13783
▁अलगाव	-13784
▁उलटें	-13785
▁खौलता	-13786
▁चांदी	-13787
▁चौड़ी	-13788
▁झाड़ी	-13789
▁डेयरी	-13790
▁तम्बा	-13791
▁तूफान	-13792
▁दशाओं	-13793
▁दौड़े	-13794
▁पकाने	-13795
▁पसीना	-13796
▁बढाने	-13797
▁बिलों	-13798
▁भीष्म	-13799
▁भोपाल	-13800
▁वेदना	-13801
▁समाधि	-13802
केन्द्र	-13803
▁अनेकों	-13804
▁आच्छाद	-13805
▁कहलाती	-13806
▁गुलाबी	-13807
▁झारखंड	-13808
▁नियामक	-13809
▁मिलाएँ	-13810
▁शर्करा	-13811
▁सलामती	-13812
▁स्वीडन	-13813
▁अफ्रीकी	-13814
▁कामयाबी	-13815
▁कृतियों	-13816
▁कैबिनेट	-13817
▁संसाधित	-13818
▁हाथियों	-13819
▁इम्तिहान	-13820
▁नागरिकता	-13821
▁निर्देशक	-13822
▁बुराइयों	-13823
▁विज्ञानी	-13824
▁शिकायतें	-13825
▁सम्बंधित	-13826
▁पारिभाषित	-13827
▁अद्यतनीकृत	-13828
▁इंडोनेशिया	-13829
3,	-13830
6,	-13831
90	-13832
सज	-13833
िओ	-13834
day	-13835
ual	-13836
ईजी	-13837
चड़	-13838
च्य	-13839
दशा	-13840
लती	-13841
▁२३	-13842
वादा	-13843
शायर	-13844
ोलिक	-13845
▁Mac	-13846
▁ढोल	-13847
▁पंप	-13848
▁बेश	-13849
▁मिड	-13850
▁रूक	-13851
▁लाग	-13852
▁लिय	-13853
गिर्द	-13854
▁आफिस	-13855
▁निरु	-13856
▁नीचा	-13857
▁बिंद	-13858
▁महीन	-13859
पद्धति	-13860
प्रबंध	-13861
▁एल्बम	-13862
▁कश्मी	-13863
▁खजाना	-13864
▁खाँचा	-13865
▁त्वरण	-13866
▁पूछने	-13867
▁मांगी	-13868
▁संरूप	-13869
▁साइबर	-13870
▁हेनरी	-13871
▁inmenu	-13872
▁अरविंद	-13873
▁आज्ञाप	-13874
▁आवंटित	-13875
▁कोज्या	-13876
▁चेष्टा	-13877
▁झगड़ते	-13878
▁पालिसी	-13879
▁प्रकरण	-13880
▁फैलाने	-13881
▁बाधाओं	-13882
▁बेचैनी	-13883
▁ब्यौरा	-13884
▁मुर्दा	-13885
▁विंडोज	-13886
▁सिग्नल	-13887
▁अरुणाचल	-13888
▁कविताएं	-13889
▁पुराणों	-13890
▁गुवाहाटी	-13891
▁ज्यामिति	-13892
▁पहुँचाने	-13893
▁पांडुलिप	-13894
▁बिन्दुओं	-13895
▁असुरक्षित	-13896
▁कार्यसूची	-13897
▁निकटवर्ती	-13898
▁सुविधाजनक	-13899
▁कार्यस्थान	-13900
▁उपयोगकर्ताओं	-13901
▁माइक्रोसॉफ्ट	-13902
ll	-13903
ide	-13904
लीज	-13905
वेन	-13906
ूपा	-13907
▁ईद	-13908
▁नृ	-13909
ंजीर	-13910
घाती	-13911
न्डा	-13912
ारीय	-13913
्रिज	-13914
▁set	-13915
▁आइस	-13916
▁टंक	-13917
▁डॉक	-13918
▁फंस	-13919
▁बेव	-13920
▁लिं	-13921
ज़ेशन	-13922
स्कों	-13923
िविटी	-13924
ेशनों	-13925
▁ढाँक	-13926
▁ढीला	-13927
▁धूसर	-13928
▁नाभि	-13929
▁बुर्	-13930
▁मूवी	-13931
फोल्डर	-13932
▁अब्बा	-13933
▁आरोपी	-13934
▁खुदाई	-13935
▁घटिया	-13936
▁तितली	-13937
▁रक्ता	-13938
▁सस्ते	-13939
▁सीखते	-13940
कांक्षी	-13941
स्ट्रेल	-13942
▁अंधकार	-13943
▁कैरियर	-13944
▁छिड़का	-13945
▁प्रवीण	-13946
▁प्रिंस	-13947
▁फ़ारसी	-13948
▁अस्वस्थ	-13949
▁इमारतों	-13950
▁ट्रान्स	-13951
▁शीघ्रता	-13952
▁सरोजिनी	-13953
▁चट्टानों	-13954
▁दुरुपयोग	-13955
▁दूरदर्शन	-13956
▁प्राक्सी	-13957
▁कार्मिकों	-13958
▁रजिस्ट्री	-13959
▁ब्रह्माण्ड	-13960
cur	-13961
ecu	-13962
टलर	-13963
टोल	-13964
डें	-13965
ण्व	-13966
बेक	-13967
सला	-13968
ोरो	-13969
्य्	-13970
▁4,	-13971
▁ex	-13972
▁ऋष	-13973
▁कत	-13974
▁थै	-13975
ared	-13976
ंगली	-13977
उनका	-13978
पुष्	-13979
सबको	-13980
▁1.5	-13981
▁rep	-13982
▁अवध	-13983
▁डिस	-13984
▁दीप	-13985
▁पनी	-13986
▁बैच	-13987
▁मदि	-13988
▁राख	-13989
▁लीन	-13990
▁वलय	-13991
▁सूख	-13992
करिया	-13993
क्रेन	-13994
विभाग	-13995
शीघ्र	-13996
▁अशुभ	-13997
▁आयरल	-13998
▁आयोड	-13999
▁कोरो	-14000
▁चौथी	-14001
▁टीके	-14002
▁नफरत	-14003
▁पल्ल	-14004
▁फंसा	-14005
▁भूरे	-14006
▁राशन	-14007
▁सरणी	-14008
▁आजीवन	-14009
▁ठहराव	-14010
▁धर्मा	-14011
▁मनाने	-14012
▁लगाएं	-14013
▁विनिय	-14014
▁संवित	-14015
▁समझें	-14016
▁हिमाल	-14017
Meeting	-14018
कारियों	-14019
▁अंधेरा	-14020
▁कारबार	-14021
▁कुमारी	-14022
▁गवाहों	-14023
▁दिलाया	-14024
▁महत्वा	-14025
▁मिजोरम	-14026
▁वाहिका	-14027
▁साहसिक	-14028
▁सिपाही	-14029
▁स्कूली	-14030
▁औषधियों	-14031
▁कशेरुका	-14032
▁चंद्रमा	-14033
▁निवृत्त	-14034
▁बुजुर्ग	-14035
▁ब्राजील	-14036
▁मैदानों	-14037
▁सिलसिला	-14038
▁वर्णमाला	-14039
▁सुविधाएँ	-14040
▁कर्तव्यों	-14041
▁सहभागियों	-14042
▁लोकप्रियता	-14043
▁संरचनात्मक	-14044
▁अपारदर्शिता	-14045
CA	-14046
आद	-14047
cut	-14048
ink	-14049
jan	-14050
कीद	-14051
खड़	-14052
ख्श	-14053
नली	-14054
मास	-14055
ामय	-14056
▁ऐब	-14057
▁क्	-14058
▁छप	-14059
▁झट	-14060
▁२४	-14061
-125	-14062
एफपी	-14063
जाना	-14064
न्टे	-14065
पीपी	-14066
योगी	-14067
साधन	-14068
हाइड	-14069
▁कपट	-14070
▁गेम	-14071
▁जेट	-14072
▁पिच	-14073
▁पेन	-14074
▁पैड	-14075
▁बुझ	-14076
▁बुर	-14077
▁बूल	-14078
▁बैग	-14079
▁बोग	-14080
▁वशी	-14081
काकुल	-14082
पायों	-14083
सामने	-14084
सेन्स	-14085
▁अधिश	-14086
▁उतरा	-14087
▁कोले	-14088
▁ताड़	-14089
▁प्रग	-14090
▁बाते	-14091
▁शोधन	-14092
उंडेशन	-14093
बिन्दु	-14094
▁उठाते	-14095
▁कमाया	-14096
▁करतूत	-14097
▁किस्त	-14098
▁टिकाऊ	-14099
▁दूषित	-14100
▁नाकाम	-14101
▁पारसी	-14102
▁मोंटे	-14103
▁लगाता	-14104
▁लेगें	-14105
▁सजावट	-14106
▁सेन्ट	-14107
▁हरिजन	-14108
स्तियाँ	-14109
▁उदयपुर	-14110
▁एलार्म	-14111
▁जैसाकि	-14112
▁निर्मल	-14113
▁पर्याय	-14114
▁फिलहाल	-14115
▁बढ़ाएँ	-14116
▁माँगते	-14117
▁लॉगआउट	-14118
▁स्टैंड	-14119
▁ग्रन्थि	-14120
▁प्राप्य	-14121
▁अधिवक्ता	-14122
▁त्रिपुरा	-14123
▁पत्तियां	-14124
▁पुकारेगा	-14125
▁रहनेवाले	-14126
▁आर्गुमेंट	-14127
▁अत्यावश्यक	-14128
??	-14129
ST	-14130
ma	-14131
ुज	-14132
kra	-14133
ord	-14134
गर्	-14135
डेल	-14136
फिक	-14137
िपि	-14138
्रय	-14139
▁हज	-14140
asia	-14141
name	-14142
vent	-14143
क्कन	-14144
टेबल	-14145
पिंग	-14146
बैंक	-14147
ुलिन	-14148
ुस्त	-14149
▁आगत	-14150
▁एहद	-14151
▁चखो	-14152
▁नंद	-14153
▁पिक	-14154
▁बंट	-14155
▁बहर	-14156
▁बुन	-14157
▁भगा	-14158
▁सैं	-14159
ऑडियो	-14160
फ्तार	-14161
सन्धि	-14162
▁...।	-14163
▁अभूत	-14164
▁उंगल	-14165
▁कंटे	-14166
▁कुंड	-14167
▁घाना	-14168
▁चलिए	-14169
▁दाना	-14170
▁नीली	-14171
▁पम्प	-14172
▁पारे	-14173
▁यहॉँ	-14174
▁वाटर	-14175
▁सुखा	-14176
▁हीरा	-14177
उन्हें	-14178
क्ष्मा	-14179
परिवार	-14180
▁'{0}'	-14181
▁अकेली	-14182
▁आयोजक	-14183
▁किर्ग	-14184
▁खंडों	-14185
▁खतरों	-14186
▁टेलिफ	-14187
▁तुझपर	-14188
▁थ्रेड	-14189
▁पहलों	-14190
▁फसलें	-14191
▁बत्ती	-14192
▁मशहूर	-14193
▁मांगा	-14194
▁मोड़े	-14195
▁लौटाए	-14196
▁वायदे	-14197
▁संचलन	-14198
मेनियाई	-14199
ोल्डर्स	-14200
▁अभिभाव	-14201
▁तमन्ना	-14202
▁तिब्बत	-14203
▁प्रकटन	-14204
▁प्रयाग	-14205
▁फ़ायदा	-14206
▁रिटर्न	-14207
▁कारखाना	-14208
▁पूछेंगे	-14209
▁मुकरोगे	-14210
▁वाजपेयी	-14211
▁सितारों	-14212
▁आशीर्वाद	-14213
▁एकाधिकार	-14214
▁कर्मियों	-14215
▁टेलीविजन	-14216
▁रजिस्ट्र	-14217
▁सद्भावना	-14218
▁भाग्यशाली	-14219
▁मूर्तियों	-14220
▁निर्माताओं	-14221
▁ग्रीष्मकालीन	-14222
ंझ	-14223
▁j	-14224
CII	-14225
पर्	-14226
रिए	-14227
सिन	-14228
िपल	-14229
▁कद	-14230
चनों	-14231
दन्त	-14232
फ़ेस	-14233
ब्बी	-14234
मान्	-14235
वेशी	-14236
हटकर	-14237
हरित	-14238
हायत	-14239
▁ISO	-14240
▁टाई	-14241
▁टोप	-14242
▁बिज	-14243
▁भाष	-14244
▁भोल	-14245
▁लेक	-14246
▁सैल	-14247
गुणित	-14248
पार्ट	-14249
लेक्स	-14250
सेल्स	-14251
ासनली	-14252
▁अजगर	-14253
▁आइकन	-14254
▁ईकाई	-14255
▁काग़	-14256
▁खयाल	-14257
▁चिंग	-14258
▁दिक्	-14259
▁नुस्	-14260
▁लगें	-14261
▁सर्च	-14262
पीसीएल	-14263
▁उपजाऊ	-14264
▁गाढ़ा	-14265
▁चेकसम	-14266
▁पर्ची	-14267
▁फैक्ट	-14268
▁बुतों	-14269
▁मकबरे	-14270
▁विक्ट	-14271
▁विघटन	-14272
▁हुसैन	-14273
▁तोड़ना	-14274
▁पच्चीस	-14275
▁पहाड़ो	-14276
▁ब्रांड	-14277
▁मुमकिन	-14278
▁मोतिया	-14279
▁राजभवन	-14280
▁समकक्ष	-14281
▁साइटों	-14282
▁स्काइप	-14283
▁चिन्हित	-14284
▁दीवारें	-14285
▁नक्षत्र	-14286
▁पौष्टिक	-14287
▁बहुतायत	-14288
▁महोत्सव	-14289
▁मेगावाट	-14290
▁वायुयान	-14291
▁शाब्दिक	-14292
▁आस्तियां	-14293
▁कोल्हटकर	-14294
▁फाउंडेशन	-14295
▁वाल्मीकि	-14296
▁सम्प्रदाय	-14297
▁पुस्तचिह्न	-14298
▁राष्ट्रीयता	-14299
▁पारिस्थितिकी	-14300
11	-14301
UT	-14302
छु	-14303
ook	-14304
zil	-14305
तिन	-14306
ूबी	-14307
▁(*	-14308
▁(3	-14309
▁2)	-14310
▁गम	-14311
अन्य	-14312
द्धन	-14313
भूषा	-14314
रसूल	-14315
लिफ़	-14316
सन्द	-14317
▁कोः	-14318
▁गड़	-14319
▁झेल	-14320
▁टूर	-14321
▁दूं	-14322
▁नाद	-14323
▁बढो	-14324
▁सिस	-14325
अर्था	-14326
क्सीन	-14327
गोलीय	-14328
ज़रूर	-14329
विवाह	-14330
▁1974	-14331
▁अंकन	-14332
▁अबतक	-14333
▁उलझन	-14334
▁उलटा	-14335
▁गाते	-14336
▁चाला	-14337
▁जाऊँ	-14338
▁ठंडे	-14339
▁दरार	-14340
▁बकरी	-14341
▁बढ़त	-14342
▁मोहर	-14343
▁रोके	-14344
▁ललित	-14345
शिक्षा	-14346
ैंकिंग	-14347
्वाडोर	-14348
▁अवहेल	-14349
▁क्षीण	-14350
▁ढाँचा	-14351
▁न्यूज	-14352
▁पैलेस	-14353
▁प्राइ	-14354
▁बान्ड	-14355
▁बायोग	-14356
▁वरदान	-14357
▁सिडबी	-14358
▁स्थाय	-14359
वार्षिक	-14360
ापूर्वक	-14361
ाम्बिया	-14362
▁कब्रों	-14363
▁गुजरना	-14364
▁जिलाता	-14365
▁तख्तों	-14366
▁तिक्की	-14367
▁निहायत	-14368
▁स्याही	-14369
▁स्विट्	-14370
इंडियाना	-14371
▁इमारतें	-14372
▁किस्मों	-14373
▁ज़करिया	-14374
▁पाठशाला	-14375
▁अतिक्रमण	-14376
▁इन्टरनेट	-14377
▁कलाकारों	-14378
▁क्रियाएँ	-14379
▁नरेन्द्र	-14380
▁पुरातत्व	-14381
▁हथियारों	-14382
▁खाद्यान्न	-14383
▁तुलनात्मक	-14384
▁ब्रह्मांड	-14385
▁भावनात्मक	-14386
▁दीर्घवृत्त	-14387
▁पाकिस्तानी	-14388
▁सेवानिवृत्ति	-14389
/3	-14390
/4	-14391
2,	-14392
70	-14393
bu	-14394
एब	-14395
भन	-14396
पाए	-14397
बाय	-14398
ेदन	-14399
ोता	-14400
▁sp	-14401
▁जज	-14402
▁तज	-14403
▁वश	-14404
apan	-14405
cent	-14406
ound	-14407
ंजित	-14408
करों	-14409
न्धा	-14410
ब्लू	-14411
यादी	-14412
र्थक	-14413
स्ले	-14414
्रोम	-14415
▁आत्	-14416
▁कमि	-14417
▁कौम	-14418
▁गंग	-14419
▁धमा	-14420
▁मिश	-14421
ग्वेद	-14422
▁cont	-14423
▁आद्य	-14424
▁उठते	-14425
▁छिपे	-14426
▁जमाव	-14427
▁जुर्	-14428
▁जैबर	-14429
▁बनाम	-14430
▁माथे	-14431
▁लांच	-14432
▁विभू	-14433
▁विल्	-14434
▁संयम	-14435
▁साउथ	-14436
▁स्ने	-14437
▁group	-14438
▁ग़ायब	-14439
▁चढ़ने	-14440
▁टकराव	-14441
▁डायरी	-14442
▁पायें	-14443
▁पोशाक	-14444
▁ब्रिज	-14445
▁भागवत	-14446
▁लेआउट	-14447
▁अन्तरा	-14448
▁आयोजना	-14449
▁आलीशान	-14450
▁उड़ाते	-14451
▁एकाग्र	-14452
▁चिन्तन	-14453
▁पुष्पा	-14454
▁फेफड़े	-14455
▁मेहराब	-14456
▁श्रृंग	-14457
▁करोड़ों	-14458
▁बेलारूस	-14459
▁विलुप्त	-14460
▁अनुलग्नक	-14461
▁मैट्रिक्स	-14462
▁स्त्रियां	-14463
▁प्राधिकृति	-14464
▁मुख्यमंत्री	-14465
ao	-14466
ँद	-14467
ौज	-14468
-08	-14469
-18	-14470
ill	-14471
टने	-14472
नमा	-14473
पिन	-14474
बाब	-14475
ब्ज	-14476
यून	-14477
रिय	-14478
ल्द	-14479
सीए	-14480
▁हड	-14481
करघा	-14482
चकों	-14483
तनगर	-14484
नाना	-14485
भाषी	-14486
यरोग	-14487
वेरी	-14488
▁400	-14489
▁New	-14490
▁घना	-14491
▁बटण	-14492
▁लती	-14493
▁साठ	-14494
tions	-14495
क़ौमे	-14496
यातीन	-14497
साध्य	-14498
हमारा	-14499
ार्जन	-14500
▁कज़ा	-14501
▁गर्द	-14502
▁चयाप	-14503
▁जहॉन	-14504
▁फ़िल	-14505
▁मूंग	-14506
▁अंधड़	-14507
▁अनगिन	-14508
▁अश्रु	-14509
▁असहाय	-14510
▁ओबामा	-14511
▁कमाने	-14512
▁किसके	-14513
▁चुनते	-14514
▁जड़ों	-14515
▁झगड़े	-14516
▁डराना	-14517
▁डिजिट	-14518
▁फैलाव	-14519
▁मंडली	-14520
▁राउंड	-14521
▁समूही	-14522
▁स्टेप	-14523
ऑक्साइड	-14524
▁अनदेखी	-14525
▁आतिथ्य	-14526
▁क़समें	-14527
▁चिट्ठी	-14528
▁नागपुर	-14529
▁मेघालय	-14530
▁मैक्रो	-14531
▁याक़ूब	-14532
▁यूसुफ़	-14533
▁रियायत	-14534
▁squared	-14535
▁अपराधों	-14536
▁गिरोहों	-14537
▁दोहराया	-14538
▁न्यूट्र	-14539
▁प्रसूति	-14540
▁रामलिंग	-14541
▁शब्दकोष	-14542
▁शुद्धता	-14543
मुसलमानों	-14544
▁अनुरक्षण	-14545
▁तर्कसंगत	-14546
▁नागालैंड	-14547
▁निदेशकों	-14548
▁प्रतिभाग	-14549
▁प्रदूषित	-14550
▁अब्दुल्ला	-14551
▁प्रतिपादन	-14552
▁रक्तस्राव	-14553
▁अधिष्ठापित	-14554
▁व्यवस्थापक	-14555
▁कार्यप्रणाली	-14556
▁प्रतिनिधियों	-14557
48	-14558
ak	-14559
छी	-14560
ION	-14561
ंधि	-14562
इसी	-14563
इसे	-14564
उधर	-14565
उसे	-14566
बाध	-14567
बीच	-14568
ब्त	-14569
लोम	-14570
शरण	-14571
ौने	-14572
▁1:	-14573
▁इथ	-14574
▁नस	-14575
ecur	-14576
आमाल	-14577
डीटी	-14578
धरती	-14579
ालीय	-14580
िज्म	-14581
▁and	-14582
▁काक	-14583
▁निभ	-14584
▁पाँ	-14585
▁बदन	-14586
▁लटक	-14587
▁सत्	-14588
ंबाकू	-14589
आसमान	-14590
कीकरण	-14591
ण्डित	-14592
तमाला	-14593
देवता	-14594
धिकृत	-14595
प्तान	-14596
श्रित	-14597
▁(195	-14598
▁अर्क	-14599
▁असंग	-14600
▁औंधे	-14601
▁क़ान	-14602
▁ख़ता	-14603
▁गन्ध	-14604
▁गायक	-14605
▁गुरब	-14606
▁ग्ला	-14607
▁चकित	-14608
▁डेढ़	-14609
▁नकार	-14610
▁नवाब	-14611
▁नामी	-14612
▁निरे	-14613
▁ब्रो	-14614
▁माइन	-14615
▁लगाव	-14616
▁वरना	-14617
▁हलचल	-14618
▁हावी	-14619
ण्डेकर	-14620
नेस्को	-14621
ालियों	-14622
▁कमाते	-14623
▁धड़कन	-14624
▁पाएगा	-14625
▁बनेगा	-14626
▁बन्दी	-14627
▁बैठते	-14628
▁मोक्ष	-14629
▁लिप्य	-14630
▁संकोच	-14631
▁अभिलाभ	-14632
▁उन्हों	-14633
▁कृतघ्न	-14634
▁ग्राफ़	-14635
▁जाँचने	-14636
▁जोधपुर	-14637
▁परिधीय	-14638
▁भित्ति	-14639
▁रखेंगे	-14640
▁लाइनों	-14641
▁विक्रे	-14642
▁सीरिया	-14643
▁सुधारक	-14644
Shortcut	-14645
▁कुफ्फार	-14646
▁निर्वहन	-14647
▁निषिद्ध	-14648
▁पड़ेंगे	-14649
▁प्रभारी	-14650
▁मोमिनों	-14651
▁रेखांकन	-14652
▁खाण्डेकर	-14653
▁परंपराओं	-14654
▁प्रयोगों	-14655
▁प्रीतनगर	-14656
▁मधुमक्खी	-14657
▁सहकारिता	-14658
▁स्वेच्छा	-14659
▁आईकैलेंडर	-14660
▁सहयोगियों	-14661
▁नर्मदाशंकर	-14662
▁समयक्षेत्र	-14663
▁स्थानापन्न	-14664
▁वृद्धावस्था	-14665
.,	-14666
18	-14667
9)	-14668
ऑन	-14669
वय	-14670
Mac	-14671
ant	-14672
bra	-14673
ईसी	-14674
डैक	-14675
दाई	-14676
पदी	-14677
फलत	-14678
बदल	-14679
वनी	-14680
ॉपी	-14681
ोद्	-14682
▁ओड	-14683
▁फॅ	-14684
▁हॅ	-14685
क़ौम	-14686
कार्	-14687
चर्म	-14688
ज़ूल	-14689
न्गो	-14690
प्पी	-14691
प्ली	-14692
बारक	-14693
र्णी	-14694
सम्प	-14695
सराय	-14696
ाकार	-14697
▁अंब	-14698
▁आलम	-14699
▁खडा	-14700
▁खडे	-14701
▁घनी	-14702
▁दाग	-14703
▁मशी	-14704
▁वृष	-14705
▁सजग	-14706
▁सल्	-14707
colom	-14708
econd	-14709
किताब	-14710
बेडकर	-14711
मक्का	-14712
मिजाज	-14713
▁अज़ी	-14714
▁उच्छ	-14715
▁क़ौल	-14716
▁छत्र	-14717
▁छुपे	-14718
▁जनना	-14719
▁जर्न	-14720
▁डीपी	-14721
▁फिली	-14722
▁फेडर	-14723
▁सिको	-14724
▁सिरा	-14725
▁सूफी	-14726
▁२००६	-14727
गुज़ार	-14728
द्वारा	-14729
वालिया	-14730
▁अंगुल	-14731
▁उद्दी	-14732
▁उम्दा	-14733
▁गिरते	-14734
▁झोंके	-14735
▁ड्रॉप	-14736
▁तिब्ब	-14737
▁निन्द	-14738
▁पाउडर	-14739
▁प्रता	-14740
▁फैलने	-14741
▁मज़ाक	-14742
▁मनोहर	-14743
▁लश्कर	-14744
▁वीरता	-14745
▁सख़्त	-14746
▁साबुन	-14747
ग्रन्थि	-14748
मोहम्मद	-14749
▁अनुभवी	-14750
▁आईसीटी	-14751
▁घोड़ों	-14752
▁दीवाने	-14753
▁भवभूति	-14754
▁मुबारक	-14755
▁रचनाएं	-14756
▁वर्जित	-14757
▁विधायी	-14758
▁संबोधन	-14759
▁हरिश्च	-14760
colombia	-14761
▁आक्सीजन	-14762
▁इंस्टीट	-14763
▁कश्मीरी	-14764
▁नाभिकीय	-14765
▁पाकीज़ा	-14766
▁पोतन्ना	-14767
[...]
