<unk>	0
<s>	0
</s>	0
[PAD]	0
[UNK]	0
[CLS]	0
[SEP]	0
[MASK]	0
[BOS]	0
[EOS]	0
[UNK0]	0
[UNK1]	0
[UNK2]	0
[UNK3]	0
[UNK4]	0
[UNK5]	0
[UNK6]	0
[UNK7]	0
[UNK8]	0
[UNK9]	0
[unused0]	0
[unused1]	0
[unused2]	0
[unused3]	0
[unused4]	0
[unused5]	0
[unused6]	0
[unused7]	0
[unused8]	0
[unused9]	0
[unused10]	0
[unused11]	0
[unused12]	0
[unused13]	0
[unused14]	0
[unused15]	0
[unused16]	0
[unused17]	0
[unused18]	0
[unused19]	0
[unused20]	0
[unused21]	0
[unused22]	0
[unused23]	0
[unused24]	0
[unused25]	0
[unused26]	0
[unused27]	0
[unused28]	0
[unused29]	0
[unused30]	0
[unused31]	0
[unused32]	0
[unused33]	0
[unused34]	0
[unused35]	0
[unused36]	0
[unused37]	0
[unused38]	0
[unused39]	0
[unused40]	0
[unused41]	0
[unused42]	0
[unused43]	0
[unused44]	0
[unused45]	0
[unused46]	0
[unused47]	0
[unused48]	0
[unused49]	0
[unused50]	0
[unused51]	0
[unused52]	0
[unused53]	0
[unused54]	0
[unused55]	0
[unused56]	0
[unused57]	0
[unused58]	0
[unused59]	0
[unused60]	0
[unused61]	0
[unused62]	0
[unused63]	0
[unused64]	0
[unused65]	0
[unused66]	0
[unused67]	0
[unused68]	0
[unused69]	0
[unused70]	0
[unused71]	0
[unused72]	0
[unused73]	0
[unused74]	0
[unused75]	0
[unused76]	0
[unused77]	0
[unused78]	0
[unused79]	0
[unused80]	0
[unused81]	0
[unused82]	0
[unused83]	0
[unused84]	0
[unused85]	0
[unused86]	0
[unused87]	0
[unused88]	0
[unused89]	0
[unused90]	0
[unused91]	0
[unused92]	0
[unused93]	0
[unused94]	0
[unused95]	0
[unused96]	0
[unused97]	0
[unused98]	0
[unused99]	0
▁t	-0
he	-1
▁a	-2
in	-3
re	-4
▁o	-5
▁s	-6
▁the	-7
er	-8
at	-9
on	-10
is	-11
▁w	-12
en	-13
▁c	-14
an	-15
it	-16
▁b	-17
or	-18
▁f	-19
es	-20
ed	-21
▁p	-22
▁of	-23
ou	-24
ar	-25
nd	-26
al	-27
ing	-28
▁m	-29
▁d	-30
▁in	-31
▁to	-32
le	-33
ion	-34
▁A	-35
as	-36
▁T	-37
▁h	-38
ic	-39
▁and	-40
om	-41
▁n	-42
▁S	-43
il	-44
▁th	-45
▁I	-46
ent	-47
▁is	-48
▁l	-49
ct	-50
ot	-51
ve	-52
▁re	-53
▁be	-54
ro	-55
▁g	-56
▁e	-57
us	-58
▁C	-59
▁The	-60
ra	-61
ut	-62
et	-63
id	-64
ow	-65
▁P	-66
im	-67
▁on	-68
▁y	-69
ation	-70
ur	-71
ll	-72
▁for	-73
ay	-74
▁M	-75
ce	-76
ad	-77
ly	-78
ver	-79
ig	-80
st	-81
am	-82
▁B	-83
ol	-84
▁you	-85
▁st	-86
▁H	-87
ch	-88
▁wh	-89
se	-90
▁D	-91
ir	-92
ag	-93
▁W	-94
▁he	-95
ith	-96
▁R	-97
▁that	-98
od	-99
un	-100
▁it	-101
▁with	-102
▁are	-103
▁not	-104
ess	-105
if	-106
ul	-107
ter	-108
▁an	-109
ment	-110
ab	-111
ill	-112
ate	-113
▁N	-114
▁G	-115
▁L	-116
ld	-117
▁de	-118
▁con	-119
ri	-120
▁E	-121
▁we	-122
▁F	-123
▁se	-124
op	-125
her	-126
ist	-127
and	-128
▁as	-129
▁O	-130
▁or	-131
▁was	-132
▁pro	-133
ave	-134
um	-135
ers	-136
ck	-137
ht	-138
ak	-139
nt	-140
em	-141
rom	-142
ain	-143
ure	-144
▁sh	-145
▁ne	-146
▁1	-147
▁com	-148
up	-149
▁this	-150
▁v	-151
ant	-152
▁k	-153
all	-154
th	-155
pe	-156
age	-157
ity	-158
est	-159
qu	-160
▁ex	-161
▁r	-162
▁by	-163
ore	-164
▁at	-165
ort	-166
res	-167
ind	-168
os	-169
▁from	-170
▁have	-171
iv	-172
art	-173
ive	-174
end	-175
ie	-176
▁will	-177
ight	-178
▁do	-179
ould	-180
el	-181
ect	-182
pl	-183
▁ch	-184
▁In	-185
ge	-186
ard	-187
▁He	-188
▁Th	-189
▁al	-190
▁us	-191
our	-192
▁has	-193
▁K	-194
▁U	-195
pt	-196
ust	-197
▁they	-198
ia	-199
red	-200
ies	-201
ile	-202
ord	-203
▁pl	-204
ich	-205
▁2	-206
▁them	-207
▁Ind	-208
rou	-209
▁le	-210
ide	-211
able	-212
▁all	-213
▁And	-214
ap	-215
ame	-216
▁lo	-217
ome	-218
av	-219
▁can	-220
hen	-221
▁his	-222
ok	-223
ci	-224
▁un	-225
cc	-226
ub	-227
ous	-228
▁We	-229
ail	-230
ud	-231
ction	-232
▁which	-233
▁man	-234
ff	-235
▁me	-236
ast	-237
▁dis	-238
ry	-239
▁V	-240
ount	-241
▁who	-242
ther	-243
ong	-244
ated	-245
▁go	-246
port	-247
ac	-248
▁_	-249
▁im	-250
▁wor	-251
▁ab	-252
ine	-253
ose	-254
▁up	-255
▁ad	-256
ack	-257
ah	-258
ip	-259
▁It	-260
ue	-261
▁your	-262
ans	-263
ult	-264
▁j	-265
ice	-266
og	-267
▁so	-268
iz	-269
▁cont	-270
ang	-271
one	-272
ign	-273
ass	-274
▁Y	-275
ost	-276
ance	-277
▁J	-278
▁one	-279
ath	-280
ep	-281
out	-282
ary	-283
▁their	-284
▁tra	-285
now	-286
ite	-287
ik	-288
▁pe	-289
lect	-290
so	-291
ase	-292
▁int	-293
ire	-294
▁comp	-295
ally	-296
▁This	-297
ear	-298
▁out	-299
▁en	-300
und	-301
act	-302
ib	-303
old	-304
▁ap	-305
orm	-306
ark	-307
per	-308
▁cl	-309
very	-310
▁him	-311
▁All	-312
ime	-313
ish	-314
ress	-315
▁tr	-316
▁there	-317
ace	-318
itt	-319
▁Ch	-320
ory	-321
ople	-322
are	-323
ake	-324
xt	-325
▁St	-326
▁sa	-327
pen	-328
▁per	-329
ach	-330
▁but	-331
▁were	-332
ove	-333
▁Sh	-334
ree	-335
ber	-336
▁India	-337
ions	-338
▁been	-339
ug	-340
▁when	-341
▁people	-342
▁had	-343
du	-344
▁ar	-345
ence	-346
▁res	-347
▁ag	-348
▁ro	-349
▁also	-350
ings	-351
vel	-352
ater	-353
wo	-354
▁bl	-355
▁te	-356
ject	-357
▁other	-358
▁know	-359
ild	-360
ical	-361
▁new	-362
▁no	-363
ian	-364
int	-365
ere	-366
▁sp	-367
▁am	-368
ial	-369
▁part	-370
ound	-371
▁Re	-372
▁20	-373
▁ind	-374
ations	-375
ert	-376
▁So	-377
gh	-378
ric	-379
ink	-380
▁Wh	-381
ont	-382
ition	-383
▁sc	-384
own	-385
▁time	-386
▁said	-387
▁An	-388
ike	-389
▁what	-390
▁bo	-391
▁su	-392
let	-393
▁acc	-394
▁De	-395
ru	-396
▁qu	-397
▁some	-398
form	-399
erv	-400
row	-401
▁ev	-402
ood	-403
urn	-404
▁Se	-405
▁any	-406
▁po	-407
vers	-408
▁spe	-409
way	-410
▁comm	-411
ram	-412
▁work	-413
hed	-414
▁0	-415
ise	-416
▁und	-417
ens	-418
cl	-419
▁over	-420
▁Un	-421
▁our	-422
▁pre	-423
▁pr	-424
cy	-425
aus	-426
▁But	-427
▁off	-428
▁rem	-429
▁As	-430
▁if	-431
▁19	-432
ph	-433
▁only	-434
tern	-435
▁Lord	-436
▁There	-437
▁its	-438
ade	-439
ific	-440
▁about	-441
▁day	-442
▁mess	-443
▁fe	-444
reat	-445
ied	-446
▁should	-447
▁sign	-448
▁bec	-449
▁fl	-450
▁Pro	-451
▁file	-452
ages	-453
oc	-454
▁two	-455
fter	-456
ank	-457
▁You	-458
▁ra	-459
▁They	-460
▁em	-461
▁my	-462
iew	-463
fore	-464
ond	-465
rit	-466
ious	-467
▁bel	-468
▁like	-469
▁sy	-470
▁stre	-471
▁into	-472
ror	-473
ick	-474
indow	-475
▁col	-476
▁more	-477
ey	-478
ple	-479
▁rel	-480
▁act	-481
▁may	-482
ft	-483
▁under	-484
▁those	-485
▁3	-486
▁En	-487
iss	-488
we	-489
▁On	-490
▁Com	-491
▁year	-492
aj	-493
ces	-494
eth	-495
▁br	-496
cess	-497
other	-498
iff	-499
urre	-500
▁add	-501
▁Allah	-502
▁Ad	-503
▁co	-504
ull	-505
▁down	-506
▁these	-507
ward	-508
▁would	-509
rib	-510
▁then	-511
here	-512
round	-513
▁rec	-514
llow	-515
▁Ex	-516
▁shall	-517
▁form	-518
ange	-519
▁her	-520
ife	-521
▁used	-522
ful	-523
▁God	-524
▁No	-525
▁des	-526
▁set	-527
▁inst	-528
▁sm	-529
▁Ne	-530
ational	-531
ments	-532
ness	-533
▁bus	-534
▁back	-535
not	-536
sel	-537
▁ob	-538
erson	-539
erm	-540
ause	-541
▁open	-542
▁made	-543
▁get	-544
ors	-545
stem	-546
ution	-547
▁fil	-548
ual	-549
▁Go	-550
▁want	-551
ble	-552
▁window	-553
▁ent	-554
cial	-555
▁say	-556
ents	-557
▁bet	-558
▁sup	-559
▁num	-560
▁app	-561
ities	-562
▁att	-563
▁very	-564
▁sub	-565
ates	-566
▁bu	-567
▁fir	-568
ower	-569
▁stand	-570
vern	-571
cre	-572
▁list	-573
ati	-574
▁cre	-575
▁could	-576
▁ear	-577
▁To	-578
ning	-579
igh	-580
▁again	-581
▁see	-582
▁diff	-583
ident	-584
sh	-585
▁count	-586
▁select	-587
▁fo	-588
▁she	-589
ov	-590
▁name	-591
ob	-592
▁Bh	-593
ata	-594
▁next	-595
arge	-596
▁If	-597
▁car	-598
velop	-599
▁right	-600
▁call	-601
▁good	-602
▁cons	-603
lic	-604
wn	-605
ily	-606
▁mod	-607
▁reg	-608
its	-609
ating	-610
ible	-611
uth	-612
▁than	-613
▁trans	-614
ax	-615
ons	-616
▁person	-617
led	-618
roup	-619
oth	-620
▁val	-621
▁pass	-622
▁use	-623
rough	-624
cept	-625
ock	-626
▁after	-627
ature	-628
ism	-629
ener	-630
▁ac	-631
▁street	-632
older	-633
get	-634
oy	-635
▁way	-636
▁prov	-637
ash	-638
▁For	-639
▁wr	-640
arm	-641
ize	-642
▁inv	-643
ular	-644
▁ph	-645
urrent	-646
ced	-647
▁many	-648
alk	-649
▁system	-650
lease	-651
▁through	-652
▁Al	-653
▁hel	-654
▁first	-655
hes	-656
▁dist	-657
itting	-658
▁before	-659
▁train	-660
aw	-661
pos	-662
▁every	-663
▁ed	-664
▁pos	-665
formation	-666
▁produ	-667
als	-668
▁message	-669
▁look	-670
▁201	-671
▁giv	-672
▁need	-673
ative	-674
▁water	-675
▁5	-676
▁life	-677
les	-678
eng	-679
▁how	-680
▁Am	-681
▁av	-682
▁did	-683
▁def	-684
plic	-685
read	-686
▁ty	-687
gan	-688
▁gu	-689
air	-690
ES	-691
▁belie	-692
▁Indian	-693
▁world	-694
▁just	-695
▁serv	-696
▁number	-697
ane	-698
ix	-699
ute	-700
irect	-701
▁Show	-702
▁start	-703
me	-704
▁does	-705
▁4	-706
▁Con	-707
▁small	-708
▁ret	-709
▁make	-710
▁Do	-711
ility	-712
▁selected	-713
lete	-714
▁must	-715
ren	-716
▁ins	-717
▁here	-718
ict	-719
▁ref	-720
▁most	-721
pect	-722
olog	-723
▁sec	-724
▁gr	-725
▁sitting	-726
▁book	-727
ty	-728
▁pres	-729
▁end	-730
ract	-731
▁follow	-732
▁requ	-733
▁Man	-734
cle	-735
ield	-736
▁help	-737
▁wom	-738
ork	-739
▁being	-740
uring	-741
▁read	-742
▁mem	-743
▁Pr	-744
▁gra	-745
▁child	-746
ered	-747
ween	-748
eed	-749
uch	-750
▁Cl	-751
▁prog	-752
▁account	-753
▁where	-754
▁found	-755
▁play	-756
ask	-757
ited	-758
hether	-759
ting	-760
ather	-761
▁loc	-762
ira	-763
vernment	-764
▁What	-765
▁between	-766
ell	-767
▁Q	-768
▁white	-769
▁long	-770
ailed	-771
▁hand	-772
▁Can	-773
▁dec	-774
ght	-775
▁such	-776
▁import	-777
ody	-778
▁tak	-779
▁differe	-780
ha	-781
nect	-782
▁When	-783
play	-784
ved	-785
▁large	-786
▁disc	-787
▁develop	-788
▁take	-789
▁current	-790
▁show	-791
▁group	-792
hi	-793
▁now	-794
ari	-795
▁conf	-796
angu	-797
ised	-798
▁min	-799
▁ser	-800
▁mon	-801
▁ben	-802
▁che	-803
▁dev	-804
ouse	-805
▁thou	-806
▁well	-807
ublic	-808
▁Add	-809
▁sk	-810
EN	-811
▁cert	-812
▁mat	-813
▁come	-814
▁cor	-815
ote	-816
▁pol	-817
▁gre	-818
ars	-819
room	-820
bo	-821
▁inter	-822
arch	-823
ural	-824
▁years	-825
▁Select	-826
▁gl	-827
▁cent	-828
▁process	-829
▁rep	-830
ird	-831
▁Pl	-832
▁country	-833
▁er	-834
▁Im	-835
▁build	-836
▁side	-837
▁great	-838
ven	-839
▁ass	-840
ision	-841
con	-842
▁even	-843
▁let	-844
inal	-845
ee	-846
self	-847
▁Ap	-848
ased	-849
ale	-850
▁park	-851
▁Is	-852
ired	-853
▁folder	-854
▁mot	-855
▁air	-856
▁unt	-857
ters	-858
▁sure	-859
ify	-860
▁near	-861
▁spec	-862
▁place	-863
▁OF	-864
▁ye	-865
▁eff	-866
▁avail	-867
▁Dis	-868
ided	-869
imes	-870
▁New	-871
arn	-872
ified	-873
▁image	-874
▁200	-875
▁bath	-876
▁His	-877
▁while	-878
oint	-879
▁mark	-880
▁Ar	-881
▁Comm	-882
▁inf	-883
▁Hind	-884
▁equ	-885
▁det	-886
▁ext	-887
▁because	-888
▁som	-889
▁light	-890
▁key	-891
ital	-892
ys	-893
ever	-894
▁sl	-895
▁another	-896
▁going	-897
▁Then	-898
ves	-899
ted	-900
▁At	-901
ices	-902
▁cle	-903
li	-904
ros	-905
▁old	-906
▁Please	-907
ains	-908
▁exp	-909
▁10	-910
rop	-911
▁ke	-912
ode	-913
▁Te	-914
▁given	-915
uc	-916
arg	-917
▁main	-918
der	-919
▁different	-920
▁view	-921
ared	-922
▁data	-923
ines	-924
▁fr	-925
ption	-926
▁cou	-927
▁each	-928
▁hum	-929
ething	-930
▁gener	-931
▁men	-932
▁same	-933
▁information	-934
▁turn	-935
ana	-936
ants	-937
ng	-938
atic	-939
▁standing	-940
▁str	-941
▁cannot	-942
▁own	-943
▁Act	-944
▁oper	-945
ook	-946
▁state	-947
chn	-948
lection	-949
ya	-950
▁files	-951
▁sur	-952
▁6	-953
▁field	-954
▁fam	-955
▁PR	-956
▁langu	-957
▁Could	-958
▁away	-959
▁inc	-960
▁cap	-961
ault	-962
▁occ	-963
▁run	-964
ral	-965
▁ask	-966
ined	-967
iness	-968
▁cal	-969
▁dep	-970
▁Sc	-971
rap	-972
▁rest	-973
▁red	-974
▁Pre	-975
▁type	-976
cu	-977
▁word	-978
▁Cont	-979
▁project	-980
ern	-981
▁available	-982
▁How	-983
man	-984
▁fore	-985
oad	-986
ides	-987
▁bathroom	-988
▁pur	-989
▁Be	-990
less	-991
ission	-992
▁three	-993
▁Tr	-994
put	-995
rad	-996
▁imp	-997
▁top	-998
▁Pres	-999
▁direct	-1000
▁vis	-1001
▁support	-1002
▁Day	-1003
rict	-1004
ai	-1005
▁head	-1006
▁against	-1007
alth	-1008
▁high	-1009
ternal	-1010
ries	-1011
▁Res	-1012
stit	-1013
▁Ph	-1014
ator	-1015
▁Our	-1016
ished	-1017
ets	-1018
ID	-1019
riv	-1020
ND	-1021
ists	-1022
ination	-1023
▁Min	-1024
ivers	-1025
ruct	-1026
▁sent	-1027
▁last	-1028
ually	-1029
ER	-1030
▁program	-1031
ool	-1032
ffic	-1033
▁city	-1034
▁called	-1035
▁area	-1036
day	-1037
▁That	-1038
ures	-1039
▁connect	-1040
▁give	-1041
▁address	-1042
▁find	-1043
▁power	-1044
ins	-1045
▁full	-1046
▁think	-1047
▁Le	-1048
▁cour	-1049
▁prev	-1050
▁chang	-1051
▁My	-1052
▁med	-1053
▁motor	-1054
ics	-1055
ource	-1056
ccess	-1057
▁Er	-1058
▁Rem	-1059
▁Col	-1060
opy	-1061
▁tre	-1062
nce	-1063
▁ve	-1064
▁hap	-1065
▁Whether	-1066
▁term	-1067
▁8	-1068
ateg	-1069
ology	-1070
▁She	-1071
▁adv	-1072
ner	-1073
▁grow	-1074
▁organ	-1075
line	-1076
▁art	-1077
olution	-1078
ef	-1079
els	-1080
ENT	-1081
▁error	-1082
▁stud	-1083
▁text	-1084
clud	-1085
io	-1086
ues	-1087
▁Or	-1088
ray	-1089
ized	-1090
▁Open	-1091
bs	-1092
▁something	-1093
▁applic	-1094
dit	-1095
work	-1096
▁earth	-1097
ium	-1098
▁came	-1099
ety	-1100
▁ver	-1101
conom	-1102
iraff	-1103
▁Mah	-1104
▁Him	-1105
te	-1106
az	-1107
▁among	-1108
▁Error	-1109
ilet	-1110
▁contact	-1111
ways	-1112
▁tem	-1113
▁op	-1114
▁left	-1115
▁both	-1116
uthor	-1117
any	-1118
▁toilet	-1119
▁These	-1120
▁body	-1121
▁7	-1122
▁value	-1123
▁fact	-1124
word	-1125
itc	-1126
ware	-1127
▁display	-1128
▁too	-1129
ection	-1130
▁known	-1131
▁much	-1132
blem	-1133
▁upon	-1134
asht	-1135
▁during	-1136
▁return	-1137
▁point	-1138
▁stop	-1139
▁giraff	-1140
▁dra	-1141
▁present	-1142
ara	-1143
ross	-1144
▁Set	-1145
▁move	-1146
▁Sub	-1147
▁docu	-1148
ctions	-1149
aving	-1150
▁beh	-1151
aring	-1152
ives	-1153
▁List	-1154
▁task	-1155
▁bird	-1156
▁exam	-1157
ality	-1158
▁resp	-1159
▁means	-1160
esh	-1161
rol	-1162
▁front	-1163
oh	-1164
▁Cannot	-1165
▁messages	-1166
▁times	-1167
AT	-1168
ship	-1169
▁woman	-1170
bers	-1171
▁State	-1172
ried	-1173
▁indust	-1174
ient	-1175
▁land	-1176
iod	-1177
lish	-1178
eric	-1179
AR	-1180
tc	-1181
▁par	-1182
▁met	-1183
aract	-1184
▁Par	-1185
▁comput	-1186
▁aff	-1187
▁President	-1188
▁fin	-1189
▁tree	-1190
▁den	-1191
▁pay	-1192
▁things	-1193
aug	-1194
▁mak	-1195
▁rece	-1196
▁without	-1197
land	-1198
▁fire	-1199
ery	-1200
att	-1201
ittle	-1202
icy	-1203
avan	-1204
▁road	-1205
por	-1206
▁bank	-1207
▁One	-1208
▁prom	-1209
▁Cent	-1210
▁heart	-1211
▁bre	-1212
▁sim	-1213
▁lead	-1214
▁meet	-1215
▁Us	-1216
▁problem	-1217
▁line	-1218
▁important	-1219
orn	-1220
▁aut	-1221
▁Ab	-1222
ough	-1223
▁adm	-1224
▁track	-1225
▁color	-1226
▁Government	-1227
ained	-1228
▁certain	-1229
▁partic	-1230
ann	-1231
ister	-1232
iding	-1233
erg	-1234
▁Me	-1235
▁object	-1236
▁created	-1237
▁Not	-1238
▁nor	-1239
▁around	-1240
▁heav	-1241
▁dem	-1242
ait	-1243
▁four	-1244
▁proper	-1245
▁hy	-1246
▁motorcy	-1247
▁fac	-1248
▁language	-1249
▁fun	-1250
erest	-1251
▁lay	-1252
ince	-1253
ustom	-1254
ems	-1255
▁iss	-1256
▁Z	-1257
▁done	-1258
▁z	-1259
ON	-1260
▁econom	-1261
▁Gu	-1262
▁Em	-1263
ention	-1264
▁put	-1265
earch	-1266
▁food	-1267
▁x	-1268
▁Ram	-1269
▁building	-1270
▁File	-1271
▁black	-1272
▁PRES	-1273
ready	-1274
riend	-1275
▁believe	-1276
▁little	-1277
ek	-1278
wards	-1279
ived	-1280
▁appe	-1281
ession	-1282
idd	-1283
▁never	-1284
umb	-1285
▁contin	-1286
▁National	-1287
ped	-1288
▁div	-1289
▁Two	-1290
▁prof	-1291
ron	-1292
ration	-1293
▁educ	-1294
▁level	-1295
ploy	-1296
▁poss	-1297
ency	-1298
ts	-1299
▁etc	-1300
▁second	-1301
▁create	-1302
▁indeed	-1303
▁sch	-1304
▁send	-1305
bar	-1306
▁Mess	-1307
▁path	-1308
ently	-1309
▁size	-1310
▁already	-1311
▁human	-1312
▁includ	-1313
▁dr	-1314
etwork	-1315
amp	-1316
▁mail	-1317
istory	-1318
▁Eng	-1319
▁walk	-1320
itchen	-1321
▁children	-1322
▁parked	-1323
atch	-1324
iter	-1325
▁days	-1326
aid	-1327
raph	-1328
▁public	-1329
▁dest	-1330
▁Raj	-1331
▁period	-1332
▁house	-1333
ten	-1334
▁lot	-1335
▁change	-1336
ued	-1337
ames	-1338
▁charact	-1339
outh	-1340
▁log	-1341
▁Americ	-1342
ases	-1343
▁development	-1344
itor	-1345
▁don	-1346
▁kitchen	-1347
▁18	-1348
▁mult	-1349
▁hold	-1350
▁Bhavan	-1351
▁keep	-1352
▁activ	-1353
▁trad	-1354
ugg	-1355
oney	-1356
▁sit	-1357
IN	-1358
alid	-1359
▁ey	-1360
▁law	-1361
ulation	-1362
▁pop	-1363
▁Sy	-1364
veral	-1365
▁check	-1366
mb	-1367
▁Bl	-1368
IDENT	-1369
▁writ	-1370
side	-1371
ither	-1372
ME	-1373
▁est	-1374
ground	-1375
ne	-1376
▁Some	-1377
ma	-1378
ization	-1379
med	-1380
lf	-1381
ificate	-1382
▁PRESIDENT	-1383
▁taken	-1384
00	-1385
▁9	-1386
▁interest	-1387
▁best	-1388
▁Ag	-1389
crib	-1390
endar	-1391
▁enc	-1392
ctor	-1393
▁order	-1394
▁kind	-1395
▁effect	-1396
hip	-1397
▁Use	-1398
AN	-1399
▁fear	-1400
▁success	-1401
▁become	-1402
ering	-1403
▁incre	-1404
▁night	-1405
▁Cre	-1406
stand	-1407
uk	-1408
▁Rasht	-1409
▁di	-1410
pty	-1411
udd	-1412
▁prot	-1413
iving	-1414
▁View	-1415
▁allow	-1416
▁command	-1417
▁month	-1418
ush	-1419
▁case	-1420
erc	-1421
▁techn	-1422
thing	-1423
▁due	-1424
▁tax	-1425
▁truth	-1426
par	-1427
▁free	-1428
▁ele	-1429
▁Your	-1430
▁Save	-1431
▁result	-1432
▁Ev	-1433
ense	-1434
▁server	-1435
▁leg	-1436
rapati	-1437
▁quest	-1438
▁TH	-1439
urs	-1440
▁lim	-1441
iqu	-1442
▁Spe	-1443
▁computer	-1444
ches	-1445
▁bench	-1446
AL	-1447
ember	-1448
▁commun	-1449
atus	-1450
▁unto	-1451
▁friend	-1452
ification	-1453
▁accept	-1454
▁might	-1455
▁Rashtrapati	-1456
cri	-1457
selves	-1458
board	-1459
▁room	-1460
▁var	-1461
▁mov	-1462
ung	-1463
▁Are	-1464
ier	-1465
▁big	-1466
▁green	-1467
ideo	-1468
▁relig	-1469
▁12	-1470
▁Comp	-1471
▁sink	-1472
gether	-1473
▁Mus	-1474
▁exist	-1475
▁together	-1476
na	-1477
ala	-1478
▁Aut	-1479
▁anim	-1480
▁mar	-1481
▁document	-1482
▁Acc	-1483
▁clear	-1484
ategory	-1485
▁Book	-1486
▁ide	-1487
ledge	-1488
▁search	-1489
▁mode	-1490
▁mount	-1491
▁author	-1492
cent	-1493
ton	-1494
▁class	-1495
▁By	-1496
▁hard	-1497
▁user	-1498
illed	-1499
▁save	-1500
ats	-1501
▁thing	-1502
▁action	-1503
▁family	-1504
▁Failed	-1505
▁Who	-1506
▁Del	-1507
▁amount	-1508
ason	-1509
▁mus	-1510
▁Now	-1511
leted	-1512
▁install	-1513
▁cell	-1514
▁post	-1515
oss	-1516
anch	-1517
▁using	-1518
agement	-1519
▁bas	-1520
▁sw	-1521
▁try	-1522
▁eas	-1523
▁real	-1524
▁00	-1525
▁dou	-1526
▁Edit	-1527
▁blue	-1528
▁required	-1529
▁close	-1530
▁war	-1531
▁Sw	-1532
ule	-1533
rought	-1534
▁cr	-1535
▁market	-1536
come	-1537
▁Sing	-1538
har	-1539
▁beg	-1540
ptions	-1541
uration	-1542
▁page	-1543
▁care	-1544
▁true	-1545
ider	-1546
▁home	-1547
▁seen	-1548
ured	-1549
▁young	-1550
fer	-1551
▁Pe	-1552
▁load	-1553
▁application	-1554
▁less	-1555
▁rev	-1556
▁above	-1557
ached	-1558
bsite	-1559
▁dri	-1560
ication	-1561
▁pack	-1562
▁ri	-1563
ails	-1564
▁sche	-1565
▁always	-1566
▁business	-1567
▁signs	-1568
ring	-1569
ulture	-1570
af	-1571
rant	-1572
▁device	-1573
▁sing	-1574
▁district	-1575
▁Fl	-1576
ately	-1577
▁test	-1578
▁sound	-1579
▁Search	-1580
▁Create	-1581
tings	-1582
▁Sp	-1583
▁following	-1584
aut	-1585
▁common	-1586
eds	-1587
elie	-1588
▁product	-1589
▁service	-1590
▁link	-1591
▁access	-1592
ories	-1593
▁eng	-1594
▁source	-1595
cut	-1596
ament	-1597
▁password	-1598
▁non	-1599
▁school	-1600
▁sol	-1601
▁position	-1602
▁few	-1603
▁pain	-1604
ope	-1605
ining	-1606
▁exper	-1607
▁fa	-1608
iful	-1609
▁grass	-1610
▁15	-1611
amm	-1612
▁Name	-1613
▁motorcycle	-1614
▁wall	-1615
ling	-1616
iron	-1617
rah	-1618
▁government	-1619
▁table	-1620
▁money	-1621
▁still	-1622
▁women	-1623
uss	-1624
eg	-1625
cient	-1626
▁IND	-1627
uro	-1628
▁After	-1629
oon	-1630
iversity	-1631
aining	-1632
urity	-1633
▁const	-1634
imum	-1635
▁appro	-1636
▁cat	-1637
▁better	-1638
ructure	-1639
▁record	-1640
iver	-1641
▁wood	-1642
▁giraffe	-1643
▁went	-1644
▁love	-1645
▁date	-1646
uck	-1647
oose	-1648
▁Hindi	-1649
▁THE	-1650
▁control	-1651
▁today	-1652
▁vill	-1653
▁Fil	-1654
▁arch	-1655
▁offic	-1656
▁short	-1657
▁Che	-1658
▁empty	-1659
▁health	-1660
▁scre	-1661
▁employ	-1662
IA	-1663
▁Let	-1664
▁pun	-1665
▁cost	-1666
▁changes	-1667
ored	-1668
▁Kh	-1669
▁along	-1670
▁dise	-1671
▁based	-1672
▁Qu	-1673
▁Gand	-1674
▁education	-1675
lying	-1676
ali	-1677
ape	-1678
▁invest	-1679
▁death	-1680
▁bar	-1681
lim	-1682
▁really	-1683
▁Dep	-1684
▁appoint	-1685
br	-1686
ajor	-1687
hing	-1688
▁bring	-1689
▁tw	-1690
▁network	-1691
▁pict	-1692
▁plant	-1693
▁website	-1694
▁America	-1695
▁brought	-1696
▁mind	-1697
ards	-1698
ury	-1699
▁Cal	-1700
▁game	-1701
ping	-1702
▁default	-1703
▁Af	-1704
▁Unable	-1705
irt	-1706
▁various	-1707
▁Ass	-1708
▁custom	-1709
▁perform	-1710
▁Rs	-1711
▁company	-1712
ta	-1713
▁plan	-1714
▁father	-1715
▁thought	-1716
▁local	-1717
▁understand	-1718
▁phot	-1719
▁live	-1720
▁got	-1721
rial	-1722
▁plac	-1723
▁equal	-1724
▁failed	-1725
▁tool	-1726
▁looking	-1727
▁la	-1728
▁surely	-1729
▁cond	-1730
▁Rep	-1731
▁able	-1732
ances	-1733
arent	-1734
▁others	-1735
IT	-1736
▁squ	-1737
▁happen	-1738
ager	-1739
olders	-1740
▁Category	-1741
▁Inv	-1742
▁del	-1743
▁knowledge	-1744
▁wid	-1745
ability	-1746
aper	-1747
ched	-1748
ex	-1749
▁11	-1750
▁five	-1751
ours	-1752
▁took	-1753
▁whole	-1754
▁gave	-1755
▁Def	-1756
▁several	-1757
▁deb	-1758
▁lab	-1759
▁Conf	-1760
ION	-1761
▁character	-1762
▁Indeed	-1763
▁vers	-1764
soci	-1765
▁Reg	-1766
▁report	-1767
▁outside	-1768
▁age	-1769
lling	-1770
▁With	-1771
▁aud	-1772
▁Gener	-1773
itted	-1774
▁wrong	-1775
▁talk	-1776
▁worship	-1777
▁External	-1778
▁liter	-1779
▁self	-1780
▁himself	-1781
▁Co	-1782
▁ll	-1783
▁Des	-1784
iti	-1785
▁social	-1786
▁far	-1787
▁enter	-1788
▁instit	-1789
▁within	-1790
nc	-1791
ethod	-1792
ged	-1793
▁past	-1794
umn	-1795
▁capital	-1796
nown	-1797
▁history	-1798
▁soci	-1799
▁except	-1800
▁Tra	-1801
▁complete	-1802
OR	-1803
ev	-1804
ograph	-1805
▁elect	-1806
▁sky	-1807
belie	-1808
▁ang	-1809
▁Copy	-1810
▁towards	-1811
ential	-1812
ically	-1813
▁Up	-1814
▁Sup	-1815
▁mil	-1816
ending	-1817
erence	-1818
▁Enable	-1819
▁caus	-1820
▁later	-1821
▁pract	-1822
▁el	-1823
▁words	-1824
▁hyd	-1825
ording	-1826
ples	-1827
▁started	-1828
lished	-1829
load	-1830
mark	-1831
▁mor	-1832
▁matter	-1833
▁meas	-1834
itten	-1835
▁space	-1836
ior	-1837
ots	-1838
ully	-1839
▁behind	-1840
▁sou	-1841
▁mag	-1842
▁X	-1843
▁ut	-1844
artment	-1845
vert	-1846
▁yet	-1847
ogn	-1848
▁benef	-1849
umm	-1850
omatic	-1851
▁sun	-1852
of	-1853
ott	-1854
▁cur	-1855
▁function	-1856
▁ever	-1857
▁mean	-1858
▁English	-1859
▁tot	-1860
▁cred	-1861
cience	-1862
aim	-1863
▁plug	-1864
▁ur	-1865
▁conc	-1866
▁rate	-1867
ended	-1868
▁evil	-1869
▁199	-1870
▁dog	-1871
▁fav	-1872
▁poet	-1873
▁opens	-1874
▁INDIA	-1875
itional	-1876
▁cir	-1877
▁bro	-1878
ani	-1879
▁Remove	-1880
▁sal	-1881
▁blood	-1882
ternational	-1883
▁became	-1884
▁directory	-1885
unch	-1886
▁soft	-1887
▁question	-1888
▁god	-1889
▁write	-1890
ibility	-1891
▁low	-1892
▁Euro	-1893
▁calendar	-1894
irl	-1895
▁ann	-1896
icult	-1897
▁special	-1898
▁upd	-1899
▁major	-1900
alf	-1901
▁pati	-1902
▁event	-1903
ishment	-1904
▁Singh	-1905
▁dom	-1906
cret	-1907
▁High	-1908
ply	-1909
ude	-1910
wer	-1911
ension	-1912
rect	-1913
▁Move	-1914
▁orig	-1915
▁meeting	-1916
cip	-1917
▁asked	-1918
▁hig	-1919
▁Delhi	-1920
ume	-1921
ules	-1922
▁operation	-1923
IS	-1924
▁fre	-1925
▁Cert	-1926
▁services	-1927
oid	-1928
▁brow	-1929
▁Europe	-1930
▁cause	-1931
com	-1932
▁prin	-1933
▁ident	-1934
plement	-1935
ancial	-1936
ina	-1937
▁Gandhi	-1938
known	-1939
▁Serv	-1940
▁ter	-1941
▁wait	-1942
▁faith	-1943
ormal	-1944
▁Bank	-1945
▁Delete	-1946
ees	-1947
▁national	-1948
▁feel	-1949
irth	-1950
▁trees	-1951
▁000	-1952
▁port	-1953
▁story	-1954
isation	-1955
▁works	-1956
inist	-1957
▁sheep	-1958
ources	-1959
▁making	-1960
▁respect	-1961
▁Start	-1962
▁mill	-1963
▁Dist	-1964
▁situ	-1965
▁flow	-1966
▁related	-1967
▁once	-1968
aster	-1969
ising	-1970
▁whom	-1971
aved	-1972
▁video	-1973
ief	-1974
ivid	-1975
▁196	-1976
overed	-1977
▁vol	-1978
▁difficult	-1979
▁week	-1980
▁Image	-1981
▁ground	-1982
akh	-1983
▁perm	-1984
▁es	-1985
▁ans	-1986
erve	-1987
ones	-1988
▁i	-1989
arat	-1990
▁sil	-1991
▁jud	-1992
ead	-1993
▁pat	-1994
▁estab	-1995
▁Develop	-1996
face	-1997
duct	-1998
leg	-1999
▁Most	-2000
▁working	-2001
▁background	-2002
▁method	-2003
▁possible	-2004
▁ill	-2005
▁face	-2006
▁necess	-2007
▁mother	-2008
itive	-2009
▁expl	-2010
▁particular	-2011
▁Trans	-2012
▁nothing	-2013
utions	-2014
▁polit	-2015
▁whether	-2016
▁Ins	-2017
cles	-2018
▁prep	-2019
▁belong	-2020
ms	-2021
▁inside	-2022
▁themselves	-2023
▁Dev	-2024
▁traffic	-2025
ceed	-2026
▁course	-2027
▁Per	-2028
▁Out	-2029
▁station	-2030
aves	-2031
▁fall	-2032
oor	-2033
aps	-2034
▁config	-2035
▁Project	-2036
pur	-2037
mes	-2038
▁areas	-2039
▁therefore	-2040
▁speak	-2041
viron	-2042
▁mer	-2043
▁Information	-2044
▁subject	-2045
▁creat	-2046
▁status	-2047
▁16	-2048
enger	-2049
▁Display	-2050
yle	-2051
most	-2052
▁written	-2053
▁copy	-2054
▁having	-2055
utes	-2056
pr	-2057
▁Prov	-2058
▁step	-2059
ilt	-2060
▁why	-2061
▁economic	-2062
uture	-2063
▁news	-2064
▁press	-2065
▁growth	-2066
▁picture	-2067
▁fund	-2068
▁countries	-2069
ixed	-2070
▁instru	-2071
▁University	-2072
amb	-2073
itation	-2074
ibr	-2075
▁print	-2076
▁yellow	-2077
▁provide	-2078
▁Mar	-2079
▁sat	-2080
dom	-2081
▁Click	-2082
▁nation	-2083
eness	-2084
rab	-2085
▁Prog	-2086
▁doing	-2087
inn	-2088
change	-2089
▁Part	-2090
▁Folder	-2091
▁Section	-2092
▁tell	-2093
▁Num	-2094
▁Int	-2095
▁nat	-2096
▁disease	-2097
just	-2098
▁Time	-2099
▁example	-2100
▁Pol	-2101
▁ple	-2102
▁repl	-2103
vironment	-2104
hy	-2105
▁ce	-2106
cell	-2107
▁saf	-2108
▁single	-2109
▁industry	-2110
▁associ	-2111
▁Brit	-2112
▁deal	-2113
▁font	-2114
▁walking	-2115
ji	-2116
▁separ	-2117
aterial	-2118
▁respons	-2119
▁beaut	-2120
▁actually	-2121
▁pray	-2122
osp	-2123
▁ten	-2124
light	-2125
▁Such	-2126
fully	-2127
▁soon	-2128
▁Contact	-2129
rick	-2130
▁taking	-2131
cing	-2132
▁Mon	-2133
▁total	-2134
▁Bo	-2135
▁Nor	-2136
▁priv	-2137
▁cast	-2138
▁riding	-2139
▁format	-2140
▁Afric	-2141
stitute	-2142
▁abs	-2143
▁Evolution	-2144
une	-2145
atter	-2146
▁sector	-2147
▁host	-2148
rs	-2149
rup	-2150
ills	-2151
cious	-2152
urther	-2153
▁Ty	-2154
▁until	-2155
▁specified	-2156
▁repres	-2157
▁goods	-2158
hent	-2159
▁obs	-2160
▁forg	-2161
▁certificate	-2162
acity	-2163
▁Work	-2164
▁hor	-2165
▁provided	-2166
ience	-2167
▁express	-2168
▁job	-2169
▁pal	-2170
ilities	-2171
IC	-2172
▁eyes	-2173
ividual	-2174
chie	-2175
abled	-2176
nces	-2177
oses	-2178
▁farm	-2179
▁item	-2180
▁screen	-2181
▁Asia	-2182
irit	-2183
▁king	-2184
▁Br	-2185
▁Rel	-2186
▁Shri	-2187
▁Import	-2188
▁Hindu	-2189
▁below	-2190
RB	-2191
ison	-2192
▁Enter	-2193
▁bra	-2194
▁strong	-2195
▁leave	-2196
oom	-2197
▁policy	-2198
▁infl	-2199
▁society	-2200
ergy	-2201
▁Key	-2202
amed	-2203
▁request	-2204
▁TO	-2205
▁bow	-2206
▁vari	-2207
▁coun	-2208
▁production	-2209
▁gen	-2210
▁From	-2211
itch	-2212
▁punishment	-2213
▁sn	-2214
▁Window	-2215
airs	-2216
▁happ	-2217
▁Here	-2218
▁Default	-2219
▁Mark	-2220
▁reason	-2221
pose	-2222
▁Direct	-2223
▁pan	-2224
▁rese	-2225
▁Check	-2226
▁progress	-2227
▁court	-2228
▁Rec	-2229
unk	-2230
▁fru	-2231
roll	-2232
▁often	-2233
▁People	-2234
▁burn	-2235
▁Central	-2236
▁pot	-2237
▁items	-2238
▁Ser	-2239
▁warn	-2240
▁region	-2241
top	-2242
▁Ver	-2243
▁Loc	-2244
▁son	-2245
ribution	-2246
oud	-2247
rate	-2248
used	-2249
apt	-2250
▁entire	-2251
▁25	-2252
agar	-2253
▁future	-2254
osed	-2255
ably	-2256
acher	-2257
ript	-2258
▁Those	-2259
▁occur	-2260
aint	-2261
ises	-2262
rish	-2263
▁hydrant	-2264
ke	-2265
ony	-2266
▁dial	-2267
oice	-2268
resh	-2269
▁remov	-2270
▁mach	-2271
▁disk	-2272
▁Which	-2273
▁Fin	-2274
▁cross	-2275
▁office	-2276
▁share	-2277
▁boy	-2278
▁seek	-2279
▁tar	-2280
▁Address	-2281
ler	-2282
ump	-2283
ultural	-2284
▁ON	-2285
▁Group	-2286
ita	-2287
ourn	-2288
▁treat	-2289
orrow	-2290
▁lost	-2291
▁remove	-2292
pected	-2293
▁needs	-2294
ura	-2295
▁Mem	-2296
iddle	-2297
▁flying	-2298
reme	-2299
idered	-2300
ving	-2301
irror	-2302
ero	-2303
▁session	-2304
▁relations	-2305
▁Play	-2306
▁impro	-2307
cul	-2308
ran	-2309
▁streng	-2310
▁security	-2311
▁Cor	-2312
▁Mod	-2313
▁Techn	-2314
▁Beng	-2315
ected	-2316
▁selection	-2317
augh	-2318
cription	-2319
omes	-2320
▁visit	-2321
▁Cong	-2322
idence	-2323
▁supported	-2324
▁Color	-2325
▁Back	-2326
▁quality	-2327
▁members	-2328
▁drink	-2329
▁airpl	-2330
lex	-2331
▁demand	-2332
▁nature	-2333
ians	-2334
▁dut	-2335
▁living	-2336
▁management	-2337
men	-2338
▁fram	-2339
▁travel	-2340
▁active	-2341
ables	-2342
▁feed	-2343
▁considered	-2344
▁Und	-2345
ittee	-2346
▁regard	-2347
▁Development	-2348
gg	-2349
▁mis	-2350
▁Other	-2351
▁Muslim	-2352
▁village	-2353
▁achie	-2354
▁shown	-2355
▁break	-2356
▁brother	-2357
▁clean	-2358
▁running	-2359
▁draw	-2360
▁individual	-2361
het	-2362
▁Lo	-2363
▁hon	-2364
▁multip	-2365
▁however	-2366
▁bit	-2367
▁girl	-2368
ties	-2369
▁film	-2370
▁material	-2371
▁Guj	-2372
▁rad	-2373
inder	-2374
otion	-2375
radesh	-2376
▁neg	-2377
▁enough	-2378
ole	-2379
▁price	-2380
▁condition	-2381
▁Number	-2382
over	-2383
▁parts	-2384
istry	-2385
▁river	-2386
▁Account	-2387
ama	-2388
▁Thus	-2389
pes	-2390
ilar	-2391
▁Som	-2392
▁Only	-2393
▁larg	-2394
▁Tem	-2395
▁since	-2396
be	-2397
▁Dr	-2398
inary	-2399
ument	-2400
▁determ	-2401
▁books	-2402
▁Send	-2403
▁Med	-2404
▁design	-2405
▁necessary	-2406
▁bal	-2407
▁Message	-2408
▁code	-2409
▁Mad	-2410
ying	-2411
▁begin	-2412
▁comes	-2413
RI	-2414
▁ess	-2415
itude	-2416
▁suff	-2417
itle	-2418
▁received	-2419
era	-2420
▁cam	-2421
han	-2422
▁crit	-2423
▁Right	-2424
▁turned	-2425
icle	-2426
▁Govern	-2427
▁Sm	-2428
▁decl	-2429
▁learn	-2430
▁Sat	-2431
▁CO	-2432
▁Cle	-2433
aries	-2434
▁itself	-2435
▁British	-2436
▁deep	-2437
▁ones	-2438
▁phys	-2439
▁connection	-2440
▁Sim	-2441
▁kept	-2442
▁Sure	-2443
epend	-2444
▁tracks	-2445
▁pen	-2446
▁column	-2447
▁forward	-2448
go	-2449
▁Sec	-2450
abad	-2451
▁thy	-2452
▁mirror	-2453
au	-2454
ene	-2455
▁30	-2456
▁cut	-2457
oke	-2458
▁structure	-2459
▁problems	-2460
AS	-2461
▁Att	-2462
▁dig	-2463
tt	-2464
▁couple	-2465
▁issued	-2466
▁However	-2467
▁Program	-2468
▁location	-2469
▁six	-2470
igure	-2471
▁told	-2472
▁option	-2473
bed	-2474
▁IN	-2475
▁Inst	-2476
▁Text	-2477
stitution	-2478
▁Sche	-2479
AY	-2480
▁imm	-2481
▁saw	-2482
ktop	-2483
▁Sign	-2484
▁parent	-2485
▁Red	-2486
▁alone	-2487
▁contains	-2488
▁delete	-2489
▁birds	-2490
▁Print	-2491
▁consider	-2492
ivil	-2493
▁Inf	-2494
▁2018	-2495
▁plane	-2496
▁General	-2497
▁writing	-2498
▁Africa	-2499
▁Income	-2500
olk	-2501
omp	-2502
▁States	-2503
▁destro	-2504
▁held	-2505
▁previous	-2506
ival	-2507
▁May	-2508
▁fast	-2509
▁deny	-2510
▁Invalid	-2511
ift	-2512
▁ord	-2513
▁across	-2514
▁14	-2515
aged	-2516
▁activities	-2517
▁100	-2518
▁rain	-2519
ley	-2520
▁details	-2521
duc	-2522
▁store	-2523
▁reward	-2524
▁software	-2525
▁implement	-2526
idge	-2527
▁effort	-2528
▁Mal	-2529
▁hands	-2530
▁heavens	-2531
posed	-2532
▁bes	-2533
▁Many	-2534
eration	-2535
▁spread	-2536
▁Why	-2537
▁System	-2538
▁Pass	-2539
▁South	-2540
▁Pradesh	-2541
▁administ	-2542
▁Off	-2543
▁gard	-2544
body	-2545
▁reve	-2546
rodu	-2547
atory	-2548
▁spirit	-2549
▁cover	-2550
ique	-2551
aught	-2552
istan	-2553
▁values	-2554
▁Wor	-2555
▁role	-2556
▁though	-2557
▁Say	-2558
▁Well	-2559
▁property	-2560
▁card	-2561
▁wish	-2562
▁scheme	-2563
oe	-2564
▁redu	-2565
▁peace	-2566
▁correct	-2567
▁disbelie	-2568
krit	-2569
▁soul	-2570
▁archive	-2571
hood	-2572
▁Prev	-2573
▁names	-2574
▁foreign	-2575
▁integ	-2576
plication	-2577
medi	-2578
▁Chand	-2579
▁Cour	-2580
▁Every	-2581
▁box	-2582
▁eight	-2583
▁further	-2584
ze	-2585
▁half	-2586
▁thee	-2587
portun	-2588
eter	-2589
▁stri	-2590
ruction	-2591
▁Moses	-2592
ires	-2593
▁birth	-2594
lege	-2595
▁graph	-2596
▁anything	-2597
▁Sur	-2598
▁bur	-2599
iction	-2600
▁natural	-2601
▁recogn	-2602
▁covered	-2603
ences	-2604
▁ast	-2605
▁uns	-2606
▁folders	-2607
uf	-2608
▁tele	-2609
obal	-2610
▁loss	-2611
▁Where	-2612
▁memory	-2613
▁plugin	-2614
ING	-2615
▁Even	-2616
ends	-2617
▁Qur	-2618
▁pub	-2619
▁doub	-2620
▁stra	-2621
▁remember	-2622
▁dark	-2623
▁settings	-2624
▁ic	-2625
▁ant	-2626
▁enj	-2627
▁tub	-2628
▁Air	-2629
▁style	-2630
▁row	-2631
▁religion	-2632
▁vi	-2633
▁Dra	-2634
▁eat	-2635
▁holding	-2636
▁financial	-2637
▁rail	-2638
▁door	-2639
▁least	-2640
▁technology	-2641
▁tour	-2642
▁arm	-2643
▁modern	-2644
▁destroy	-2645
▁coming	-2646
▁Minister	-2647
▁town	-2648
▁saved	-2649
▁inn	-2650
▁13	-2651
▁pri	-2652
▁trust	-2653
action	-2654
▁carry	-2655
ented	-2656
▁movement	-2657
yn	-2658
imate	-2659
▁dead	-2660
▁dialog	-2661
▁grant	-2662
▁dire	-2663
▁wooden	-2664
▁exe	-2665
▁ir	-2666
▁makes	-2667
ATION	-2668
▁installed	-2669
▁jo	-2670
▁born	-2671
▁agree	-2672
▁song	-2673
riving	-2674
▁energy	-2675
uted	-2676
▁students	-2677
▁numbers	-2678
▁options	-2679
▁airplane	-2680
ava	-2681
▁Ak	-2682
oura	-2683
uly	-2684
▁Choose	-2685
aled	-2686
▁World	-2687
▁bill	-2688
▁images	-2689
▁certainly	-2690
xy	-2691
▁subm	-2692
▁easy	-2693
▁giraffes	-2694
▁17	-2695
abha	-2696
▁getting	-2697
ncil	-2698
▁Of	-2699
▁Det	-2700
▁opportun	-2701
▁Har	-2702
▁block	-2703
ength	-2704
pens	-2705
▁says	-2706
▁Public	-2707
▁higher	-2708
oly	-2709
itness	-2710
▁valid	-2711
▁Current	-2712
▁limit	-2713
▁credit	-2714
▁Surely	-2715
uff	-2716
▁memo	-2717
verse	-2718
▁button	-2719
asion	-2720
▁agric	-2721
▁political	-2722
▁Ob	-2723
istic	-2724
anskrit	-2725
▁exists	-2726
▁months	-2727
ales	-2728
▁specific	-2729
▁Sam	-2730
▁paper	-2731
liament	-2732
▁version	-2733
▁Certificate	-2734
▁drive	-2735
elt	-2736
▁wife	-2737
▁sense	-2738
▁App	-2739
▁poor	-2740
ditions	-2741
va	-2742
▁Ge	-2743
▁filled	-2744
▁animals	-2745
aste	-2746
▁allowed	-2747
chan	-2748
▁Inter	-2749
ada	-2750
▁Will	-2751
creen	-2752
▁Change	-2753
▁trade	-2754
▁saying	-2755
▁tab	-2756
omb	-2757
sect	-2758
▁middle	-2759
▁concern	-2760
▁general	-2761
ED	-2762
▁particip	-2763
▁pie	-2764
aximum	-2765
▁compan	-2766
▁stay	-2767
▁knows	-2768
▁changed	-2769
▁plus	-2770
ental	-2771
rist	-2772
box	-2773
▁tou	-2774
▁sits	-2775
▁Institute	-2776
▁invol	-2777
etic	-2778
asing	-2779
▁either	-2780
▁offline	-2781
▁whose	-2782
▁accounts	-2783
▁cy	-2784
itiz	-2785
leep	-2786
▁basis	-2787
erved	-2788
▁double	-2789
▁Congress	-2790
isk	-2791
▁ste	-2792
▁configuration	-2793
vey	-2794
▁wide	-2795
▁fem	-2796
▁preview	-2797
▁pane	-2798
▁forest	-2799
▁transl	-2800
▁paid	-2801
▁initi	-2802
ibrary	-2803
erciful	-2804
▁indic	-2805
mber	-2806
▁counter	-2807
cially	-2808
▁environment	-2809
ned	-2810
▁raised	-2811
▁bott	-2812
anes	-2813
▁Verily	-2814
cribed	-2815
▁enjoy	-2816
▁Val	-2817
attle	-2818
▁Form	-2819
▁sens	-2820
▁Type	-2821
▁height	-2822
ares	-2823
▁income	-2824
▁literature	-2825
enty	-2826
▁forth	-2827
▁IS	-2828
ners	-2829
▁bound	-2830
▁early	-2831
uge	-2832
mbol	-2833
▁built	-2834
▁engine	-2835
ender	-2836
▁Gl	-2837
▁50	-2838
rast	-2839
▁Close	-2840
▁attach	-2841
▁cro	-2842
▁sea	-2843
▁Tool	-2844
▁till	-2845
ousand	-2846
▁greater	-2847
▁speed	-2848
▁assist	-2849
▁verily	-2850
▁claim	-2851
▁percent	-2852
▁hear	-2853
▁width	-2854
new	-2855
eous	-2856
▁Any	-2857
▁harm	-2858
oo	-2859
▁charg	-2860
▁languages	-2861
▁click	-2862
▁Ext	-2863
osis	-2864
▁deleted	-2865
▁swe	-2866
▁teacher	-2867
▁according	-2868
▁Date	-2869
▁purpose	-2870
icro	-2871
▁maint	-2872
▁appear	-2873
▁Bal	-2874
▁Fire	-2875
▁everything	-2876
▁reject	-2877
▁morning	-2878
▁Bi	-2879
▁River	-2880
▁branch	-2881
▁continue	-2882
AP	-2883
head	-2884
▁busy	-2885
▁audio	-2886
▁reach	-2887
▁invalid	-2888
▁package	-2889
▁transfer	-2890
aur	-2891
annel	-2892
▁payment	-2893
atever	-2894
▁Department	-2895
▁visible	-2896
LE	-2897
iting	-2898
▁science	-2899
usion	-2900
▁crop	-2901
▁pet	-2902
▁loan	-2903
▁rele	-2904
▁feature	-2905
▁cars	-2906
▁force	-2907
ili	-2908
val	-2909
ream	-2910
▁Ac	-2911
▁Educ	-2912
▁drop	-2913
▁export	-2914
▁target	-2915
vi	-2916
anda	-2917
▁rule	-2918
▁Log	-2919
▁root	-2920
▁thus	-2921
▁output	-2922
by	-2923
ech	-2924
anges	-2925
▁Find	-2926
▁content	-2927
▁Sanskrit	-2928
igation	-2929
▁authent	-2930
▁Head	-2931
eb	-2932
aya	-2933
▁Over	-2934
▁compl	-2935
▁theme	-2936
▁mention	-2937
▁snow	-2938
ological	-2939
▁Cou	-2940
▁King	-2941
▁began	-2942
order	-2943
▁watch	-2944
uh	-2945
▁198	-2946
▁Bar	-2947
▁deli	-2948
▁opened	-2949
▁popular	-2950
▁CD	-2951
gment	-2952
▁summ	-2953
▁Fir	-2954
▁developed	-2955
▁deg	-2956
▁Mail	-2957
▁Count	-2958
▁reading	-2959
▁minus	-2960
▁stage	-2961
▁filter	-2962
▁remote	-2963
ened	-2964
▁plants	-2965
▁Pun	-2966
▁Have	-2967
▁Ref	-2968
iling	-2969
UR	-2970
itable	-2971
acy	-2972
uous	-2973
ivity	-2974
erences	-2975
▁Service	-2976
▁almost	-2977
▁bad	-2978
▁gives	-2979
▁study	-2980
▁section	-2981
ancy	-2982
▁regular	-2983
rat	-2984
▁chall	-2985
▁believers	-2986
▁neither	-2987
undred	-2988
▁conduct	-2989
umbai	-2990
▁usually	-2991
▁witness	-2992
to	-2993
▁million	-2994
ids	-2995
▁instead	-2996
estic	-2997
▁wanted	-2998
inate	-2999
orage	-3000
▁firm	-3001
▁Pur	-3002
▁research	-3003
▁User	-3004
▁oil	-3005
▁sac	-3006
▁Down	-3007
cer	-3008
▁197	-3009
▁Aud	-3010
▁reached	-3011
▁Republic	-3012
porary	-3013
▁normal	-3014
▁therein	-3015
▁manager	-3016
NO	-3017
inter	-3018
itial	-3019
▁input	-3020
edom	-3021
▁Indust	-3022
▁private	-3023
▁match	-3024
▁remain	-3025
▁Doc	-3026
▁happy	-3027
▁Know	-3028
▁editor	-3029
iles	-3030
▁web	-3031
▁contain	-3032
▁established	-3033
ger	-3034
▁seven	-3035
▁answer	-3036
idden	-3037
▁Mahar	-3038
▁bike	-3039
omatically	-3040
▁industrial	-3041
arning	-3042
ips	-3043
▁hearts	-3044
▁bed	-3045
▁round	-3046
▁earli	-3047
▁mass	-3048
▁simple	-3049
ively	-3050
▁discuss	-3051
▁followed	-3052
▁Bus	-3053
▁dam	-3054
▁party	-3055
lam	-3056
▁bab	-3057
aking	-3058
▁Port	-3059
etimes	-3060
ressed	-3061
▁cases	-3062
▁stream	-3063
▁board	-3064
uary	-3065
che	-3066
▁release	-3067
icles	-3068
▁Bengal	-3069
oot	-3070
▁terms	-3071
▁places	-3072
rog	-3073
▁duty	-3074
verage	-3075
▁thousand	-3076
war	-3077
▁195	-3078
itis	-3079
cribe	-3080
▁contacts	-3081
aff	-3082
ulf	-3083
▁id	-3084
▁Jan	-3085
▁none	-3086
▁Don	-3087
▁quite	-3088
▁Budd	-3089
▁mountains	-3090
▁unit	-3091
▁deeds	-3092
▁Committee	-3093
ges	-3094
▁arr	-3095
uggest	-3096
▁base	-3097
▁note	-3098
▁situation	-3099
▁Bas	-3100
urance	-3101
▁photo	-3102
ser	-3103
▁collect	-3104
▁flag	-3105
▁Their	-3106
itions	-3107
▁personal	-3108
▁goes	-3109
engers	-3110
after	-3111
▁rock	-3112
▁miss	-3113
▁patient	-3114
▁hot	-3115
▁Prof	-3116
isions	-3117
ternet	-3118
▁scient	-3119
▁journ	-3120
▁hundred	-3121
▁authority	-3122
unt	-3123
▁194	-3124
▁including	-3125
▁Krish	-3126
ogle	-3127
▁sin	-3128
▁Post	-3129
▁subs	-3130
▁Author	-3131
▁letter	-3132
▁economy	-3133
▁led	-3134
▁Data	-3135
▁generally	-3136
▁Di	-3137
walk	-3138
▁immedi	-3139
▁perman	-3140
▁International	-3141
GE	-3142
▁bear	-3143
▁conv	-3144
▁entry	-3145
▁ready	-3146
▁Dh	-3147
▁appl	-3148
ban	-3149
▁Hel	-3150
▁require	-3151
▁righteous	-3152
▁Technology	-3153
CT	-3154
▁har	-3155
▁viol	-3156
▁length	-3157
▁population	-3158
rade	-3159
▁decided	-3160
▁subst	-3161
▁corner	-3162
▁Ministry	-3163
irm	-3164
ging	-3165
▁1961	-3166
▁menu	-3167
▁safe	-3168
▁windows	-3169
▁US	-3170
▁secret	-3171
▁idea	-3172
▁cells	-3173
rypt	-3174
▁Brah	-3175
▁Cons	-3176
▁temple	-3177
▁activity	-3178
▁24	-3179
onent	-3180
▁Hell	-3181
▁More	-3182
▁third	-3183
rie	-3184
▁occasion	-3185
▁Gujarat	-3186
▁conditions	-3187
▁cloud	-3188
▁insect	-3189
▁Unknown	-3190
▁Court	-3191
▁depos	-3192
▁script	-3193
▁community	-3194
▁bi	-3195
que	-3196
▁medic	-3197
▁currently	-3198
semb	-3199
▁Task	-3200
▁added	-3201
▁fixed	-3202
▁doesn	-3203
▁displayed	-3204
ache	-3205
empt	-3206
anced	-3207
rated	-3208
urk	-3209
▁products	-3210
fficient	-3211
▁machine	-3212
▁li	-3213
fort	-3214
▁matters	-3215
▁ep	-3216
▁foc	-3217
▁someone	-3218
▁training	-3219
▁arg	-3220
ox	-3221
ites	-3222
▁ign	-3223
▁obt	-3224
▁moon	-3225
▁measure	-3226
▁Exp	-3227
▁comb	-3228
▁crow	-3229
▁prim	-3230
▁capacity	-3231
rim	-3232
▁circ	-3233
▁consum	-3234
▁Assist	-3235
▁guid	-3236
▁takes	-3237
app	-3238
▁Flag	-3239
▁Home	-3240
▁recom	-3241
▁increase	-3242
▁independ	-3243
▁rich	-3244
▁beautiful	-3245
▁Mumbai	-3246
▁driving	-3247
▁Ret	-3248
▁cook	-3249
ken	-3250
▁United	-3251
▁refers	-3252
▁sex	-3253
▁prop	-3254
▁spl	-3255
rew	-3256
band	-3257
use	-3258
▁doubt	-3259
vere	-3260
▁Web	-3261
▁Christ	-3262
▁Google	-3263
▁religious	-3264
isl	-3265
▁layer	-3266
▁music	-3267
▁prepared	-3268
▁Sar	-3269
▁Load	-3270
▁types	-3271
▁bicy	-3272
▁wind	-3273
aka	-3274
▁programme	-3275
▁Vis	-3276
▁trib	-3277
▁civil	-3278
ET	-3279
akes	-3280
▁charge	-3281
▁treatment	-3282
▁collection	-3283
▁North	-3284
AD	-3285
▁culture	-3286
▁original	-3287
▁frame	-3288
▁completed	-3289
▁floor	-3290
▁wrote	-3291
▁believed	-3292
gn	-3293
▁existing	-3294
ening	-3295
▁tall	-3296
▁Therefore	-3297
ename	-3298
▁heaven	-3299
▁relating	-3300
▁Application	-3301
▁eye	-3302
▁2014	-3303
▁Spec	-3304
▁rules	-3305
▁Custom	-3306
▁please	-3307
▁sett	-3308
ami	-3309
▁Connect	-3310
▁Path	-3311
▁creation	-3312
▁Education	-3313
▁hours	-3314
▁setting	-3315
▁Adv	-3316
▁citiz	-3317
▁passed	-3318
▁appointed	-3319
▁hour	-3320
▁ways	-3321
▁institutions	-3322
road	-3323
▁Lab	-3324
CE	-3325
ovel	-3326
▁foot	-3327
▁mom	-3328
▁acqu	-3329
▁caused	-3330
▁resources	-3331
araoh	-3332
▁Files	-3333
▁Offic	-3334
▁Fore	-3335
▁similar	-3336
▁ens	-3337
▁exc	-3338
▁wise	-3339
ps	-3340
kar	-3341
▁Hy	-3342
▁die	-3343
▁exchange	-3344
▁occurred	-3345
ae	-3346
IR	-3347
eral	-3348
▁fruit	-3349
▁documents	-3350
▁History	-3351
▁Pharaoh	-3352
▁suggest	-3353
abin	-3354
▁milk	-3355
▁quot	-3356
▁leaders	-3357
ows	-3358
▁Sch	-3359
▁East	-3360
▁freedom	-3361
ici	-3362
▁ID	-3363
haps	-3364
▁groups	-3365
NOME	-3366
▁Its	-3367
▁GNOME	-3368
jab	-3369
▁san	-3370
▁practice	-3371
▁Parliament	-3372
aly	-3373
▁returned	-3374
▁strength	-3375
▁Ant	-3376
▁Bec	-3377
▁influ	-3378
▁range	-3379
▁tasks	-3380
▁sleep	-3381
rupt	-3382
where	-3383
▁heard	-3384
▁include	-3385
ades	-3386
▁else	-3387
itary	-3388
▁quick	-3389
▁District	-3390
onds	-3391
▁Gur	-3392
▁During	-3393
▁der	-3394
▁Commission	-3395
rite	-3396
▁Scheme	-3397
▁airport	-3398
ithm	-3399
olar	-3400
▁external	-3401
▁standard	-3402
▁Arab	-3403
▁gold	-3404
ncy	-3405
▁adop	-3406
▁longer	-3407
▁attack	-3408
▁wealth	-3409
▁email	-3410
▁lines	-3411
▁fail	-3412
▁commer	-3413
▁Art	-3414
▁clock	-3415
▁compet	-3416
▁becomes	-3417
▁Mr	-3418
▁Tod	-3419
▁symbol	-3420
▁removed	-3421
▁bright	-3422
▁leaves	-3423
▁Ah	-3424
▁Ben	-3425
▁aware	-3426
▁lower	-3427
▁tried	-3428
▁moving	-3429
▁trying	-3430
entation	-3431
▁Because	-3432
▁produce	-3433
▁regist	-3434
ula	-3435
▁Read	-3436
▁21	-3437
▁Did	-3438
udden	-3439
▁Last	-3440
▁site	-3441
CH	-3442
iture	-3443
▁protect	-3444
▁signature	-3445
▁nar	-3446
▁Clear	-3447
▁Islam	-3448
▁super	-3449
▁Car	-3450
▁events	-3451
▁global	-3452
▁whe	-3453
▁West	-3454
▁mercy	-3455
▁famous	-3456
▁hope	-3457
▁online	-3458
▁connected	-3459
▁BC	-3460
▁fif	-3461
▁Would	-3462
▁shows	-3463
IL	-3464
▁egg	-3465
▁pra	-3466
▁Child	-3467
▁Sabha	-3468
▁Server	-3469
▁govern	-3470
▁pattern	-3471
oph	-3472
ators	-3473
▁bookmark	-3474
iet	-3475
▁Ved	-3476
▁century	-3477
▁Pat	-3478
agn	-3479
anging	-3480
cies	-3481
▁Bab	-3482
▁Pak	-3483
▁Next	-3484
▁fort	-3485
▁approach	-3486
raft	-3487
estern	-3488
▁police	-3489
▁Disable	-3490
▁persons	-3491
reg	-3492
▁Jud	-3493
▁Sah	-3494
▁wis	-3495
▁placed	-3496
▁Pan	-3497
▁fra	-3498
▁choose	-3499
▁weak	-3500
▁issue	-3501
▁receive	-3502
▁hath	-3503
▁friends	-3504
▁decision	-3505
▁buildings	-3506
▁experience	-3507
▁gone	-3508
▁risk	-3509
▁Options	-3510
▁Disc	-3511
adem	-3512
▁flu	-3513
VE	-3514
▁drug	-3515
▁skin	-3516
ST	-3517
▁sym	-3518
▁sidewalk	-3519
ouses	-3520
▁fish	-3521
▁sold	-3522
ammad	-3523
▁Prom	-3524
▁democ	-3525
iled	-3526
▁female	-3527
iva	-3528
▁Get	-3529
▁pix	-3530
▁forms	-3531
AM	-3532
▁direction	-3533
▁lad	-3534
▁units	-3535
▁reminder	-3536
▁destroyed	-3537
▁investment	-3538
▁international	-3539
▁End	-3540
▁Person	-3541
▁volume	-3542
ogg	-3543
atab	-3544
▁prob	-3545
▁Settings	-3546
▁seem	-3547
▁panel	-3548
▁bey	-3549
▁rural	-3550
▁House	-3551
▁guard	-3552
aces	-3553
▁Make	-3554
▁pull	-3555
ients	-3556
▁speech	-3557
▁square	-3558
ocol	-3559
▁23	-3560
▁icon	-3561
▁straight	-3562
▁applications	-3563
▁Class	-3564
ini	-3565
sequ	-3566
▁won	-3567
▁looks	-3568
adi	-3569
hold	-3570
plate	-3571
▁carried	-3572
▁storage	-3573
▁distance	-3574
hib	-3575
▁map	-3576
▁felt	-3577
▁daugh	-3578
▁beyond	-3579
▁Requ	-3580
atives	-3581
▁extra	-3582
▁Langu	-3583
▁novel	-3584
▁formed	-3585
▁Men	-3586
▁scale	-3587
bit	-3588
▁Three	-3589
▁located	-3590
▁Gh	-3591
▁ban	-3592
▁banks	-3593
▁rul	-3594
▁fill	-3595
▁media	-3596
▁tor	-3597
▁knew	-3598
▁Corpor	-3599
▁Council	-3600
omy	-3601
set	-3602
▁San	-3603
▁final	-3604
▁multi	-3605
▁whatever	-3606
▁appointment	-3607
RL	-3608
▁First	-3609
▁shower	-3610
▁Ke	-3611
reci	-3612
▁Shah	-3613
▁Proper	-3614
▁earlier	-3615
alse	-3616
onse	-3617
▁clip	-3618
▁desktop	-3619
▁Font	-3620
▁achieve	-3621
oured	-3622
▁model	-3623
▁Tax	-3624
ography	-3625
▁official	-3626
▁physical	-3627
▁insp	-3628
▁lock	-3629
▁pros	-3630
for	-3631
▁proced	-3632
▁contrib	-3633
imal	-3634
uman	-3635
▁stock	-3636
▁states	-3637
▁emb	-3638
▁coll	-3639
▁feet	-3640
▁193	-3641
▁Div	-3642
ority	-3643
▁fight	-3644
▁accepted	-3645
▁Enc	-3646
▁pole	-3647
▁Line	-3648
▁Merciful	-3649
▁played	-3650
▁attached	-3651
▁signific	-3652
▁Nav	-3653
▁pow	-3654
▁Size	-3655
▁weight	-3656
▁II	-3657
▁Yes	-3658
▁vict	-3659
▁Today	-3660
▁improve	-3661
▁download	-3662
▁Management	-3663
▁Organ	-3664
▁manner	-3665
▁species	-3666
▁produced	-3667
▁guide	-3668
▁Bu	-3669
eters	-3670
pecially	-3671
▁introdu	-3672
▁contract	-3673
▁title	-3674
anks	-3675
▁Export	-3676
NA	-3677
aul	-3678
▁aw	-3679
▁tiss	-3680
▁Run	-3681
▁channel	-3682
▁characters	-3683
ils	-3684
izont	-3685
obile	-3686
▁cance	-3687
hal	-3688
▁stands	-3689
iers	-3690
▁team	-3691
▁balance	-3692
▁operations	-3693
istor	-3694
issions	-3695
▁teach	-3696
▁Muh	-3697
osing	-3698
ulate	-3699
▁Page	-3700
ras	-3701
well	-3702
▁amp	-3703
iment	-3704
▁About	-3705
▁surround	-3706
ops	-3707
riev	-3708
▁imag	-3709
▁refer	-3710
▁provides	-3711
▁Her	-3712
athe	-3713
ilos	-3714
▁bottom	-3715
▁College	-3716
urg	-3717
cape	-3718
▁Plan	-3719
▁Utt	-3720
▁stat	-3721
▁separate	-3722
▁22	-3723
▁Pal	-3724
▁Punjab	-3725
▁animal	-3726
▁unknown	-3727
ression	-3728
▁cult	-3729
▁legal	-3730
▁named	-3731
▁useful	-3732
▁published	-3733
▁fair	-3734
▁lies	-3735
▁sort	-3736
▁surface	-3737
▁Sal	-3738
▁Av	-3739
▁RRB	-3740
▁male	-3741
▁tri	-3742
ufact	-3743
▁Mult	-3744
add	-3745
isf	-3746
▁IT	-3747
▁results	-3748
▁waiting	-3749
▁transport	-3750
▁contents	-3751
alys	-3752
▁origin	-3753
▁rather	-3754
RE	-3755
cher	-3756
▁Park	-3757
▁poll	-3758
▁glass	-3759
▁member	-3760
▁hide	-3761
▁enabled	-3762
ests	-3763
▁camp	-3764
▁Tag	-3765
▁Rest	-3766
▁bowl	-3767
uments	-3768
ming	-3769
▁multiple	-3770
▁cele	-3771
▁Access	-3772
▁central	-3773
▁instrument	-3774
la	-3775
rest	-3776
▁angels	-3777
▁DV	-3778
▁ge	-3779
▁ren	-3780
asc	-3781
zz	-3782
anga	-3783
▁associated	-3784
orate	-3785
▁largest	-3786
▁pers	-3787
▁Union	-3788
▁lives	-3789
▁eating	-3790
▁element	-3791
▁looked	-3792
▁partners	-3793
▁Unt	-3794
▁giving	-3795
asure	-3796
▁virt	-3797
▁meaning	-3798
hest	-3799
▁touch	-3800
▁ancient	-3801
▁Document	-3802
▁Quran	-3803
wise	-3804
▁pick	-3805
▁brown	-3806
urt	-3807
lands	-3808
riage	-3809
▁moment	-3810
▁beginning	-3811
▁importance	-3812
▁Nep	-3813
▁arri	-3814
inding	-3815
▁especially	-3816
ril	-3817
omen	-3818
▁update	-3819
▁reb	-3820
▁Prot	-3821
▁notice	-3822
▁fully	-3823
▁innov	-3824
iveness	-3825
▁denied	-3826
▁Fr	-3827
▁af	-3828
athy	-3829
▁bless	-3830
▁joint	-3831
▁Id	-3832
▁veh	-3833
▁dry	-3834
▁Just	-3835
▁March	-3836
▁increased	-3837
ubs	-3838
▁rights	-3839
▁serious	-3840
▁Muhammad	-3841
▁sand	-3842
▁immediately	-3843
▁Sk	-3844
▁Ear	-3845
▁emerg	-3846
▁ST	-3847
kind	-3848
▁Several	-3849
ipt	-3850
▁DVD	-3851
ifest	-3852
▁Sun	-3853
▁phone	-3854
atabase	-3855
▁mechan	-3856
gor	-3857
odes	-3858
▁blind	-3859
▁stone	-3860
ighty	-3861
ober	-3862
▁benefit	-3863
uls	-3864
back	-3865
section	-3866
▁Free	-3867
▁lights	-3868
▁Network	-3869
iger	-3870
▁beach	-3871
avi	-3872
oun	-3873
▁Ann	-3874
ML	-3875
RO	-3876
gar	-3877
▁wearing	-3878
ially	-3879
▁desire	-3880
ayan	-3881
▁ball	-3882
▁cash	-3883
▁insert	-3884
▁Krishna	-3885
▁cong	-3886
▁Ur	-3887
▁belongs	-3888
▁mountain	-3889
▁proceed	-3890
▁Training	-3891
amil	-3892
▁died	-3893
▁Under	-3894
▁minutes	-3895
oll	-3896
▁repe	-3897
▁Elect	-3898
▁Video	-3899
iny	-3900
▁plain	-3901
▁recip	-3902
▁efforts	-3903
▁Research	-3904
RA	-3905
▁agreement	-3906
▁26	-3907
▁ago	-3908
▁Editor	-3909
▁Password	-3910
▁response	-3911
▁Togg	-3912
▁lakh	-3913
▁false	-3914
▁Kal	-3915
▁URL	-3916
▁hill	-3917
▁depend	-3918
▁string	-3919
▁average	-3920
▁stopped	-3921
▁Wid	-3922
▁apply	-3923
▁destination	-3924
▁kn	-3925
▁magn	-3926
▁China	-3927
racy	-3928
▁cry	-3929
▁opening	-3930
aksh	-3931
ifying	-3932
▁Internet	-3933
▁sides	-3934
▁transm	-3935
ESS	-3936
▁wond	-3937
▁needed	-3938
yr	-3939
poses	-3940
▁fest	-3941
ucle	-3942
▁aim	-3943
▁waste	-3944
▁bridge	-3945
▁rout	-3946
▁defin	-3947
▁mankind	-3948
▁parking	-3949
▁Sl	-3950
▁basic	-3951
▁affect	-3952
▁sudden	-3953
▁convers	-3954
ext	-3955
▁Kash	-3956
▁Command	-3957
▁motorcycles	-3958
▁hus	-3959
▁Link	-3960
▁Power	-3961
▁shape	-3962
ospital	-3963
▁issues	-3964
▁properties	-3965
aily	-3966
▁reform	-3967
▁seed	-3968
▁encoura	-3969
isc	-3970
▁aspect	-3971
▁According	-3972
▁Jap	-3973
antly	-3974
▁Aust	-3975
ferences	-3976
▁Download	-3977
▁Assistant	-3978
acc	-3979
▁2015	-3980
▁slow	-3981
▁Centre	-3982
▁camera	-3983
ervation	-3984
igned	-3985
istics	-3986
▁Leg	-3987
▁Upd	-3988
mical	-3989
phone	-3990
▁fulf	-3991
▁projects	-3992
een	-3993
▁Help	-3994
▁magic	-3995
▁hab	-3996
▁Install	-3997
▁advance	-3998
AB	-3999
adh	-4000
▁Gre	-4001
▁Turk	-4002
▁fence	-4003
▁squared	-4004
▁continued	-4005
▁Cap	-4006
▁broad	-4007
▁attract	-4008
▁essential	-4009
▁Constitution	-4010
▁Rev	-4011
enced	-4012
attery	-4013
▁param	-4014
▁limited	-4015
▁playing	-4016
▁stories	-4017
▁guidance	-4018
▁horse	-4019
▁mouth	-4020
▁represent	-4021
▁successfully	-4022
▁La	-4023
omin	-4024
▁LRB	-4025
▁Board	-4026
▁voice	-4027
▁showing	-4028
▁unf	-4029
erous	-4030
▁obey	-4031
▁poetry	-4032
▁systems	-4033
inger	-4034
▁baby	-4035
▁pric	-4036
▁wild	-4037
▁purch	-4038
▁divided	-4039
▁revealed	-4040
elf	-4041
▁ship	-4042
▁Ha	-4043
▁heavy	-4044
▁potential	-4045
rastructure	-4046
▁eleph	-4047
▁servants	-4048
▁Something	-4049
▁didn	-4050
▁offer	-4051
▁medical	-4052
▁veget	-4053
▁execut	-4054
▁library	-4055
asa	-4056
▁Tab	-4057
▁quant	-4058
▁learning	-4059
ifications	-4060
▁ded	-4061
▁zero	-4062
▁satisf	-4063
▁princi	-4064
olute	-4065
▁Uttar	-4066
▁hidden	-4067
▁expression	-4068
oding	-4069
▁cities	-4070
▁Yet	-4071
▁labour	-4072
▁supply	-4073
▁AND	-4074
▁favour	-4075
▁terror	-4076
▁Sa	-4077
▁Prem	-4078
▁dream	-4079
▁Sri	-4080
▁mid	-4081
▁cabin	-4082
▁Filter	-4083
▁reflect	-4084
DE	-4085
asth	-4086
▁Both	-4087
▁gets	-4088
lement	-4089
▁Stand	-4090
▁launch	-4091
enditure	-4092
▁Pakistan	-4093
▁profession	-4094
ora	-4095
▁warm	-4096
▁Akbar	-4097
ux	-4098
▁Adm	-4099
▁dust	-4100
▁Prime	-4101
▁award	-4102
▁sight	-4103
▁statement	-4104
ropri	-4105
place	-4106
▁workers	-4107
▁Calendar	-4108
▁mal	-4109
▁capt	-4110
▁While	-4111
▁stick	-4112
usp	-4113
▁manufact	-4114
oring	-4115
▁judge	-4116
▁promise	-4117
cean	-4118
▁Oct	-4119
▁celebr	-4120
▁keyboard	-4121
▁relationship	-4122
ikh	-4123
oming	-4124
▁Bang	-4125
▁liqu	-4126
▁perf	-4127
▁disci	-4128
▁causes	-4129
▁philos	-4130
▁Muslims	-4131
▁description	-4132
lled	-4133
▁songs	-4134
▁flowers	-4135
ja	-4136
▁hat	-4137
encies	-4138
▁parents	-4139
▁deck	-4140
▁mort	-4141
▁closed	-4142
PS	-4143
▁40	-4144
▁Status	-4145
▁twenty	-4146
▁clipboard	-4147
▁Jes	-4148
▁Allow	-4149
▁throw	-4150
▁worth	-4151
▁Pri	-4152
▁folk	-4153
▁index	-4154
▁maximum	-4155
▁commercial	-4156
▁Mac	-4157
▁Full	-4158
▁undert	-4159
▁facilities	-4160
▁Gr	-4161
▁Joh	-4162
▁Hide	-4163
▁entered	-4164
▁companies	-4165
▁oppos	-4166
▁negative	-4167
aran	-4168
izing	-4169
▁Met	-4170
▁Water	-4171
▁ideas	-4172
▁sometimes	-4173
ixt	-4174
▁advice	-4175
oser	-4176
▁AT	-4177
aches	-4178
▁attempt	-4179
IV	-4180
▁Ra	-4181
cket	-4182
osen	-4183
▁points	-4184
▁coop	-4185
▁Mount	-4186
▁moves	-4187
then	-4188
▁Moh	-4189
▁Gard	-4190
urrency	-4191
▁Office	-4192
ighb	-4193
▁presence	-4194
ster	-4195
▁crowd	-4196
▁enable	-4197
▁officer	-4198
▁temper	-4199
▁browser	-4200
▁additional	-4201
ica	-4202
▁27	-4203
▁center	-4204
▁guided	-4205
▁Emp	-4206
▁fat	-4207
▁excell	-4208
▁containing	-4209
right	-4210
▁qual	-4211
▁piece	-4212
cast	-4213
ingu	-4214
cript	-4215
▁passing	-4216
▁traveling	-4217
sembly	-4218
▁bunch	-4219
▁lived	-4220
▁intersection	-4221
ulated	-4222
▁effective	-4223
ophy	-4224
▁monitor	-4225
ctors	-4226
▁mere	-4227
▁prayer	-4228
▁profile	-4229
▁citizens	-4230
▁election	-4231
▁thinking	-4232
▁successful	-4233
▁HT	-4234
▁Su	-4235
▁War	-4236
▁rise	-4237
▁observed	-4238
▁establish	-4239
CC	-4240
abh	-4241
icip	-4242
▁Process	-4243
▁Nay	-4244
▁garden	-4245
edia	-4246
lock	-4247
▁Bad	-4248
▁Bel	-4249
▁season	-4250
▁industries	-4251
▁08	-4252
▁calls	-4253
▁figure	-4254
yal	-4255
▁Left	-4256
▁Plug	-4257
▁Subs	-4258
▁evidence	-4259
ipp	-4260
enge	-4261
ursor	-4262
▁desp	-4263
▁seat	-4264
▁revel	-4265
izontal	-4266
▁employment	-4267
▁Report	-4268
▁lib	-4269
▁Jesus	-4270
▁Location	-4271
▁responsible	-4272
▁buy	-4273
astic	-4274
▁bicycle	-4275
▁farmers	-4276
▁questions	-4277
ym	-4278
arl	-4279
eless	-4280
▁reply	-4281
▁Secret	-4282
▁beside	-4283
▁propos	-4284
▁initial	-4285
▁benefits	-4286
▁happened	-4287
▁concerned	-4288
▁da	-4289
▁plat	-4290
▁exact	-4291
▁focus	-4292
▁Science	-4293
▁concept	-4294
inct	-4295
▁Fund	-4296
uation	-4297
▁packages	-4298
owed	-4299
▁Each	-4300
▁player	-4301
▁temporary	-4302
▁lic	-4303
▁cand	-4304
▁Source	-4305
▁processing	-4306
▁Ent	-4307
▁Gra	-4308
▁mut	-4309
▁tag	-4310
under	-4311
▁seems	-4312
▁expand	-4313
▁organism	-4314
▁employees	-4315
▁addition	-4316
▁attention	-4317
ously	-4318
▁attend	-4319
lig	-4320
▁features	-4321
bal	-4322
ooth	-4323
▁Wik	-4324
inese	-4325
▁kill	-4326
ashtra	-4327
▁funds	-4328
▁notes	-4329
▁husband	-4330
▁univers	-4331
▁28	-4332
▁jet	-4333
▁steps	-4334
▁calcul	-4335
▁doctor	-4336
▁burning	-4337
▁02	-4338
overy	-4339
▁Good	-4340
▁April	-4341
▁provision	-4342
▁cop	-4343
▁enem	-4344
▁generation	-4345
▁hrs	-4346
▁Small	-4347
▁Table	-4348
▁January	-4349
rieve	-4350
▁quar	-4351
▁neighb	-4352
▁vert	-4353
▁loading	-4354
osition	-4355
▁seconds	-4356
ipur	-4357
raham	-4358
OS	-4359
zing	-4360
▁lie	-4361
expected	-4362
aging	-4363
iance	-4364
▁2000	-4365
▁hair	-4366
▁adult	-4367
▁grand	-4368
▁links	-4369
▁occup	-4370
▁Language	-4371
▁Services	-4372
una	-4373
otic	-4374
▁Top	-4375
▁histor	-4376
▁specify	-4377
▁expected	-4378
▁internal	-4379
TH	-4380
hru	-4381
▁easily	-4382
▁torment	-4383
rec	-4384
▁Ker	-4385
▁orange	-4386
▁profit	-4387
▁department	-4388
▁inj	-4389
arily	-4390
itect	-4391
anches	-4392
▁north	-4393
▁secure	-4394
mat	-4395
omic	-4396
▁Dem	-4397
▁Oper	-4398
▁leaf	-4399
▁trou	-4400
▁pixels	-4401
▁authentication	-4402
▁Non	-4403
▁Great	-4404
▁parties	-4405
▁01	-4406
▁Brow	-4407
letion	-4408
▁south	-4409
▁chosen	-4410
▁arrange	-4411
▁evening	-4412
▁Exchange	-4413
rip	-4414
▁Deb	-4415
andom	-4416
▁directly	-4417
mir	-4418
▁attrib	-4419
▁terminal	-4420
▁nut	-4421
▁Email	-4422
▁colors	-4423
▁complex	-4424
▁Gandhiji	-4425
▁fig	-4426
▁nine	-4427
▁sequ	-4428
▁administr	-4429
ERS	-4430
ays	-4431
oman	-4432
▁Lim	-4433
▁cup	-4434
▁objects	-4435
▁unbelie	-4436
▁European	-4437
oms	-4438
▁192	-4439
arati	-4440
▁Bhag	-4441
▁Tamil	-4442
▁decor	-4443
ocation	-4444
▁Object	-4445
▁review	-4446
▁probably	-4447
etch	-4448
▁mentioned	-4449
irty	-4450
▁equip	-4451
▁gradu	-4452
▁consist	-4453
▁Khan	-4454
▁responsibility	-4455
iant	-4456
▁Also	-4457
▁Burn	-4458
▁31	-4459
▁Game	-4460
▁debt	-4461
▁mand	-4462
▁fields	-4463
▁vision	-4464
▁extension	-4465
▁SH	-4466
▁joy	-4467
▁Rama	-4468
▁herd	-4469
▁pure	-4470
▁Nar	-4471
▁wat	-4472
▁Wise	-4473
▁Abraham	-4474
▁Province	-4475
▁passenger	-4476
▁permanently	-4477
raw	-4478
▁brick	-4479
▁remained	-4480
arma	-4481
▁win	-4482
isters	-4483
▁Micro	-4484
▁metal	-4485
▁pages	-4486
den	-4487
ret	-4488
▁Pac	-4489
▁City	-4490
▁Pack	-4491
▁dece	-4492
▁neck	-4493
▁sust	-4494
▁expect	-4495
▁Manager	-4496
▁highest	-4497
uel	-4498
aped	-4499
▁Pra	-4500
▁Bomb	-4501
▁Take	-4502
▁army	-4503
▁Agric	-4504
▁ax	-4505
▁cow	-4506
▁huge	-4507
alysis	-4508
▁defined	-4509
vant	-4510
▁Tar	-4511
▁Mode	-4512
▁Sept	-4513
▁procedure	-4514
▁Roy	-4515
▁School	-4516
▁Chinese	-4517
▁purposes	-4518
▁Corporation	-4519
olid	-4520
aling	-4521
▁Pand	-4522
ported	-4523
▁frequ	-4524
▁American	-4525
sy	-4526
▁June	-4527
▁Phot	-4528
▁youth	-4529
▁centre	-4530
▁replace	-4531
OL	-4532
▁Ang	-4533
▁Aug	-4534
▁gar	-4535
apers	-4536
▁Germ	-4537
▁star	-4538
▁electric	-4539
▁permission	-4540
▁yield	-4541
▁medium	-4542
▁Special	-4543
▁emp	-4544
▁net	-4545
▁van	-4546
▁cold	-4547
▁unique	-4548
asm	-4549
ius	-4550
▁granted	-4551
arer	-4552
▁walls	-4553
▁widget	-4554
eria	-4555
▁dyn	-4556
▁lit	-4557
▁thr	-4558
ested	-4559
inion	-4560
▁Configure	-4561
▁unc	-4562
formed	-4563
▁Windows	-4564
▁resource	-4565
▁automatically	-4566
pid	-4567
aken	-4568
oted	-4569
pense	-4570
screen	-4571
▁performed	-4572
▁opportunity	-4573
gorithm	-4574
▁Pacific	-4575
▁domestic	-4576
▁Switch	-4577
ew	-4578
▁Arch	-4579
▁hell	-4580
▁Nehru	-4581
▁institution	-4582
ugar	-4583
▁chief	-4584
▁mighty	-4585
ij	-4586
ores	-4587
▁bag	-4588
anged	-4589
▁purs	-4590
▁Local	-4591
▁White	-4592
▁Messenger	-4593
▁Ma	-4594
▁Mo	-4595
atha	-4596
rael	-4597
rene	-4598
asons	-4599
▁2013	-4600
▁chat	-4601
iation	-4602
▁avoid	-4603
▁daily	-4604
▁Insert	-4605
▁strugg	-4606
▁perhaps	-4607
▁positive	-4608
▁programmes	-4609
aji	-4610
▁Lay	-4611
▁2016	-4612
▁serve	-4613
▁silver	-4614
▁extreme	-4615
▁warning	-4616
▁manifest	-4617
▁gas	-4618
▁gardens	-4619
▁reference	-4620
▁Stop	-4621
▁anyone	-4622
▁astray	-4623
▁See	-4624
inent	-4625
▁mist	-4626
▁marked	-4627
▁Control	-4628
▁journey	-4629
▁promised	-4630
rief	-4631
▁Kum	-4632
▁disp	-4633
▁dram	-4634
▁Creat	-4635
isement	-4636
▁commit	-4637
▁Kashmir	-4638
▁platform	-4639
lla	-4640
rep	-4641
▁Look	-4642
▁diss	-4643
▁encl	-4644
▁actor	-4645
▁faces	-4646
▁stove	-4647
hat	-4648
reed	-4649
▁boat	-4650
▁rend	-4651
▁exerc	-4652
▁fresh	-4653
▁Policy	-4654
▁tissue	-4655
▁worked	-4656
hra	-4657
▁opt	-4658
ateral	-4659
▁actions	-4660
▁division	-4661
▁regarding	-4662
▁UN	-4663
omet	-4664
▁Lok	-4665
▁Main	-4666
▁conce	-4667
▁trash	-4668
▁growing	-4669
▁appropri	-4670
CI	-4671
▁bone	-4672
▁moved	-4673
▁completely	-4674
amin	-4675
rome	-4676
roud	-4677
▁brain	-4678
▁series	-4679
▁primary	-4680
▁component	-4681
imb	-4682
▁fell	-4683
▁shop	-4684
▁users	-4685
▁houses	-4686
tered	-4687
▁Keep	-4688
▁Russ	-4689
▁prefer	-4690
▁agricultural	-4691
ikes	-4692
▁tim	-4693
▁gods	-4694
▁nucle	-4695
▁circum	-4696
▁examination	-4697
mend	-4698
▁dim	-4699
▁Call	-4700
▁hearing	-4701
▁tradition	-4702
atio	-4703
▁wel	-4704
ratic	-4705
▁expens	-4706
▁severe	-4707
▁missing	-4708
▁prevent	-4709
cutta	-4710
eting	-4711
▁Brahm	-4712
▁interface	-4713
▁Dece	-4714
▁Comput	-4715
▁October	-4716
▁60	-4717
▁Build	-4718
▁mouse	-4719
▁situated	-4720
adu	-4721
▁Perm	-4722
▁buff	-4723
▁Health	-4724
▁Selected	-4725
▁difference	-4726
ipe	-4727
adise	-4728
udget	-4729
▁upg	-4730
rench	-4731
▁Nove	-4732
▁factor	-4733
▁fruits	-4734
▁Forward	-4735
▁context	-4736
▁Ay	-4737
▁charges	-4738
▁pred	-4739
▁larger	-4740
▁justice	-4741
ka	-4742
▁dang	-4743
▁pret	-4744
▁truck	-4745
▁Bombay	-4746
▁Social	-4747
▁talking	-4748
▁edge	-4749
▁prost	-4750
▁killed	-4751
▁revolution	-4752
▁opportunities	-4753
clus	-4754
▁Region	-4755
▁toolbar	-4756
▁Calcutta	-4757
▁Children	-4758
▁35	-4759
▁Op	-4760
iration	-4761
ika	-4762
fall	-4763
▁Ash	-4764
cipal	-4765
▁node	-4766
▁December	-4767
▁agriculture	-4768
osh	-4769
▁rob	-4770
▁sources	-4771
▁distribution	-4772
▁Audio	-4773
▁Second	-4774
▁advant	-4775
▁colour	-4776
▁helped	-4777
▁elements	-4778
▁hospital	-4779
TP	-4780
▁Muk	-4781
▁July	-4782
▁Karn	-4783
▁Rail	-4784
ricket	-4785
▁thread	-4786
▁understanding	-4787
oken	-4788
▁rot	-4789
▁increasing	-4790
ti	-4791
▁Fort	-4792
▁Black	-4793
▁branches	-4794
▁Background	-4795
▁crore	-4796
▁laying	-4797
▁signed	-4798
▁possess	-4799
▁delivery	-4800
▁umb	-4801
chand	-4802
▁Light	-4803
▁domain	-4804
▁IP	-4805
write	-4806
▁Auto	-4807
▁Rece	-4808
▁August	-4809
▁sufficient	-4810
UN	-4811
▁flo	-4812
itory	-4813
▁register	-4814
ander	-4815
ellig	-4816
▁Vish	-4817
▁ensure	-4818
▁header	-4819
▁Subject	-4820
▁29	-4821
▁AD	-4822
▁Law	-4823
icate	-4824
▁Value	-4825
▁insects	-4826
▁challeng	-4827
▁09	-4828
ilit	-4829
lets	-4830
▁Madh	-4831
▁Road	-4832
▁heat	-4833
▁blank	-4834
▁Austral	-4835
▁rejected	-4836
AGE	-4837
▁Mer	-4838
▁Israel	-4839
▁runway	-4840
▁November	-4841
▁villages	-4842
▁80	-4843
rage	-4844
ought	-4845
▁grad	-4846
▁battery	-4847
▁attachment	-4848
▁Vol	-4849
▁exit	-4850
▁norm	-4851
asthan	-4852
▁Press	-4853
▁variety	-4854
▁pressure	-4855
▁gall	-4856
▁Truth	-4857
▁performance	-4858
▁CH	-4859
▁soil	-4860
assion	-4861
▁Level	-4862
▁subt	-4863
▁assets	-4864
▁Financial	-4865
TS	-4866
ifier	-4867
▁sell	-4868
actions	-4869
▁leader	-4870
▁Supreme	-4871
AC	-4872
▁Iss	-4873
▁KDE	-4874
gress	-4875
venue	-4876
▁Test	-4877
▁construction	-4878
pace	-4879
▁bul	-4880
icial	-4881
ronic	-4882
▁Subh	-4883
▁band	-4884
ailable	-4885
▁Bharat	-4886
▁borrow	-4887
▁Maharashtra	-4888
▁delay	-4889
▁flower	-4890
▁replied	-4891
▁expenditure	-4892
▁staff	-4893
▁Bookmark	-4894
gy	-4895
jee	-4896
▁sam	-4897
chron	-4898
ollow	-4899
urrence	-4900
▁Messages	-4901
▁includes	-4902
▁mad	-4903
arant	-4904
ifies	-4905
▁Mand	-4906
▁spot	-4907
▁Screen	-4908
▁ori	-4909
▁join	-4910
▁pound	-4911
list	-4912
▁Rad	-4913
▁upper	-4914
20	-4915
apter	-4916
▁drawn	-4917
▁conver	-4918
▁Another	-4919
▁printer	-4920
▁Prop	-4921
▁diam	-4922
▁levels	-4923
▁visited	-4924
▁Template	-4925
▁functions	-4926
▁Est	-4927
▁bod	-4928
▁verses	-4929
▁feeling	-4930
▁daughter	-4931
▁resol	-4932
▁breast	-4933
▁smaller	-4934
▁measures	-4935
▁medicine	-4936
▁bat	-4937
going	-4938
▁2008	-4939
▁Stud	-4940
▁Before	-4941
▁layout	-4942
▁saving	-4943
▁taught	-4944
▁Details	-4945
▁married	-4946
▁democracy	-4947
▁scientific	-4948
▁Po	-4949
▁Feb	-4950
▁vir	-4951
▁John	-4952
▁hanging	-4953
▁strengthen	-4954
do	-4955
enth	-4956
▁cere	-4957
active	-4958
▁Selection	-4959
▁September	-4960
▁conscious	-4961
ola	-4962
▁fert	-4963
▁Guru	-4964
▁prices	-4965
▁sacr	-4966
▁depart	-4967
▁listen	-4968
▁Country	-4969
BI	-4970
hens	-4971
▁Once	-4972
▁doll	-4973
▁weeks	-4974
▁PRO	-4975
▁Pay	-4976
▁2017	-4977
▁fine	-4978
▁pair	-4979
▁appreci	-4980
▁assistance	-4981
▁bond	-4982
▁keys	-4983
▁helps	-4984
▁Except	-4985
▁remains	-4986
▁interesting	-4987
▁shr	-4988
▁chair	-4989
raction	-4990
▁Ed	-4991
aming	-4992
▁decre	-4993
▁usage	-4994
▁notification	-4995
my	-4996
eum	-4997
vious	-4998
▁stood	-4999
▁km	-5000
▁diseases	-5001
▁described	-5002
▁SE	-5003
rase	-5004
▁quit	-5005
▁former	-5006
bum	-5007
▁Bes	-5008
point	-5009
▁database	-5010
athered	-5011
▁desert	-5012
prise	-5013
▁Himal	-5014
▁Western	-5015
ategories	-5016
▁powerful	-5017
hel	-5018
▁iron	-5019
▁newsp	-5020
▁degree	-5021
▁Indians	-5022
▁corrupt	-5023
nes	-5024
anas	-5025
▁earn	-5026
▁Properties	-5027
oles	-5028
poss	-5029
icies	-5030
▁Bill	-5031
▁Trib	-5032
▁edit	-5033
▁Commun	-5034
▁marriage	-5035
bon	-5036
vision	-5037
▁Width	-5038
▁accom	-5039
▁older	-5040
▁Online	-5041
▁receipt	-5042
▁affected	-5043
▁recently	-5044
▁yourself	-5045
▁suc	-5046
▁tong	-5047
▁letters	-5048
▁disabled	-5049
▁greatest	-5050
▁requires	-5051
▁unbelievers	-5052
▁Try	-5053
▁laun	-5054
▁forces	-5055
▁liquid	-5056
mi	-5057
lict	-5058
▁Rot	-5059
▁Like	-5060
▁Vert	-5061
▁entr	-5062
▁beauty	-5063
rier	-5064
▁lack	-5065
▁obst	-5066
▁poly	-5067
▁poems	-5068
▁Business	-5069
▁involved	-5070
oes	-5071
▁uses	-5072
▁Peace	-5073
▁currency	-5074
▁petition	-5075
▁Rajasthan	-5076
▁Sir	-5077
▁Soft	-5078
▁proud	-5079
▁views	-5080
▁recent	-5081
▁knowing	-5082
▁minimum	-5083
▁Nat	-5084
▁drag	-5085
enture	-5086
▁Config	-5087
ondon	-5088
ruary	-5089
▁Cance	-5090
▁cards	-5091
▁master	-5092
▁powers	-5093
▁adopted	-5094
▁strateg	-5095
▁relative	-5096
▁existence	-5097
asis	-5098
▁Hor	-5099
▁Mat	-5100
▁shad	-5101
▁unable	-5102
▁follows	-5103
▁instance	-5104
▁architect	-5105
▁Ye	-5106
▁rare	-5107
▁Party	-5108
▁sum	-5109
▁Life	-5110
▁suppl	-5111
iciency	-5112
▁Airport	-5113
▁constit	-5114
▁critical	-5115
▁officers	-5116
▁Kar	-5117
▁rapid	-5118
▁scene	-5119
▁Division	-5120
▁violence	-5121
▁permissions	-5122
agh	-5123
aja	-5124
resp	-5125
▁laid	-5126
▁clearly	-5127
asty	-5128
▁cart	-5129
▁crim	-5130
▁surg	-5131
ademic	-5132
▁ideal	-5133
▁gather	-5134
▁February	-5135
▁construct	-5136
▁protection	-5137
ARD	-5138
▁ton	-5139
▁exec	-5140
▁shares	-5141
▁backend	-5142
▁particularly	-5143
▁administration	-5144
▁Summ	-5145
▁cultural	-5146
▁spiritual	-5147
▁recipients	-5148
▁throughout	-5149
equ	-5150
icated	-5151
▁wants	-5152
▁startup	-5153
▁carrying	-5154
▁priority	-5155
▁providing	-5156
▁appropriate	-5157
▁Kan	-5158
▁Trust	-5159
unction	-5160
▁broken	-5161
ictionary	-5162
▁Previous	-5163
ota	-5164
▁RE	-5165
alog	-5166
▁sale	-5167
▁proxy	-5168
▁grassy	-5169
▁updates	-5170
▁2007	-5171
▁lady	-5172
▁Chief	-5173
▁Preview	-5174
▁failure	-5175
▁organisation	-5176
ni	-5177
ny	-5178
▁Nepal	-5179
reprene	-5180
▁assess	-5181
▁sending	-5182
▁absolute	-5183
▁significant	-5184
look	-5185
▁500	-5186
▁Term	-5187
▁Econom	-5188
▁cultiv	-5189
▁leading	-5190
▁Remember	-5191
▁committed	-5192
TER	-5193
idy	-5194
aman	-5195
▁ahead	-5196
iring	-5197
▁marg	-5198
view	-5199
▁Card	-5200
▁gate	-5201
ellect	-5202
ryption	-5203
▁Remote	-5204
▁Script	-5205
▁loaded	-5206
▁Programme	-5207
▁infrastructure	-5208
mon	-5209
rel	-5210
urb	-5211
▁Kab	-5212
▁Expl	-5213
▁sport	-5214
▁maintain	-5215
▁2019	-5216
▁Prin	-5217
▁Year	-5218
▁glor	-5219
▁hung	-5220
▁prec	-5221
▁bookmarks	-5222
▁contribution	-5223
▁Cir	-5224
anese	-5225
▁login	-5226
▁excess	-5227
ulations	-5228
▁creating	-5229
▁Directory	-5230
▁Note	-5231
▁chast	-5232
▁Always	-5233
▁forget	-5234
▁legisl	-5235
▁mental	-5236
yl	-5237
▁191	-5238
ayana	-5239
▁heed	-5240
▁micro	-5241
▁remem	-5242
▁annual	-5243
▁portion	-5244
▁restart	-5245
▁festival	-5246
abet	-5247
▁cra	-5248
▁surv	-5249
▁grown	-5250
▁meant	-5251
▁motion	-5252
▁rivers	-5253
▁obtained	-5254
▁Lot	-5255
▁Ter	-5256
▁Const	-5257
▁painful	-5258
▁schemes	-5259
▁represents	-5260
▁Preferences	-5261
▁URI	-5262
iform	-5263
itled	-5264
▁laws	-5265
▁sugar	-5266
▁umbre	-5267
▁adjust	-5268
▁corpor	-5269
▁wonder	-5270
▁Company	-5271
▁military	-5272
▁substance	-5273
▁Bah	-5274
▁hind	-5275
though	-5276
▁lying	-5277
▁stars	-5278
▁prosper	-5279
▁facility	-5280
▁teachers	-5281
nel	-5282
athi	-5283
axim	-5284
▁eld	-5285
▁tom	-5286
▁London	-5287
▁England	-5288
▁traditional	-5289
ec	-5290
▁cool	-5291
▁desk	-5292
▁pill	-5293
▁inher	-5294
▁Attach	-5295
▁Update	-5296
▁appeal	-5297
▁border	-5298
▁mainly	-5299
▁Maximum	-5300
▁Specify	-5301
oma	-5302
▁Ask	-5303
angle	-5304
osure	-5305
▁truly	-5306
▁prison	-5307
▁stored	-5308
▁Mun	-5309
▁sick	-5310
▁ocean	-5311
▁escape	-5312
▁offered	-5313
▁Industrial	-5314
othes	-5315
usted	-5316
▁News	-5317
▁buses	-5318
▁label	-5319
▁spent	-5320
▁succeed	-5321
mar	-5322
oga	-5323
▁asc	-5324
leting	-5325
▁alarm	-5326
▁Desktop	-5327
▁learned	-5328
▁Hereafter	-5329
reek	-5330
▁dirt	-5331
▁devices	-5332
▁schools	-5333
▁gathered	-5334
▁released	-5335
▁insurance	-5336
▁Due	-5337
▁Pen	-5338
▁crops	-5339
▁estim	-5340
▁nations	-5341
▁elephant	-5342
▁Nag	-5343
▁2005	-5344
▁Fram	-5345
▁util	-5346
▁praise	-5347
ordinate	-5348
▁kingdom	-5349
▁customer	-5350
▁AS	-5351
▁MS	-5352
▁2006	-5353
▁kinds	-5354
▁Center	-5355
▁properly	-5356
▁recorded	-5357
▁rup	-5358
▁Header	-5359
▁applied	-5360
▁disbelievers	-5361
hab	-5362
▁PM	-5363
ague	-5364
▁Uns	-5365
▁influence	-5366
rain	-5367
acing	-5368
▁apart	-5369
▁deleg	-5370
▁threat	-5371
▁effects	-5372
▁respond	-5373
▁controll	-5374
iy	-5375
ipedia	-5376
▁Couldn	-5377
arp	-5378
pat	-5379
otal	-5380
▁late	-5381
▁Device	-5382
▁switch	-5383
▁independent	-5384
▁2012	-5385
▁Plugin	-5386
▁altern	-5387
▁fellow	-5388
▁happens	-5389
▁printed	-5390
▁railway	-5391
▁Dec	-5392
▁cache	-5393
▁Paradise	-5394
▁Automatic	-5395
oj	-5396
ette	-5397
▁Code	-5398
▁Activ	-5399
imately	-5400
▁Hindus	-5401
standing	-5402
▁palm	-5403
▁cattle	-5404
▁foundation	-5405
wered	-5406
▁Tour	-5407
▁Apply	-5408
▁convey	-5409
▁circumst	-5410
UL	-5411
wa	-5412
lly	-5413
osa	-5414
▁CON	-5415
▁pil	-5416
▁chemical	-5417
mer	-5418
orial	-5419
▁Hand	-5420
▁Green	-5421
▁famil	-5422
▁split	-5423
▁cancel	-5424
▁likely	-5425
▁opinion	-5426
▁operating	-5427
▁requested	-5428
▁communication	-5429
OM	-5430
oned	-5431
▁hop	-5432
▁tea	-5433
ector	-5434
▁remark	-5435
▁shared	-5436
▁starting	-5437
eal	-5438
▁rid	-5439
▁butt	-5440
ishing	-5441
▁Format	-5442
▁Minimum	-5443
verty	-5444
▁lamp	-5445
onents	-5446
▁disch	-5447
▁gland	-5448
▁stuff	-5449
▁Kerala	-5450
ilateral	-5451
▁forever	-5452
▁articles	-5453
▁included	-5454
▁struggle	-5455
▁challenge	-5456
uzz	-5457
book	-5458
▁lat	-5459
hedul	-5460
▁Short	-5461
▁withd	-5462
anation	-5463
▁Mother	-5464
▁Toggle	-5465
▁narrow	-5466
▁reasons	-5467
▁minister	-5468
▁infection	-5469
▁presented	-5470
odh	-5471
tes	-5472
▁Mighty	-5473
▁signal	-5474
▁Chandra	-5475
alt	-5476
▁Word	-5477
▁sons	-5478
▁ratio	-5479
oration	-5480
tenance	-5481
▁highly	-5482
▁photos	-5483
▁Authent	-5484
▁poverty	-5485
▁modified	-5486
▁Eff	-5487
▁Arabic	-5488
▁everyone	-5489
▁partition	-5490
wor	-5491
▁Ka	-5492
anta	-5493
atma	-5494
▁Miss	-5495
▁imper	-5496
▁phase	-5497
▁candid	-5498
▁choice	-5499
▁decker	-5500
▁quickly	-5501
▁studies	-5502
asi	-5503
iry	-5504
▁Sen	-5505
▁Unto	-5506
ancing	-5507
▁arrest	-5508
▁unjust	-5509
▁besides	-5510
▁plugins	-5511
▁sequence	-5512
▁algorithm	-5513
▁temperature	-5514
▁Lat	-5515
▁grace	-5516
▁weather	-5517
urrection	-5518
▁accident	-5519
EE	-5520
ogen	-5521
▁Inc	-5522
▁cru	-5523
▁tend	-5524
▁Event	-5525
▁drugs	-5526
▁plays	-5527
izer	-5528
▁mic	-5529
arian	-5530
▁Buddh	-5531
▁taste	-5532
▁myself	-5533
▁Finance	-5534
▁feeding	-5535
IF	-5536
▁Panch	-5537
▁cloth	-5538
▁reduce	-5539
▁starts	-5540
▁consists	-5541
▁Junk	-5542
▁prem	-5543
▁Besides	-5544
▁healthy	-5545
▁updated	-5546
▁protocol	-5547
▁Alm	-5548
achal	-5549
rehens	-5550
▁Security	-5551
ney	-5552
rees	-5553
▁trial	-5554
▁urban	-5555
ignment	-5556
▁joined	-5557
possible	-5558
▁Binding	-5559
▁methods	-5560
▁Environment	-5561
▁kil	-5562
▁goal	-5563
▁fluid	-5564
▁Rename	-5565
▁honour	-5566
▁registered	-5567
xic	-5568
▁Az	-5569
▁Mor	-5570
▁agreed	-5571
▁perfect	-5572
▁unexpected	-5573
rot	-5574
sych	-5575
▁Ban	-5576
▁Gov	-5577
▁sor	-5578
▁eggs	-5579
▁habit	-5580
▁Net	-5581
ataka	-5582
osphere	-5583
▁Adjust	-5584
▁Engine	-5585
▁sounds	-5586
▁covering	-5587
▁Wikipedia	-5588
▁kid	-5589
oting	-5590
antic	-5591
▁Geor	-5592
▁radio	-5593
▁stated	-5594
▁deliver	-5595
▁factors	-5596
▁Contacts	-5597
▁philosophy	-5598
MB	-5599
nam	-5600
reak	-5601
alted	-5602
inated	-5603
▁implementation	-5604
atar	-5605
umer	-5606
▁emph	-5607
▁jinn	-5608
▁appears	-5609
▁distrib	-5610
▁reality	-5611
oti	-5612
▁03	-5613
▁syn	-5614
▁east	-5615
▁sweet	-5616
▁families	-5617
▁vertical	-5618
▁DE	-5619
▁DAY	-5620
▁Sol	-5621
anned	-5622
▁lapt	-5623
▁Women	-5624
▁thank	-5625
▁encrypt	-5626
▁category	-5627
map	-5628
▁Woe	-5629
▁Pers	-5630
▁hall	-5631
▁lose	-5632
▁dance	-5633
▁mostly	-5634
▁addresses	-5635
yan	-5636
▁Has	-5637
▁Four	-5638
▁Tele	-5639
▁lots	-5640
▁fonts	-5641
▁Employ	-5642
▁mobile	-5643
upported	-5644
▁Position	-5645
▁technical	-5646
▁Vers	-5647
▁rent	-5648
▁Ganga	-5649
▁turns	-5650
▁standards	-5651
oli	-5652
raid	-5653
▁Zoom	-5654
▁rect	-5655
▁wheel	-5656
▁battle	-5657
▁random	-5658
▁suitable	-5659
▁05	-5660
▁Bur	-5661
▁rub	-5662
▁ves	-5663
▁Cell	-5664
▁Place	-5665
▁admon	-5666
▁bones	-5667
▁minute	-5668
fl	-5669
▁Mil	-5670
▁desc	-5671
▁junk	-5672
▁slot	-5673
ensity	-5674
idents	-5675
▁dwell	-5676
ception	-5677
▁Library	-5678
▁treated	-5679
▁intellect	-5680
▁jack	-5681
▁onto	-5682
▁Chair	-5683
▁holds	-5684
▁damage	-5685
▁safety	-5686
▁disbelieve	-5687
▁07	-5688
izes	-5689
like	-5690
eding	-5691
▁hero	-5692
▁idol	-5693
▁Mahab	-5694
▁spr	-5695
▁tow	-5696
erves	-5697
rical	-5698
▁interp	-5699
▁module	-5700
onst	-5701
urch	-5702
ername	-5703
▁anyway	-5704
▁refuge	-5705
alle	-5706
ilty	-5707
▁Dut	-5708
▁Does	-5709
▁mechanism	-5710
▁lake	-5711
▁west	-5712
▁deposit	-5713
▁Highlight	-5714
▁Description	-5715
▁organization	-5716
illa	-5717
▁pig	-5718
▁Cred	-5719
▁Prim	-5720
▁flat	-5721
icient	-5722
▁Benef	-5723
▁tools	-5724
▁screens	-5725
och	-5726
thy	-5727
▁Ahmed	-5728
▁steel	-5729
▁driver	-5730
▁Officer	-5731
▁solution	-5732
rav	-5733
ounce	-5734
▁gram	-5735
▁Empty	-5736
▁raise	-5737
▁Contin	-5738
▁occurs	-5739
▁showed	-5740
idential	-5741
▁banking	-5742
▁planning	-5743
▁watching	-5744
▁Fre	-5745
▁org	-5746
eties	-5747
thern	-5748
▁Char	-5749
▁Hour	-5750
▁roll	-5751
▁Earth	-5752
▁Human	-5753
▁cursor	-5754
▁courage	-5755
▁cooperation	-5756
▁Draw	-5757
▁acid	-5758
▁alph	-5759
▁girls	-5760
amental	-5761
▁remind	-5762
▁charged	-5763
▁changing	-5764
▁introduced	-5765
▁SS	-5766
▁TV	-5767
▁Diff	-5768
▁Rules	-5769
▁trave	-5770
▁Common	-5771
▁proved	-5772
▁vehicle	-5773
▁extended	-5774
▁customers	-5775
▁circumstances	-5776
hern	-5777
▁opp	-5778
ivered	-5779
▁advert	-5780
▁chance	-5781
▁pleasure	-5782
▁generations	-5783
oul	-5784
▁Das	-5785
▁ISO	-5786
uction	-5787
▁Point	-5788
▁pregn	-5789
▁printing	-5790
▁Food	-5791
▁rank	-5792
inners	-5793
▁Bihar	-5794
▁Toolbar	-5795
▁finance	-5796
▁ourselves	-5797
▁Noah	-5798
▁rice	-5799
▁zone	-5800
▁zoom	-5801
▁Kumar	-5802
version	-5803
▁engaged	-5804
▁relevant	-5805
▁implemented	-5806
OC	-5807
▁abroad	-5808
▁worlds	-5809
▁chain	-5810
▁tower	-5811
▁client	-5812
▁returns	-5813
▁crossing	-5814
▁abn	-5815
▁pup	-5816
▁plate	-5817
▁prose	-5818
▁thick	-5819
▁pieces	-5820
▁Support	-5821
AV	-5822
▁75	-5823
▁EVE	-5824
▁cho	-5825
▁hyp	-5826
ensions	-5827
▁critic	-5828
▁ability	-5829
▁educational	-5830
▁keeping	-5831
▁reported	-5832
▁surrounded	-5833
▁Ja	-5834
▁Mag	-5835
▁tal	-5836
▁Phone	-5837
portion	-5838
ena	-5839
▁Dou	-5840
etary	-5841
▁Priv	-5842
▁Title	-5843
▁handle	-5844
▁sexual	-5845
▁temples	-5846
ALL	-5847
▁CS	-5848
▁Vir	-5849
▁stead	-5850
▁belief	-5851
▁errors	-5852
▁guilty	-5853
▁summary	-5854
▁academic	-5855
▁retrieve	-5856
▁Ir	-5857
hand	-5858
▁fly	-5859
icked	-5860
ifice	-5861
▁Among	-5862
▁proof	-5863
▁college	-5864
▁Director	-5865
▁truthful	-5866
▁Connection	-5867
▁television	-5868
▁Sort	-5869
▁teeth	-5870
▁Changes	-5871
▁answered	-5872
▁devotion	-5873
▁correctly	-5874
▁developing	-5875
▁defe	-5876
▁ende	-5877
▁Force	-5878
▁Since	-5879
▁programs	-5880
▁advantage	-5881
AND	-5882
▁32	-5883
uing	-5884
▁Computer	-5885
▁Authority	-5886
▁Automatically	-5887
▁AP	-5888
▁Pop	-5889
ankar	-5890
rible	-5891
▁Afgh	-5892
elines	-5893
▁Satan	-5894
▁spend	-5895
▁NATION	-5896
▁atomic	-5897
▁breath	-5898
▁Replace	-5899
▁highlight	-5900
▁ca	-5901
▁fix	-5902
▁Phys	-5903
▁roof	-5904
iverse	-5905
ounced	-5906
▁extent	-5907
▁writer	-5908
hem	-5909
uplic	-5910
▁Forg	-5911
▁pretty	-5912
▁forgiveness	-5913
▁Taj	-5914
▁Bose	-5915
▁HTML	-5916
ensive	-5917
▁Mahatma	-5918
▁Administ	-5919
za	-5920
▁bug	-5921
▁fit	-5922
▁vit	-5923
clude	-5924
▁Exam	-5925
estion	-5926
▁costs	-5927
▁constant	-5928
▁identify	-5929
IM	-5930
▁El	-5931
celer	-5932
▁Qual	-5933
▁Stre	-5934
▁Members	-5935
▁suffering	-5936
ses	-5937
▁Py	-5938
▁gain	-5939
▁deriv	-5940
▁tongue	-5941
▁painted	-5942
▁records	-5943
▁student	-5944
▁determined	-5945
▁Configuration	-5946
jan	-5947
▁mig	-5948
▁Swami	-5949
clusion	-5950
▁Accounts	-5951
▁maintained	-5952
ham	-5953
aker	-5954
oked	-5955
▁Ali	-5956
▁ing	-5957
cular	-5958
erate	-5959
inals	-5960
▁Soci	-5961
▁char	-5962
▁clay	-5963
▁bount	-5964
▁Tagore	-5965
▁endeav	-5966
▁Monitor	-5967
▁partner	-5968
▁reduced	-5969
aign	-5970
iced	-5971
▁Equ	-5972
▁pref	-5973
▁flags	-5974
▁solar	-5975
▁Follow	-5976
▁seized	-5977
▁Loading	-5978
▁Mission	-5979
▁comfort	-5980
▁headers	-5981
▁obvious	-5982
hu	-5983
▁il	-5984
vest	-5985
▁Icon	-5986
▁vast	-5987
▁apost	-5988
▁cycle	-5989
oso	-5990
▁Bra	-5991
▁furn	-5992
aviour	-5993
▁Later	-5994
▁Reset	-5995
▁decide	-5996
▁Bengali	-5997
▁friendly	-5998
▁umbrella	-5999
▁Australia	-6000
▁36	-6001
▁ring	-6002
▁buttons	-6003
▁consult	-6004
▁refused	-6005
▁pictures	-6006
▁resolution	-6007
dess	-6008
dule	-6009
aning	-6010
▁Writ	-6011
▁sympt	-6012
▁shaped	-6013
roc	-6014
▁atm	-6015
isher	-6016
▁incor	-6017
▁French	-6018
ammation	-6019
▁consequ	-6020
▁excellent	-6021
▁190	-6022
▁ult	-6023
▁Trash	-6024
▁prime	-6025
▁Legisl	-6026
▁seeing	-6027
▁formation	-6028
mp	-6029
lin	-6030
▁susp	-6031
▁divide	-6032
▁Prophet	-6033
▁thoughts	-6034
▁04	-6035
▁COM	-6036
▁Dig	-6037
▁quiet	-6038
▁utter	-6039
▁seemed	-6040
▁suffer	-6041
▁examples	-6042
▁Karnataka	-6043
▁acts	-6044
▁finger	-6045
▁convert	-6046
▁expenses	-6047
lor	-6048
▁fib	-6049
▁lif	-6050
▁commod	-6051
▁wisdom	-6052
ila	-6053
▁ha	-6054
▁None	-6055
▁bact	-6056
▁nice	-6057
▁Field	-6058
▁agent	-6059
▁games	-6060
▁impact	-6061
▁struct	-6062
▁article	-6063
▁FOR	-6064
▁Tel	-6065
▁sen	-6066
▁Best	-6067
▁Governor	-6068
▁Vertical	-6069
▁achieved	-6070
▁duration	-6071
▁yourselves	-6072
▁registration	-6073
gen	-6074
key	-6075
▁ru	-6076
▁poem	-6077
▁Track	-6078
orthern	-6079
▁afraid	-6080
abilities	-6081
nu	-6082
▁u	-6083
oning	-6084
otton	-6085
▁boys	-6086
▁Asian	-6087
▁Rajya	-6088
▁Commer	-6089
▁vessel	-6090
▁wishes	-6091
▁independence	-6092
US	-6093
son	-6094
▁Cut	-6095
orter	-6096
▁draft	-6097
▁beings	-6098
▁exceed	-6099
▁sister	-6100
▁appeared	-6101
plications	-6102
▁delivered	-6103
▁submitted	-6104
▁Additional	-6105
aze	-6106
king	-6107
▁Mug	-6108
▁Poly	-6109
icious	-6110
▁fault	-6111
▁relief	-6112
▁unless	-6113
▁committee	-6114
aram	-6115
▁Aff	-6116
▁Dal	-6117
▁Action	-6118
▁nearly	-6119
▁forgive	-6120
▁policies	-6121
▁suddenly	-6122
▁Authentication	-6123
▁90	-6124
▁fed	-6125
▁ran	-6126
ertain	-6127
ousing	-6128
▁sheet	-6129
▁exercise	-6130
OP	-6131
▁Sind	-6132
▁fever	-6133
▁tooth	-6134
▁asking	-6135
▁debugg	-6136
▁laptop	-6137
▁amongst	-6138
▁equipment	-6139
▁continuous	-6140
▁photograph	-6141
ris	-6142
▁Wait	-6143
▁heads	-6144
▁rates	-6145
clusive	-6146
▁notify	-6147
▁Assembly	-6148
▁multiply	-6149
▁partnership	-6150
pet	-6151
aria	-6152
▁Sin	-6153
▁solve	-6154
▁confirm	-6155
▁sectors	-6156
▁quantity	-6157
▁innovation	-6158
▁parameters	-6159
IME	-6160
▁Cam	-6161
▁aid	-6162
▁legs	-6163
▁Reply	-6164
▁nuclear	-6165
▁composed	-6166
▁conducted	-6167
how	-6168
aced	-6169
amic	-6170
▁ram	-6171
▁Large	-6172
▁Initial	-6173
▁tomorrow	-6174
lad	-6175
roph	-6176
upta	-6177
▁Ans	-6178
▁Pet	-6179
▁irr	-6180
▁Buddha	-6181
▁clouds	-6182
▁Capital	-6183
▁welcome	-6184
▁declared	-6185
zy	-6186
▁sav	-6187
▁Nath	-6188
aneous	-6189
▁Leave	-6190
▁guess	-6191
▁earned	-6192
▁affairs	-6193
▁intellig	-6194
▁literary	-6195
▁compassion	-6196
aked	-6197
▁doers	-6198
▁simply	-6199
▁promote	-6200
▁designed	-6201
▁Ib	-6202
▁Cur	-6203
▁yes	-6204
soever	-6205
▁Total	-6206
▁bodies	-6207
▁sender	-6208
▁depends	-6209
▁guarant	-6210
▁detailed	-6211
▁telephone	-6212
▁provisions	-6213
da	-6214
▁Bet	-6215
▁plot	-6216
▁Afghan	-6217
▁flight	-6218
▁theory	-6219
▁exactly	-6220
▁regions	-6221
▁launched	-6222
▁household	-6223
▁constitution	-6224
▁IC	-6225
apur	-6226
anish	-6227
itors	-6228
▁unity	-6229
▁served	-6230
▁revenue	-6231
▁Software	-6232
▁extremely	-6233
▁participants	-6234
▁Jaw	-6235
▁Mot	-6236
▁amb	-6237
▁abund	-6238
▁Regist	-6239
▁cabinets	-6240
▁objectives	-6241
▁chastisement	-6242
ald	-6243
teen	-6244
▁Lal	-6245
▁fee	-6246
▁Rate	-6247
▁Games	-6248
▁Never	-6249
▁Associ	-6250
▁budget	-6251
▁slight	-6252
▁spring	-6253
▁warner	-6254
▁corresp	-6255
▁purchase	-6256
▁transaction	-6257
▁Oh	-6258
down	-6259
ouch	-6260
▁Var	-6261
house	-6262
▁congrat	-6263
▁discipl	-6264
▁Secretary	-6265
▁translation	-6266
IP	-6267
aven	-6268
asant	-6269
▁ends	-6270
▁materials	-6271
▁transactions	-6272
co	-6273
▁Jo	-6274
▁enemy	-6275
▁skill	-6276
UT	-6277
ien	-6278
sha	-6279
ruit	-6280
▁hom	-6281
▁hur	-6282
lfare	-6283
uries	-6284
▁Sund	-6285
▁fold	-6286
▁tear	-6287
▁wear	-6288
▁arrow	-6289
▁moral	-6290
▁Prompt	-6291
▁cricket	-6292
▁welfare	-6293
▁Mahabhar	-6294
▁transgress	-6295
▁Fe	-6296
craft	-6297
▁fuel	-6298
▁shel	-6299
▁mixed	-6300
▁Certain	-6301
▁finished	-6302
▁fullscreen	-6303
▁Spl	-6304
▁Java	-6305
▁suit	-6306
▁Block	-6307
▁facts	-6308
▁owner	-6309
▁shell	-6310
attered	-6311
▁survey	-6312
IG	-6313
ille	-6314
▁mel	-6315
▁unp	-6316
▁shut	-6317
▁Invest	-6318
▁majority	-6319
▁patience	-6320
▁messenger	-6321
▁CP	-6322
▁Es	-6323
▁Eas	-6324
▁2001	-6325
▁Long	-6326
▁Memo	-6327
▁ended	-6328
▁loans	-6329
▁Column	-6330
▁muscle	-6331
▁Knowing	-6332
seen	-6333
▁runs	-6334
▁Record	-6335
▁actual	-6336
▁behold	-6337
▁stones	-6338
▁distinct	-6339
hai	-6340
uct	-6341
▁06	-6342
▁Urdu	-6343
▁Being	-6344
▁alive	-6345
heduled	-6346
▁Credit	-6347
▁defence	-6348
▁desired	-6349
▁whoever	-6350
▁Signature	-6351
▁happiness	-6352
▁remaining	-6353
last	-6354
▁meat	-6355
▁Similar	-6356
▁grazing	-6357
▁argument	-6358
dd	-6359
arya	-6360
allel	-6361
▁inner	-6362
▁owners	-6363
▁facilit	-6364
▁drinking	-6365
▁Kam	-6366
claim	-6367
▁jobs	-6368
▁tail	-6369
▁popup	-6370
▁solid	-6371
▁billion	-6372
▁sensitive	-6373
umin	-6374
azing	-6375
▁race	-6376
▁Media	-6377
▁assum	-6378
▁caste	-6379
▁assigned	-6380
▁sanction	-6381
▁somebody	-6382
▁categories	-6383
▁confidence	-6384
▁entreprene	-6385
met	-6386
name	-6387
▁Mas	-6388
inity	-6389
▁Prep	-6390
▁bull	-6391
▁coal	-6392
erning	-6393
▁Rural	-6394
▁trend	-6395
▁expressed	-6396
▁notifications	-6397
wan	-6398
olic	-6399
▁Dav	-6400
▁fle	-6401
ourse	-6402
▁pink	-6403
▁Civil	-6404
▁Chrome	-6405
▁cooking	-6406
▁Personal	-6407
▁identity	-6408
▁requirements	-6409
▁45	-6410
uses	-6411
wood	-6412
▁Que	-6413
▁Str	-6414
▁Tom	-6415
▁Sard	-6416
▁absor	-6417
▁sacred	-6418
▁Session	-6419
▁arrived	-6420
▁analysis	-6421
▁inspired	-6422
▁Thou	-6423
▁griev	-6424
▁vital	-6425
▁wound	-6426
▁burden	-6427
▁compared	-6428
▁pollution	-6429
▁SA	-6430
agon	-6431
▁coc	-6432
ideos	-6433
fortun	-6434
▁Mukher	-6435
▁teaching	-6436
▁objective	-6437
garh	-6438
▁arms	-6439
▁span	-6440
▁Award	-6441
▁genus	-6442
▁Master	-6443
▁latter	-6444
▁strike	-6445
▁subjects	-6446
▁revelations	-6447
▁Cy	-6448
▁Lib	-6449
▁ble	-6450
stood	-6451
▁drow	-6452
▁Panel	-6453
▁nerve	-6454
▁Amount	-6455
▁perched	-6456
▁privile	-6457
▁servant	-6458
▁Ve	-6459
▁Ign	-6460
▁Kir	-6461
▁eth	-6462
▁via	-6463
▁Hard	-6464
▁axis	-6465
▁Again	-6466
ologies	-6467
▁Cancel	-6468
▁accomp	-6469
▁resist	-6470
▁Charact	-6471
▁Limited	-6472
▁council	-6473
▁locally	-6474
▁Japanese	-6475
▁restrict	-6476
ymph	-6477
▁Son	-6478
▁nav	-6479
asero	-6480
▁Sikh	-6481
▁salt	-6482
▁Temple	-6483
▁compar	-6484
ams	-6485
ded	-6486
▁Dar	-6487
▁sev	-6488
▁tur	-6489
▁Lake	-6490
▁grew	-6491
▁Space	-6492
▁Street	-6493
▁territ	-6494
▁Through	-6495
▁brothers	-6496
▁integral	-6497
▁terrible	-6498
▁permanent	-6499
▁electricity	-6500
▁professional	-6501
▁AR	-6502
▁SP	-6503
roat	-6504
erior	-6505
▁Fact	-6506
▁Integ	-6507
▁Shiva	-6508
▁fertil	-6509
▁disable	-6510
▁fathers	-6511
▁pleased	-6512
▁challenges	-6513
▁identified	-6514
▁UT	-6515
▁Lock	-6516
▁Ident	-6517
▁comment	-6518
▁equation	-6519
▁maintenance	-6520
uv	-6521
hot	-6522
▁mur	-6523
▁raw	-6524
▁glory	-6525
▁trains	-6526
OT	-6527
NAME	-6528
uity	-6529
▁agg	-6530
▁Land	-6531
▁Assam	-6532
▁Graph	-6533
▁chrom	-6534
▁doors	-6535
▁maybe	-6536
▁paras	-6537
▁Multip	-6538
▁dispute	-6539
▁distingu	-6540
▁ordinary	-6541
▁efficient	-6542
rous	-6543
▁Maj	-6544
ocate	-6545
▁flock	-6546
▁lands	-6547
▁fourth	-6548
▁spoken	-6549
▁extract	-6550
▁restore	-6551
▁advanced	-6552
▁Mukherjee	-6553
▁encourage	-6554
▁historical	-6555
lo	-6556
aud	-6557
ushed	-6558
uster	-6559
▁Mary	-6560
▁cord	-6561
▁clubs	-6562
▁favor	-6563
▁leads	-6564
▁Global	-6565
▁clause	-6566
▁contem	-6567
▁modify	-6568
▁climate	-6569
▁engineering	-6570
▁cris	-6571
▁tile	-6572
▁fifty	-6573
▁marks	-6574
▁sales	-6575
▁mission	-6576
▁recovery	-6577
▁concerning	-6578
▁derivative	-6579
▁Resurrection	-6580
alu	-6581
▁alt	-6582
▁env	-6583
ipher	-6584
▁Drag	-6585
▁Resp	-6586
rupted	-6587
urally	-6588
▁Found	-6589
▁aspects	-6590
▁delight	-6591
▁scholar	-6592
▁attitude	-6593
▁allowance	-6594
▁districts	-6595
EL	-6596
osc	-6597
▁Fac	-6598
hetic	-6599
▁Japan	-6600
▁Paste	-6601
▁orders	-6602
▁Primary	-6603
▁marketing	-6604
▁sacrifice	-6605
iri	-6606
▁Undo	-6607
▁cake	-6608
▁glad	-6609
▁thor	-6610
▁tick	-6611
▁flood	-6612
▁Normal	-6613
gin	-6614
ima	-6615
ball	-6616
unal	-6617
▁Had	-6618
▁Jag	-6619
▁mah	-6620
aints	-6621
▁Babu	-6622
▁lect	-6623
▁pond	-6624
ailing	-6625
▁rocks	-6626
▁Andhra	-6627
▁Output	-6628
▁agency	-6629
▁facing	-6630
▁poison	-6631
▁turning	-6632
▁Nan	-6633
agers	-6634
iders	-6635
inery	-6636
▁2009	-6637
▁Turn	-6638
crease	-6639
▁Father	-6640
▁Foreign	-6641
▁finally	-6642
▁Independ	-6643
▁arguments	-6644
▁attribute	-6645
bb	-6646
▁ho	-6647
▁Disk	-6648
▁Farm	-6649
▁Self	-6650
▁oath	-6651
▁Frame	-6652
▁bikes	-6653
▁brush	-6654
▁depth	-6655
▁toward	-6656
▁transp	-6657
▁Version	-6658
▁blessed	-6659
▁drawing	-6660
▁Interest	-6661
▁sad	-6662
▁vac	-6663
ystem	-6664
▁pert	-6665
▁topic	-6666
▁merely	-6667
▁clothes	-6668
▁colored	-6669
▁principles	-6670
DF	-6671
mod	-6672
▁bh	-6673
▁Job	-6674
icode	-6675
olved	-6676
▁Mont	-6677
▁wage	-6678
▁Greek	-6679
▁Height	-6680
▁allows	-6681
▁expert	-6682
entially	-6683
▁Related	-6684
▁Sometimes	-6685
▁computers	-6686
▁principle	-6687
▁Horizontal	-6688
85	-6689
EM	-6690
jo	-6691
ema	-6692
▁Chen	-6693
▁Paper	-6694
▁coast	-6695
▁dress	-6696
▁Excell	-6697
▁brings	-6698
▁Insurance	-6699
▁AN	-6700
▁IM	-6701
▁Tham	-6702
▁holy	-6703
ESSAGE	-6704
▁Forest	-6705
▁checking	-6706
▁recompense	-6707
anya	-6708
▁Quit	-6709
▁Step	-6710
▁smoke	-6711
▁buffer	-6712
▁career	-6713
▁governance	-6714
atel	-6715
ffee	-6716
pent	-6717
▁Rob	-6718
force	-6719
▁prote	-6720
▁Though	-6721
▁mutual	-6722
▁becoming	-6723
▁referred	-6724
▁correspond	-6725
ua	-6726
▁ped	-6727
▁palace	-6728
▁proportion	-6729
zone	-6730
ishes	-6731
▁Area	-6732
▁Pran	-6733
▁hills	-6734
▁tender	-6735
ificates	-6736
▁atmosphere	-6737
ino	-6738
min	-6739
▁Ep	-6740
▁hit	-6741
▁que	-6742
▁wrap	-6743
▁Saving	-6744
▁nearby	-6745
▁campaign	-6746
▁opposite	-6747
▁behaviour	-6748
▁Governorate	-6749
000	-6750
AME	-6751
▁Lt	-6752
uris	-6753
▁Sud	-6754
▁Dest	-6755
▁laugh	-6756
▁nodes	-6757
▁Effect	-6758
▁MESSAGE	-6759
▁accused	-6760
▁Standard	-6761
▁Searching	-6762
▁preferred	-6763
▁thousands	-6764
▁impossible	-6765
rian	-6766
▁Imp	-6767
agram	-6768
entle	-6769
orted	-6770
isible	-6771
▁simpl	-6772
▁formal	-6773
▁inform	-6774
▁sorrow	-6775
ications	-6776
▁compens	-6777
▁concent	-6778
▁imported	-6779
▁warnings	-6780
▁determine	-6781
▁practices	-6782
▁terrorism	-6783
▁appearance	-6784
▁occurrence	-6785
▁70	-6786
▁Sil	-6787
▁cancer	-6788
▁authorities	-6789
▁Han	-6790
▁beat	-6791
ashion	-6792
▁island	-6793
▁journal	-6794
▁encoding	-6795
▁combination	-6796
▁र	-6797
▁duck	-6798
▁gift	-6799
iments	-6800
▁grain	-6801
▁Police	-6802
▁scroll	-6803
▁thereof	-6804
▁consideration	-6805
ga	-6806
▁Tal	-6807
▁2011	-6808
▁Five	-6809
bedkar	-6810
▁approx	-6811
▁centres	-6812
▁mailing	-6813
▁Conference	-6814
▁transmission	-6815
▁Va	-6816
▁COL	-6817
▁ung	-6818
atics	-6819
▁Laksh	-6820
▁swear	-6821
▁Friend	-6822
▁defend	-6823
▁Ambedkar	-6824
▁relation	-6825
hus	-6826
iya	-6827
▁wa	-6828
life	-6829
▁Amb	-6830
▁Dom	-6831
▁mix	-6832
erent	-6833
▁Night	-6834
▁lined	-6835
▁devote	-6836
▁commonly	-6837
▁proposal	-6838
▁percentage	-6839
▁AW	-6840
▁Sea	-6841
▁fab	-6842
▁2010	-6843
▁Appe	-6844
▁Gold	-6845
▁Hence	-6846
▁Trade	-6847
▁icons	-6848
▁union	-6849
▁duties	-6850
▁Islands	-6851
▁prescribed	-6852
▁understood	-6853
▁vegetables	-6854
DU	-6855
erus	-6856
▁189	-6857
▁Shiv	-6858
annels	-6859
▁lists	-6860
pective	-6861
▁winter	-6862
▁assured	-6863
▁cancell	-6864
▁trouble	-6865
▁symptoms	-6866
▁administrator	-6867
DR	-6868
ste	-6869
appe	-6870
▁Cat	-6871
worthy	-6872
▁Input	-6873
▁Tasks	-6874
▁album	-6875
▁maxim	-6876
▁Checking	-6877
▁darkness	-6878
arh	-6879
▁Hon	-6880
▁Base	-6881
▁jail	-6882
▁Solar	-6883
▁Thank	-6884
▁brief	-6885
▁repos	-6886
▁begins	-6887
paration	-6888
▁wherein	-6889
▁Ek	-6890
▁Jh	-6891
otes	-6892
▁Army	-6893
▁mock	-6894
▁tube	-6895
▁Nagar	-6896
▁cried	-6897
▁prove	-6898
▁experi	-6899
▁leaving	-6900
▁western	-6901
roduction	-6902
▁conference	-6903
▁difficulty	-6904
▁discussion	-6905
gypt	-6906
othe	-6907
race	-6908
▁Bul	-6909
▁Hyder	-6910
▁abode	-6911
▁audit	-6912
▁friendship	-6913
▁universities	-6914
asw	-6915
alty	-6916
rity	-6917
essor	-6918
▁Lank	-6919
CO	-6920
gent	-6921
▁Marg	-6922
▁mine	-6923
▁Judge	-6924
▁disob	-6925
▁seeds	-6926
▁circle	-6927
▁prompt	-6928
▁Package	-6929
▁willing	-6930
▁Sn	-6931
▁Kor	-6932
iliar	-6933
▁Kore	-6934
▁dish	-6935
▁kids	-6936
▁sets	-6937
ighter	-6938
▁poets	-6939
▁psych	-6940
▁repro	-6941
▁smooth	-6942
▁Medical	-6943
▁acceler	-6944
▁Economic	-6945
▁Keyboard	-6946
▁vehicles	-6947
wh	-6948
wal	-6949
owing	-6950
▁Chat	-6951
▁Unit	-6952
father	-6953
▁Mahal	-6954
▁overt	-6955
▁Garden	-6956
▁blocks	-6957
▁reserve	-6958
▁birthday	-6959
▁canceled	-6960
▁decorated	-6961
urved	-6962
▁Jawah	-6963
▁twice	-6964
▁Nature	-6965
▁caught	-6966
▁reports	-6967
▁restaur	-6968
▁Gujarati	-6969
▁decisions	-6970
ube	-6971
ront	-6972
▁asp	-6973
▁spect	-6974
▁Island	-6975
▁Period	-6976
▁artist	-6977
▁incomp	-6978
▁layers	-6979
▁CC	-6980
▁exhib	-6981
▁passengers	-6982
▁cav	-6983
▁obl	-6984
asket	-6985
inite	-6986
▁CALL	-6987
▁rows	-6988
▁Birth	-6989
▁Egypt	-6990
▁Param	-6991
▁membr	-6992
▁react	-6993
▁Basava	-6994
▁Memory	-6995
▁contro	-6996
▁imagine	-6997
▁inherit	-6998
▁complaint	-6999
▁followers	-7000
ads	-7001
▁Ta	-7002
oking	-7003
▁forb	-7004
▁hint	-7005
▁Patel	-7006
▁deals	-7007
▁minor	-7008
▁merciful	-7009
▁interests	-7010
▁Messengers	-7011
▁completion	-7012
▁dictionary	-7013
▁Agriculture	-7014
▁Dri	-7015
▁Gan	-7016
▁zoo	-7017
hance	-7018
▁spoke	-7019
▁manage	-7020
▁valley	-7021
izations	-7022
▁victory	-7023
▁diamonds	-7024
▁normally	-7025
▁क	-7026
uta	-7027
▁48	-7028
▁Star	-7029
▁Major	-7030
▁indig	-7031
▁Active	-7032
▁Reload	-7033
▁Target	-7034
▁disput	-7035
▁Society	-7036
▁Univers	-7037
▁dealing	-7038
▁explain	-7039
▁celebrated	-7040
UG	-7041
▁33	-7042
ruck	-7043
orous	-7044
▁Cost	-7045
▁mira	-7046
▁aband	-7047
▁wings	-7048
▁Russia	-7049
▁crisis	-7050
▁wicked	-7051
▁deposits	-7052
▁Ahmedabad	-7053
▁Forgiving	-7054
▁bilateral	-7055
▁Explanation	-7056
▁ju	-7057
▁ww	-7058
▁Bug	-7059
▁Jay	-7060
▁reck	-7061
▁wire	-7062
▁scope	-7063
▁behalf	-7064
▁deeply	-7065
▁latest	-7066
▁repent	-7067
▁trading	-7068
▁NATIONAL	-7069
▁approved	-7070
▁politics	-7071
▁typ	-7072
▁www	-7073
bered	-7074
▁Host	-7075
▁Mach	-7076
▁Sita	-7077
▁Zone	-7078
▁dock	-7079
▁weap	-7080
ansion	-7081
▁Chait	-7082
▁hyper	-7083
▁Rotate	-7084
▁covers	-7085
▁stayed	-7086
▁Kingdom	-7087
▁elected	-7088
▁shortcut	-7089
▁Christian	-7090
▁messengers	-7091
ibly	-7092
▁Soon	-7093
▁abide	-7094
▁roads	-7095
ificial	-7096
▁Sector	-7097
▁Vishnu	-7098
▁Folders	-7099
▁Perhaps	-7100
▁capable	-7101
▁decimal	-7102
▁settlement	-7103
rum	-7104
▁Tw	-7105
iler	-7106
thon	-7107
▁Nok	-7108
▁Pad	-7109
▁Saty	-7110
rative	-7111
▁Sound	-7112
▁adequ	-7113
▁dated	-7114
▁diagn	-7115
▁cotton	-7116
▁benches	-7117
▁persist	-7118
▁settled	-7119
▁soldiers	-7120
▁enclosure	-7121
rh	-7122
ria	-7123
rid	-7124
▁Ary	-7125
▁voc	-7126
crete	-7127
▁Mang	-7128
▁stom	-7129
▁thin	-7130
coming	-7131
▁noted	-7132
▁rebell	-7133
iversary	-7134
▁recover	-7135
▁sustain	-7136
van	-7137
▁RA	-7138
fast	-7139
▁Mim	-7140
▁hun	-7141
▁Pick	-7142
▁Rain	-7143
▁swim	-7144
endars	-7145
▁asset	-7146
▁Annual	-7147
▁Transl	-7148
▁adding	-7149
▁Warning	-7150
▁definite	-7151
▁entirely	-7152
▁whenever	-7153
▁secondary	-7154
▁conversation	-7155
ught	-7156
▁camel	-7157
endment	-7158
▁afford	-7159
▁bigger	-7160
▁videos	-7161
▁absence	-7162
▁repeated	-7163
▁individuals	-7164
rove	-7165
▁Lam	-7166
▁Rah	-7167
▁ride	-7168
▁bread	-7169
▁compr	-7170
▁prior	-7171
▁couldn	-7172
▁mailbox	-7173
▁happening	-7174
▁presentation	-7175
aron	-7176
endra	-7177
ician	-7178
▁2003	-7179
▁pool	-7180
▁query	-7181
fulness	-7182
▁linked	-7183
▁sought	-7184
▁Quality	-7185
▁Refresh	-7186
▁strange	-7187
▁horizontal	-7188
▁destruction	-7189
▁instructions	-7190
obe	-7191
▁Fam	-7192
▁Subm	-7193
▁elev	-7194
▁gray	-7195
brance	-7196
▁loose	-7197
▁closing	-7198
▁filename	-7199
IST	-7200
oral	-7201
▁Map	-7202
▁cos	-7203
atern	-7204
ogram	-7205
▁2002	-7206
recated	-7207
▁Sardar	-7208
▁warned	-7209
▁advised	-7210
▁degrees	-7211
▁fashion	-7212
▁herself	-7213
▁daughters	-7214
▁recognized	-7215
▁architecture	-7216
▁installation	-7217
asad	-7218
▁Nic	-7219
▁PAR	-7220
armac	-7221
▁Trad	-7222
▁Yoga	-7223
▁nose	-7224
▁Layer	-7225
▁chest	-7226
▁papers	-7227
▁skills	-7228
▁confident	-7229
▁preparing	-7230
▁ray	-7231
▁rit	-7232
ursed	-7233
▁Paul	-7234
▁slope	-7235
▁stall	-7236
reshold	-7237
▁accord	-7238
▁colorful	-7239
▁regional	-7240
▁withdraw	-7241
▁passwords	-7242
▁functioning	-7243
ulpt	-7244
▁Lic	-7245
nagar	-7246
▁Face	-7247
▁core	-7248
▁dawn	-7249
▁ease	-7250
▁silk	-7251
utation	-7252
▁German	-7253
▁Volume	-7254
▁spades	-7255
▁visual	-7256
▁invited	-7257
▁neglect	-7258
▁players	-7259
▁oriented	-7260
bra	-7261
ENCE	-7262
▁Lah	-7263
▁nin	-7264
▁2004	-7265
▁Alph	-7266
▁pipe	-7267
▁upto	-7268
▁catch	-7269
▁colon	-7270
▁Mughal	-7271
▁Gardens	-7272
▁Islamic	-7273
▁digital	-7274
▁eg	-7275
chant	-7276
▁Week	-7277
▁elig	-7278
ittees	-7279
▁Label	-7280
▁adopt	-7281
▁noble	-7282
▁spell	-7283
▁wills	-7284
▁managed	-7285
▁prayers	-7286
▁upgrade	-7287
▁estimated	-7288
▁transform	-7289
▁unexpectedly	-7290
sp	-7291
arlal	-7292
avior	-7293
oples	-7294
▁Sang	-7295
▁Stat	-7296
▁rose	-7297
▁wing	-7298
▁Nokia	-7299
▁forgot	-7300
▁waters	-7301
▁calling	-7302
▁Industry	-7303
ago	-7304
▁Verm	-7305
▁bell	-7306
▁scar	-7307
▁shot	-7308
▁angle	-7309
▁labor	-7310
▁trick	-7311
osoever	-7312
vention	-7313
▁Advanced	-7314
▁arranged	-7315
▁matching	-7316
▁substant	-7317
▁scientists	-7318
EP	-7319
▁Agra	-7320
▁Nadu	-7321
▁padd	-7322
▁sites	-7323
▁Having	-7324
▁hardly	-7325
▁locked	-7326
▁Extract	-7327
▁Railway	-7328
▁entries	-7329
▁license	-7330
▁associate	-7331
▁evolution	-7332
▁fulfilled	-7333
▁commission	-7334
lu	-7335
▁Kap	-7336
▁Old	-7337
▁Wel	-7338
peror	-7339
xygen	-7340
icipal	-7341
olkata	-7342
▁chose	-7343
▁crime	-7344
▁rough	-7345
▁senior	-7346
▁submit	-7347
▁Weather	-7348
▁classes	-7349
▁tourist	-7350
▁incident	-7351
▁newspaper	-7352
rm	-7353
ICE	-7354
cuit	-7355
elve	-7356
▁tid	-7357
▁unb	-7358
oving	-7359
▁Menu	-7360
▁grey	-7361
▁Valid	-7362
▁delic	-7363
▁usual	-7364
▁reader	-7365
▁Unicode	-7366
▁forests	-7367
▁respite	-7368
▁Hyderabad	-7369
▁contained	-7370
▁explained	-7371
▁protected	-7372
edd	-7373
gest	-7374
▁Fed	-7375
▁lar	-7376
▁Wild	-7377
▁Grand	-7378
▁Photo	-7379
▁shade	-7380
erative	-7381
▁factory	-7382
esty	-7383
wing	-7384
▁Far	-7385
▁isn	-7386
▁pul	-7387
▁Deal	-7388
▁myth	-7389
▁nerv	-7390
▁surf	-7391
▁Basic	-7392
▁Scale	-7393
▁route	-7394
▁Compan	-7395
▁Double	-7396
▁unlock	-7397
▁Available	-7398
▁carefully	-7399
▁collected	-7400
▁processes	-7401
emat	-7402
link	-7403
▁Bin	-7404
▁Rab	-7405
tched	-7406
▁Durg	-7407
▁Jain	-7408
▁Vari	-7409
▁sins	-7410
terday	-7411
▁cheque	-7412
▁rename	-7413
▁spaces	-7414
▁Brasero	-7415
▁faithful	-7416
▁components	-7417
atre	-7418
tain	-7419
raint	-7420
▁coin	-7421
othing	-7422
▁Empire	-7423
▁Should	-7424
▁arrive	-7425
▁thirty	-7426
▁testing	-7427
▁variable	-7428
▁university	-7429
issa	-7430
with	-7431
▁Vid	-7432
▁MSME	-7433
▁Orig	-7434
▁diet	-7435
▁Write	-7436
▁greet	-7437
▁tests	-7438
▁hasten	-7439
▁illust	-7440
▁Persian	-7441
▁emotion	-7442
▁Regional	-7443
▁corruption	-7444
▁interested	-7445
HT	-7446
aks	-7447
▁Cr	-7448
▁phen	-7449
ananda	-7450
▁Joint	-7451
▁Split	-7452
▁limits	-7453
▁biggest	-7454
▁chapter	-7455
▁speaking	-7456
▁creatures	-7457
▁encrypted	-7458
▁exception	-7459
▁organisms	-7460
▁prostrate	-7461
▁consumption	-7462
gu	-7463
REET	-7464
perm	-7465
▁Sik	-7466
▁sixt	-7467
▁explo	-7468
▁fifth	-7469
▁toler	-7470
▁coffee	-7471
▁ritual	-7472
▁disappe	-7473
▁familiar	-7474
END	-7475
▁Gal	-7476
▁Gop	-7477
▁Ori	-7478
▁htt	-7479
▁bare	-7480
▁hotel	-7481
▁pride	-7482
ressive	-7483
▁edited	-7484
▁obtain	-7485
▁Restore	-7486
▁Multiple	-7487
▁abnormal	-7488
▁writable	-7489
▁recording	-7490
▁definition	-7491
▁Association	-7492
▁manufacture	-7493
AK	-7494
time	-7495
▁Vin	-7496
onnect	-7497
▁smart	-7498
▁fabric	-7499
▁shadow	-7500
▁selling	-7501
▁compound	-7502
▁principal	-7503
▁applicable	-7504
▁initiatives	-7505
▁consciousness	-7506
ammu	-7507
urse	-7508
▁Rav	-7509
▁ice	-7510
▁nom	-7511
rogen	-7512
▁Give	-7513
▁ears	-7514
▁puzz	-7515
▁Banks	-7516
▁arbit	-7517
▁aside	-7518
▁deity	-7519
▁stamp	-7520
▁uniform	-7521
MS	-7522
ayat	-7523
gage	-7524
grim	-7525
stan	-7526
umes	-7527
▁Put	-7528
▁anx	-7529
ashing	-7530
▁Entry	-7531
▁Items	-7532
▁batht	-7533
▁seats	-7534
▁accompl	-7535
▁checked	-7536
▁Chairman	-7537
▁Ramayana	-7538
▁Aj	-7539
▁pa	-7540
bles	-7541
icul	-7542
▁Tim	-7543
▁era	-7544
cknow	-7545
olars	-7546
quiry	-7547
▁Iran	-7548
▁dism	-7549
ctuary	-7550
ranath	-7551
▁drama	-7552
▁fetch	-7553
▁score	-7554
urities	-7555
▁conven	-7556
▁widely	-7557
lessness	-7558
▁Copying	-7559
▁Further	-7560
▁describ	-7561
▁gallery	-7562
▁promotion	-7563
▁petitioner	-7564
de	-7565
uan	-7566
▁Da	-7567
▁VIS	-7568
▁bomb	-7569
ladesh	-7570
▁parse	-7571
▁Expand	-7572
▁disorder	-7573
▁incoming	-7574
▁announced	-7575
coh	-7576
▁Ltd	-7577
▁mos	-7578
aching	-7579
▁COLLE	-7580
▁tiled	-7581
▁Instit	-7582
▁tonnes	-7583
▁PRESENT	-7584
▁awareness	-7585
▁arrangement	-7586
▁differences	-7587
▁manufacturing	-7588
50	-7589
▁स	-7590
araj	-7591
itra	-7592
▁unw	-7593
ashed	-7594
▁answ	-7595
▁curb	-7596
▁stup	-7597
▁Liter	-7598
▁Knower	-7599
▁figures	-7600
▁transit	-7601
▁employee	-7602
ba	-7603
VER	-7604
iac	-7605
vas	-7606
MBER	-7607
▁wet	-7608
▁dear	-7609
▁Money	-7610
▁carbon	-7611
▁discard	-7612
▁admitted	-7613
▁painting	-7614
▁Currently	-7615
TI	-7616
▁anc	-7617
▁lik	-7618
▁Design	-7619
▁detail	-7620
plicated	-7621
▁Appoint	-7622
▁bathtub	-7623
▁Continue	-7624
▁Bangladesh	-7625
▁connections	-7626
▁essentially	-7627
▁administrative	-7628
kh	-7629
sem	-7630
▁Gen	-7631
▁Saf	-7632
arest	-7633
▁Theme	-7634
▁Vedic	-7635
▁observ	-7636
▁desires	-7637
▁harvest	-7638
▁publish	-7639
▁virtual	-7640
ibilities	-7641
▁judgment	-7642
▁proposed	-7643
▁strategy	-7644
▁recommend	-7645
▁workspace	-7646
▁attachments	-7647
▁competition	-7648
▁fundamental	-7649
ks	-7650
ims	-7651
▁ec	-7652
itan	-7653
▁Rup	-7654
▁Ste	-7655
▁din	-7656
ching	-7657
▁hurt	-7658
▁shirt	-7659
ourable	-7660
▁backup	-7661
▁Burning	-7662
▁Kolkata	-7663
▁favours	-7664
▁pension	-7665
▁criminal	-7666
▁patients	-7667
▁debugging	-7668
▁participation	-7669
dev	-7670
ype	-7671
▁Box	-7672
▁Dam	-7673
▁Real	-7674
▁anti	-7675
▁dign	-7676
▁Index	-7677
▁noise	-7678
▁Private	-7679
▁democratic	-7680
ecut	-7681
▁Blu	-7682
▁Ele	-7683
▁Max	-7684
riger	-7685
▁1999	-7686
▁Feed	-7687
▁lung	-7688
▁towns	-7689
▁cloudy	-7690
▁injury	-7691
▁margin	-7692
▁slowly	-7693
▁thanks	-7694
▁Profile	-7695
▁planned	-7696
▁stomach	-7697
▁restored	-7698
▁symbolic	-7699
▁dedicated	-7700
▁accessible	-7701
oz	-7702
gia	-7703
nis	-7704
ador	-7705
onym	-7706
orses	-7707
▁Stra	-7708
ixture	-7709
▁Month	-7710
▁bills	-7711
▁outer	-7712
▁shock	-7713
▁Energy	-7714
▁offers	-7715
▁COLLEGE	-7716
▁demonst	-7717
▁immense	-7718
▁Hinduism	-7719
▁commands	-7720
▁consumer	-7721
▁sections	-7722
▁increases	-7723
▁intellectual	-7724
opl	-7725
▁OK	-7726
▁Nir	-7727
▁Coop	-7728
▁Musa	-7729
▁Aaron	-7730
▁broke	-7731
▁herit	-7732
▁worry	-7733
pection	-7734
▁Execut	-7735
▁markets	-7736
▁putting	-7737
▁quarter	-7738
▁supreme	-7739
▁Chaitanya	-7740
▁instruments	-7741
▁outstanding	-7742
▁38	-7743
alam	-7744
▁Ach	-7745
▁homes	-7746
▁illeg	-7747
▁George	-7748
▁Recent	-7749
▁intest	-7750
▁superv	-7751
▁Perform	-7752
▁Reserve	-7753
▁pulling	-7754
▁Creating	-7755
▁Himachal	-7756
▁approval	-7757
▁discharge	-7758
▁elections	-7759
▁expansion	-7760
▁irrigation	-7761
▁leadership	-7762
▁Agricultural	-7763
can	-7764
akti	-7765
comm	-7766
▁luck	-7767
▁mask	-7768
▁Browse	-7769
▁driven	-7770
▁prince	-7771
▁surgery	-7772
▁religions	-7773
▁restaurant	-7774
heb	-7775
emia	-7776
writ	-7777
▁Jam	-7778
▁scr	-7779
while	-7780
▁stro	-7781
▁trek	-7782
untary	-7783
▁Mouse	-7784
▁advis	-7785
▁juris	-7786
position	-7787
▁cutting	-7788
▁equally	-7789
▁hardware	-7790
▁inserted	-7791
▁Principal	-7792
▁kg	-7793
▁sus	-7794
▁grid	-7795
▁lear	-7796
ushing	-7797
▁Lanka	-7798
▁dirty	-7799
▁Branch	-7800
▁church	-7801
▁divine	-7802
▁mounted	-7803
▁silence	-7804
▁studied	-7805
▁creative	-7806
▁humanity	-7807
▁assistant	-7808
▁efficiency	-7809
▁constructed	-7810
▁recognition	-7811
ida	-7812
oda	-7813
ilal	-7814
isco	-7815
▁lev	-7816
plant	-7817
▁Mart	-7818
▁meal	-7819
▁ment	-7820
▁dread	-7821
▁paths	-7822
▁perce	-7823
▁snake	-7824
ulating	-7825
▁Accept	-7826
▁compos	-7827
▁summer	-7828
▁twelve	-7829
▁Missing	-7830
▁courses	-7831
▁greatly	-7832
▁peoples	-7833
▁prepare	-7834
▁tidings	-7835
▁childhood	-7836
▁Jawaharlal	-7837
▁assessment	-7838
pa	-7839
sec	-7840
ambo	-7841
▁300	-7842
▁PDF	-7843
icing	-7844
▁horn	-7845
ateful	-7846
iances	-7847
▁Gupta	-7848
▁Jammu	-7849
▁plans	-7850
▁tiles	-7851
essions	-7852
inating	-7853
▁attain	-7854
▁extend	-7855
▁boiling	-7856
▁internet	-7857
▁controlled	-7858
▁directions	-7859
▁programming	-7860
ca	-7861
ITY	-7862
olt	-7863
thi	-7864
▁34	-7865
▁ji	-7866
emon	-7867
▁Low	-7868
urring	-7869
▁hosts	-7870
▁duplic	-7871
▁humans	-7872
▁Judgment	-7873
▁bacteria	-7874
▁operative	-7875
▁suggested	-7876
uma	-7877
uru	-7878
▁Ca	-7879
▁Dyn	-7880
▁York	-7881
▁cave	-7882
▁tank	-7883
▁Radio	-7884
▁curve	-7885
▁Market	-7886
▁Return	-7887
▁sculpt	-7888
▁Bharati	-7889
▁Tourism	-7890
▁exports	-7891
▁heritage	-7892
▁writings	-7893
▁initiated	-7894
▁universal	-7895
▁everywhere	-7896
rd	-7897
kay	-7898
▁Na	-7899
▁NPS	-7900
rival	-7901
▁Maur	-7902
▁orph	-7903
icular	-7904
▁devil	-7905
▁movie	-7906
aration	-7907
▁frames	-7908
▁Channel	-7909
▁locations	-7910
▁hang	-7911
▁ignor	-7912
▁pairs	-7913
▁Subhas	-7914
▁golden	-7915
inations	-7916
▁chromos	-7917
▁agencies	-7918
▁affection	-7919
▁parliament	-7920
ye	-7921
pel	-7922
oved	-7923
▁Cop	-7924
▁COMM	-7925
▁Virt	-7926
illing	-7927
▁David	-7928
▁Relig	-7929
▁Setup	-7930
▁chart	-7931
▁falls	-7932
▁Manage	-7933
▁Mobile	-7934
▁Orissa	-7935
▁upgrad	-7936
▁Punjabi	-7937
▁Toggles	-7938
▁citizen	-7939
▁tourism	-7940
▁discussed	-7941
▁association	-7942
▁confirmation	-7943
30	-7944
ato	-7945
the	-7946
▁HO	-7947
▁Chh	-7948
▁Raja	-7949
▁oven	-7950
▁quad	-7951
ronics	-7952
▁elder	-7953
▁loved	-7954
▁renew	-7955
▁Manual	-7956
▁helper	-7957
rehensive	-7958
▁channels	-7959
▁produces	-7960
▁refriger	-7961
▁regularly	-7962
▁revelation	-7963
bh	-7964
yas	-7965
▁Inn	-7966
apped	-7967
▁Cond	-7968
▁Hari	-7969
▁Sant	-7970
▁valu	-7971
▁forty	-7972
▁sinks	-7973
cession	-7974
▁Scroll	-7975
▁Sending	-7976
▁execute	-7977
▁Protocol	-7978
▁reaction	-7979
▁Similarly	-7980
▁instruction	-7981
AH	-7982
asp	-7983
ela	-7984
▁myst	-7985
▁spin	-7986
▁defect	-7987
isations	-7988
▁Station	-7989
▁descend	-7990
▁wrongdo	-7991
▁aircraft	-7992
▁interval	-7993
▁Character	-7994
▁overwrite	-7995
EST	-7996
jun	-7997
▁je	-7998
▁lord	-7999
▁arrog	-8000
▁tries	-8001
ilation	-8002
▁Pranab	-8003
▁rising	-8004
▁worker	-8005
▁Transfer	-8006
▁entrance	-8007
▁numerous	-8008
▁communities	-8009
AG	-8010
CP	-8011
SS	-8012
yer	-8013
▁Ba	-8014
soft	-8015
tery	-8016
▁Vij	-8017
▁Young	-8018
▁Member	-8019
▁Eastern	-8020
▁enhance	-8021
▁payable	-8022
▁sinners	-8023
▁admission	-8024
▁movements	-8025
▁producing	-8026
▁performing	-8027
▁Ul	-8028
MENT	-8029
sole	-8030
▁Atl	-8031
▁aer	-8032
▁bon	-8033
print	-8034
▁fool	-8035
▁synt	-8036
▁segment	-8037
▁Whatever	-8038
▁gradually	-8039
▁neighbour	-8040
▁organized	-8041
▁parameter	-8042
tic	-8043
udi	-8044
▁Way	-8045
▁mac	-8046
▁Kabir	-8047
▁curse	-8048
▁Convert	-8049
▁Summary	-8050
▁cabinet	-8051
▁denomin	-8052
▁falsehood	-8053
▁Mahabharata	-8054
ARY	-8055
AYS	-8056
ERE	-8057
▁mo	-8058
▁om	-8059
aded	-8060
▁ash	-8061
▁Loan	-8062
▁dogs	-8063
▁fasc	-8064
▁Democ	-8065
▁Roman	-8066
▁craft	-8067
▁queen	-8068
▁Prasad	-8069
▁Thamud	-8070
▁append	-8071
▁interf	-8072
▁Inspect	-8073
▁columns	-8074
▁illness	-8075
▁springs	-8076
▁conflict	-8077
▁username	-8078
▁naturally	-8079
▁otherwise	-8080
▁president	-8081
▁Unsupported	-8082
aza	-8083
see	-8084
orders	-8085
urrend	-8086
▁strict	-8087
▁Almighty	-8088
▁adequate	-8089
▁playlist	-8090
▁receiving	-8091
▁searching	-8092
DP	-8093
anj	-8094
▁TR	-8095
▁Lear	-8096
▁yard	-8097
▁abdom	-8098
▁Method	-8099
▁dreams	-8100
▁equals	-8101
▁recall	-8102
▁Meeting	-8103
▁reforms	-8104
▁entitled	-8105
▁generated	-8106
▁prosperity	-8107
▁improvement	-8108
ker	-8109
nai	-8110
▁Os	-8111
▁Lad	-8112
▁Pub	-8113
posal	-8114
uddin	-8115
▁Drop	-8116
▁Poss	-8117
▁sync	-8118
▁inhab	-8119
▁minds	-8120
▁surpr	-8121
welling	-8122
▁Germany	-8123
▁Nothing	-8124
▁seeking	-8125
▁Reminder	-8126
▁assembly	-8127
▁floating	-8128
▁Microsoft	-8129
▁organised	-8130
▁scattered	-8131
▁personality	-8132
hin	-8133
olf	-8134
▁Fa	-8135
▁GO	-8136
ottom	-8137
▁cows	-8138
▁appell	-8139
▁plastic	-8140
▁cancelled	-8141
▁commitment	-8142
▁Guid	-8143
▁Tell	-8144
▁deaf	-8145
▁sole	-8146
▁vacc	-8147
Script	-8148
▁numer	-8149
duction	-8150
▁butter	-8151
▁courts	-8152
▁Friends	-8153
▁devoted	-8154
▁automatic	-8155
▁converted	-8156
▁convention	-8157
roid	-8158
rosc	-8159
▁vig	-8160
rates	-8161
▁2020	-8162
▁Magn	-8163
▁abst	-8164
▁nurs	-8165
▁pump	-8166
▁unav	-8167
diction	-8168
▁Scient	-8169
▁listed	-8170
▁stages	-8171
▁decades	-8172
▁offices	-8173
▁accompan	-8174
▁educated	-8175
▁integrity	-8176
▁liability	-8177
▁technique	-8178
▁Afghanistan	-8179
▁alternative	-8180
▁BH	-8181
▁ov	-8182
▁Aur	-8183
etime	-8184
urate	-8185
▁clim	-8186
▁scan	-8187
▁roots	-8188
▁sharp	-8189
▁ships	-8190
▁smile	-8191
▁gentle	-8192
▁schema	-8193
▁Subhash	-8194
▁passage	-8195
▁Projects	-8196
▁acquired	-8197
▁describe	-8198
▁suffered	-8199
off	-8200
rus	-8201
zen	-8202
▁EX	-8203
rone	-8204
▁Hot	-8205
▁Come	-8206
▁vain	-8207
▁armed	-8208
▁digit	-8209
▁pious	-8210
▁Natural	-8211
▁Working	-8212
▁goddess	-8213
▁regarded	-8214
▁separated	-8215
▁electronic	-8216
▁structures	-8217
▁refrigerator	-8218
ns	-8219
▁Ast	-8220
▁guy	-8221
▁tum	-8222
▁Care	-8223
▁http	-8224
▁maid	-8225
▁wave	-8226
bedded	-8227
▁Clean	-8228
▁Order	-8229
▁royal	-8230
▁basket	-8231
▁infect	-8232
▁marble	-8233
▁Justice	-8234
▁Product	-8235
▁Without	-8236
▁pilgrim	-8237
▁profits	-8238
▁membrane	-8239
▁parallel	-8240
▁Bookmarks	-8241
▁Technical	-8242
▁animation	-8243
▁everybody	-8244
▁availability	-8245
ocy	-8246
▁37	-8247
▁CL	-8248
▁Kov	-8249
▁los	-8250
▁scen	-8251
▁vary	-8252
rieved	-8253
▁conqu	-8254
▁smell	-8255
▁collab	-8256
▁easier	-8257
▁humble	-8258
▁learnt	-8259
▁meters	-8260
▁investors	-8261
▁companions	-8262
▁conversion	-8263
uty	-8264
Wise	-8265
illy	-8266
▁RBI	-8267
▁Rat	-8268
▁avo	-8269
organ	-8270
▁Must	-8271
▁pile	-8272
▁repay	-8273
▁shout	-8274
▁Family	-8275
▁Museum	-8276
▁museum	-8277
culation	-8278
▁ordered	-8279
▁overall	-8280
▁streets	-8281
▁millions	-8282
▁synchron	-8283
▁Independence	-8284
nut	-8285
rix	-8286
oram	-8287
▁Viet	-8288
lessly	-8289
verted	-8290
▁Bottom	-8291
▁Pandit	-8292
▁detect	-8293
▁dollar	-8294
▁lesson	-8295
▁recomm	-8296
▁conceal	-8297
▁editing	-8298
▁mistake	-8299
▁subtract	-8300
▁radiation	-8301
▁admonition	-8302
▁coordinate	-8303
IB	-8304
cel	-8305
amese	-8306
▁Info	-8307
▁thir	-8308
efined	-8309
▁Quick	-8310
▁backs	-8311
▁chick	-8312
▁oxygen	-8313
▁expired	-8314
▁GroupWise	-8315
▁Industries	-8316
▁initiative	-8317
▁Engineering	-8318
▁proceedings	-8319
▁appointments	-8320
▁Row	-8321
icent	-8322
night	-8323
▁pled	-8324
▁oblig	-8325
▁acknow	-8326
▁holder	-8327
▁kidney	-8328
▁credits	-8329
▁employed	-8330
▁tourists	-8331
cus	-8332
zer	-8333
INGS	-8334
▁Ber	-8335
▁unm	-8336
amber	-8337
▁Scan	-8338
criber	-8339
▁Signs	-8340
▁admit	-8341
▁rooms	-8342
▁tight	-8343
▁Single	-8344
▁cavity	-8345
▁danger	-8346
▁nervous	-8347
▁improved	-8348
▁Certainly	-8349
▁brightness	-8350
iph	-8351
ugu	-8352
▁CR	-8353
iable	-8354
▁keen	-8355
▁laug	-8356
▁tabs	-8357
▁Depos	-8358
▁fount	-8359
▁innoc	-8360
▁memos	-8361
▁Player	-8362
▁drowned	-8363
▁dynasty	-8364
▁ungrate	-8365
▁Official	-8366
▁meetings	-8367
▁template	-8368
▁addressed	-8369
▁frequently	-8370
▁opposition	-8371
DA	-8372
▁65	-8373
▁pi	-8374
rary	-8375
anath	-8376
itate	-8377
▁idle	-8378
earing	-8379
▁Champ	-8380
▁Final	-8381
▁adapt	-8382
▁blame	-8383
▁burst	-8384
▁wheat	-8385
▁Button	-8386
▁bought	-8387
▁fright	-8388
▁Nations	-8389
▁although	-8390
▁verified	-8391
▁machinery	-8392
▁prominent	-8393
▁technologies	-8394
uj	-8395
aci	-8396
▁NI	-8397
apse	-8398
▁Ray	-8399
▁cas	-8400
▁fet	-8401
▁Kann	-8402
▁Guard	-8403
▁allot	-8404
▁token	-8405
sequently	-8406
▁Tribunal	-8407
▁interpret	-8408
irs	-8409
▁Ren	-8410
▁Was	-8411
leges	-8412
▁tape	-8413
▁filed	-8414
▁ruler	-8415
▁Madhya	-8416
ographic	-8417
▁affects	-8418
▁eastern	-8419
▁realize	-8420
▁sharing	-8421
▁directed	-8422
▁entering	-8423
▁Implement	-8424
▁Transport	-8425
▁guarantee	-8426
▁permitted	-8427
▁repository	-8428
▁requirement	-8429
▁compensation	-8430
alo	-8431
bab	-8432
nan	-8433
onia	-8434
▁Goa	-8435
IVERS	-8436
▁Devi	-8437
▁Moon	-8438
phrase	-8439
▁Break	-8440
▁Login	-8441
▁Shall	-8442
▁applet	-8443
▁planes	-8444
▁struck	-8445
▁Affairs	-8446
▁enemies	-8447
▁ignored	-8448
▁operate	-8449
▁organic	-8450
▁pointed	-8451
▁resting	-8452
▁surrend	-8453
▁telling	-8454
▁trained	-8455
▁arrested	-8456
▁continues	-8457
▁Employment	-8458
KS	-8459
ese	-8460
rem	-8461
▁MP	-8462
▁NE	-8463
▁185	-8464
isted	-8465
▁sees	-8466
▁wine	-8467
▁Stock	-8468
▁Super	-8469
▁Willi	-8470
▁newly	-8471
▁Viewer	-8472
▁reveal	-8473
▁silent	-8474
▁Browser	-8475
▁Although	-8476
▁Resource	-8477
▁centuries	-8478
apa	-8479
edy	-8480
ios	-8481
hend	-8482
▁Own	-8483
▁Alif	-8484
▁lone	-8485
▁Koran	-8486
▁Proxy	-8487
▁losers	-8488
▁repeat	-8489
▁closely	-8490
▁earthqu	-8491
▁phenomen	-8492
▁scholars	-8493
▁sleeping	-8494
▁supplied	-8495
▁discovered	-8496
asy	-8497
▁pip	-8498
alore	-8499
neath	-8500
▁Very	-8501
▁Grant	-8502
▁hindi	-8503
▁Chennai	-8504
▁derived	-8505
▁writers	-8506
▁Property	-8507
▁distress	-8508
▁Operation	-8509
▁Investment	-8510
▁underneath	-8511
py	-8512
ukh	-8513
obox	-8514
▁Band	-8515
▁Ital	-8516
▁Pict	-8517
▁drew	-8518
▁pars	-8519
▁stem	-8520
▁india	-8521
▁lease	-8522
▁skate	-8523
ologist	-8524
▁Ignore	-8525
▁affair	-8526
▁ignore	-8527
▁recite	-8528
▁rupees	-8529
aluation	-8530
▁African	-8531
▁deleting	-8532
▁eligible	-8533
▁judicial	-8534
▁configure	-8535
▁officials	-8536
▁Commissioner	-8537
▁certificates	-8538
▁न	-8539
▁य	-8540
nic	-8541
anth	-8542
▁woe	-8543
▁Gram	-8544
▁analy	-8545
▁faced	-8546
▁flour	-8547
▁shoot	-8548
▁uncle	-8549
reement	-8550
▁horses	-8551
▁immort	-8552
▁rapidly	-8553
▁railroad	-8554
▁belonging	-8555
▁Committees	-8556
▁undertaken	-8557
▁SC	-8558
ATES	-8559
▁Bay	-8560
▁Sem	-8561
atell	-8562
eling	-8563
▁Jose	-8564
▁Belie	-8565
▁edges	-8566
▁tells	-8567
atively	-8568
▁Python	-8569
▁humili	-8570
▁Archive	-8571
▁flowing	-8572
▁prophet	-8573
▁touched	-8574
▁anywhere	-8575
▁equality	-8576
▁schedule	-8577
▁universe	-8578
▁deprecated	-8579
▁encryption	-8580
II	-8581
aver	-8582
sing	-8583
wali	-8584
▁Occ	-8585
▁lac	-8586
▁Adam	-8587
▁Said	-8588
▁rear	-8589
agraph	-8590
ounded	-8591
prises	-8592
▁Anand	-8593
▁marry	-8594
▁patri	-8595
▁Middle	-8596
▁finish	-8597
▁negoti	-8598
▁organs	-8599
▁pulled	-8600
▁salary	-8601
▁Printer	-8602
▁matches	-8603
▁bringing	-8604
▁removing	-8605
▁calendars	-8606
▁immediate	-8607
▁statistics	-8608
ride	-8609
▁Pot	-8610
▁Sav	-8611
ifted	-8612
▁Tree	-8613
▁vent	-8614
ometer	-8615
▁Mohan	-8616
▁Style	-8617
▁Tools	-8618
▁fancy	-8619
▁fract	-8620
▁France	-8621
▁Ganges	-8622
▁Mahade	-8623
▁acting	-8624
▁closer	-8625
▁verify	-8626
▁Encrypt	-8627
▁causing	-8628
▁highway	-8629
▁involve	-8630
▁removal	-8631
▁revision	-8632
▁Processing	-8633
▁enterprise	-8634
▁ungrateful	-8635
▁Organization	-8636
▁considerable	-8637
ATE	-8638
iot	-8639
ulty	-8640
▁esc	-8641
ocomp	-8642
pless	-8643
▁bulk	-8644
urveda	-8645
▁Issue	-8646
▁flesh	-8647
▁Attend	-8648
▁Awards	-8649
▁Module	-8650
▁condem	-8651
▁impart	-8652
▁masses	-8653
▁Welcome	-8654
▁awarded	-8655
▁observe	-8656
▁director	-8657
▁Preparing	-8658
▁companion	-8659
▁solutions	-8660
▁appliances	-8661
▁discipline	-8662
▁Hum	-8663
▁Jew	-8664
▁sle	-8665
antra	-8666
▁Cast	-8667
▁Gang	-8668
▁Siva	-8669
▁exch	-8670
▁larva	-8671
▁wages	-8672
▁Option	-8673
▁Symbol	-8674
▁preced	-8675
▁Getting	-8676
▁Russian	-8677
▁Writing	-8678
▁Election	-8679
▁recognised	-8680
▁Legislative	-8681
ih	-8682
▁44	-8683
DUCT	-8684
▁188	-8685
▁Room	-8686
holders	-8687
irement	-8688
isition	-8689
▁planet	-8690
▁worthy	-8691
▁Virtual	-8692
▁Documents	-8693
▁whosoever	-8694
GP	-8695
bour	-8696
cers	-8697
rent	-8698
▁Sent	-8699
▁elim	-8700
▁prol	-8701
recogn	-8702
▁Aware	-8703
▁keeps	-8704
▁trunk	-8705
inction	-8706
▁Launch	-8707
▁Exalted	-8708
▁Marathi	-8709
▁Pension	-8710
▁equival	-8711
fortunately	-8712
▁experiment	-8713
▁anniversary	-8714
BC	-8715
MP	-8716
IAN	-8717
▁42	-8718
▁Sor	-8719
olent	-8720
rolog	-8721
▁slip	-8722
▁honor	-8723
chandra	-8724
▁belied	-8725
▁farmer	-8726
▁sports	-8727
▁statue	-8728
▁Confirm	-8729
▁decline	-8730
▁totally	-8731
▁Physical	-8732
▁execution	-8733
▁institute	-8734
▁remarkable	-8735
▁distributed	-8736
▁difficulties	-8737
dish	-8738
husi	-8739
▁Anj	-8740
▁Dak	-8741
▁Tri	-8742
ffiti	-8743
iques	-8744
▁aims	-8745
lihood	-8746
▁alcoh	-8747
▁array	-8748
▁logic	-8749
▁disapp	-8750
▁thrown	-8751
▁bicycles	-8752
▁grateful	-8753
▁investig	-8754
▁sentence	-8755
▁Accessible	-8756
▁Excellency	-8757
▁candidates	-8758
▁preparation	-8759
▁Registration	-8760
MA	-8761
rapy	-8762
rich	-8763
▁rom	-8764
plied	-8765
▁Pune	-8766
▁supp	-8767
▁ties	-8768
▁crack	-8769
▁miles	-8770
▁secre	-8771
▁walks	-8772
▁Valley	-8773
▁typing	-8774
▁Teacher	-8775
▁valuable	-8776
▁dangerous	-8777
▁practical	-8778
▁pregnancy	-8779
▁possession	-8780
▁reflection	-8781
▁remembrance	-8782
▁Je	-8783
▁Uz	-8784
ahan	-8785
ayas	-8786
▁Nam	-8787
▁gun	-8788
▁sed	-8789
enous	-8790
eping	-8791
using	-8792
▁Sand	-8793
▁pour	-8794
▁tiny	-8795
▁brand	-8796
▁shift	-8797
itations	-8798
▁PRODUCT	-8799
▁violent	-8800
▁apparent	-8801
▁informed	-8802
▁superior	-8803
▁diversity	-8804
▁acceptable	-8805
▁excellence	-8806
▁jurisdiction	-8807
ona	-8808
uri	-8809
▁Pa	-8810
avor	-8811
bind	-8812
emed	-8813
itya	-8814
onic	-8815
▁Kaz	-8816
▁Mic	-8817
▁Opt	-8818
▁orn	-8819
amboo	-8820
▁Blue	-8821
▁SHRI	-8822
▁stim	-8823
pelled	-8824
olation	-8825
▁Proced	-8826
▁ancest	-8827
▁headed	-8828
▁hunger	-8829
▁resort	-8830
▁sample	-8831
▁acceptance	-8832
▁connecting	-8833
▁inflammation	-8834
gi	-8835
▁म	-8836
iga	-8837
▁MIN	-8838
▁Tir	-8839
▁unh	-8840
▁GREET	-8841
▁Innov	-8842
▁autom	-8843
▁Labour	-8844
▁checks	-8845
▁orphan	-8846
▁rulers	-8847
▁settle	-8848
▁Comment	-8849
▁tissues	-8850
▁Database	-8851
▁fighting	-8852
▁supposed	-8853
▁computing	-8854
▁dependent	-8855
▁885	-8856
▁gov	-8857
▁jum	-8858
▁tun	-8859
▁Busy	-8860
▁Hall	-8861
▁hole	-8862
▁sake	-8863
iously	-8864
▁Durga	-8865
▁flame	-8866
▁gross	-8867
▁Portug	-8868
▁Spirit	-8869
▁sinful	-8870
▁falling	-8871
▁partial	-8872
▁sincere	-8873
▁bestowed	-8874
▁reaching	-8875
ographical	-8876
amy	-8877
oys	-8878
born	-8879
iner	-8880
ller	-8881
▁pit	-8882
ether	-8883
▁Arts	-8884
▁Gita	-8885
▁Luck	-8886
▁Rule	-8887
▁flex	-8888
▁tied	-8889
▁tons	-8890
gments	-8891
iciary	-8892
ometry	-8893
rating	-8894
▁VISIT	-8895
▁spite	-8896
▁virus	-8897
▁faster	-8898
▁discover	-8899
▁fraction	-8900
▁honoured	-8901
▁corporate	-8902
▁elephants	-8903
▁complicated	-8904
▁Applications	-8905
llen	-8906
▁Mur	-8907
▁blow	-8908
▁sect	-8909
▁flies	-8910
▁grave	-8911
▁snipp	-8912
▁verse	-8913
rieving	-8914
▁Madras	-8915
▁forced	-8916
▁phrase	-8917
▁propag	-8918
▁tables	-8919
▁enthusi	-8920
▁eternal	-8921
▁tremend	-8922
▁Activate	-8923
▁Officers	-8924
▁contrast	-8925
▁slightly	-8926
▁Promotion	-8927
▁recognize	-8928
▁displaying	-8929
▁civilization	-8930
▁CA	-8931
rison	-8932
▁Nand	-8933
▁unus	-8934
posure	-8935
▁Death	-8936
▁Draft	-8937
▁Initi	-8938
ciences	-8939
▁Result	-8940
▁fulfil	-8941
▁stores	-8942
▁Neither	-8943
▁Restart	-8944
▁resolve	-8945
▁Speaking	-8946
▁concrete	-8947
▁directories	-8948
▁Tib	-8949
▁wre	-8950
ading	-8951
icted	-8952
▁Infl	-8953
▁Love	-8954
▁Mong	-8955
▁NAME	-8956
▁Redo	-8957
▁lush	-8958
▁trig	-8959
▁Indra	-8960
▁Plant	-8961
▁shoes	-8962
▁Modern	-8963
▁lowest	-8964
▁splend	-8965
▁demands	-8966
▁mixture	-8967
▁raising	-8968
▁Internal	-8969
▁audience	-8970
▁Secondary	-8971
▁framework	-8972
▁artificial	-8973
▁recommended	-8974
▁transportation	-8975
ls	-8976
pers	-8977
phal	-8978
▁Big	-8979
▁Mis	-8980
▁cum	-8981
▁tro	-8982
▁Bhar	-8983
▁Maybe	-8984
▁Treat	-8985
▁acute	-8986
▁worst	-8987
▁banana	-8988
▁defeat	-8989
▁handic	-8990
▁Article	-8991
▁counsel	-8992
▁islands	-8993
▁criticism	-8994
▁allocation	-8995
▁incomplete	-8996
EG	-8997
shi	-8998
erer	-8999
quar	-9000
▁Fit	-9001
▁Sab	-9002
▁Tru	-9003
▁adj	-9004
▁odd	-9005
▁vul	-9006
umpet	-9007
▁Rich	-9008
▁auto	-9009
▁incl	-9010
▁nest	-9011
▁encod	-9012
▁fears	-9013
▁shore	-9014
▁storm	-9015
aughter	-9016
emption	-9017
▁emphas	-9018
▁oldest	-9019
aneously	-9020
▁theatre	-9021
▁Buddhist	-9022
▁Knowledge	-9023
▁achievement	-9024
CL	-9025
ROW	-9026
mic	-9027
▁64	-9028
▁NH	-9029
▁Abs	-9030
ademy	-9031
▁8859	-9032
▁bind	-9033
▁wash	-9034
inance	-9035
▁Vaish	-9036
▁anger	-9037
▁brill	-9038
▁divid	-9039
▁crores	-9040
ubscribe	-9041
▁Hanuman	-9042
▁communal	-9043
▁executed	-9044
▁involves	-9045
▁forgiving	-9046
▁disconnect	-9047
▁denominator	-9048
10	-9049
ige	-9050
mail	-9051
▁Cyr	-9052
▁Bach	-9053
▁bold	-9054
▁Delay	-9055
▁Pract	-9056
▁grows	-9057
▁inaug	-9058
▁tract	-9059
▁density	-9060
▁vessels	-9061
▁contribute	-9062
▁preferences	-9063
uti	-9064
▁kh	-9065
file	-9066
itles	-9067
▁Dial	-9068
▁Fall	-9069
▁anci	-9070
▁accum	-9071
▁delib	-9072
▁magaz	-9073
▁owned	-9074
▁Domain	-9075
▁drives	-9076
▁Website	-9077
▁careful	-9078
▁formula	-9079
▁expanded	-9080
▁overcome	-9081
▁Ministers	-9082
▁Attachment	-9083
▁Governance	-9084
▁pertaining	-9085
▁securities	-9086
▁Governments	-9087
▁Notification	-9088
ori	-9089
lymp	-9090
umbn	-9091
▁150	-9092
▁Bro	-9093
▁Mir	-9094
▁Van	-9095
▁tie	-9096
▁Film	-9097
▁True	-9098
▁wasn	-9099
▁Query	-9100
▁mango	-9101
▁march	-9102
▁League	-9103
▁absent	-9104
▁naught	-9105
▁themes	-9106
▁Content	-9107
▁circuit	-9108
▁emerged	-9109
▁monthly	-9110
▁utility	-9111
▁realized	-9112
recognized	-9113
▁ownership	-9114
▁Monitoring	-9115
▁monitoring	-9116
▁submission	-9117
▁constituted	-9118
▁entrepreneur	-9119
ky	-9120
hta	-9121
tar	-9122
▁KB	-9123
▁Om	-9124
care	-9125
▁fan	-9126
eline	-9127
rator	-9128
▁Bhav	-9129
▁MIME	-9130
▁Sens	-9131
▁Vive	-9132
▁hast	-9133
rition	-9134
▁Journ	-9135
▁Olymp	-9136
▁kings	-9137
▁ranks	-9138
▁Calcul	-9139
▁punish	-9140
iculture	-9141
▁despair	-9142
▁evident	-9143
▁graffiti	-9144
▁emergency	-9145
▁thereafter	-9146
OU	-9147
ums	-9148
▁mm	-9149
bacc	-9150
rers	-9151
▁aqu	-9152
umber	-9153
▁Side	-9154
▁Wood	-9155
▁lest	-9156
acious	-9157
arency	-9158
itched	-9159
▁bliss	-9160
▁breed	-9161
▁weigh	-9162
connect	-9163
▁Brahma	-9164
▁favors	-9165
▁answers	-9166
▁focused	-9167
▁protein	-9168
▁targets	-9169
▁Complete	-9170
▁Increase	-9171
▁outgoing	-9172
uz	-9173
what	-9174
▁Sep	-9175
▁enl	-9176
anand	-9177
▁Dark	-9178
▁Fill	-9179
▁grat	-9180
▁mamm	-9181
▁oral	-9182
etooth	-9183
▁haven	-9184
▁spark	-9185
▁verte	-9186
▁Perman	-9187
▁Simple	-9188
▁throne	-9189
▁Waiting	-9190
▁illegal	-9191
▁routine	-9192
▁Contents	-9193
▁ancients	-9194
▁Allahabad	-9195
▁Extension	-9196
▁constantly	-9197
▁encouraged	-9198
▁accompanied	-9199
▁investments	-9200
LS	-9201
rin	-9202
▁Ro	-9203
▁py	-9204
umph	-9205
▁187	-9206
▁CRA	-9207
▁Sad	-9208
field	-9209
illic	-9210
▁mole	-9211
▁Cisco	-9212
▁holid	-9213
▁ruled	-9214
▁threw	-9215
▁Joseph	-9216
▁Review	-9217
▁tarmac	-9218
▁carries	-9219
▁finding	-9220
▁keyring	-9221
▁landing	-9222
▁muscles	-9223
▁examined	-9224
▁supports	-9225
▁depending	-9226
▁questioned	-9227
▁Destination	-9228
▁cultivation	-9229
▁arrangements	-9230
▁productivity	-9231
ss	-9232
▁mud	-9233
▁Coll	-9234
▁boot	-9235
▁genu	-9236
▁Music	-9237
▁meter	-9238
▁souls	-9239
▁chairs	-9240
▁recurs	-9241
▁tribal	-9242
▁Request	-9243
▁Various	-9244
▁vitamin	-9245
▁Electric	-9246
▁Everyone	-9247
▁Northern	-9248
▁accommod	-9249
▁statusbar	-9250
▁livelihood	-9251
▁LD	-9252
▁SU	-9253
itud	-9254
▁Uzb	-9255
▁mob	-9256
▁disg	-9257
▁outd	-9258
▁urge	-9259
▁tears	-9260
ogether	-9261
▁County	-9262
▁Indira	-9263
▁prohib	-9264
▁resemb	-9265
▁Turkish	-9266
▁harmony	-9267
▁noticed	-9268
▁detected	-9269
▁handling	-9270
▁wherever	-9271
▁GREETINGS	-9272
▁indicates	-9273
▁listening	-9274
▁Subversion	-9275
▁whatsoever	-9276
rer	-9277
rob	-9278
uit	-9279
▁cm	-9280
airy	-9281
eath	-9282
onut	-9283
▁186	-9284
▁rhy	-9285
herry	-9286
▁Crit	-9287
▁PRAN	-9288
▁germ	-9289
▁adults	-9290
▁airplanes	-9291
▁credential	-9292
▁newspapers	-9293
mony	-9294
nath	-9295
▁Syn	-9296
bacco	-9297
▁HTTP	-9298
▁whis	-9299
orious	-9300
plicit	-9301
▁guests	-9302
▁repair	-9303
▁stress	-9304
▁License	-9305
▁Wildlife	-9306
▁colleges	-9307
▁hundreds	-9308
▁specially	-9309
▁guidelines	-9310
▁remembered	-9311
▁Infrastructure	-9312
DI	-9313
isor	-9314
olve	-9315
▁Pul	-9316
▁XML	-9317
assed	-9318
▁Chak	-9319
▁tray	-9320
inking	-9321
ricted	-9322
▁Books	-9323
▁Merge	-9324
▁evalu	-9325
▁Deputy	-9326
▁Survey	-9327
▁Machine	-9328
▁curtain	-9329
▁farming	-9330
▁shelter	-9331
▁trusted	-9332
ufficient	-9333
▁machines	-9334
▁replaced	-9335
▁requests	-9336
▁contributed	-9337
ias	-9338
▁39	-9339
comp	-9340
▁Tre	-9341
hesis	-9342
▁Fest	-9343
▁Mich	-9344
▁Vict	-9345
▁merg	-9346
asures	-9347
▁Vivek	-9348
▁Determ	-9349
▁Medium	-9350
ruitment	-9351
▁Payment	-9352
▁instant	-9353
▁nearest	-9354
▁opposed	-9355
▁passion	-9356
▁Terminal	-9357
▁Reference	-9358
▁qualities	-9359
▁screenshot	-9360
▁distinguished	-9361
lay	-9362
▁OS	-9363
uran	-9364
▁BAR	-9365
▁Ham	-9366
▁Ten	-9367
ulent	-9368
▁Indo	-9369
urable	-9370
▁Blank	-9371
▁Saint	-9372
▁coven	-9373
▁midst	-9374
▁tiger	-9375
▁divers	-9376
▁empire	-9377
▁Empathy	-9378
▁beneath	-9379
▁dynamic	-9380
▁Printing	-9381
▁Required	-9382
▁attended	-9383
▁graphics	-9384
▁Protection	-9385
▁influenced	-9386
mas	-9387
▁dh	-9388
esis	-9389
▁Hem	-9390
▁vag	-9391
▁1990	-9392
▁Decl	-9393
▁fond	-9394
▁inev	-9395
▁Vedas	-9396
▁adorn	-9397
▁nemat	-9398
▁bearing	-9399
▁binding	-9400
▁dollars	-9401
▁females	-9402
▁generate	-9403
▁restroom	-9404
▁Languages	-9405
▁Encryption	-9406
▁establishment	-9407
SE	-9408
aryn	-9409
elic	-9410
isal	-9411
more	-9412
▁dil	-9413
▁fro	-9414
▁sty	-9415
DRESS	-9416
urred	-9417
▁Math	-9418
▁Swed	-9419
▁Sahib	-9420
▁cryst	-9421
▁hence	-9422
▁Turkey	-9423
▁bottle	-9424
▁logged	-9425
▁poetic	-9426
▁render	-9427
▁glorify	-9428
▁largely	-9429
▁triumph	-9430
criptions	-9431
▁captured	-9432
▁satisfied	-9433
▁Collection	-9434
▁inspiration	-9435
▁congratulate	-9436
vent	-9437
▁Hig	-9438
▁Kat	-9439
▁cel	-9440
▁Pause	-9441
▁enhan	-9442
▁idols	-9443
▁overw	-9444
▁Client	-9445
▁plaint	-9446
▁reload	-9447
▁Schemes	-9448
▁housing	-9449
▁airports	-9450
▁Municipal	-9451
▁Scheduled	-9452
▁earthquake	-9453
▁residential	-9454
▁EN	-9455
agra	-9456
odal	-9457
▁Beh	-9458
▁Den	-9459
▁Foc	-9460
▁Ken	-9461
▁kin	-9462
▁1998	-9463
▁Item	-9464
▁aged	-9465
abetes	-9466
illary	-9467
▁Cabin	-9468
▁beast	-9469
▁Visual	-9470
▁manual	-9471
▁plenty	-9472
▁Hearing	-9473
▁diagram	-9474
▁leaning	-9475
▁combined	-9476
▁feelings	-9477
▁infinite	-9478
▁inflation	-9479
▁reckoning	-9480
▁Assistance	-9481
▁equivalent	-9482
▁contributions	-9483
TC	-9484
gon	-9485
text	-9486
▁Haz	-9487
▁Kon	-9488
adata	-9489
izers	-9490
utter	-9491
▁1947	-9492
▁Fran	-9493
▁Kind	-9494
▁arts	-9495
▁pron	-9496
▁breat	-9497
▁gates	-9498
▁spray	-9499
▁picked	-9500
▁Setting	-9501
▁dressed	-9502
▁pressed	-9503
▁Function	-9504
▁glorious	-9505
▁surgical	-9506
▁Subscribe	-9507
▁skateboard	-9508
▁commodities	-9509
▁environmental	-9510
AO	-9511
HA	-9512
itic	-9513
rine	-9514
▁Cup	-9515
▁Kol	-9516
▁Obs	-9517
chers	-9518
ercul	-9519
▁Govt	-9520
▁dies	-9521
liness	-9522
▁Bring	-9523
▁Estab	-9524
▁embry	-9525
▁reads	-9526
▁upset	-9527
▁Worlds	-9528
▁guides	-9529
▁passes	-9530
▁Highway	-9531
▁apostle	-9532
▁behavior	-9533
▁constitu	-9534
▁Requested	-9535
▁attracted	-9536
▁territory	-9537
▁respective	-9538
▁tremendous	-9539
▁transformation	-9540
GR	-9541
oa	-9542
▁त	-9543
ASS	-9544
MOR	-9545
▁51	-9546
orph	-9547
▁Abd	-9548
▁hes	-9549
rahim	-9550
▁Gate	-9551
▁Near	-9552
▁lion	-9553
uggage	-9554
▁Apart	-9555
▁Mexic	-9556
▁blast	-9557
▁dealt	-9558
▁liars	-9559
▁steam	-9560
▁bitter	-9561
▁condol	-9562
▁fairly	-9563
▁incent	-9564
▁puzzle	-9565
▁theirs	-9566
▁ADDRESS	-9567
▁founded	-9568
▁Cyrillic	-9569
▁Original	-9570
▁Priority	-9571
▁weakness	-9572
▁enjoyment	-9573
▁judgement	-9574
▁Simulation	-9575
▁downloaded	-9576
▁integration	-9577
▁Universities	-9578
▁organizations	-9579
ATI	-9580
▁55	-9581
▁IB	-9582
arct	-9583
soon	-9584
uram	-9585
utch	-9586
▁Oil	-9587
▁bid	-9588
▁lod	-9589
stone	-9590
▁Snow	-9591
▁amid	-9592
▁angry	-9593
▁goals	-9594
▁irrit	-9595
▁Backup	-9596
▁Images	-9597
▁Narayan	-9598
▁backward	-9599
▁intended	-9600
▁precious	-9601
▁somewhat	-9602
▁Amendment	-9603
▁Bluetooth	-9604
▁classical	-9605
▁excessive	-9606
▁interview	-9607
▁unavailable	-9608
▁achievements	-9609
▁intelligence	-9610
▁approximately	-9611
▁Jal	-9612
▁Sou	-9613
▁mun	-9614
ckets	-9615
▁1000	-9616
▁Camp	-9617
▁Deep	-9618
▁coat	-9619
▁stub	-9620
▁Ocean	-9621
▁discl	-9622
▁cement	-9623
▁paying	-9624
▁Reading	-9625
▁enjoyed	-9626
▁mortgage	-9627
▁surprise	-9628
▁Professor	-9629
▁succeeded	-9630
▁Guidelines	-9631
▁passphrase	-9632
▁translator	-9633
▁transferred	-9634
▁BY	-9635
▁CV	-9636
card	-9637
xide	-9638
▁Gar	-9639
▁Jab	-9640
▁Squ	-9641
▁haz	-9642
▁ske	-9643
▁Kath	-9644
▁push	-9645
▁ster	-9646
▁Citiz	-9647
▁arise	-9648
▁claims	-9649
▁strive	-9650
▁breasts	-9651
reciation	-9652
▁Birthday	-9653
▁facilitate	-9654
▁contemporary	-9655
ROM	-9656
▁AL	-9657
▁GC	-9658
▁PC	-9659
oshi	-9660
▁Alt	-9661
▁rig	-9662
▁vel	-9663
chief	-9664
itter	-9665
▁Vill	-9666
▁cock	-9667
▁fate	-9668
▁tone	-9669
▁Appro	-9670
▁Match	-9671
▁Units	-9672
▁burnt	-9673
▁haply	-9674
▁lakhs	-9675
▁paint	-9676
▁binary	-9677
▁fallen	-9678
▁talent	-9679
▁doctors	-9680
▁enlight	-9681
▁Commerce	-9682
▁realised	-9683
▁container	-9684
▁reflected	-9685
▁traditions	-9686
▁surrounding	-9687
▁transparent	-9688
▁SM	-9689
▁Ut	-9690
babu	-9691
▁elab	-9692
edient	-9693
▁coord	-9694
▁saint	-9695
▁sword	-9696
▁encomp	-9697
▁firmly	-9698
▁pedest	-9699
▁transf	-9700
ibraries	-9701
▁Infobox	-9702
▁Opening	-9703
▁conflic	-9704
▁bounties	-9705
▁circular	-9706
▁financing	-9707
▁personnel	-9708
▁witnesses	-9709
▁Foundation	-9710
▁significance	-9711
ki	-9712
kal	-9713
▁NU	-9714
▁ul	-9715
atra	-9716
iary	-9717
▁Sit	-9718
▁Ven	-9719
adium	-9720
ooter	-9721
uting	-9722
▁Phil	-9723
▁Priy	-9724
▁gest	-9725
eshwar	-9726
rowave	-9727
▁Chrom	-9728
▁decay	-9729
▁memor	-9730
▁Korean	-9731
▁Kovind	-9732
▁copies	-9733
▁Cabinet	-9734
▁Success	-9735
▁alphabet	-9736
▁monetary	-9737
▁blessings	-9738
▁entrusted	-9739
▁executive	-9740
▁Commercial	-9741
▁communications	-9742
udh	-9743
upon	-9744
▁IIT	-9745
agari	-9746
▁Jack	-9747
▁Sidd	-9748
▁deed	-9749
▁pace	-9750
cluded	-9751
olated	-9752
▁Front	-9753
▁fraud	-9754
▁gains	-9755
ternoon	-9756
▁handed	-9757
▁metres	-9758
▁socket	-9759
▁specim	-9760
▁creates	-9761
▁killing	-9762
▁smiling	-9763
▁deceased	-9764
▁earliest	-9765
▁treasure	-9766
▁Important	-9767
▁corrupted	-9768
▁entertain	-9769
▁du	-9770
ques	-9771
▁Dip	-9772
▁Fun	-9773
▁Ice	-9774
▁Yam	-9775
▁swo	-9776
ivals	-9777
pered	-9778
ville	-9779
▁Nare	-9780
▁doom	-9781
▁lust	-9782
▁boxes	-9783
▁brave	-9784
▁dense	-9785
▁rupee	-9786
▁saith	-9787
▁shame	-9788
▁Behold	-9789
▁Cursor	-9790
▁Shared	-9791
▁burned	-9792
▁convin	-9793
▁entity	-9794
▁novels	-9795
▁posted	-9796
▁tested	-9797
▁walked	-9798
▁Regular	-9799
▁avoided	-9800
▁dismiss	-9801
▁pending	-9802
▁estimate	-9803
▁thorough	-9804
▁processed	-9805
▁operational	-9806
▁possibility	-9807
UE	-9808
bre	-9809
amba	-9810
emic	-9811
▁Til	-9812
ensus	-9813
▁Repe	-9814
▁pest	-9815
▁spir	-9816
▁Debug	-9817
▁Polit	-9818
▁Using	-9819
▁bears	-9820
▁grief	-9821
▁immun	-9822
▁steep	-9823
▁Budget	-9824
▁ending	-9825
▁fought	-9826
▁models	-9827
▁Digital	-9828
▁imposed	-9829
▁venture	-9830
▁Provided	-9831
▁Starting	-9832
▁discount	-9833
▁disciples	-9834
▁varieties	-9835
▁separately	-9836
▁determination	-9837
iar	-9838
zil	-9839
▁PL	-9840
amma	-9841
etan	-9842
uddy	-9843
▁ego	-9844
cence	-9845
urbed	-9846
▁1950	-9847
▁Synt	-9848
▁tags	-9849
orship	-9850
▁charm	-9851
▁films	-9852
▁foods	-9853
▁barren	-9854
▁compat	-9855
▁judges	-9856
▁united	-9857
ordinary	-9858
▁harmful	-9859
▁helping	-9860
▁streams	-9861
▁Atlantic	-9862
▁Railways	-9863
▁ceremony	-9864
▁dwelling	-9865
▁maturity	-9866
▁reserved	-9867
▁indicator	-9868
▁returning	-9869
▁authenticate	-9870
KH	-9871
▁DP	-9872
▁Isa	-9873
▁Rub	-9874
▁gro	-9875
▁lid	-9876
▁Pain	-9877
▁peak	-9878
▁suck	-9879
akrish	-9880
▁Multi	-9881
▁alter	-9882
▁grade	-9883
▁honey	-9884
▁Bhagat	-9885
▁debate	-9886
▁indian	-9887
▁invent	-9888
▁permit	-9889
▁alcohol	-9890
▁customs	-9891
▁pillars	-9892
▁commanded	-9893
▁commodity	-9894
▁somewhere	-9895
▁wonderful	-9896
▁Thereafter	-9897
▁attractive	-9898
▁determines	-9899
▁integrated	-9900
▁reasonable	-9901
cho	-9902
kin	-9903
▁99	-9904
▁HP	-9905
▁ma	-9906
gian	-9907
rium	-9908
uter	-9909
▁Gab	-9910
▁Kav	-9911
▁ham	-9912
anger	-9913
itals	-9914
▁Audit	-9915
▁Cross	-9916
▁Until	-9917
▁Tender	-9918
▁assemb	-9919
▁throat	-9920
▁Centres	-9921
▁fifteen	-9922
▁lasting	-9923
▁outcome	-9924
▁smoking	-9925
▁younger	-9926
▁Maharaja	-9927
▁incorpor	-9928
▁proclaim	-9929
▁proposals	-9930
▁threshold	-9931
▁yesterday	-9932
▁translated	-9933
▁Administration	-9934
CD	-9935
SA	-9936
▁प	-9937
imp	-9938
orse	-9939
▁1992	-9940
▁Tend	-9941
elfare	-9942
leness	-9943
▁Amrit	-9944
▁Recip	-9945
▁Times	-9946
▁climb	-9947
▁merit	-9948
▁invite	-9949
▁Hindust	-9950
▁Ibrahim	-9951
▁Mailbox	-9952
▁exalted	-9953
▁glasses	-9954
▁intense	-9955
▁whereas	-9956
▁Building	-9957
▁Recently	-9958
▁hardship	-9959
▁southern	-9960
▁electrical	-9961
▁supporting	-9962
pad	-9963
▁GU	-9964
▁NG	-9965
▁Heb	-9966
▁rod	-9967
asses	-9968
idity	-9969
igarh	-9970
izard	-9971
▁1957	-9972
▁Alex	-9973
▁Bhut	-9974
▁Exit	-9975
▁Megh	-9976
▁Mill	-9977
▁Frequ	-9978
▁blown	-9979
▁canal	-9980
▁dates	-9981
▁sperm	-9982
▁yours	-9983
rection	-9984
▁Territ	-9985
▁sticky	-9986
▁vector	-9987
▁readers	-9988
▁recited	-9989
▁discharg	-9990
▁stations	-9991
▁Statement	-9992
▁resistance	-9993
ATH	-9994
eta	-9995
▁54	-9996
▁SSL	-9997
▁nic	-9998
ainer	-9999
group	-10000
▁Rani	-10001
actory	-10002
issible	-10003
▁Answer	-10004
▁grains	-10005
▁powder	-10006
▁scales	-10007
ibration	-10008
▁Average	-10009
▁Welfare	-10010
▁William	-10011
▁distant	-10012
▁logical	-10013
▁Planning	-10014
▁Question	-10015
▁payments	-10016
▁playback	-10017
▁alongside	-10018
▁consumers	-10019
▁incorrect	-10020
▁measuring	-10021
▁Integrated	-10022
▁participate	-10023
▁characteristic	-10024
dy	-10025
das	-10026
eem	-10027
eer	-10028
▁Dw	-10029
adur	-10030
ario	-10031
▁Oft	-10032
▁Yah	-10033
▁rope	-10034
▁Blood	-10035
▁Deleg	-10036
▁Price	-10037
▁Rights	-10038
▁Sunday	-10039
▁simult	-10040
▁dignity	-10041
▁inhabit	-10042
▁controls	-10043
▁offering	-10044
▁Copyright	-10045
▁Executive	-10046
▁afternoon	-10047
▁voluntary	-10048
▁calculated	-10049
▁invitation	-10050
▁techniques	-10051
▁calculation	-10052
▁Introduction	-10053
▁Parliamentary	-10054
▁AC	-10055
anti	-10056
bing	-10057
leum	-10058
▁125	-10059
▁III	-10060
▁Mut	-10061
power	-10062
▁epis	-10063
▁exha	-10064
▁lens	-10065
▁AWARD	-10066
▁Malay	-10067
▁Patna	-10068
▁lymph	-10069
viation	-10070
▁Sender	-10071
▁Telugu	-10072
▁bamboo	-10073
▁purple	-10074
▁compact	-10075
▁couches	-10076
▁filters	-10077
▁genetic	-10078
▁genuine	-10079
▁helpful	-10080
▁luggage	-10081
▁Straight	-10082
▁apostles	-10083
▁emphasis	-10084
▁immortal	-10085
▁indicate	-10086
▁networks	-10087
▁swimming	-10088
▁Agreement	-10089
▁Bangalore	-10090
▁Examination	-10091
▁accessibility	-10092
▁AM	-10093
adra	-10094
anna	-10095
▁Got	-10096
▁Ish	-10097
inces	-10098
▁Hary	-10099
▁Pray	-10100
▁Sank	-10101
▁fees	-10102
▁penis	-10103
▁talks	-10104
▁tends	-10105
▁tired	-10106
▁Layout	-10107
▁Swaraj	-10108
▁Thread	-10109
▁bushes	-10110
▁mathem	-10111
▁namely	-10112
▁compuls	-10113
▁Moreover	-10114
▁Possible	-10115
▁believes	-10116
▁preserve	-10117
▁Interface	-10118
▁assuredly	-10119
▁recurring	-10120
aph	-10121
uda	-10122
▁Wr	-10123
arts	-10124
omas	-10125
▁WIT	-10126
▁1996	-10127
▁FROM	-10128
▁gear	-10129
▁info	-10130
▁symp	-10131
▁worm	-10132
▁horiz	-10133
▁persu	-10134
▁snowy	-10135
▁Border	-10136
▁Colors	-10137
▁Robots	-10138
▁differ	-10139
▁mature	-10140
▁pestic	-10141
▁Cricket	-10142
▁Running	-10143
▁leather	-10144
▁periods	-10145
▁guardian	-10146
▁Himalayas	-10147
▁Temporary	-10148
▁alignment	-10149
▁dimension	-10150
▁unsupported	-10151
▁Implementation	-10152
DL	-10153
je	-10154
uts	-10155
▁Rao	-10156
▁cub	-10157
attis	-10158
▁Exec	-10159
▁Role	-10160
▁Sets	-10161
▁beet	-10162
▁subf	-10163
▁Broad	-10164
▁Fetch	-10165
▁Truly	-10166
▁jinns	-10167
▁males	-10168
▁posts	-10169
▁strip	-10170
▁Canada	-10171
▁Widget	-10172
▁stable	-10173
▁talked	-10174
▁Instead	-10175
▁embedded	-10176
▁northern	-10177
▁pregnant	-10178
▁identifier	-10179
▁worshipped	-10180
▁orientation	-10181
Os	-10182
igg	-10183
▁43	-10184
bled	-10185
oria	-10186
▁Bod	-10187
▁Lin	-10188
▁pin	-10189
▁une	-10190
▁Prat	-10191
▁Till	-10192
▁Vidy	-10193
▁calf	-10194
▁corn	-10195
▁gang	-10196
▁hook	-10197
▁trap	-10198
▁Notes	-10199
▁alert	-10200
▁frust	-10201
▁urine	-10202
▁Applet	-10203
▁Hebrew	-10204
▁Lahore	-10205
▁aggreg	-10206
▁buying	-10207
▁cipher	-10208
▁nobody	-10209
▁Academy	-10210
▁Manipur	-10211
▁amounts	-10212
▁barrier	-10213
▁cluster	-10214
▁lecture	-10215
▁lending	-10216
▁criteria	-10217
▁literacy	-10218
▁shoulder	-10219
▁Specifies	-10220
▁mandatory	-10221
▁procedures	-10222
▁travelling	-10223
▁Downloading	-10224
▁56	-10225
▁85	-10226
▁FA	-10227
▁Ki	-10228
▁Mi	-10229
agus	-10230
cure	-10231
ndra	-10232
oves	-10233
▁Hyd	-10234
▁NAB	-10235
▁SRI	-10236
lines	-10237
▁Ball	-10238
▁Fast	-10239
▁Narm	-10240
▁Skip	-10241
▁dipl	-10242
▁gran	-10243
▁mood	-10244
▁tent	-10245
isting	-10246
spring	-10247
▁Range	-10248
▁coins	-10249
ormally	-10250
▁Antarct	-10251
▁Creator	-10252
▁Speaker	-10253
▁ceiling	-10254
▁widgets	-10255
▁imperial	-10256
▁emotional	-10257
▁witnessed	-10258
▁institutes	-10259
▁obligation	-10260
▁satisfaction	-10261
CA	-10262
▁MU	-10263
ashi	-10264
▁Ord	-10265
ceeds	-10266
ingly	-10267
▁1995	-10268
▁logs	-10269
▁Alpha	-10270
▁Goods	-10271
▁Nanak	-10272
▁Smart	-10273
▁goats	-10274
▁paste	-10275
▁stake	-10276
▁Debugg	-10277
▁invoke	-10278
▁Visible	-10279
▁arrival	-10280
▁console	-10281
▁precise	-10282
▁authentic	-10283
▁experienced	-10284
▁representation	-10285
▁representative	-10286
erk	-10287
fly	-10288
iki	-10289
was	-10290
▁GP	-10291
atri	-10292
▁ANN	-10293
▁gap	-10294
▁pep	-10295
▁tap	-10296
icide	-10297
omous	-10298
▁Hill	-10299
▁Ashok	-10300
▁Fixed	-10301
▁Legal	-10302
▁eject	-10303
▁needy	-10304
▁optim	-10305
▁regul	-10306
▁shelf	-10307
▁decade	-10308
▁tennis	-10309
▁Brahmin	-10310
▁Chapter	-10311
▁attacks	-10312
▁diverse	-10313
▁exposed	-10314
▁worried	-10315
▁Contract	-10316
▁Progress	-10317
▁Himalayan	-10318
▁steadfast	-10319
▁Unexpected	-10320
▁discussions	-10321
▁transmitted	-10322
▁conservation	-10323
HI	-10324
▁eve	-10325
▁kne	-10326
▁tin	-10327
archy	-10328
▁1997	-10329
▁Acts	-10330
▁Grow	-10331
▁Subt	-10332
▁rejo	-10333
▁unre	-10334
▁wool	-10335
terior	-10336
▁Bhatt	-10337
▁Queen	-10338
▁calam	-10339
▁rides	-10340
▁twain	-10341
▁worse	-10342
▁refuse	-10343
atellite	-10344
▁Haryana	-10345
▁coconut	-10346
▁faculty	-10347
▁mineral	-10348
▁pointer	-10349
▁announce	-10350
▁coloured	-10351
▁Overwrite	-10352
▁referring	-10353
▁Dictionary	-10354
▁adjustment	-10355
▁approaches	-10356
▁consequences	-10357
▁characteristics	-10358
ju	-10359
▁66	-10360
▁BO	-10361
vati	-10362
wara	-10363
▁Din	-10364
▁INA	-10365
▁Moz	-10366
▁ell	-10367
▁tip	-10368
▁LDAP	-10369
▁Less	-10370
▁Perc	-10371
▁Prab	-10372
▁Pref	-10373
▁Veda	-10374
▁calm	-10375
▁semi	-10376
▁tens	-10377
▁Lower	-10378
▁Repos	-10379
▁enorm	-10380
▁thorn	-10381
▁Random	-10382
▁stroke	-10383
ployment	-10384
▁Discard	-10385
▁anybody	-10386
▁envelop	-10387
▁musical	-10388
▁pursued	-10389
▁Movement	-10390
▁decrease	-10391
▁Different	-10392
▁Inspector	-10393
▁Procedure	-10394
▁improving	-10395
▁literally	-10396
vy	-10397
anz	-10398
ctu	-10399
aque	-10400
aras	-10401
ebra	-10402
eper	-10403
ford	-10404
plog	-10405
ulus	-10406
unci	-10407
▁115	-10408
▁400	-10409
▁Sum	-10410
▁Vik	-10411
ncing	-10412
otism	-10413
▁Bird	-10414
▁Gadu	-10415
▁Modi	-10416
▁dict	-10417
▁hire	-10418
▁shed	-10419
▁wake	-10420
▁Compl	-10421
▁Khand	-10422
▁norms	-10423
▁Compos	-10424
▁Little	-10425
▁chains	-10426
▁gained	-10427
▁Britain	-10428
▁enforce	-10429
▁imports	-10430
▁liberal	-10431
▁rainfall	-10432
▁shopping	-10433
▁endeavour	-10434
▁indicated	-10435
▁intention	-10436
▁numerator	-10437
▁spreading	-10438
▁corporation	-10439
▁distinction	-10440
▁imagination	-10441
nia	-10442
▁SO	-10443
appy	-10444
oven	-10445
ulum	-10446
wide	-10447
▁Gib	-10448
▁dow	-10449
▁ric	-10450
thren	-10451
▁Anim	-10452
▁Cash	-10453
▁goat	-10454
▁mart	-10455
▁unem	-10456
▁Bless	-10457
▁Latin	-10458
▁Plain	-10459
▁relax	-10460
▁tempt	-10461
itative	-10462
▁Notice	-10463
▁Wealth	-10464
▁monkey	-10465
▁nearer	-10466
plogroup	-10467
quarters	-10468
▁Headers	-10469
▁Someone	-10470
▁offence	-10471
▁virtuous	-10472
▁Companies	-10473
▁villagers	-10474
▁publication	-10475
▁comprehensive	-10476
PN	-10477
bow	-10478
iser	-10479
iven	-10480
mist	-10481
▁Exc	-10482
▁OFF	-10483
▁mas	-10484
▁Trip	-10485
▁seas	-10486
▁tack	-10487
▁unaw	-10488
MORROW	-10489
▁Exper	-10490
▁Spell	-10491
▁risks	-10492
▁Really	-10493
▁plains	-10494
▁quoted	-10495
▁thirst	-10496
▁Express	-10497
▁pasture	-10498
▁survive	-10499
▁volumes	-10500
▁TOMORROW	-10501
▁constell	-10502
▁dividend	-10503
▁pleasant	-10504
▁studying	-10505
▁impression	-10506
▁organisations	-10507
▁transgressors	-10508
PM	-10509
ael	-10510
bor	-10511
omot	-10512
▁SAW	-10513
▁gal	-10514
▁Dise	-10515
▁Warn	-10516
▁neut	-10517
efully	-10518
▁liver	-10519
▁pearl	-10520
▁engage	-10521
▁inject	-10522
▁perish	-10523
▁posing	-10524
▁Italian	-10525
▁deities	-10526
▁weapons	-10527
▁historic	-10528
▁measured	-10529
▁provider	-10530
▁Completed	-10531
▁expensive	-10532
▁intestine	-10533
▁prevented	-10534
▁departments	-10535
umps	-10536
▁DNA	-10537
▁toy	-10538
▁1980	-10539
▁Gall	-10540
▁bits	-10541
▁epic	-10542
▁pard	-10543
▁togg	-10544
▁Binoy	-10545
▁Hyper	-10546
▁bonds	-10547
▁exped	-10548
▁mould	-10549
▁prest	-10550
▁stack	-10551
▁Terror	-10552
▁Throne	-10553
▁Within	-10554
▁copper	-10555
▁native	-10556
▁robots	-10557
▁skelet	-10558
▁wished	-10559
▁crucial	-10560
▁disobey	-10561
▁examine	-10562
▁secular	-10563
▁tableau	-10564
ilitation	-10565
▁Synchron	-10566
▁breaking	-10567
▁imprison	-10568
▁Establish	-10569
▁graphical	-10570
▁deficiency	-10571
▁wrongdoers	-10572
▁Appointment	-10573
DM	-10574
EA	-10575
agg	-10576
ahal	-10577
eros	-10578
▁Too	-10579
▁Lead	-10580
▁Vice	-10581
▁untr	-10582
▁James	-10583
▁relie	-10584
▁Altern	-10585
▁digest	-10586
▁encoun	-10587
▁equity	-10588
▁tempor	-10589
▁uterus	-10590
▁Storage	-10591
▁Whoever	-10592
▁outdoor	-10593
▁quarrel	-10594
▁realise	-10595
▁texture	-10596
▁commerce	-10597
▁confined	-10598
▁covenant	-10599
▁Judgement	-10600
▁Sanctuary	-10601
▁Scripture	-10602
▁microwave	-10603
▁modifying	-10604
▁resulting	-10605
▁Production	-10606
▁boundaries	-10607
▁scriptures	-10608
▁governments	-10609
▁measurement	-10610
▁represented	-10611
12	-10612
avy	-10613
cue	-10614
▁Fi	-10615
enda	-10616
neum	-10617
rise	-10618
urna	-10619
▁Cho	-10620
▁PIN	-10621
▁bin	-10622
▁mol	-10623
▁pel	-10624
arium	-10625
ocity	-10626
▁Arun	-10627
▁COND	-10628
▁Poll	-10629
▁rust	-10630
▁snap	-10631
▁Congo	-10632
▁afore	-10633
▁swall	-10634
▁NUMBER	-10635
▁bounty	-10636
▁graves	-10637
▁ledger	-10638
▁shrine	-10639
▁Culture	-10640
▁enables	-10641
▁innocent	-10642
▁favourite	-10643
▁particles	-10644
▁JavaScript	-10645
auc	-10646
▁Pu	-10647
▁Si	-10648
hess	-10649
ipse	-10650
lord	-10651
vity	-10652
▁Imm	-10653
▁Lou	-10654
▁muc	-10655
▁shy	-10656
▁Mass	-10657
▁Sach	-10658
▁loop	-10659
▁Coast	-10660
▁cable	-10661
▁dying	-10662
▁penet	-10663
▁waves	-10664
onymous	-10665
▁Giraff	-10666
▁assign	-10667
▁babies	-10668
▁eleven	-10669
▁keymap	-10670
▁purity	-10671
▁sovere	-10672
▁protest	-10673
▁Ayurveda	-10674
▁abundant	-10675
▁indirect	-10676
▁strongly	-10677
▁abandoned	-10678
▁frequency	-10679
▁positions	-10680
▁possessed	-10681
▁conclusion	-10682
▁statements	-10683
▁Inflammation	-10684
uce	-10685
oult	-10686
shan	-10687
▁Age	-10688
▁Nas	-10689
▁RTI	-10690
erred	-10691
inous	-10692
range	-10693
rious	-10694
▁Bhai	-10695
▁Grid	-10696
▁brah	-10697
▁vote	-10698
▁Motor	-10699
▁Share	-10700
▁Surat	-10701
▁Users	-10702
▁guest	-10703
▁towel	-10704
▁decree	-10705
▁prayed	-10706
▁snakes	-10707
▁unseen	-10708
▁Factory	-10709
▁Picture	-10710
▁discrim	-10711
▁Consumer	-10712
▁Universe	-10713
▁confused	-10714
▁defeated	-10715
▁resolved	-10716
▁believing	-10717
▁Fullscreen	-10718
▁mechanical	-10719
▁determining	-10720
ajan	-10721
iest	-10722
step	-10723
▁fur	-10724
▁Case	-10725
▁Coun	-10726
▁Rock	-10727
▁Shar	-10728
▁WITH	-10729
▁indu	-10730
▁seiz	-10731
roleum	-10732
▁Purch	-10733
▁begun	-10734
▁cough	-10735
▁enact	-10736
▁paddy	-10737
ideshow	-10738
▁Netaji	-10739
▁Transp	-10740
▁marvel	-10741
▁Bahadur	-10742
▁Lucknow	-10743
▁charity	-10744
▁savings	-10745
attisgarh	-10746
▁Festival	-10747
▁compiler	-10748
▁dramatic	-10749
▁medicines	-10750
▁Haplogroup	-10751
▁controller	-10752
▁effectively	-10753
kes	-10754
bars	-10755
▁Pil	-10756
▁SCH	-10757
▁cha	-10758
▁ved	-10759
ammed	-10760
rance	-10761
▁clin	-10762
▁dumb	-10763
▁wand	-10764
urrect	-10765
▁Ganes	-10766
▁Links	-10767
▁seeks	-10768
▁setup	-10769
imental	-10770
sequent	-10771
▁INDIAN	-10772
▁Modify	-10773
▁insult	-10774
▁levied	-10775
▁resear	-10776
▁consent	-10777
▁crowded	-10778
▁fearing	-10779
▁rightly	-10780
▁urinals	-10781
▁patterns	-10782
▁prospect	-10783
▁timezone	-10784
▁resurrect	-10785
▁sanctioned	-10786
▁substitute	-10787
▁composition	-10788
▁interaction	-10789
▁sustainable	-10790
▁multiplication	-10791
Cal	-10792
afe	-10793
occ	-10794
UGUR	-10795
alli	-10796
▁Bol	-10797
acent	-10798
araja	-10799
ariat	-10800
opher	-10801
utosh	-10802
▁Azad	-10803
▁bush	-10804
▁caut	-10805
▁deer	-10806
▁rack	-10807
▁soap	-10808
charge	-10809
commun	-10810
inates	-10811
▁Indic	-10812
▁Usage	-10813
▁cater	-10814
▁finds	-10815
▁swift	-10816
▁Sahdev	-10817
▁asleep	-10818
▁infant	-10819
ithmetic	-10820
▁Actions	-10821
▁Collect	-10822
▁INAUGUR	-10823
▁assumed	-10824
▁emperor	-10825
▁monsoon	-10826
▁reverse	-10827
▁skilled	-10828
▁breeding	-10829
▁cleaning	-10830
▁emerging	-10831
▁rotation	-10832
▁Premchand	-10833
▁basically	-10834
▁offspring	-10835
erb	-10836
▁Mc	-10837
fare	-10838
▁Mel	-10839
▁Tub	-10840
▁Half	-10841
▁cure	-10842
▁succ	-10843
▁shops	-10844
▁tribe	-10845
▁COMMER	-10846
▁Series	-10847
▁injust	-10848
▁mortal	-10849
▁Include	-10850
▁serving	-10851
▁shining	-10852
erculosis	-10853
▁Register	-10854
▁resulted	-10855
cellaneous	-10856
▁candidate	-10857
▁scheduled	-10858
▁stability	-10859
▁configured	-10860
▁controvers	-10861
▁subfolders	-10862
▁restrictions	-10863
▁extraordinary	-10864
FC	-10865
API	-10866
axy	-10867
kim	-10868
arse	-10869
▁Hen	-10870
▁Rai	-10871
▁dot	-10872
▁rib	-10873
CTION	-10874
isite	-10875
utory	-10876
▁Body	-10877
▁Pant	-10878
enance	-10879
omever	-10880
▁Along	-10881
▁Extra	-10882
amation	-10883
matical	-10884
▁Margin	-10885
▁Notify	-10886
▁Others	-10887
▁subsid	-10888
▁Spanish	-10889
▁singing	-10890
▁Creation	-10891
▁Particip	-10892
▁autocomp	-10893
▁brethren	-10894
▁clicking	-10895
▁gradient	-10896
▁mischief	-10897
▁overlook	-10898
▁filtering	-10899
▁medicinal	-10900
▁obviously	-10901
▁privilege	-10902
▁reduction	-10903
▁scientist	-10904
▁Subscriber	-10905
▁eventually	-10906
▁disbelieved	-10907
▁Institutions	-10908
▁investigation	-10909
▁46	-10910
amar	-10911
char	-10912
iana	-10913
osph	-10914
▁Bed	-10915
▁Miz	-10916
▁lap	-10917
inema	-10918
ograp	-10919
▁1948	-10920
▁lift	-10921
erable	-10922
herent	-10923
▁Model	-10924
▁boost	-10925
▁bride	-10926
▁fatal	-10927
▁patch	-10928
▁winds	-10929
▁Attrib	-10930
▁helmet	-10931
▁verbal	-10932
▁Shankar	-10933
▁bananas	-10934
▁empower	-10935
▁premium	-10936
▁Allowance	-10937
▁gathering	-10938
▁intensity	-10939
▁inspection	-10940
▁व	-10941
bly	-10942
cam	-10943
nex	-10944
aine	-10945
asha	-10946
burg	-10947
ifts	-10948
okes	-10949
▁Jac	-10950
▁por	-10951
water	-10952
▁1991	-10953
▁Clip	-10954
▁Gora	-10955
▁Kitt	-10956
▁cust	-10957
▁irre	-10958
▁ware	-10959
▁Abdul	-10960
▁Urban	-10961
▁motiv	-10962
▁therm	-10963
▁AWARDS	-10964
▁Courts	-10965
▁Rather	-10966
▁Thomas	-10967
▁honest	-10968
▁utmost	-10969
▁Brahman	-10970
▁capture	-10971
▁fighter	-10972
▁lessons	-10973
▁COMMERCE	-10974
▁overwhel	-10975
▁Generally	-10976
▁Resources	-10977
▁confusion	-10978
▁appreciate	-10979
▁healthcare	-10980
▁references	-10981
▁suggestions	-10982
tha	-10983
akar	-10984
▁CVS	-10985
▁Mid	-10986
▁SID	-10987
▁Sha	-10988
▁Tat	-10989
▁Thy	-10990
▁Dhar	-10991
▁anch	-10992
▁kite	-10993
▁tast	-10994
itated	-10995
▁Beach	-10996
▁Peter	-10997
▁envis	-10998
▁straw	-10999
▁Issued	-11000
▁Revert	-11001
▁awards	-11002
▁hungry	-11003
▁chamber	-11004
▁consolid	-11005
▁exceeded	-11006
▁interact	-11007
▁manually	-11008
▁possibly	-11009
▁fashioned	-11010
▁initially	-11011
▁suspended	-11012
▁accounting	-11013
▁occupation	-11014
▁progressive	-11015
▁interpretation	-11016
FA	-11017
aki	-11018
raj	-11019
▁63	-11020
avas	-11021
ogue	-11022
uese	-11023
▁Ira	-11024
▁Pap	-11025
▁hem	-11026
apore	-11027
avati	-11028
heart	-11029
mouth	-11030
▁1993	-11031
▁Cook	-11032
▁Edge	-11033
▁Jinn	-11034
▁PART	-11035
▁lips	-11036
vation	-11037
▁Armen	-11038
▁Isaac	-11039
▁Paris	-11040
▁cease	-11041
▁lingu	-11042
ropical	-11043
▁Assess	-11044
▁Sudden	-11045
▁assume	-11046
▁ideals	-11047
▁murder	-11048
▁virtue	-11049
▁Outlook	-11050
▁earning	-11051
▁injured	-11052
▁microsc	-11053
▁penalty	-11054
indranath	-11055
▁Hospital	-11056
▁arrogant	-11057
▁rendered	-11058
▁breathing	-11059
▁Repository	-11060
▁cancelation	-11061
▁substantial	-11062
upt	-11063
▁53	-11064
▁BS	-11065
ASHT	-11066
awan	-11067
▁Sex	-11068
▁Yoj	-11069
▁HOST	-11070
▁cycl	-11071
▁tang	-11072
rehend	-11073
▁CALLS	-11074
▁Inbox	-11075
▁Recom	-11076
▁alike	-11077
▁eager	-11078
▁stray	-11079
▁Anjuta	-11080
▁seated	-11081
▁slaves	-11082
▁upload	-11083
▁copying	-11084
▁disturb	-11085
▁drought	-11086
▁logging	-11087
▁PRESENTS	-11088
▁helpless	-11089
▁magnetic	-11090
▁Believers	-11091
▁broadcast	-11092
▁exclusive	-11093
▁societies	-11094
▁Revolution	-11095
▁respondent	-11096
▁legislation	-11097
▁scholarship	-11098
▁revolutionary	-11099
▁identification	-11100
bel	-11101
due	-11102
ete	-11103
▁NO	-11104
▁gn	-11105
▁ow	-11106
erty	-11107
ishe	-11108
▁Hit	-11109
▁Lut	-11110
▁Tor	-11111
▁Vas	-11112
erals	-11113
igate	-11114
▁Desh	-11115
▁Mean	-11116
▁Same	-11117
▁bags	-11118
▁guys	-11119
▁teleg	-11120
▁NABARD	-11121
▁dishes	-11122
▁rating	-11123
▁subway	-11124
▁vanity	-11125
▁varies	-11126
▁welcom	-11127
▁Balance	-11128
▁Benefit	-11129
▁Offline	-11130
▁signals	-11131
▁symbols	-11132
▁tobacco	-11133
▁toilets	-11134
▁Schedule	-11135
▁Southern	-11136
▁activate	-11137
▁attacked	-11138
▁contrary	-11139
▁sessions	-11140
▁swelling	-11141
▁extensive	-11142
▁festivals	-11143
▁Literature	-11144
▁Portuguese	-11145
▁Submission	-11146
▁collective	-11147
▁constitute	-11148
▁indigenous	-11149
▁undertaking	-11150
EC	-11151
vis	-11152
▁AB	-11153
▁DR	-11154
bert	-11155
▁hub	-11156
▁oct	-11157
▁rat	-11158
▁ups	-11159
ureau	-11160
▁Baba	-11161
▁Joze	-11162
▁Ragh	-11163
▁Wall	-11164
▁clar	-11165
▁heap	-11166
▁recl	-11167
▁worn	-11168
akhand	-11169
porter	-11170
▁Album	-11171
▁Focus	-11172
▁cheap	-11173
▁sixty	-11174
▁trace	-11175
regular	-11176
▁Demand	-11177
▁Gibral	-11178
▁Parent	-11179
▁Sharma	-11180
▁tribes	-11181
▁acquire	-11182
▁asunder	-11183
▁damaged	-11184
▁horizon	-11185
▁massive	-11186
▁Community	-11187
▁Corporate	-11188
▁encounter	-11189
▁intermedi	-11190
▁primarily	-11191
▁restarted	-11192
▁capability	-11193
▁rebellious	-11194
▁suggestion	-11195
alg	-11196
ett	-11197
▁47	-11198
▁Wi	-11199
anny	-11200
omon	-11201
▁unn	-11202
andra	-11203
eches	-11204
▁ARTS	-11205
▁Days	-11206
▁auth	-11207
▁shap	-11208
▁Based	-11209
▁crash	-11210
▁debug	-11211
▁liked	-11212
▁reven	-11213
assador	-11214
▁circul	-11215
▁solved	-11216
▁Battery	-11217
▁Looking	-11218
▁Publish	-11219
▁adverse	-11220
▁carrier	-11221
▁leaflet	-11222
▁replies	-11223
▁borrower	-11224
▁browsing	-11225
▁disputes	-11226
▁resident	-11227
▁magicians	-11228
▁absolutely	-11229
▁authorised	-11230
▁vertically	-11231
▁capabilities	-11232
fe	-11233
ito	-11234
▁Ce	-11235
▁PS	-11236
alem	-11237
case	-11238
rack	-11239
▁Hal	-11240
▁Mrs	-11241
▁Pel	-11242
▁rab	-11243
ports	-11244
▁Desp	-11245
▁Pars	-11246
▁Upon	-11247
▁flee	-11248
▁loud	-11249
▁pige	-11250
itcher	-11251
rained	-11252
▁Early	-11253
▁Satur	-11254
▁Works	-11255
▁alpha	-11256
▁colle	-11257
▁feels	-11258
inished	-11259
istical	-11260
▁Aurang	-11261
▁Brazil	-11262
▁Ganesh	-11263
▁speaks	-11264
▁unlike	-11265
▁varied	-11266
▁afflict	-11267
▁claimed	-11268
▁Religion	-11269
▁attained	-11270
▁comments	-11271
▁declined	-11272
▁celebrate	-11273
▁residence	-11274
▁altogether	-11275
▁declaration	-11276
▁Distribution	-11277
enn	-11278
fty	-11279
rik	-11280
▁FL	-11281
VERN	-11282
acle	-11283
iate	-11284
▁Bag	-11285
▁Pix	-11286
▁Ran	-11287
▁ine	-11288
edness	-11289
▁Croat	-11290
▁Griev	-11291
▁Sorry	-11292
▁alleg	-11293
▁knock	-11294
▁Prince	-11295
▁Unseen	-11296
▁feared	-11297
▁grieve	-11298
▁overse	-11299
▁spinal	-11300
▁Consult	-11301
▁Problem	-11302
▁destiny	-11303
▁Shortcut	-11304
▁Whenever	-11305
▁enclosed	-11306
▁managing	-11307
▁overhead	-11308
▁Gibraltar	-11309
▁injustice	-11310
▁surprised	-11311
▁Convention	-11312
▁consisting	-11313
▁preference	-11314
▁substances	-11315
▁experiments	-11316
▁regulations	-11317
iat	-11318
lis	-11319
▁FI	-11320
▁WH	-11321
berg	-11322
opia	-11323
▁BIR	-11324
▁Jun	-11325
▁VPN	-11326
owers	-11327
▁Rang	-11328
▁intu	-11329
asions	-11330
▁Yahoo	-11331
▁queue	-11332
▁socio	-11333
▁GOVERN	-11334
▁panels	-11335
aternity	-11336
▁declare	-11337
▁washing	-11338
▁Chemical	-11339
▁activated	-11340
▁beneficial	-11341
▁Uttarakhand	-11342
▁characterized	-11343
uis	-11344
uka	-11345
var	-11346
▁41	-11347
▁Ku	-11348
orer	-11349
utra	-11350
▁Ell	-11351
atable	-11352
▁Vijay	-11353
▁delta	-11354
▁loves	-11355
▁moist	-11356
▁roast	-11357
▁sorce	-11358
▁wives	-11359
▁Martin	-11360
▁Rajput	-11361
▁dinner	-11362
▁losses	-11363
▁troops	-11364
urrences	-11365
▁auction	-11366
▁chronic	-11367
▁reaches	-11368
▁secured	-11369
▁Debugger	-11370
▁disaster	-11371
▁enormous	-11372
▁kilogram	-11373
▁neighbor	-11374
▁occupied	-11375
▁reflects	-11376
▁wretched	-11377
▁ministers	-11378
▁endeavours	-11379
▁comfortable	-11380
▁introduction	-11381
awa	-11382
onf	-11383
erge	-11384
icus	-11385
page	-11386
wari	-11387
▁IBM	-11388
▁Suf	-11389
▁cad	-11390
▁fer	-11391
berry	-11392
break	-11393
▁Radi	-11394
▁alle	-11395
▁grip	-11396
▁nick	-11397
▁prox	-11398
▁Alarm	-11399
▁Cover	-11400
▁Shows	-11401
▁drain	-11402
▁mines	-11403
▁nutri	-11404
▁seize	-11405
▁sunny	-11406
acharya	-11407
ductive	-11408
▁Dakota	-11409
▁Priyob	-11410
▁Vaishn	-11411
▁advise	-11412
▁estate	-11413
▁thinks	-11414
Calendar	-11415
▁Farmers	-11416
▁despite	-11417
▁serpent	-11418
▁subsidy	-11419
▁earnings	-11420
▁reserves	-11421
▁disturbed	-11422
▁attributes	-11423
▁foreground	-11424
▁restricted	-11425
▁situations	-11426
▁supplement	-11427
dh	-11428
IAL	-11429
uli	-11430
▁49	-11431
▁Uk	-11432
cons	-11433
inea	-11434
roto	-11435
▁Bor	-11436
ISTER	-11437
iency	-11438
plies	-11439
▁Cant	-11440
▁Ever	-11441
▁Gamb	-11442
▁fame	-11443
▁outs	-11444
▁slic	-11445
edding	-11446
irable	-11447
▁Autom	-11448
▁manus	-11449
▁spots	-11450
angular	-11451
edience	-11452
▁Bright	-11453
▁Length	-11454
▁Yellow	-11455
▁servers	-11456
▁timeout	-11457
▁typical	-11458
▁unaware	-11459
▁attendee	-11460
▁complain	-11461
▁exposure	-11462
▁mistakes	-11463
▁perceive	-11464
▁appellant	-11465
OD	-11466
gal	-11467
sar	-11468
uni	-11469
abul	-11470
cium	-11471
▁AIR	-11472
▁Gas	-11473
▁Gor	-11474
▁Wal	-11475
▁bew	-11476
▁hay	-11477
acock	-11478
▁IMAP	-11479
▁Nick	-11480
▁Talk	-11481
erving	-11482
ocated	-11483
▁Charg	-11484
▁Claim	-11485
▁aspir	-11486
▁pause	-11487
▁sorry	-11488
plified	-11489
▁Almast	-11490
▁ticket	-11491
▁viewed	-11492
▁Michael	-11493
▁Percent	-11494
▁Systems	-11495
▁grammar	-11496
izontally	-11497
▁Currency	-11498
▁dwellers	-11499
▁employer	-11500
▁visiting	-11501
▁downloads	-11502
▁variation	-11503
▁Innovation	-11504
▁Programmes	-11505
▁complement	-11506
▁functional	-11507
▁transition	-11508
22	-11509
oea	-11510
oub	-11511
yam	-11512
▁95	-11513
oths	-11514
▁Bre	-11515
▁jaw	-11516
anyan	-11517
apati	-11518
itage	-11519
ritis	-11520
▁Song	-11521
▁nigh	-11522
▁Samaj	-11523
▁Watch	-11524
▁boats	-11525
▁glaci	-11526
▁lotus	-11527
fathers	-11528
▁Sikkim	-11529
▁Masters	-11530
▁dropped	-11531
▁enquiry	-11532
▁advances	-11533
▁infected	-11534
▁receipts	-11535
▁abundance	-11536
▁plaintiff	-11537
▁selecting	-11538
orticulture	-11539
▁Beneficent	-11540
▁Categories	-11541
▁Traditional	-11542
▁consequence	-11543
▁credentials	-11544
▁Chhattisgarh	-11545
TE	-11546
pal	-11547
▁68	-11548
▁PP	-11549
arus	-11550
icky	-11551
obar	-11552
▁Flo	-11553
▁Sul	-11554
▁pus	-11555
olean	-11556
osion	-11557
▁Capt	-11558
▁fare	-11559
▁intr	-11560
▁jung	-11561
▁sine	-11562
▁ward	-11563
holder	-11564
▁Bills	-11565
▁Buddy	-11566
▁Heavy	-11567
▁Medic	-11568
▁aston	-11569
▁stain	-11570
▁stret	-11571
▁Higher	-11572
▁Kanpur	-11573
▁confir	-11574
▁genius	-11575
▁promoting	-11576
▁undefined	-11577
▁Profession	-11578
▁disappoint	-11579
▁entrepreneurs	-11580
PL	-11581
oi	-11582
rak	-11583
▁Ax	-11584
▁CE	-11585
▁UK	-11586
opal	-11587
▁Bir	-11588
▁Ill	-11589
▁Kur	-11590
ashes	-11591
storm	-11592
ulous	-11593
▁Amar	-11594
▁Crop	-11595
▁ages	-11596
▁bent	-11597
▁dual	-11598
▁sung	-11599
▁wilt	-11600
▁Favor	-11601
▁Gradu	-11602
▁Indus	-11603
▁Study	-11604
▁giant	-11605
▁manip	-11606
▁rains	-11607
▁Adding	-11608
▁Resize	-11609
▁devils	-11610
▁inputs	-11611
▁ruling	-11612
▁anxious	-11613
▁deniers	-11614
▁forming	-11615
▁freight	-11616
▁generic	-11617
▁Himalaya	-11618
▁Revision	-11619
▁blessing	-11620
▁diabetes	-11621
▁forehead	-11622
▁presents	-11623
▁spelling	-11624
▁Champions	-11625
▁competent	-11626
▁elsewhere	-11627
▁subscribe	-11628
▁Permission	-11629
▁Priyobroto	-11630
▁Electronics	-11631
▁PRODUCTNAME	-11632
▁acquisition	-11633
▁connectivity	-11634
▁q	-11635
aga	-11636
kot	-11637
sey	-11638
win	-11639
▁IV	-11640
▁oh	-11641
atta	-11642
pled	-11643
▁Cit	-11644
▁ICT	-11645
▁Tai	-11646
arkar	-11647
arynx	-11648
rived	-11649
▁trip	-11650
ipping	-11651
▁texts	-11652
▁Nation	-11653
▁Prefer	-11654
▁Sarasw	-11655
▁cosine	-11656
▁define	-11657
▁pledge	-11658
▁Finally	-11659
▁applies	-11660
▁refresh	-11661
▁storing	-11662
▁unusual	-11663
▁Actually	-11664
▁Encoding	-11665
▁producer	-11666
▁ultimate	-11667
▁whomever	-11668
▁Construct	-11669
▁Developer	-11670
▁faithless	-11671
▁paintings	-11672
▁complaints	-11673
▁competitive	-11674
▁indentation	-11675
▁conventional	-11676
▁strengthening	-11677
St	-11678
JEE	-11679
esc	-11680
ania	-11681
quet	-11682
▁USA	-11683
▁Vad	-11684
▁hal	-11685
avour	-11686
iforn	-11687
ulses	-11688
▁Poet	-11689
▁Sult	-11690
▁rein	-11691
▁torn	-11692
▁undo	-11693
▁Franc	-11694
▁Guide	-11695
▁Preet	-11696
cretion	-11697
idering	-11698
▁Golden	-11699
▁Govind	-11700
▁preval	-11701
▁regret	-11702
▁artists	-11703
▁eminent	-11704
▁allocate	-11705
▁grievous	-11706
▁instruct	-11707
▁peaceful	-11708
▁punished	-11709
▁criminals	-11710
▁paragraph	-11711
▁prisoners	-11712
▁phenomenon	-11713
▁Expenditure	-11714
▁righteousness	-11715
UB	-11716
quer	-11717
▁600	-11718
▁awa	-11719
▁vot	-11720
otomy	-11721
ushan	-11722
▁bite	-11723
▁cats	-11724
▁tomb	-11725
▁Louis	-11726
▁Mahav	-11727
▁Raman	-11728
▁couch	-11729
▁stool	-11730
▁typed	-11731
▁Purana	-11732
▁betray	-11733
▁cometh	-11734
▁dining	-11735
▁labels	-11736
▁retail	-11737
▁serial	-11738
▁victim	-11739
▁deliber	-11740
▁essence	-11741
▁flaming	-11742
▁reactor	-11743
▁upright	-11744
▁boundary	-11745
▁Otherwise	-11746
▁preserved	-11747
▁seriously	-11748
▁Determines	-11749
▁experiences	-11750
▁Administrative	-11751
FS	-11752
▁ल	-11753
rar	-11754
thm	-11755
▁DD	-11756
▁Hi	-11757
▁PO	-11758
bhai	-11759
rics	-11760
▁Gos	-11761
▁Neg	-11762
▁lip	-11763
▁sul	-11764
arita	-11765
aters	-11766
eries	-11767
liner	-11768
▁Zeal	-11769
▁merc	-11770
mother	-11771
▁Rober	-11772
▁Woman	-11773
▁borne	-11774
▁knife	-11775
▁zebra	-11776
lasting	-11777
▁Argent	-11778
▁Commit	-11779
▁Praise	-11780
▁befall	-11781
▁buried	-11782
▁daemon	-11783
▁modest	-11784
▁ruined	-11785
▁visits	-11786
▁Ancient	-11787
▁Mahadevi	-11788
▁Saturday	-11789
▁Variable	-11790
▁balanced	-11791
▁identical	-11792
▁surrender	-11793
▁originally	-11794
▁underlying	-11795
▁visibility	-11796
PA	-11797
isa	-11798
▁IR	-11799
▁gh	-11800
▁sq	-11801
hara	-11802
isan	-11803
oker	-11804
▁Upl	-11805
▁hex	-11806
▁nas	-11807
isory	-11808
oster	-11809
▁Fear	-11810
▁Join	-11811
ortion	-11812
▁Dutch	-11813
▁Speed	-11814
▁Third	-11815
▁loyal	-11816
▁naked	-11817
▁Agency	-11818
▁Kazakh	-11819
▁Ravana	-11820
▁Sheikh	-11821
▁breeds	-11822
▁marine	-11823
▁Deposit	-11824
▁knoweth	-11825
▁swollen	-11826
▁vaccine	-11827
▁Username	-11828
▁composer	-11829
▁metadata	-11830
▁sacrific	-11831
▁striking	-11832
▁velocity	-11833
▁Marketing	-11834
▁libraries	-11835
▁remainder	-11836
▁Antarctica	-11837
lal	-11838
azed	-11839
bone	-11840
lier	-11841
orrh	-11842
▁Bij	-11843
▁Dan	-11844
▁Dog	-11845
▁Fig	-11846
▁RES	-11847
▁Ult	-11848
▁cul	-11849
▁pic	-11850
▁tyr	-11851
aland	-11852
alled	-11853
ceans	-11854
opard	-11855
▁Bagh	-11856
▁Root	-11857
▁Thai	-11858
▁cage	-11859
▁nour	-11860
▁stab	-11861
orrect	-11862
▁Cloud	-11863
▁Hills	-11864
▁Plate	-11865
▁Store	-11866
▁alche	-11867
▁prize	-11868
▁taxes	-11869
▁Letter	-11870
▁Syntax	-11871
▁Travel	-11872
▁camels	-11873
▁canvas	-11874
▁Lakshmi	-11875
▁Receipt	-11876
▁comprom	-11877
▁dispens	-11878
▁disposal	-11879
▁magazine	-11880
▁Individual	-11881
▁Conservation	-11882
aba	-11883
kha	-11884
▁59	-11885
▁BE	-11886
▁MD	-11887
cycl	-11888
plus	-11889
riya	-11890
▁Cub	-11891
▁Hom	-11892
▁Mes	-11893
▁Tun	-11894
▁Upg	-11895
onged	-11896
▁Badr	-11897
▁Lith	-11898
▁Vall	-11899
▁hosp	-11900
▁nons	-11901
▁void	-11902
▁apple	-11903
▁cruel	-11904
▁feeds	-11905
▁labou	-11906
▁palms	-11907
▁rests	-11908
▁assert	-11909
▁locate	-11910
▁rubber	-11911
▁serves	-11912
▁Timeout	-11913
▁aborted	-11914
▁experts	-11915
▁spacing	-11916
▁sunrise	-11917
▁everyday	-11918
▁invested	-11919
▁touching	-11920
▁Governors	-11921
▁Importing	-11922
▁Telephone	-11923
▁inclusive	-11924
▁definitely	-11925
▁delegation	-11926
▁enthusiasm	-11927
▁innovative	-11928
▁circulation	-11929
▁controlling	-11930
▁respectively	-11931
bi	-11932
IGN	-11933
hyd	-11934
oil	-11935
Card	-11936
VICE	-11937
acia	-11938
aret	-11939
aser	-11940
isec	-11941
worm	-11942
▁Eat	-11943
▁MAH	-11944
▁PAN	-11945
▁bef	-11946
▁lux	-11947
astri	-11948
▁neur	-11949
▁orth	-11950
ogenic	-11951
oultry	-11952
▁Think	-11953
▁consp	-11954
▁intim	-11955
▁likes	-11956
▁woods	-11957
arkhand	-11958
ifornia	-11959
▁Mechan	-11960
▁Mongol	-11961
▁bounds	-11962
▁rarely	-11963
▁wouldn	-11964
▁Banking	-11965
▁abstract	-11966
▁convinced	-11967
▁greetings	-11968
▁Statistics	-11969
▁filesystem	-11970
▁previously	-11971
▁enterprises	-11972
▁developments	-11973
▁simultaneously	-11974
uer	-11975
▁52	-11976
▁GT	-11977
▁od	-11978
brid	-11979
icem	-11980
iety	-11981
vals	-11982
▁CPU	-11983
▁Suk	-11984
▁Tea	-11985
▁bio	-11986
▁rum	-11987
rophy	-11988
▁Cars	-11989
▁Iraq	-11990
▁Mant	-11991
▁club	-11992
▁liar	-11993
▁vein	-11994
▁Angle	-11995
▁flash	-11996
▁flows	-11997
▁globe	-11998
▁indul	-11999
atching	-12000
onomous	-12001
▁legend	-12002
▁pocket	-12003
▁Housing	-12004
▁Indiana	-12005
▁amazing	-12006
▁handled	-12007
▁generous	-12008
▁describes	-12009
▁duplicate	-12010
▁afterwards	-12011
▁classified	-12012
▁engagement	-12013
▁Accordingly	-12014
▁Performance	-12015
▁forefathers	-12016
▁inhabitants	-12017
▁geographical	-12018
▁corresponding	-12019
45	-12020
CS	-12021
OUR	-12022
bage	-12023
plex	-12024
ERJEE	-12025
ropol	-12026
▁1970	-12027
▁Tata	-12028
▁chop	-12029
▁cogn	-12030
▁grab	-12031
▁stip	-12032
abling	-12033
olving	-12034
▁Drive	-12035
▁Quest	-12036
▁robot	-12037
▁CONDOL	-12038
▁Compet	-12039
▁Mexico	-12040
▁banyan	-12041
▁digits	-12042
▁patron	-12043
▁Journal	-12044
▁Manilal	-12045
▁aggress	-12046
▁filling	-12047
▁holiday	-12048
izational	-12049
▁Mohammed	-12050
▁belonged	-12051
▁purified	-12052
▁conflicts	-12053
▁discourse	-12054
▁furniture	-12055
▁involving	-12056
▁Everything	-12057
▁manuscript	-12058
▁quantities	-12059
▁Unfortunately	-12060
▁advertisement	-12061
CII	-12062
▁MB	-12063
icer	-12064
udra	-12065
▁Aad	-12066
▁MAN	-12067
rence	-12068
rosis	-12069
▁Grad	-12070
▁MAPI	-12071
▁MUKH	-12072
▁NIOS	-12073
▁hect	-12074
▁stir	-12075
agraha	-12076
licted	-12077
usters	-12078
▁Devan	-12079
▁Shree	-12080
▁Visit	-12081
▁ought	-12082
▁tales	-12083
▁wider	-12084
▁Jaipur	-12085
▁jacket	-12086
▁lawyer	-12087
▁renown	-12088
▁safely	-12089
▁thrust	-12090
▁weapon	-12091
▁Receive	-12092
▁Studies	-12093
▁Washing	-12094
▁blocked	-12095
▁warrant	-12096
▁wedding	-12097
▁Chromium	-12098
▁artistic	-12099
▁clothing	-12100
▁displays	-12101
▁teleport	-12102
▁Relations	-12103
▁divisions	-12104
▁ignorance	-12105
▁Parameters	-12106
▁chromosomes	-12107
CR	-12108
AIN	-12109
ESH	-12110
▁81	-12111
greg	-12112
seud	-12113
vara	-12114
▁ink	-12115
indra	-12116
opter	-12117
riers	-12118
▁cups	-12119
▁ling	-12120
▁mini	-12121
otions	-12122
▁Joshi	-12123
▁cheer	-12124
▁dried	-12125
▁widow	-12126
▁Depart	-12127
▁Recogn	-12128
▁Upload	-12129
▁depict	-12130
▁intern	-12131
▁rescue	-12132
▁sealed	-12133
▁Despite	-12134
▁Indones	-12135
▁Village	-12136
▁foolish	-12137
▁insight	-12138
▁laughed	-12139
▁marking	-12140
▁miracle	-12141
unciation	-12142
▁MINISTER	-12143
▁Material	-12144
▁goodness	-12145
▁optional	-12146
▁overseas	-12147
▁MUKHERJEE	-12148
▁certainty	-12149
▁purchased	-12150
▁recovered	-12151
▁travelled	-12152
▁initialize	-12153
▁continuously	-12154
▁classification	-12155
GL	-12156
sis	-12157
▁72	-12158
orus	-12159
▁aug	-12160
▁ven	-12161
ierce	-12162
▁Fail	-12163
▁Okay	-12164
▁Stri	-12165
▁Sync	-12166
▁epid	-12167
▁knee	-12168
▁pots	-12169
▁seal	-12170
course	-12171
▁Eleph	-12172
▁Surya	-12173
▁recon	-12174
▁agenda	-12175
▁excite	-12176
▁freely	-12177
▁Provide	-12178
▁crossed	-12179
▁designs	-12180
▁evolved	-12181
▁licence	-12182
▁worldly	-12183
▁Monmouth	-12184
▁actively	-12185
▁inferior	-12186
▁invented	-12187
▁lighting	-12188
▁discovery	-12189
▁maximized	-12190
▁California	-12191
▁launchable	-12192
▁explanation	-12193
▁Documentation	-12194
▁technological	-12195
akk	-12196
unc	-12197
▁Vr	-12198
andi	-12199
ildo	-12200
rosy	-12201
▁Mos	-12202
imony	-12203
▁aest	-12204
▁asks	-12205
▁blur	-12206
▁bund	-12207
▁duct	-12208
▁frag	-12209
▁lays	-12210
▁pion	-12211
▁puts	-12212
▁tort	-12213
atures	-12214
▁balls	-12215
itivity	-12216
rations	-12217
▁Repeat	-12218
▁Speech	-12219
▁matrix	-12220
▁offset	-12221
▁Pattern	-12222
▁Reverse	-12223
▁anticip	-12224
▁inspect	-12225
▁travels	-12226
▁viewing	-12227
▁wronged	-12228
▁CONDOLES	-12229
▁Circular	-12230
▁province	-12231
▁rational	-12232
▁Standards	-12233
▁detection	-12234
▁occasions	-12235
▁qualified	-12236
▁advantages	-12237
▁inevitable	-12238
▁relatively	-12239
▁legislative	-12240
▁screensaver	-12241
▁Organisation	-12242
BS	-12243
igo	-12244
ova	-12245
▁86	-12246
▁LE	-12247
▁OI	-12248
anim	-12249
arna	-12250
idas	-12251
inth	-12252
▁Bat	-12253
▁Beg	-12254
▁pad	-12255
aryng	-12256
isive	-12257
mahal	-12258
▁Amit	-12259
▁Cape	-12260
▁Holy	-12261
▁Need	-12262
▁Seek	-12263
▁Shut	-12264
▁adds	-12265
▁clos	-12266
rolled	-12267
▁Names	-12268
▁Opens	-12269
▁Sheep	-12270
▁Upper	-12271
▁eaten	-12272
▁sanct	-12273
cribers	-12274
▁Sindhi	-12275
▁Yamuna	-12276
▁crying	-12277
▁cycles	-12278
▁habits	-12279
▁Defence	-12280
▁Mauriti	-12281
▁abdomen	-12282
▁bondmen	-12283
▁opacity	-12284
▁peacock	-12285
▁untouch	-12286
▁Buddhism	-12287
▁demanded	-12288
▁devotees	-12289
▁marginal	-12290
▁nematode	-12291
▁supplies	-12292
▁Provision	-12293
▁installer	-12294
▁irregular	-12295
▁landscape	-12296
▁multitude	-12297
▁newsgroup	-12298
▁typically	-12299
▁Activities	-12300
▁Retrieving	-12301
▁comparison	-12302
▁describing	-12303
▁systematic	-12304
▁maintaining	-12305
▁considerably	-12306
▁concentration	-12307
▁entertainment	-12308
▁recommendations	-12309
UNT	-12310
ibh	-12311
▁62	-12312
AVAN	-12313
isht	-12314
▁250	-12315
▁Ara	-12316
▁HIS	-12317
▁UID	-12318
▁Whe	-12319
▁viz	-12320
agull	-12321
inant	-12322
stein	-12323
▁Evil	-12324
▁conj	-12325
▁eyed	-12326
▁gene	-12327
stream	-12328
▁Mehta	-12329
▁Spain	-12330
▁Verma	-12331
▁alien	-12332
▁panch	-12333
▁reign	-12334
▁Divine	-12335
▁Duplic	-12336
▁Yojana	-12337
▁deceit	-12338
▁edible	-12339
▁priest	-12340
iseconds	-12341
ountered	-12342
▁Andaman	-12343
▁Signing	-12344
▁Spacing	-12345
▁somehow	-12346
▁Removing	-12347
▁Teachers	-12348
▁delegate	-12349
▁flexible	-12350
▁fountain	-12351
▁smallest	-12352
▁speeches	-12353
▁visitors	-12354
▁Algorithm	-12355
▁obtaining	-12356
▁relatives	-12357
▁biological	-12358
▁productive	-12359
▁Vivekananda	-12360
▁resurrected	-12361
ERT	-12362
bee	-12363
pus	-12364
▁PH	-12365
opes	-12366
▁ATM	-12367
▁HIV	-12368
▁bub	-12369
▁lag	-12370
▁Dock	-12371
▁Loss	-12372
▁acre	-12373
▁doct	-12374
▁fled	-12375
▁sear	-12376
apurna	-12377
opathy	-12378
▁embra	-12379
▁rolls	-12380
▁Anyway	-12381
▁Chance	-12382
▁bearer	-12383
▁sunset	-12384
ographer	-12385
▁Mizoram	-12386
▁mandapa	-12387
▁Detailed	-12388
▁Suddenly	-12389
▁Tomorrow	-12390
▁confront	-12391
▁frequent	-12392
▁stronger	-12393
▁tendency	-12394
▁Mauritius	-12395
▁Wherefore	-12396
▁achieving	-12397
▁rendering	-12398
▁separation	-12399
▁headquarters	-12400
dar	-12401
haz	-12402
▁tv	-12403
isen	-12404
rose	-12405
stru	-12406
ulla	-12407
unte	-12408
▁SER	-12409
▁sar	-12410
▁sem	-12411
▁Hold	-12412
▁Radh	-12413
▁bore	-12414
▁enqu	-12415
asaheb	-12416
▁Clock	-12417
▁Maint	-12418
▁Noble	-12419
▁THERE	-12420
▁Tilak	-12421
▁postp	-12422
▁urged	-12423
▁warri	-12424
▁Palace	-12425
▁Secure	-12426
▁alarms	-12427
▁vulner	-12428
▁Charles	-12429
▁Penalty	-12430
▁catalog	-12431
▁chicken	-12432
▁chooser	-12433
▁cookies	-12434
▁devotee	-12435
▁grounds	-12436
▁mirrors	-12437
▁Partners	-12438
▁premises	-12439
▁reminded	-12440
▁Following	-12441
▁Singapore	-12442
▁brilliant	-12443
▁ultimately	-12444
▁Construction	-12445
11	-12446
ea	-12447
obi	-12448
rod	-12449
▁97	-12450
▁UP	-12451
bral	-12452
hari	-12453
pets	-12454
sman	-12455
wala	-12456
▁Bac	-12457
▁Bak	-12458
▁POP	-12459
▁Ped	-12460
▁Yus	-12461
▁jun	-12462
▁mit	-12463
▁1974	-12464
▁Jump	-12465
▁Roll	-12466
▁anat	-12467
▁atom	-12468
▁knot	-12469
▁nurt	-12470
▁shar	-12471
▁Manik	-12472
▁Phase	-12473
▁Still	-12474
▁acres	-12475
▁acted	-12476
▁disag	-12477
▁inhib	-12478
▁lakes	-12479
▁rocky	-12480
▁screw	-12481
atories	-12482
▁Senior	-12483
▁advent	-12484
▁decent	-12485
▁drinks	-12486
▁evildo	-12487
▁liable	-12488
▁pillar	-12489
▁prefix	-12490
▁Therein	-12491
▁elderly	-12492
▁revised	-12493
▁scripts	-12494
▁snippet	-12495
▁victims	-12496
▁Attendee	-12497
▁Filename	-12498
▁Purchase	-12499
▁bleeding	-12500
▁replying	-12501
▁patiently	-12502
▁Entreprene	-12503
▁compressed	-12504
▁encountered	-12505
▁compassionate	-12506
elo	-12507
▁Ho	-12508
▁Ya	-12509
asma	-12510
barr	-12511
juna	-12512
▁Bit	-12513
▁Ens	-12514
▁Fog	-12515
adays	-12516
apsed	-12517
gebra	-12518
uated	-12519
▁1930	-12520
▁Navy	-12521
▁arom	-12522
▁chol	-12523
▁mism	-12524
arance	-12525
▁Coord	-12526
▁champ	-12527
▁crude	-12528
▁nomin	-12529
▁quota	-12530
▁toxic	-12531
ometric	-12532
▁Church	-12533
▁Houses	-12534
▁beasts	-12535
▁cursed	-12536
▁pursue	-12537
iousness	-12538
▁Solomon	-12539
▁decreed	-12540
▁excited	-12541
▁patches	-12542
▁threads	-12543
▁concerns	-12544
▁enhanced	-12545
▁operator	-12546
▁pointing	-12547
▁undertake	-12548
▁cultivated	-12549
▁meaningful	-12550
▁approaching	-12551
▁ट	-12552
igm	-12553
ugs	-12554
▁58	-12555
▁Il	-12556
▁NS	-12557
▁OR	-12558
gedy	-12559
icit	-12560
▁Naz	-12561
▁Rom	-12562
▁ber	-12563
▁hut	-12564
▁ski	-12565
odium	-12566
pling	-12567
▁Keys	-12568
▁Mall	-12569
▁SAYS	-12570
▁Sovi	-12571
▁Town	-12572
▁lean	-12573
culiar	-12574
endent	-12575
icians	-12576
▁Areas	-12577
▁Domin	-12578
▁Owner	-12579
▁Yusuf	-12580
▁sizes	-12581
▁slave	-12582
▁Dialog	-12583
▁Sample	-12584
▁casual	-12585
▁glands	-12586
▁legacy	-12587
▁Constit	-12588
▁beloved	-12589
▁scatter	-12590
▁watched	-12591
▁Consider	-12592
▁exported	-12593
▁Supported	-12594
▁strategic	-12595
▁authorized	-12596
▁collecting	-12597
▁condolences	-12598
▁disappeared	-12599
▁constellation	-12600
▁relationships	-12601
TO	-12602
UD	-12603
UST	-12604
cca	-12605
▁87	-12606
▁ud	-12607
from	-12608
herd	-12609
mand	-12610
▁FIR	-12611
▁Gir	-12612
▁tut	-12613
▁wax	-12614
alpur	-12615
pread	-12616
▁Buff	-12617
▁Jews	-12618
▁Kama	-12619
▁mast	-12620
▁scor	-12621
▁Cache	-12622
▁Loans	-12623
▁Mathe	-12624
▁cargo	-12625
▁felic	-12626
▁sends	-12627
▁spons	-12628
▁spool	-12629
▁zones	-12630
abulary	-12631
ruption	-12632
▁carved	-12633
▁castes	-12634
▁disreg	-12635
▁grants	-12636
▁steady	-12637
▁worksh	-12638
▁Between	-12639
▁Compose	-12640
▁Emperor	-12641
▁Kannada	-12642
▁compare	-12643
▁thereby	-12644
▁cultures	-12645
▁favorite	-12646
▁operated	-12647
▁peculiar	-12648
▁Directors	-12649
▁elaborate	-12650
▁forgotten	-12651
▁generator	-12652
▁invisible	-12653
▁philosoph	-12654
▁attraction	-12655
▁businesses	-12656
▁disability	-12657
▁sustenance	-12658
▁exploitation	-12659
▁representing	-12660
▁accommodation	-12661
▁authorization	-12662
40	-12663
aha	-12664
iel	-12665
jud	-12666
▁ol	-12667
achi	-12668
anqu	-12669
hips	-12670
iraj	-12671
unge	-12672
untu	-12673
▁Abu	-12674
▁nit	-12675
▁raj	-12676
inath	-12677
iscal	-12678
▁Iron	-12679
▁Live	-12680
▁Mask	-12681
▁bark	-12682
▁brid	-12683
▁cant	-12684
▁fors	-12685
▁inqu	-12686
▁radi	-12687
estone	-12688
oubted	-12689
roller	-12690
▁Chart	-12691
▁await	-12692
▁rainy	-12693
▁reset	-12694
▁skull	-12695
OCATION	-12696
station	-12697
▁Events	-12698
▁Hidden	-12699
▁Jabber	-12700
▁copied	-12701
▁denial	-12702
▁emerge	-12703
▁fortun	-12704
▁larvae	-12705
▁loving	-12706
▁perpet	-12707
▁colours	-12708
▁compose	-12709
▁counted	-12710
▁extends	-12711
▁formats	-12712
▁winning	-12713
▁Deleting	-12714
▁commence	-12715
▁incurred	-12716
▁merchant	-12717
▁introduce	-12718
▁recipient	-12719
▁accordance	-12720
▁subsequent	-12721
▁Educational	-12722
▁disconnected	-12723
▁constitutional	-12724
15	-12725
lav	-12726
▁os	-12727
fect	-12728
▁Dil	-12729
▁Kul	-12730
▁ace	-12731
▁bee	-12732
▁ecl	-12733
▁laz	-12734
heast	-12735
▁Cave	-12736
▁Gaut	-12737
▁Sale	-12738
▁bars	-12739
▁dent	-12740
▁fing	-12741
▁mant	-12742
insula	-12743
urated	-12744
▁Might	-12745
▁Staff	-12746
▁drunk	-12747
▁hypoc	-12748
▁laden	-12749
▁stiff	-12750
▁Course	-12751
▁Unlock	-12752
▁astron	-12753
▁poster	-12754
▁stupid	-12755
oubtedly	-12756
▁commend	-12757
▁enlarge	-12758
▁fortune	-12759
▁hunting	-12760
▁listing	-12761
▁renamed	-12762
▁scooter	-12763
▁secrets	-12764
▁surplus	-12765
▁wrapped	-12766
▁Decrease	-12767
▁applying	-12768
▁notified	-12769
▁trekking	-12770
▁welcomed	-12771
▁subjected	-12772
▁Compassion	-12773
▁appreciated	-12774
▁termination	-12775
▁Environmental	-12776
ugh	-12777
orts	-12778
▁Fax	-12779
▁Raw	-12780
APTER	-12781
olate	-12782
oping	-12783
▁Dhan	-12784
▁Prob	-12785
▁Slow	-12786
▁Thak	-12787
▁batt	-12788
▁echo	-12789
▁fake	-12790
▁inch	-12791
▁ruin	-12792
▁synd	-12793
otechn	-12794
unging	-12795
▁Emerg	-12796
▁Niger	-12797
▁Royal	-12798
▁batch	-12799
▁debts	-12800
▁lofty	-12801
▁lungs	-12802
▁arrows	-12803
▁metall	-12804
▁willed	-12805
▁Failure	-12806
▁Present	-12807
▁abandon	-12808
akrishnan	-12809
▁Policies	-12810
▁Sciences	-12811
▁carriage	-12812
▁disgrace	-12813
▁magnific	-12814
▁shortage	-12815
▁Functions	-12816
▁justified	-12817
▁migration	-12818
▁Assessment	-12819
▁Devanagari	-12820
▁evaluation	-12821
▁mathematics	-12822
IX	-12823
▁OP	-12824
alan	-12825
appa	-12826
shot	-12827
▁Arg	-12828
▁PIB	-12829
▁Shr	-12830
▁Smt	-12831
▁Vit	-12832
▁apt	-12833
activ	-12834
ifera	-12835
ucose	-12836
▁Airl	-12837
▁CONV	-12838
▁Fair	-12839
▁Fish	-12840
▁Hung	-12841
▁dull	-12842
▁foss	-12843
▁pand	-12844
▁tips	-12845
▁vice	-12846
itudes	-12847
▁Dwark	-12848
▁Psych	-12849
ittance	-12850
▁Ashram	-12851
▁Instru	-12852
▁Photos	-12853
▁Soviet	-12854
▁agents	-12855
▁fenced	-12856
▁hollow	-12857
▁oceans	-12858
▁pepper	-12859
▁Traffic	-12860
▁outlook	-12861
▁palette	-12862
▁satisfy	-12863
▁signing	-12864
▁thunder	-12865
▁Absolute	-12866
▁Generate	-12867
▁calamity	-12868
▁organizer	-12869
▁retrieved	-12870
▁Scientific	-12871
▁Washington	-12872
▁continuing	-12873
▁vegetation	-12874
▁necessarily	-12875
▁द	-12876
▁ह	-12877
▁DO	-12878
▁IG	-12879
▁Ub	-12880
▁vo	-12881
hera	-12882
inee	-12883
loom	-12884
opic	-12885
rown	-12886
▁Ded	-12887
▁NOT	-12888
▁Sym	-12889
▁dub	-12890
icket	-12891
ridge	-12892
ugged	-12893
▁tact	-12894
ectomy	-12895
izable	-12896
▁BIRTH	-12897
▁divor	-12898
▁excav	-12899
▁genes	-12900
▁hopes	-12901
▁overs	-12902
▁sniff	-12903
▁wrath	-12904
iratory	-12905
▁Artist	-12906
▁Bhutan	-12907
▁Nobody	-12908
▁apples	-12909
▁saints	-12910
▁Acharya	-12911
▁Goddess	-12912
▁Plugins	-12913
▁Revenue	-12914
▁Stadium	-12915
▁Zealand	-12916
▁cleared	-12917
▁crystal	-12918
▁fulfill	-12919
▁winners	-12920
▁Scanning	-12921
▁dialogue	-12922
▁geometry	-12923
▁landlord	-12924
▁notation	-12925
▁Jharkhand	-12926
▁Questions	-12927
▁chemicals	-12928
▁iCalendar	-12929
▁lightning	-12930
▁recognise	-12931
▁reporting	-12932
▁uncertain	-12933
▁Breakpoint	-12934
▁considering	-12935
▁perspective	-12936
▁strengthened	-12937
FER	-12938
HAN	-12939
mad	-12940
oen	-12941
▁Rh	-12942
▁120	-12943
▁Vig	-12944
odder	-12945
▁1989	-12946
▁Bell	-12947
▁Oste	-12948
▁blog	-12949
▁disl	-12950
▁duly	-12951
▁neat	-12952
iliary	-12953
plates	-12954
▁Separ	-12955
▁chars	-12956
▁disks	-12957
▁sized	-12958
▁trail	-12959
▁vocal	-12960
▁Inline	-12961
▁Robert	-12962
▁Sultan	-12963
▁dental	-12964
▁lookup	-12965
▁mining	-12966
▁ninety	-12967
▁plural	-12968
▁Charges	-12969
▁Classic	-12970
▁Element	-12971
▁Release	-12972
▁joining	-12973
▁stuffed	-12974
▁Bachchan	-12975
▁Capacity	-12976
▁Gracious	-12977
▁Laughter	-12978
▁Narendra	-12979
▁attempts	-12980
▁interior	-12981
▁meanings	-12982
▁profound	-12983
▁reducing	-12984
▁spending	-12985
▁striving	-12986
▁Badruddin	-12987
▁acknowled	-12988
▁processor	-12989
▁residents	-12990
▁stainless	-12991
▁vegetable	-12992
▁Australian	-12993
▁dedication	-12994
▁Secretariat	-12995
▁retribution	-12996
▁accomplished	-12997
▁transparency	-12998
▁Miscellaneous	-12999
▁collaboration	-13000
FP	-13001
JP	-13002
ENS	-13003
wad	-13004
▁74	-13005
olio	-13006
ptic	-13007
▁Sac	-13008
▁UTF	-13009
▁cab	-13010
adian	-13011
anium	-13012
rafts	-13013
▁Auro	-13014
▁Flip	-13015
▁beam	-13016
▁unsu	-13017
intage	-13018
ourage	-13019
rocess	-13020
▁Quant	-13021
▁angel	-13022
▁chlor	-13023
▁orbit	-13024
▁resid	-13025
▁uncon	-13026
▁worms	-13027
ascular	-13028
matched	-13029
umbnail	-13030
▁Camera	-13031
▁Conver	-13032
▁lovely	-13033
▁retain	-13034
▁rotate	-13035
▁undone	-13036
▁Asutosh	-13037
▁Freedom	-13038
▁accepts	-13039
▁coastal	-13040
▁nucleus	-13041
▁outward	-13042
▁retired	-13043
▁suspend	-13044
fficiency	-13045
▁absorbed	-13046
▁necessity	-13047
▁presently	-13048
▁repayment	-13049
▁Simplified	-13050
▁agreements	-13051
▁compulsory	-13052
▁retirement	-13053
▁inheritance	-13054
▁appreciation	-13055
▁reproduction	-13056
▁developmental	-13057
INK	-13058
ORT	-13059
▁Mu	-13060
▁Tu	-13061
▁ts	-13062
ilee	-13063
ithe	-13064
pler	-13065
▁Siv	-13066
▁ape	-13067
▁cig	-13068
alaya	-13069
▁Anti	-13070
▁adul	-13071
▁vine	-13072
namese	-13073
ressal	-13074
▁Falls	-13075
▁Forum	-13076
▁Uzbek	-13077
▁horns	-13078
▁pilot	-13079
▁poles	-13080
▁stuck	-13081
▁Almost	-13082
▁Bureau	-13083
▁PRANAB	-13084
▁Summer	-13085
▁cinema	-13086
▁slices	-13087
▁titles	-13088
▁viewer	-13089
▁bedroom	-13090
▁locomot	-13091
▁physics	-13092
▁seventy	-13093
▁wonders	-13094
▁Contrast	-13095
▁delicate	-13096
▁ignorant	-13097
▁Malayalam	-13098
▁defendant	-13099
▁departure	-13100
▁objection	-13101
▁Vietnamese	-13102
▁interactive	-13103
▁Communication	-13104
▁parliamentary	-13105
GB	-13106
ICK	-13107
inc	-13108
▁77	-13109
▁96	-13110
▁MO	-13111
▁TB	-13112
▁ly	-13113
mans	-13114
uish	-13115
▁Gol	-13116
▁Ple	-13117
▁dan	-13118
▁pap	-13119
osity	-13120
paces	-13121
▁PASS	-13122
▁Whom	-13123
▁chem	-13124
▁saff	-13125
apping	-13126
ategor	-13127
heless	-13128
icking	-13129
inence	-13130
olence	-13131
▁Desai	-13132
▁Train	-13133
▁boast	-13134
▁codec	-13135
▁crazy	-13136
▁ducks	-13137
▁erect	-13138
▁Diwali	-13139
▁Guinea	-13140
▁Narmad	-13141
▁Serial	-13142
▁Supply	-13143
▁writes	-13144
▁Advance	-13145
▁blazing	-13146
▁crooked	-13147
▁seizure	-13148
▁therapy	-13149
▁Students	-13150
▁colonial	-13151
▁dividing	-13152
▁monument	-13153
▁obstruct	-13154
▁reliable	-13155
▁Treatment	-13156
▁condemned	-13157
▁continent	-13158
▁disregard	-13159
▁reminders	-13160
▁Ambassador	-13161
▁approached	-13162
▁extensions	-13163
▁Directorate	-13164
▁INAUGURATES	-13165
▁acknowledge	-13166
▁collections	-13167
▁Establishment	-13168
tr	-13169
RAP	-13170
▁AH	-13171
ayya	-13172
cane	-13173
enta	-13174
heet	-13175
▁180	-13176
▁Deg	-13177
▁cyl	-13178
▁wal	-13179
acles	-13180
lings	-13181
▁1986	-13182
▁Frid	-13183
▁cher	-13184
▁inex	-13185
▁rely	-13186
▁stun	-13187
▁tune	-13188
icable	-13189
iphany	-13190
rology	-13191
▁Menon	-13192
▁PRIME	-13193
▁Varan	-13194
▁antib	-13195
▁codes	-13196
▁coral	-13197
▁Animal	-13198
▁Append	-13199
▁embarr	-13200
▁gently	-13201
▁harder	-13202
▁openly	-13203
▁recept	-13204
▁resize	-13205
▁vagina	-13206
▁Devices	-13207
▁Startup	-13208
▁endowed	-13209
▁staying	-13210
▁tragedy	-13211
▁Airlines	-13212
▁Modified	-13213
▁commuter	-13214
▁lectures	-13215
▁taxation	-13216
▁Terrorism	-13217
▁classroom	-13218
▁comprises	-13219
▁worldwide	-13220
▁membership	-13221
▁descendants	-13222
▁milliseconds	-13223
▁documentation	-13224
ARI	-13225
alp	-13226
bus	-13227
inus	-13228
▁Bon	-13229
▁Cry	-13230
▁Dur	-13231
▁NHS	-13232
▁Six	-13233
▁Vaj	-13234
▁cer	-13235
▁dio	-13236
▁lam	-13237
ersed	-13238
▁Barb	-13239
▁Core	-13240
▁Doll	-13241
▁Kish	-13242
▁Milk	-13243
▁orch	-13244
▁turb	-13245
ainted	-13246
▁Above	-13247
▁Irish	-13248
▁Naval	-13249
▁Snipp	-13250
▁abuse	-13251
▁buddy	-13252
▁necks	-13253
▁quote	-13254
▁rescu	-13255
▁tough	-13256
▁unint	-13257
aternal	-13258
▁Binary	-13259
▁Bridge	-13260
▁analog	-13261
▁cooked	-13262
▁expiry	-13263
▁ranges	-13264
▁uncons	-13265
▁urgent	-13266
▁CHAPTER	-13267
▁Climate	-13268
▁Execute	-13269
▁Upanish	-13270
▁contest	-13271
▁seagull	-13272
▁suppose	-13273
fortunate	-13274
▁Learning	-13275
▁Specific	-13276
▁importer	-13277
▁inactive	-13278
▁minerals	-13279
▁respects	-13280
▁Structure	-13281
▁Sucharita	-13282
▁exchanges	-13283
▁incidents	-13284
▁Chandigarh	-13285
▁prosperous	-13286
▁Cooperation	-13287
▁Installation	-13288
▁implementing	-13289
▁Compassionate	-13290
▁अ	-13291
eri	-13292
wah	-13293
▁Ga	-13294
▁ka	-13295
EECH	-13296
abar	-13297
agle	-13298
etus	-13299
icon	-13300
▁800	-13301
▁Jat	-13302
▁gon	-13303
asury	-13304
cible	-13305
itzer	-13306
▁Fert	-13307
▁Were	-13308
▁abol	-13309
▁pale	-13310
ATIONS	-13311
ilance	-13312
ployed	-13313
uclear	-13314
▁Daily	-13315
▁Nodal	-13316
▁Padma	-13317
▁Shift	-13318
▁prone	-13319
▁Circle	-13320
▁SPEECH	-13321
▁Square	-13322
▁admire	-13323
▁breaks	-13324
▁titled	-13325
▁tunnel	-13326
▁Belarus	-13327
▁Respons	-13328
▁Turkmen	-13329
▁useless	-13330
▁develops	-13331
▁elevated	-13332
▁foremost	-13333
▁heedless	-13334
▁ministry	-13335
▁segments	-13336
▁Saraswati	-13337
▁Resolution	-13338
▁executable	-13339
▁impressive	-13340
▁privileges	-13341
▁thoroughly	-13342
▁advertising	-13343
▁cooperative	-13344
▁intelligent	-13345
▁observation	-13346
tk	-13347
ATA	-13348
ahi	-13349
apu	-13350
chi	-13351
▁MM	-13352
iece	-13353
▁BCC	-13354
▁Mys	-13355
▁TRA	-13356
▁Tur	-13357
▁vow	-13358
iracy	-13359
itous	-13360
mates	-13361
shire	-13362
▁Plus	-13363
▁Srin	-13364
▁Team	-13365
▁chap	-13366
▁dose	-13367
▁drum	-13368
▁dung	-13369
▁maps	-13370
▁okay	-13371
▁wast	-13372
ifting	-13373
rified	-13374
▁Jerus	-13375
▁Labor	-13376
▁Mercy	-13377
▁Types	-13378
▁fibre	-13379
▁holes	-13380
▁indis	-13381
▁modes	-13382
▁sided	-13383
▁tenth	-13384
▁Advert	-13385
▁Bhagav	-13386
▁Moving	-13387
▁congen	-13388
▁hiding	-13389
▁impati	-13390
▁mosque	-13391
▁sheets	-13392
▁styles	-13393
▁UNIVERS	-13394
▁ceremon	-13395
▁inverse	-13396
▁kilomet	-13397
▁Citizens	-13398
▁Fetching	-13399
▁Floating	-13400
▁Premises	-13401
▁Relating	-13402
▁allotted	-13403
▁coverage	-13404
▁creature	-13405
▁emptying	-13406
▁magician	-13407
▁pressing	-13408
▁survival	-13409
▁thankful	-13410
▁economies	-13411
▁forbidden	-13412
▁Brightness	-13413
▁Conditions	-13414
▁Translation	-13415
▁encouraging	-13416
▁innovations	-13417
▁unfortunate	-13418
▁representatives	-13419
ART	-13420
hea	-13421
oty	-13422
psy	-13423
sen	-13424
uke	-13425
▁79	-13426
▁MW	-13427
▁RO	-13428
oded	-13429
▁API	-13430
▁Fer	-13431
▁NIT	-13432
▁gam	-13433
▁hol	-13434
▁mes	-13435
gging	-13436
giene	-13437
hthal	-13438
idian	-13439
rites	-13440
▁exem	-13441
▁glob	-13442
▁jump	-13443
▁Given	-13444
▁Jacob	-13445
▁Korea	-13446
▁Kutch	-13447
▁RASHT	-13448
▁Round	-13449
▁Saheb	-13450
▁Saroj	-13451
▁admin	-13452
▁macro	-13453
ipheral	-13454
parable	-13455
▁Analog	-13456
▁Groups	-13457
▁Palest	-13458
▁Unique	-13459
▁affili	-13460
▁lifted	-13461
curement	-13462
▁Majesty	-13463
▁classic	-13464
▁deserve	-13465
▁feather	-13466
▁radical	-13467
▁sisters	-13468
▁undergo	-13469
▁utterly	-13470
▁whisper	-13471
ertaining	-13472
▁cautious	-13473
▁conclude	-13474
▁feedback	-13475
▁fetching	-13476
▁hostname	-13477
▁strictly	-13478
semination	-13479
▁Argentina	-13480
▁Jerusalem	-13481
▁Meanwhile	-13482
▁deposited	-13483
▁economics	-13484
▁instances	-13485
▁nutrition	-13486
▁Democratic	-13487
▁laboratory	-13488
▁publishing	-13489
▁Recruitment	-13490
▁Rabindranath	-13491
▁depreciation	-13492
egu	-13493
▁57	-13494
▁92	-13495
▁Li	-13496
▁SW	-13497
ango	-13498
flow	-13499
icol	-13500
ieth	-13501
ohan	-13502
urop	-13503
▁ARE	-13504
▁Fat	-13505
secut	-13506
▁Gulf	-13507
▁Susp	-13508
▁Zero	-13509
▁barg	-13510
▁byte	-13511
▁prey	-13512
bridge	-13513
owered	-13514
▁Estim	-13515
▁Glory	-13516
▁Lines	-13517
▁Popup	-13518
▁Puran	-13519
▁Varma	-13520
▁pulse	-13521
▁semen	-13522
▁spare	-13523
▁BHAVAN	-13524
▁Sports	-13525
▁amidst	-13526
▁deeper	-13527
▁framed	-13528
▁radius	-13529
umerable	-13530
▁Pointer	-13531
▁Vietnam	-13532
▁dragged	-13533
▁rituals	-13534
▁saffron	-13535
▁stretch	-13536
▁traders	-13537
▁Egyptian	-13538
▁Epiphany	-13539
▁Received	-13540
▁adoption	-13541
▁archives	-13542
▁gracious	-13543
▁humility	-13544
▁isolated	-13545
▁reviewed	-13546
▁Duplicate	-13547
▁impressed	-13548
▁tolerance	-13549
▁Disconnect	-13550
▁Impossible	-13551
▁compatible	-13552
▁compromise	-13553
▁constraint	-13554
▁conviction	-13555
▁physically	-13556
▁reputation	-13557
▁modification	-13558
▁reproductive	-13559
IES	-13560
URE	-13561
has	-13562
ahar	-13563
alal	-13564
anum	-13565
▁Fem	-13566
▁GDP	-13567
▁Gok	-13568
▁LAN	-13569
▁Meh	-13570
▁Win	-13571
▁kms	-13572
▁les	-13573
ester	-13574
▁Blog	-13575
▁Kala	-13576
▁caps	-13577
▁turm	-13578
▁wont	-13579
▁Gopal	-13580
▁Santa	-13581
▁buyer	-13582
▁comic	-13583
▁essay	-13584
itarian	-13585
▁degrad	-13586
▁filing	-13587
▁fisher	-13588
▁Counter	-13589
▁Generic	-13590
▁Nicobar	-13591
▁Distance	-13592
▁Duration	-13593
▁GOVERNOR	-13594
▁Heritage	-13595
▁exponent	-13596
▁readable	-13597
▁ancestors	-13598
▁greatness	-13599
▁magnitude	-13600
▁neglected	-13601
▁sensation	-13602
▁Percentage	-13603
▁arithmetic	-13604
▁conducting	-13605
▁involvement	-13606
▁underground	-13607
▁horizontally	-13608
▁significantly	-13609
cha	-13610
iba	-13611
▁Ji	-13612
▁ja	-13613
ding	-13614
felt	-13615
pass	-13616
will	-13617
▁AID	-13618
▁Cha	-13619
▁Chi	-13620
▁Hey	-13621
▁Opp	-13622
▁RAM	-13623
▁ail	-13624
agues	-13625
auses	-13626
strip	-13627
▁1960	-13628
▁1994	-13629
▁Push	-13630
▁skip	-13631
istani	-13632
▁Fonts	-13633
▁Iblis	-13634
▁Incre	-13635
▁Prize	-13636
▁Youth	-13637
▁caves	-13638
▁dozen	-13639
▁hered	-13640
▁penal	-13641
▁pitch	-13642
▁sandy	-13643
▁uncom	-13644
▁Forces	-13645
▁Forget	-13646
▁Ground	-13647
▁Submit	-13648
▁embryo	-13649
▁liquor	-13650
▁nerves	-13651
▁portal	-13652
ologists	-13653
▁Effects	-13654
▁Enabled	-13655
▁Matters	-13656
▁Thunder	-13657
▁borders	-13658
▁contrad	-13659
▁Identity	-13660
▁filtered	-13661
▁sympathy	-13662
▁Architect	-13663
▁Mountains	-13664
▁satellite	-13665
▁chromosome	-13666
▁converting	-13667
▁threatened	-13668
▁transplant	-13669
▁liabilities	-13670
▁administered	-13671
▁comparatively	-13672
NU	-13673
YS	-13674
oni	-13675
adhy	-13676
ogas	-13677
oped	-13678
rama	-13679
ummy	-13680
▁APP	-13681
▁CSV	-13682
▁Coc	-13683
▁Haj	-13684
▁Lux	-13685
▁ana	-13686
▁lin	-13687
▁max	-13688
▁mul	-13689
agiri	-13690
▁1987	-13691
▁Arth	-13692
▁Dipl	-13693
▁Hans	-13694
▁Maul	-13695
▁Nana	-13696
▁Puri	-13697
▁Soil	-13698
▁Spam	-13699
▁anth	-13700
▁ausp	-13701
▁clot	-13702
▁disb	-13703
▁erad	-13704
▁math	-13705
entive	-13706
oscope	-13707
▁Vrind	-13708
▁exalt	-13709
▁minim	-13710
▁newer	-13711
▁ports	-13712
reshing	-13713
▁Charge	-13714
▁Portal	-13715
▁Saying	-13716
▁arises	-13717
▁clever	-13718
▁resume	-13719
▁valued	-13720
IVERSARY	-13721
▁Envelop	-13722
▁Records	-13723
▁altered	-13724
▁exhaust	-13725
▁inspire	-13726
▁parsing	-13727
▁strings	-13728
▁Advisory	-13729
▁Varanasi	-13730
▁hypothes	-13731
▁launcher	-13732
▁Provinces	-13733
▁Threshold	-13734
▁alchemist	-13735
▁dismissed	-13736
▁heartfelt	-13737
▁rejoicing	-13738
▁sanctuary	-13739
▁Prevention	-13740
▁pilgrimage	-13741
▁victorious	-13742
habilitation	-13743
▁ANNIVERSARY	-13744
▁fertilizers	-13745
▁psychological	-13746
sa	-13747
ARN	-13748
cks	-13749
▁67	-13750
▁78	-13751
▁Ud	-13752
ldom	-13753
oons	-13754
zzle	-13755
▁PTC	-13756
▁bud	-13757
▁dir	-13758
▁exh	-13759
▁jew	-13760
assin	-13761
inkle	-13762
isans	-13763
ogene	-13764
ordan	-13765
▁Chal	-13766
▁Rome	-13767
▁cerv	-13768
▁rush	-13769
▁tire	-13770
▁turk	-13771
bsites	-13772
ocular	-13773
▁Abort	-13774
▁Arjun	-13775
▁Grace	-13776
▁Icons	-13777
▁Sikhs	-13778
▁Tiger	-13779
▁aimed	-13780
▁basin	-13781
▁lover	-13782
▁pixel	-13783
▁prope	-13784
▁rider	-13785
▁sects	-13786
▁stops	-13787
cessary	-13788
istrate	-13789
paragus	-13790
plicity	-13791
▁Krishn	-13792
▁armies	-13793
▁excuse	-13794
▁incred	-13795
▁jungle	-13796
▁mocked	-13797
▁muslim	-13798
▁Offices	-13799
▁Results	-13800
▁adorned	-13801
▁speaker	-13802
▁unhappy	-13803
▁clusters	-13804
▁disciple	-13805
▁evaluate	-13806
▁improper	-13807
▁tropical	-13808
▁Panchayat	-13809
▁diagnosis	-13810
▁expertise	-13811
▁prevalent	-13812
▁reception	-13813
▁sculpture	-13814
▁designated	-13815
▁pesticides	-13816
▁CONVOCATION	-13817
▁Cooperative	-13818
▁multiplying	-13819
▁Radhakrishnan	-13820
gl	-13821
▁DN	-13822
▁ze	-13823
cuma	-13824
geon	-13825
▁dip	-13826
▁pea	-13827
▁vom	-13828
aused	-13829
elect	-13830
ernel	-13831
odhya	-13832
opoly	-13833
▁1956	-13834
▁Comb	-13835
▁Rect	-13836
▁Tomb	-13837
▁Wire	-13838
▁carn	-13839
▁enjo	-13840
▁guru	-13841
▁rays	-13842
▁sail	-13843
RAPATI	-13844
ancies	-13845
idency	-13846
umping	-13847
▁Kalam	-13848
▁dynam	-13849
▁gifts	-13850
▁infid	-13851
▁pests	-13852
▁stalk	-13853
hinagar	-13854
ynchron	-13855
▁garage	-13856
▁partly	-13857
▁sphere	-13858
▁towels	-13859
[...]
