<unk>	0
<s>	0
</s>	0
[PAD]	0
[UNK]	0
[CLS]	0
[SEP]	0
[MASK]	0
[BOS]	0
[EOS]	0
[UNK0]	0
[UNK1]	0
[UNK2]	0
[UNK3]	0
[UNK4]	0
[UNK5]	0
[UNK6]	0
[UNK7]	0
[UNK8]	0
[UNK9]	0
[unused0]	0
[unused1]	0
[unused2]	0
[unused3]	0
[unused4]	0
[unused5]	0
[unused6]	0
[unused7]	0
[unused8]	0
[unused9]	0
[unused10]	0
[unused11]	0
[unused12]	0
[unused13]	0
[unused14]	0
[unused15]	0
[unused16]	0
[unused17]	0
[unused18]	0
[unused19]	0
[unused20]	0
[unused21]	0
[unused22]	0
[unused23]	0
[unused24]	0
[unused25]	0
[unused26]	0
[unused27]	0
[unused28]	0
[unused29]	0
[unused30]	0
[unused31]	0
[unused32]	0
[unused33]	0
[unused34]	0
[unused35]	0
[unused36]	0
[unused37]	0
[unused38]	0
[unused39]	0
[unused40]	0
[unused41]	0
[unused42]	0
[unused43]	0
[unused44]	0
[unused45]	0
[unused46]	0
[unused47]	0
[unused48]	0
[unused49]	0
[unused50]	0
[unused51]	0
[unused52]	0
[unused53]	0
[unused54]	0
[unused55]	0
[unused56]	0
[unused57]	0
[unused58]	0
[unused59]	0
[unused60]	0
[unused61]	0
[unused62]	0
[unused63]	0
[unused64]	0
[unused65]	0
[unused66]	0
[unused67]	0
[unused68]	0
[unused69]	0
[unused70]	0
[unused71]	0
[unused72]	0
[unused73]	0
[unused74]	0
[unused75]	0
[unused76]	0
[unused77]	0
[unused78]	0
[unused79]	0
[unused80]	0
[unused81]	0
[unused82]	0
[unused83]	0
[unused84]	0
[unused85]	0
[unused86]	0
[unused87]	0
[unused88]	0
[unused89]	0
[unused90]	0
[unused91]	0
[unused92]	0
[unused93]	0
[unused94]	0
[unused95]	0
[unused96]	0
[unused97]	0
[unused98]	0
[unused99]	0
▁क	-0
▁स	-1
▁ह	-2
▁प	-3
▁म	-4
्र	-5
ार	-6
▁ज	-7
▁अ	-8
▁व	-9
▁ब	-10
▁है	-11
▁न	-12
ें	-13
या	-14
▁के	-15
▁।	-16
▁द	-17
▁त	-18
ने	-19
▁ल	-20
▁र	-21
र्	-22
▁उ	-23
ता	-24
▁कर	-25
्य	-26
▁आ	-27
ना	-28
ों	-29
▁.	-30
▁में	-31
▁,	-32
▁प्र	-33
▁ए	-34
ान	-35
िक	-36
▁की	-37
▁औ	-38
्त	-39
▁और	-40
▁को	-41
▁भ	-42
▁का	-43
▁ग	-44
ित	-45
▁से	-46
▁कि	-47
▁पर	-48
▁इ	-49
▁श	-50
▁च	-51
▁एक	-52
ाल	-53
ां	-54
▁हो	-55
▁य	-56
न्	-57
▁सं	-58
वा	-59
▁वि	-60
ही	-61
स्	-62
▁फ	-63
▁)	-64
▁(	-65
▁-	-66
▁जा	-67
ला	-68
▁ख	-69
▁लि	-70
▁छ	-71
क्	-72
▁स्	-73
ते	-74
▁हैं	-75
▁थ	-76
▁सा	-77
्या	-78
नी	-79
ड़	-80
▁इस	-81
िय	-82
ती	-83
ोग	-84
▁सम	-85
ति	-86
रा	-87
हीं	-88
री	-89
के	-90
▁लिए	-91
▁नहीं	-92
िया	-93
का	-94
से	-95
्व	-96
हा	-97
▁जो	-98
ष्	-99
▁बा	-100
ल्	-101
ेश	-102
▁नि	-103
त्र	-104
▁हम	-105
▁अप	-106
मां	-107
ंग	-108
▁मा	-109
▁ड	-110
क्ष	-111
▁छे	-112
▁तो	-113
▁उस	-114
▁रा	-115
▁भी	-116
ले	-117
▁यह	-118
▁ट	-119
ुम	-120
▁दे	-121
▁ने	-122
सी	-123
दा	-124
कार	-125
ुं	-126
सा	-127
▁अन	-128
स्त	-129
िन	-130
▁उन	-131
▁पा	-132
▁कार	-133
मा	-134
▁या	-135
गा	-136
▁ही	-137
▁मु	-138
कर	-139
ष्ट	-140
▁रह	-141
▁किया	-142
था	-143
▁आप	-144
ेल	-145
की	-146
ज़	-147
त्	-148
▁सक	-149
ारा	-150
▁उप	-151
क्त	-152
▁वह	-153
िर	-154
▁साथ	-155
▁तुम	-156
▁करने	-157
▁जि	-158
▁ले	-159
▁घ	-160
ाइ	-161
ाम	-162
▁ध	-163
ली	-164
▁"	-165
▁सु	-166
ारे	-167
ार्	-168
ंद	-169
▁था	-170
ारी	-171
▁कु	-172
टे	-173
रे	-174
ैं	-175
खा	-176
▁हु	-177
▁अध	-178
▁मे	-179
वि	-180
ाह	-181
्री	-182
को	-183
▁करें	-184
मान	-185
▁1	-186
▁वे	-187
▁पू	-188
द्	-189
िल	-190
ाव	-191
▁लोग	-192
च्	-193
ूप	-194
्ष	-195
▁पह	-196
▁बे	-197
▁अने	-198
देश	-199
िका	-200
ोज	-201
थी	-202
ाप	-203
ियों	-204
▁गया	-205
टी	-206
न्ह	-207
गे	-208
▁?	-209
्रे	-210
म्	-211
▁ते	-212
▁पु	-213
ंध	-214
▁ऐ	-215
▁दि	-216
ंत	-217
▁अपने	-218
क्र	-219
ानी	-220
जी	-221
वी	-222
टा	-223
श्	-224
मे	-225
टर	-226
▁फ़	-227
▁बना	-228
▁बह	-229
▁वाल	-230
▁कोई	-231
▁भार	-232
▁/	-233
वे	-234
▁स्थ	-235
▁क्या	-236
भी	-237
ाग	-238
▁कुछ	-239
▁व्य	-240
▁चाह	-241
दी	-242
ूल	-243
▁मैं	-244
▁उन्ह	-245
▁वर्	-246
▁अनु	-247
▁सि	-248
ाय	-249
▁करो	-250
▁दो	-251
▁द्व	-252
ंड	-253
▁रूप	-254
योग	-255
गी	-256
वर	-257
रू	-258
ओं	-259
▁परि	-260
▁सू	-261
▁कार्य	-262
पा	-263
मी	-264
ुत	-265
▁निर्	-266
द्ध	-267
▁अधिक	-268
िए	-269
▁क्ष	-270
त्त	-271
▁_	-272
▁जिस	-273
में	-274
कि	-275
▁किसी	-276
▁थे	-277
नो	-278
▁मो	-279
ब्	-280
एँ	-281
▁वा	-282
▁करना	-283
▁मह	-284
▁माटे	-285
दि	-286
जा	-287
ढ़	-288
ाइल	-289
▁जब	-290
▁जी	-291
▁दू	-292
ये	-293
▁%	-294
▁सी	-295
ोल	-296
▁तक	-297
न्द	-298
▁द्वारा	-299
क्ति	-300
▁रहे	-301
▁प्रति	-302
रो	-303
▁विश	-304
▁ओ	-305
▁'	-306
▁2	-307
धार	-308
▁तर	-309
▁जाता	-310
ंत्र	-311
ड़ा	-312
▁ई	-313
▁गु	-314
▁दिया	-315
▁फिर	-316
▁थी	-317
र्ण	-318
▁तथा	-319
▁कह	-320
गर	-321
▁ऊ	-322
्ञ	-323
▁मि	-324
▁होता	-325
▁रहा	-326
▁अव	-327
▁समय	-328
चा	-329
▁साथे	-330
▁ये	-331
र्श	-332
▁इन	-333
र्व	-334
▁नाम	-335
▁सब	-336
लो	-337
▁बी	-338
वर्	-339
स्थ	-340
▁भारत	-341
▁करते	-342
द्य	-343
▁राष्ट	-344
डी	-345
चे	-346
च्छ	-347
▁छो	-348
▁राज	-349
णी	-350
ची	-351
फ़	-352
▁सकता	-353
▁बि	-354
▁चु	-355
▁करता	-356
▁ला	-357
ृत	-358
बंध	-359
▁लो	-360
▁रख	-361
▁नी	-362
स्ता	-363
▁कहा	-364
▁देख	-365
▁बहुत	-366
नि	-367
र्थ	-368
न्न	-369
्ह	-370
▁सर	-371
ेत्र	-372
▁खा	-373
वाल	-374
▁उनके	-375
स्ट	-376
्रा	-377
नों	-378
्स	-379
भा	-380
हर	-381
▁s	-382
▁पी	-383
▁तुम्ह	-384
▁झ	-385
ाप्त	-386
▁ख़	-387
▁दी	-388
▁बद	-389
▁हि	-390
▁क्षेत्र	-391
▁लोगों	-392
ड़ी	-393
िप	-394
▁बात	-395
▁मान	-396
वन	-397
र्म	-398
्ल	-399
पू	-400
ुल	-401
ेर	-402
चार	-403
ुर	-404
ग्र	-405
िंग	-406
बा	-407
ड़े	-408
क़	-409
▁ज़	-410
करण	-411
▁काम	-412
▁पै	-413
संद	-414
बर	-415
ज्ञ	-416
ाली	-417
ंक	-418
ल्ड	-419
▁उसे	-420
▁अपनी	-421
▁स्त	-422
श्य	-423
▁हू	-424
▁दिन	-425
▁सह	-426
▁संदेश	-427
चना	-428
▁जान	-429
्यू	-430
▁पास	-431
▁आव	-432
्यों	-433
स्क	-434
▁उन्हें	-435
▁नथी	-436
पर	-437
▁स्व	-438
स्था	-439
▁क्र	-440
▁तरह	-441
त्य	-442
िति	-443
▁जे	-444
ुदा	-445
▁अभ	-446
▁हुआ	-447
▁बाद	-448
धी	-449
▁दु	-450
▁क़	-451
▁n	-452
on	-453
▁हुए	-454
▁सकते	-455
▁उसके	-456
ोंने	-457
▁ना	-458
▁सभी	-459
▁राष्ट्र	-460
एं	-461
▁उत्	-462
▁डि	-463
▁प्रकार	-464
▁भा	-465
झे	-466
बी	-467
▁चाहिए	-468
▁कम	-469
▁निय	-470
▁अंत	-471
पाद	-472
▁हा	-473
मत	-474
यन	-475
यी	-476
ित्र	-477
▁गई	-478
▁पहले	-479
▁जाए	-480
दान	-481
श्च	-482
सर	-483
▁जै	-484
ti	-485
पति	-486
▁;	-487
▁होती	-488
माण	-489
क्षा	-490
ेष	-491
कों	-492
▁पसंद	-493
पी	-494
धा	-495
▁पे	-496
ूम	-497
टो	-498
शा	-499
डा	-500
तर	-501
▁उन्होंने	-502
हाँ	-503
ौर	-504
▁होने	-505
ुट	-506
शन	-507
▁दिखा	-508
me	-509
▁प्राप्त	-510
▁अब	-511
ल्ला	-512
जन	-513
▁व्यक्ति	-514
▁फ़ाइल	-515
वान	-516
▁बस	-517
▁भाग	-518
▁वाले	-519
▁!	-520
▁हमने	-521
▁मुझे	-522
शी	-523
भाव	-524
ष्ठ	-525
▁बु	-526
▁देश	-527
▁कारण	-528
▁अन्य	-529
▁अस	-530
▁ठ	-531
ख्या	-532
▁सम्	-533
▁होगा	-534
कारी	-535
▁:	-536
्ड	-537
ट्	-538
ेद	-539
किन	-540
ोर्	-541
▁रो	-542
यु	-543
ोजना	-544
दर्श	-545
▁करी	-546
क्रम	-547
▁करे	-548
▁संबंध	-549
▁जाने	-550
▁वर्ष	-551
धि	-552
तन	-553
▁साम	-554
िक्ष	-555
▁उपयोग	-556
िं	-557
▁सफ	-558
ोल्ड	-559
▁अल	-560
▁लेकिन	-561
▁यु	-562
तु	-563
▁मिल	-564
▁अच्छ	-565
▁मां	-566
न्ड	-567
▁प्रा	-568
पूर्ण	-569
▁विक	-570
▁लग	-571
▁राष्ट्रपति	-572
▁हमारे	-573
वार	-574
▁गए	-575
▁लगा	-576
▁बाज	-577
▁बार	-578
रण	-579
▁ची	-580
▁ऑ	-581
िश	-582
▁शु	-583
ल्प	-584
▁कै	-585
▁निक	-586
▁हे	-587
▁रंग	-588
▁एव	-589
ूत	-590
नुं	-591
00	-592
कल	-593
ध्य	-594
्रीय	-595
▁ढ	-596
न्त	-597
र्क	-598
▁हर	-599
▁इसके	-600
▁शे	-601
tion	-602
▁ट्रे	-603
▁19	-604
काश	-605
प्र	-606
▁डा	-607
▁अथ	-608
द्र	-609
िस	-610
स्तु	-611
▁करवा	-612
तः	-613
ेज	-614
▁कृ	-615
तीय	-616
इन	-617
▁पं	-618
वाद	-619
▁रही	-620
▁सो	-621
▁व्या	-622
त्व	-623
▁दूस	-624
▁ता	-625
▁उनकी	-626
▁मू	-627
▁अथवा	-628
▁दृ	-629
▁ग्र	-630
सार	-631
वो	-632
▁ऐसा	-633
▁रे	-634
▁मूल	-635
▁मौ	-636
▁स्थान	-637
▁स्थिति	-638
त्म	-639
▁ओर	-640
कता	-641
ोल्डर	-642
ंभ	-643
दार	-644
येल	-645
ंप	-646
ोध	-647
▁यदि	-648
ोर	-649
ठा	-650
▁हों	-651
▁बता	-652
▁संप	-653
▁हुई	-654
▁स्प	-655
कर्	-656
षा	-657
▁स्था	-658
वास	-659
▁त्र	-660
▁वै	-661
णा	-662
च्च	-663
▁बढ़	-664
▁उसने	-665
▁दर	-666
▁वृ	-667
▁पि	-668
गत	-669
ame	-670
द्योग	-671
िम	-672
ीन	-673
▁अगर	-674
▁सर्	-675
▁बै	-676
ल्लाह	-677
▁आधार	-678
▁बारे	-679
ेंगे	-680
an	-681
▁होते	-682
न्ट	-683
लय	-684
▁शा	-685
िकास	-686
▁खु	-687
▁जाती	-688
रिक	-689
▁मार्	-690
▁क्यों	-691
▁अल्लाह	-692
▁समझ	-693
धान	-694
▁भारतीय	-695
क्ट	-696
▁ख़ुदा	-697
क्रिया	-698
तो	-699
गार	-700
वल	-701
चाल	-702
▁उसकी	-703
ियम	-704
▁चि	-705
▁आग	-706
ब्द	-707
▁प्रयोग	-708
ग्रह	-709
▁आय	-710
▁सूची	-711
01	-712
▁डे	-713
▁दूर	-714
▁हूँ	-715
▁जीवन	-716
्रो	-717
▁किए	-718
▁नीचे	-719
▁मुख	-720
▁रु	-721
वेश	-722
▁१	-723
र्य	-724
▁वस्तु	-725
▁फाइल	-726
▁उत्त	-727
ीय	-728
▁पूर्व	-729
▁विश्व	-730
▁जाना	-731
हित	-732
▁विकास	-733
जू	-734
▁एवं	-735
▁यू	-736
▁स्ट	-737
िला	-738
ूह	-739
▁रस	-740
▁पार्	-741
रु	-742
▁पुन	-743
ियो	-744
्ट	-745
▁राज्य	-746
▁वाला	-747
▁मद	-748
्न	-749
▁दा	-750
▁चल	-751
▁दोनों	-752
▁3	-753
हाय	-754
▁लिख	-755
लब्	-756
▁लिया	-757
▁संख्या	-758
▁सेवा	-759
▁ली	-760
▁विभ	-761
▁मेरे	-762
▁t	-763
ाला	-764
मान्य	-765
▁इसे	-766
▁विशेष	-767
▁जिन	-768
▁होना	-769
मु	-770
धिक	-771
व्य	-772
▁जन	-773
ेशन	-774
▁उपलब्	-775
▁आर	-776
▁व्यव	-777
ाई	-778
टना	-779
▁पता	-780
▁सहाय	-781
क्षण	-782
▁बीच	-783
ेक	-784
▁तम	-785
▁मै	-786
▁a	-787
ियां	-788
नु	-789
▁माल	-790
▁अपना	-791
▁4	-792
▁d	-793
▁अं	-794
▁नह	-795
पित	-796
▁बन	-797
निक	-798
जे	-799
▁समा	-800
्यु	-801
▁बाजु	-802
▁स्वा	-803
ख़	-804
▁जु	-805
▁पो	-806
▁शेरी	-807
▁उपलब्ध	-808
म्प	-809
▁खोल	-810
▁आस	-811
▁घर	-812
▁प्रक्रिया	-813
▁सबसे	-814
▁जग	-815
▁शिक्ष	-816
▁पृ	-817
▁शी	-818
तिक	-819
▁आवश्य	-820
▁चित्र	-821
साइ	-822
▁कभी	-823
▁अलग	-824
▁चला	-825
▁ऐसे	-826
ून	-827
ज़ा	-828
क्स	-829
▁हमें	-830
▁आया	-831
▁बदल	-832
्ले	-833
बे	-834
▁गो	-835
▁टो	-836
▁निश्च	-837
त्ता	-838
▁स्क	-839
▁उत्पाद	-840
्यारे	-841
दे	-842
▁अभि	-843
▁विष	-844
यास	-845
▁सूचना	-846
तों	-847
▁होय	-848
▁भाषा	-849
▁o	-850
▁विंड	-851
ृति	-852
▁वाली	-853
▁करती	-854
निया	-855
▁0	-856
▁चुन	-857
▁वास्त	-858
पन	-859
चित	-860
▁थयेल	-861
▁केवल	-862
▁बो	-863
▁विस्त	-864
्रिय	-865
▁चाल	-866
▁जाते	-867
▁तै	-868
▁जरू	-869
▁सरकार	-870
▁सद	-871
षण	-872
es	-873
ज्ञान	-874
▁यहाँ	-875
▁वाप	-876
▁सामान्य	-877
▁पक्ष	-878
▁तमे	-879
त्रा	-880
▁दर्श	-881
▁प्रदान	-882
▁अग	-883
हार	-884
वामां	-885
ळी	-886
िन्न	-887
▁हाल	-888
▁बड़ा	-889
▁देखा	-890
लों	-891
al	-892
▁योग	-893
▁उसका	-894
ण्ड	-895
▁शब्द	-896
▁बैं	-897
▁प्रभाव	-898
▁योजना	-899
▁श्रे	-900
▁इं	-901
▁री	-902
▁आज	-903
शे	-904
▁तुम्हारे	-905
▁विचार	-906
ूट	-907
▁सकती	-908
यर	-909
लिए	-910
कर्ता	-911
मिक	-912
▁अंग	-913
▁जैसे	-914
▁भर	-915
▁p	-916
in	-917
▁फो	-918
▁निष्	-919
▁अर्थ	-920
सन	-921
▁रब	-922
फी	-923
it	-924
▁आई	-925
ांच	-926
▁ऐसी	-927
▁लोको	-928
▁प्रमाण	-929
िट	-930
▁सुर	-931
▁प्रत्य	-932
▁पैदा	-933
▁वी	-934
▁तब	-935
▁ब्र	-936
▁सफेद	-937
कृत	-938
▁कॉ	-939
धन	-940
▁हूं	-941
▁ट्रेन	-942
बल	-943
▁समूह	-944
▁श्री	-945
▁प्रो	-946
युक्त	-947
▁माण	-948
ार्थ	-949
त्या	-950
टन	-951
ेम	-952
▁मुख्य	-953
▁जोड़	-954
▁फ़ोल्डर	-955
तना	-956
▁कंप	-957
▁मी	-958
la	-959
▁गुण	-960
er	-961
▁पुस्त	-962
फल	-963
डियो	-964
▁तरी	-965
▁कार्यक्रम	-966
र्ष	-967
ियाँ	-968
▁उनका	-969
▁बंध	-970
वरण	-971
▁बाहर	-972
▁सक्रिय	-973
लि	-974
▁लाल	-975
ुक	-976
यार	-977
▁संग्रह	-978
▁आपको	-979
▁ऋ	-980
▁बाथ	-981
तम	-982
ed	-983
▁मेरी	-984
▁महत्व	-985
▁वर्त	-986
ेट	-987
ट्टी	-988
▁दूसरे	-989
▁चाहते	-990
▁परिवर्	-991
▁चयन	-992
▁पूर्ण	-993
▁हमारी	-994
▁पत्र	-995
▁k	-996
मित	-997
▁मार्ग	-998
▁संपर्क	-999
▁क्ल	-1000
▁कई	-1001
▁चे	-1002
त्मक	-1003
द्या	-1004
प्त	-1005
▁किस	-1006
▁माणस	-1007
ोजन	-1008
▁विषय	-1009
ळा	-1010
वाह	-1011
▁आवे	-1012
▁मदद	-1013
▁स्तर	-1014
न्द्र	-1015
रूम	-1016
▁देने	-1017
▁राष्ट्रीय	-1018
रत	-1019
▁डिस्क	-1020
▁स्पष्ट	-1021
▁स्वी	-1022
▁जाएगा	-1023
लेख	-1024
भव	-1025
श्व	-1026
▁इसमें	-1027
▁नहिं	-1028
िल्	-1029
▁व्याप	-1030
ोट	-1031
▁घा	-1032
ष्य	-1033
▁बड़ी	-1034
▁प्रार	-1035
एस	-1036
सू	-1037
▁इसलिए	-1038
▁तुम्हें	-1039
▁नई	-1040
▁जह	-1041
▁माम	-1042
▁वास्तव	-1043
▁जिसमें	-1044
▁न्या	-1045
▁क्योंकि	-1046
▁त्रुट	-1047
शि	-1048
▁लाइ	-1049
▁लाग	-1050
त्ति	-1051
गो	-1052
यो	-1053
ro	-1054
▁पद	-1055
र्या	-1056
▁अति	-1057
▁ज्ञ	-1058
▁विश्	-1059
▁बाथरूम	-1060
▁टे	-1061
▁प्रकाश	-1062
▁पृष्ठ	-1063
▁ज्या	-1064
▁ईमान	-1065
▁चीज़	-1066
▁महा	-1067
▁रह्या	-1068
ेली	-1069
ष्टि	-1070
ंट	-1071
▁शका	-1072
पत्र	-1073
▁दस्ता	-1074
▁वर्तमान	-1075
ांत	-1076
र्स	-1077
▁वही	-1078
मो	-1079
▁शाम	-1080
▁S	-1081
हरी	-1082
▁पाठ	-1083
डो	-1084
▁क्रिया	-1085
▁वित	-1086
▁जल	-1087
▁२	-1088
▁शि	-1089
▁इससे	-1090
▁जाएँ	-1091
द्योगिक	-1092
▁पार	-1093
▁त्रुटि	-1094
▁तैयार	-1095
ंतु	-1096
च्चे	-1097
▁मोटर	-1098
दन	-1099
▁वेब	-1100
▁दस्तावे	-1101
▁C	-1102
▁अंतर	-1103
▁इसका	-1104
तान	-1105
▁सार	-1106
िये	-1107
▁उत्तर	-1108
▁शै	-1109
▁आगे	-1110
▁नया	-1111
▁रोग	-1112
▁लिये	-1113
ran	-1114
▁भेज	-1115
हास	-1116
ीक	-1117
डे	-1118
gm	-1119
▁अर्	-1120
▁पढ़	-1121
▁छोड़	-1122
▁अनुम	-1123
गम	-1124
▁अधिकार	-1125
प्	-1126
▁अम	-1127
▁5	-1128
▁ट्र	-1129
▁इसी	-1130
दू	-1131
▁name	-1132
▁पड़	-1133
▁डी	-1134
▁विस्तार	-1135
▁दृश्य	-1136
ोर्ट	-1137
▁कोश	-1138
▁हाथ	-1139
▁हेतु	-1140
▁संबंधित	-1141
ot	-1142
▁kgm	-1143
टक	-1144
ेला	-1145
▁चार	-1146
जर	-1147
ँच	-1148
▁प्ल	-1149
▁दौर	-1150
क्षित	-1151
▁प्रदर्श	-1152
▁जिसे	-1153
▁देता	-1154
ांग	-1155
▁आपके	-1156
▁तरफ	-1157
स्य	-1158
हरा	-1159
▁गा	-1160
▁केट	-1161
नेवाल	-1162
र्भ	-1163
▁उसी	-1164
▁चिह	-1165
▁उपकरण	-1166
▁आकार	-1167
ोने	-1168
▁डाल	-1169
▁भूम	-1170
ग़	-1171
▁बर	-1172
स्थान	-1173
▁विकल्प	-1174
▁याद	-1175
▁गये	-1176
न्तु	-1177
▁सौ	-1178
स्प	-1179
▁सहायता	-1180
▁परवर	-1181
▁शुरू	-1182
▁मिटा	-1183
हन	-1184
▁पानी	-1185
▁यही	-1186
▁एक्स	-1187
लाक	-1188
लता	-1189
▁मध्य	-1190
▁श्रेणी	-1191
▁खोज	-1192
▁परवरदि	-1193
▁मत	-1194
▁अच्छा	-1195
▁अमे	-1196
▁सर्वर	-1197
ोर्ड	-1198
िता	-1199
▁मैंने	-1200
▁प्रण	-1201
▁कहते	-1202
मुख	-1203
▁लाभ	-1204
▁ती	-1205
क्षर	-1206
ption	-1207
▁आम	-1208
तिहास	-1209
▁बैठ	-1210
▁परवरदिगार	-1211
राफ	-1212
▁सां	-1213
▁आद	-1214
▁गण	-1215
▁होंगे	-1216
▁टी	-1217
बन्	-1218
▁शिक्षा	-1219
▁कान	-1220
ात	-1221
▁शौ	-1222
सि	-1223
▁गयी	-1224
▁कें	-1225
ियोजना	-1226
मांथी	-1227
यं	-1228
▁गां	-1229
्यो	-1230
▁जू	-1231
▁झु	-1232
▁ठीक	-1233
छे	-1234
द्धि	-1235
▁जारी	-1236
▁परियोजना	-1237
▁शरी	-1238
▁उठा	-1239
▁बाजुमां	-1240
▁उच्च	-1241
▁होगी	-1242
▁प्रश	-1243
▁कौ	-1244
▁विंडो	-1245
▁कल	-1246
or	-1247
▁मंत्र	-1248
्रीन	-1249
▁पूरा	-1250
▁खाता	-1251
▁यहां	-1252
▁गति	-1253
कन	-1254
▁शुं	-1255
▁उससे	-1256
▁option	-1257
rans	-1258
▁लोक	-1259
▁तेना	-1260
▁सही	-1261
▁बैंक	-1262
▁पार्क	-1263
▁एन	-1264
▁भूल	-1265
क्ता	-1266
भूत	-1267
▁खो	-1268
▁अत्य	-1269
▁पहु	-1270
▁यादी	-1271
▁trans	-1272
▁बदला	-1273
▁देना	-1274
▁विन्ड	-1275
धु	-1276
▁छवि	-1277
▁दौरान	-1278
्यान	-1279
▁चौ	-1280
गल	-1281
▁बड़े	-1282
▁सेट	-1283
▁transla	-1284
क्षम	-1285
चन	-1286
▁शामिल	-1287
स्या	-1288
▁धर्म	-1289
▁पूरी	-1290
र्फ	-1291
▁मौजू	-1292
बू	-1293
▁घटना	-1294
▁नियंत्र	-1295
▁भवन	-1296
▁पुनः	-1297
▁प्रबंध	-1298
▁{	-1299
▁}	-1300
▁संपाद	-1301
▁ऊपर	-1302
हत	-1303
न्स	-1304
▁उद्	-1305
▁अनेक	-1306
▁चुनें	-1307
▁बंद	-1308
योज	-1309
▁कर्म	-1310
▁सका	-1311
▁ऋण	-1312
्रोत	-1313
▁निर्माण	-1314
ोड	-1315
▁कर्	-1316
▁समाप्त	-1317
नीय	-1318
▁लेख	-1319
ab	-1320
▁optional	-1321
ल्क	-1322
▁अभी	-1323
ly	-1324
▁संर	-1325
काल	-1326
स्थित	-1327
▁जमा	-1328
▁प्रत्येक	-1329
▁सुन	-1330
धे	-1331
▁I	-1332
▁सुधार	-1333
मीन	-1334
मार	-1335
▁सर्व	-1336
्राफ	-1337
▁200	-1338
▁&	-1339
▁खेल	-1340
▁जवा	-1341
▁ग़	-1342
▁महत्वपूर्ण	-1343
▁महिला	-1344
▁विभिन्न	-1345
सल	-1346
ियन	-1347
▁प्रवेश	-1348
स्टम	-1349
▁दिखाएँ	-1350
▁बल्	-1351
▁फै	-1352
▁अधिन	-1353
िज	-1354
▁सामने	-1355
▁भू	-1356
▁योग्य	-1357
▁जानकारी	-1358
.2	-1359
ित्व	-1360
▁समर्थ	-1361
नां	-1362
▁पहुं	-1363
तंत्र	-1364
▁निश्चय	-1365
▁संस्था	-1366
सं	-1367
▁अन्त	-1368
्ला	-1369
▁पूछ	-1370
▁रुप	-1371
at	-1372
न्च	-1373
परा	-1374
दर	-1375
वानी	-1376
▁एस	-1377
▁तरीके	-1378
▁विमान	-1379
▁अनुसार	-1380
▁समस्या	-1381
▁भाव	-1382
हेर	-1383
▁खाली	-1384
▁बनाने	-1385
▁मूल्य	-1386
▁pro	-1387
ेक्ट	-1388
टल	-1389
ूब	-1390
विध	-1391
▁तीन	-1392
ैर	-1393
▁बहार	-1394
▁पिछ	-1395
▁ज्यादा	-1396
▁आवश्यकता	-1397
▁साल	-1398
▁दुनिया	-1399
▁अधिनियम	-1400
▁201	-1401
▁लगे	-1402
▁बधा	-1403
▁ne	-1404
न्म	-1405
डर	-1406
ity	-1407
▁उद्योग	-1408
▁परिण	-1409
▁शौचाल	-1410
▁शोध	-1411
जीक	-1412
ॉल	-1413
▁बन्द	-1414
▁A	-1415
▁शरीर	-1416
ेशा	-1417
▁ज्यारे	-1418
▁भु	-1419
▁c	-1420
▁संग	-1421
▁बरा	-1422
साय	-1423
▁थो	-1424
▁रखा	-1425
▁मेरा	-1426
आई	-1427
ूं	-1428
▁विश्वास	-1429
Name	-1430
▁परी	-1431
▁देते	-1432
▁आकाश	-1433
▁मिला	-1434
▁स्वीकार	-1435
▁शीर्ष	-1436
▁शौचालय	-1437
▁काफी	-1438
▁विन्डो	-1439
▁उनसे	-1440
▁करके	-1441
▁>	-1442
▁सारे	-1443
▁जिराफ	-1444
▁नजीक	-1445
▁समान	-1446
▁निर्धार	-1447
पाल	-1448
▁स्थापित	-1449
सु	-1450
हे	-1451
ल्ली	-1452
▁अध्य	-1453
▁स्टो	-1454
▁निम्	-1455
▁ऊं	-1456
▁जीव	-1457
▁translation	-1458
▁फाई	-1459
ंगा	-1460
▁do	-1461
खी	-1462
▁सिं	-1463
▁परिवर्तन	-1464
▁लं	-1465
▁मन	-1466
▁need	-1467
तक	-1468
▁वो	-1469
वानुं	-1470
▁शक्ति	-1471
लाइन	-1472
ताओं	-1473
नल	-1474
▁पीछे	-1475
▁जगह	-1476
▁बनाया	-1477
▁सीमा	-1478
▁श्र	-1479
पण	-1480
▁वर्ग	-1481
▁ध्यान	-1482
▁वर्ण	-1483
द्यालय	-1484
▁व्यवस्था	-1485
▁वपरा	-1486
▁सहेज	-1487
▁प्रौ	-1488
▁प्रभ	-1489
▁डाक	-1490
▁not	-1491
▁कला	-1492
▁छा	-1493
▁कैसे	-1494
▁निर्देश	-1495
▁देव	-1496
षित	-1497
▁पण	-1498
▁लड़	-1499
▁केटलाक	-1500
मन	-1501
ारो	-1502
▁स्वयं	-1503
सम	-1504
▁प्रयास	-1505
▁उदा	-1506
▁गिर	-1507
▁वाय	-1508
श्र	-1509
▁कम्प	-1510
वस	-1511
▁इतिहास	-1512
▁पक्षी	-1513
▁कठ	-1514
▁परिणाम	-1515
▁सिर्फ	-1516
भग	-1517
bab	-1518
▁चिह्न	-1519
▁वित्त	-1520
▁कृप	-1521
▁प्रारंभ	-1522
▁माध्य	-1523
ेशक	-1524
▁does	-1525
▁probab	-1526
▁probably	-1527
डिया	-1528
▁भे	-1529
▁रीते	-1530
▁प्रती	-1531
▁वाद	-1532
्राम	-1533
▁लगभग	-1534
▁6	-1535
चान	-1536
▁उपर	-1537
ठला	-1538
▁प्रमुख	-1539
वाई	-1540
City	-1541
▁एम	-1542
▁अतः	-1543
ar	-1544
▁आने	-1545
▁चयनित	-1546
षि	-1547
हरण	-1548
▁संके	-1549
.201	-1550
क्ष्य	-1551
शो	-1552
तिम	-1553
पे	-1554
▁कृपया	-1555
पन्न	-1556
▁बल्कि	-1557
▁कित	-1558
▁डर	-1559
▁आयात	-1560
ेह	-1561
ान्त	-1562
▁बराबर	-1563
▁बढ़ा	-1564
▁8	-1565
▁प्रक	-1566
▁करा	-1567
▁हटा	-1568
द्व	-1569
विधा	-1570
▁सिस्टम	-1571
▁उनमें	-1572
▁बेह	-1573
▁बाहरी	-1574
▁बिना	-1575
▁प्रणाली	-1576
छी	-1577
▁रसूल	-1578
▁प्रमाणपत्र	-1579
▁फेर	-1580
ालय	-1581
▁पाल	-1582
▁वहाँ	-1583
▁दस्तावेज	-1584
ज्	-1585
▁बेशक	-1586
▁इसकी	-1587
▁झुठला	-1588
्लो	-1589
▁T	-1590
ेंट	-1591
▁अच्छी	-1592
▁लौ	-1593
▁नही	-1594
▁तु	-1595
▁प्लग	-1596
▁कुं	-1597
▁<	-1598
▁फोल्डर	-1599
▁समाज	-1600
शिया	-1601
र्द	-1602
ग्री	-1603
लत	-1604
▁वृक्ष	-1605
▁ध्व	-1606
▁तंत्र	-1607
▁आदेश	-1608
ंस	-1609
किंग	-1610
▁हिस्	-1611
ूँ	-1612
▁कुल	-1613
▁शो	-1614
▁साइन	-1615
▁निम्न	-1616
▁क्लिक	-1617
ंश	-1618
▁प्रौद्योगिक	-1619
▁व्यापार	-1620
मता	-1621
वृ	-1622
ंख	-1623
स्तान	-1624
▁दक्ष	-1625
▁दें	-1626
▁आर्थ	-1627
▁विद्य	-1628
पुर	-1629
▁बच्च	-1630
▁जिन्ह	-1631
▁स्थित	-1632
▁बेन्च	-1633
इट	-1634
तार	-1635
▁संदेशा	-1636
▁अवसर	-1637
▁ताकि	-1638
▁आदि	-1639
▁नदी	-1640
थम	-1641
▁आगळ	-1642
▁नेट	-1643
शील	-1644
▁मृत	-1645
▁अंतिम	-1646
कान	-1647
▁निकाल	-1648
▁नियम	-1649
▁जन्म	-1650
▁करेंगे	-1651
▁रू	-1652
▁सके	-1653
चल	-1654
यत	-1655
्युं	-1656
▁असम	-1657
▁विज्ञान	-1658
रेख	-1659
▁न्यू	-1660
ताब	-1661
▁राशि	-1662
▁धन	-1663
▁उसमें	-1664
▁दिए	-1665
▁पुर	-1666
आर	-1667
▁मार	-1668
▁संघ	-1669
रिका	-1670
▁निश	-1671
nt	-1672
साइट	-1673
नाम	-1674
▁मनु	-1675
ोस	-1676
▁सिंक	-1677
▁विभाग	-1678
▁तेम	-1679
▁तू	-1680
म्ब	-1681
▁उनको	-1682
▁काढ	-1683
▁आर्थिक	-1684
▁मज	-1685
▁संस्थान	-1686
▁हमेशा	-1687
रि	-1688
▁जाओ	-1689
▁होकर	-1690
▁शहेर	-1691
▁D	-1692
▁स्त्री	-1693
▁धरा	-1694
फा	-1695
दारी	-1696
पि	-1697
तुं	-1698
▁व्यक्त	-1699
▁धारा	-1700
▁सुविधा	-1701
▁घो	-1702
र्ति	-1703
एम	-1704
▁अमेरिका	-1705
▁विदेश	-1706
▁शेरीमां	-1707
▁प्ले	-1708
स्त्र	-1709
विद्यालय	-1710
▁उत्पादन	-1711
शत	-1712
▁लगता	-1713
▁केंद्र	-1714
▁ड्र	-1715
▁जिसके	-1716
▁स्क्रीन	-1717
▁नए	-1718
▁परंतु	-1719
ष्ण	-1720
▁काल	-1721
▁आवश्यक	-1722
ज़ी	-1723
यों	-1724
▁बच	-1725
▁कार्या	-1726
चर	-1727
▁उल्	-1728
▁ज्ञान	-1729
▁समु	-1730
▁सुरक्षा	-1731
▁लॉ	-1732
▁चिक	-1733
▁बाल	-1734
▁श्रेणीः	-1735
▁टै	-1736
▁अर	-1737
▁जवाब	-1738
▁रात	-1739
उट	-1740
▁पट्टी	-1741
▁प्रश्	-1742
▁जोड़ें	-1743
▁अतिरिक	-1744
▁मानव	-1745
▁हस्ता	-1746
▁माध्यम	-1747
▁पक	-1748
ार्ड	-1749
▁कवि	-1750
▁#	-1751
▁कृषि	-1752
▁यात्रा	-1753
ांक	-1754
बद्ध	-1755
▁जैसा	-1756
▁प्रौद्योगिकी	-1757
▁दिल	-1758
▁मर	-1759
▁निर	-1760
▁जिसका	-1761
▁वेबसाइट	-1762
्यूटर	-1763
जिक	-1764
००	-1765
न्यास	-1766
▁आरंभ	-1767
▁मंद	-1768
मि	-1769
▁सामे	-1770
▁रोक	-1771
▁लोड	-1772
▁खुल	-1773
▁मोटरसाइ	-1774
▁इस्त	-1775
▁पर्या	-1776
▁M	-1777
ंदर	-1778
▁जांच	-1779
▁अतिरिक्त	-1780
▁राम	-1781
ओने	-1782
▁बहु	-1783
एल	-1784
▁मगर	-1785
▁जहां	-1786
उन	-1787
चि	-1788
▁पंच	-1789
▁करेल	-1790
▁नीति	-1791
ठन	-1792
▁उदाहरण	-1793
ोन	-1794
चाई	-1795
ज्य	-1796
म्बर	-1797
▁7	-1798
ोग्राम	-1799
▁दर्शाव	-1800
मेल	-1801
▁चाहता	-1802
▁गी	-1803
द्द	-1804
▁जाय	-1805
िष्ट	-1806
वर्क	-1807
सित	-1808
▁बतावो	-1809
▁रि	-1810
▁परिवार	-1811
जित	-1812
▁ग्राम	-1813
थि	-1814
▁करनेवाल	-1815
▁P	-1816
▁R	-1817
▁दिशा	-1818
▁संस्क	-1819
▁पौ	-1820
▁विवरण	-1821
▁नौ	-1822
▁माप	-1823
▁अच्छे	-1824
▁सिद्ध	-1825
▁सुयोज	-1826
▁छोटे	-1827
▁लक्ष्य	-1828
▁सन्	-1829
▁बाजार	-1830
▁@	-1831
ांश	-1832
▁नव	-1833
▁त्यारे	-1834
▁विश्वविद्यालय	-1835
▁क्षमता	-1836
यात	-1837
न्दी	-1838
▁हैः	-1839
▁घास	-1840
▁प्रतिशत	-1841
▁पथ	-1842
▁सला	-1843
▁साफ	-1844
▁अफ	-1845
▁निकल	-1846
▁किन	-1847
▁सोच	-1848
▁करवामां	-1849
शु	-1850
ल्स	-1851
▁करीने	-1852
स्तुत	-1853
▁बोल	-1854
रती	-1855
▁फाईल	-1856
▁सदस्य	-1857
स्म	-1858
▁अज़ा	-1859
▁कंपनी	-1860
▁स्थानी	-1861
▁स्रोत	-1862
▁b	-1863
▁आए	-1864
िक्	-1865
▁धी	-1866
▁दिवस	-1867
ंब	-1868
▁बेठ	-1869
▁रहते	-1870
राम	-1871
र्च	-1872
▁जोई	-1873
पूर्व	-1874
▁तेनी	-1875
▁छु	-1876
▁अंग्रे	-1877
▁मॉ	-1878
▁स्थानीय	-1879
बाद	-1880
▁पुरा	-1881
▁विशिष्ट	-1882
▁जग्या	-1883
▁प्रेम	-1884
▁नियंत्रण	-1885
is	-1886
ैन	-1887
पुट	-1888
▁तुम्हारा	-1889
▁पड़े	-1890
▁पाया	-1891
▁निवेश	-1892
▁निर्ण	-1893
▁रहने	-1894
▁जानते	-1895
▁प्रथम	-1896
ांति	-1897
▁न्याया	-1898
▁बां	-1899
▁पश्च	-1900
▁मोटरसाइकल	-1901
▁बच्चों	-1902
▁जाये	-1903
▁जिसने	-1904
▁मं	-1905
▁किताब	-1906
▁महान	-1907
▁थीं	-1908
▁प्रदेश	-1909
णे	-1910
▁बच्चे	-1911
▁विधि	-1912
▁10	-1913
वादी	-1914
बानी	-1915
स्वी	-1916
▁वीडियो	-1917
▁नाग	-1918
लाई	-1919
ग्	-1920
▁सहायक	-1921
▁दक्षि	-1922
▁केन्द्र	-1923
▁44	-1924
ापन	-1925
▁ति	-1926
.0	-1927
जार	-1928
रों	-1929
▁रखने	-1930
▁शहर	-1931
▁सभा	-1932
▁अज़ाब	-1933
▁अवधि	-1934
▁रक्त	-1935
▁पुस्तक	-1936
ंतर	-1937
▁नेटवर्क	-1938
दम	-1939
▁लेने	-1940
ग्न	-1941
हित्य	-1942
om	-1943
ैंड	-1944
फ्ट	-1945
▁खरी	-1946
▁रेल	-1947
▁18	-1948
▁मात्रा	-1949
▁क्षेत्रों	-1950
▁इन्	-1951
पना	-1952
ख्त	-1953
▁इस्तेम	-1954
ळो	-1955
▁बेसी	-1956
▁फर	-1957
ॉर्	-1958
द्रा	-1959
▁पछी	-1960
▁अंदर	-1961
▁इस्तेमाल	-1962
▁नवी	-1963
▁किन्तु	-1964
▁प्रस	-1965
▁आधारित	-1966
▁सम्बन्	-1967
▁साहित्य	-1968
▁कोशिश	-1969
▁U	-1970
▁बिल	-1971
▁युद्ध	-1972
▁निर्धारित	-1973
le	-1974
▁निश्चित	-1975
▁चो	-1976
नाथ	-1977
▁यक़	-1978
▁मेळ	-1979
▁चिकित	-1980
▁सामा	-1981
▁अनि	-1982
▁संक	-1983
▁उमे	-1984
ड़ों	-1985
र्ग	-1986
ूर	-1987
▁लागू	-1988
भाग	-1989
▁काढी	-1990
▁N	-1991
▁लेकर	-1992
▁पाछ	-1993
▁जरूरी	-1994
▁मामले	-1995
▁असमर्थ	-1996
▁फल	-1997
▁जाएँगे	-1998
▁पिता	-1999
नेट	-2000
वर्ड	-2001
खो	-2002
रोध	-2003
▁मनुष्य	-2004
गतान	-2005
▁उद्देश	-2006
▁निस्	-2007
▁कौन	-2008
▁मेल	-2009
▁दृष्टि	-2010
केज	-2011
▁जानता	-2012
▁क़ौ	-2013
▁मांग	-2014
▁रखते	-2015
▁सक्षम	-2016
▁पेश	-2017
▁अग्र	-2018
▁राह	-2019
▁गुना	-2020
▁हिंद	-2021
▁देखते	-2022
▁कहीं	-2023
ल्ल	-2024
▁रिप	-2025
▁भुगतान	-2026
▁जबकि	-2027
▁रचना	-2028
ic	-2029
▁खाते	-2030
क्टर	-2031
▁अंक	-2032
▁रिक	-2033
▁विन	-2034
▁मूळ	-2035
▁संसा	-2036
▁बर्	-2037
▁मोटा	-2038
बार	-2039
▁अनुमति	-2040
▁कप	-2041
▁सत्र	-2042
ैक	-2043
▁थाय	-2044
भर	-2045
▁शाय	-2046
▁सामाजिक	-2047
बोर्ड	-2048
▁मौजूद	-2049
रोप	-2050
स्टर	-2051
▁अप्र	-2052
▁हमारा	-2053
▁F	-2054
लोड	-2055
▁डेटा	-2056
▁प्रश्न	-2057
▁मोड	-2058
▁लें	-2059
दय	-2060
यां	-2061
▁प्रोग्राम	-2062
▁उठ	-2063
▁पर्व	-2064
जु	-2065
ीकरण	-2066
▁वालों	-2067
▁चा	-2068
▁त्या	-2069
▁लेखा	-2070
ंबर	-2071
▁राजा	-2072
▁हती	-2073
▁तुल	-2074
▁प्रधान	-2075
▁सुरक्षित	-2076
▁कुंजी	-2077
ारण	-2078
▁संद	-2079
▁सिंह	-2080
▁पहचान	-2081
▁कमी	-2082
▁पत्	-2083
दिष्ट	-2084
▁खोलें	-2085
▁वपराश	-2086
▁एशिया	-2087
▁तत्व	-2088
▁मृत्यु	-2089
▁शक	-2090
▁वार्	-2091
र्जा	-2092
गु	-2093
क्शन	-2094
▁तौर	-2095
▁माँ	-2096
▁गुम	-2097
▁इंड	-2098
मू	-2099
▁संभव	-2100
▁शरू	-2101
स्थ्य	-2102
▁ऊभ	-2103
▁सिवा	-2104
▁हस्ताक्षर	-2105
▁शाखा	-2106
चक	-2107
भार	-2108
ंगी	-2109
▁प्रग	-2110
ण्	-2111
जों	-2112
▁दूसरी	-2113
ॉप	-2114
▁जल्	-2115
▁गांधी	-2116
▁दिल्ली	-2117
▁अह	-2118
▁करेगा	-2119
यें	-2120
वारी	-2121
▁मंदिर	-2122
▁विविध	-2123
सिक	-2124
मक	-2125
▁संदर्भ	-2126
ज़र	-2127
▁टाइ	-2128
्राफिक	-2129
हीन	-2130
▁खूब	-2131
▁चुका	-2132
▁B	-2133
▁वहां	-2134
▁जरूरत	-2135
▁जाएगी	-2136
▁उसको	-2137
▁आँ	-2138
तनी	-2139
▁प्रस्तुत	-2140
कारा	-2141
▁भूमि	-2142
वती	-2143
िल्म	-2144
▁सत्य	-2145
▁तय	-2146
▁सामग्री	-2147
▁रसो	-2148
▁हिन्दी	-2149
धारण	-2150
योक्ता	-2151
▁खे	-2152
मार्	-2153
पो	-2154
▁r	-2155
टेड	-2156
क्रिय	-2157
▁आउट	-2158
▁जहाँ	-2159
▁आवा	-2160
▁क्रम	-2161
▁शायद	-2162
▁पुल	-2163
▁तुम्हारी	-2164
▁9	-2165
ुरु	-2166
▁दाख	-2167
▁सार्व	-2168
भूम	-2169
▁भाई	-2170
▁वादळी	-2171
▁मात्र	-2172
▁बाइ	-2173
▁रहता	-2174
▁मिले	-2175
▁आदमी	-2176
तियों	-2177
▁स्वतंत्र	-2178
▁वन	-2179
▁स्वास्थ्य	-2180
जि	-2181
थमिक	-2182
▁पूर्	-2183
▁अनुस	-2184
▁वाह	-2185
खित	-2186
▁पासे	-2187
▁बल	-2188
▁उत्पन्न	-2189
▁गर्	-2190
▁हिन्द	-2191
▁डाउन	-2192
▁निर्णय	-2193
त्मा	-2194
▁मित्र	-2195
▁प्राथमिक	-2196
▁बचा	-2197
▁रमत	-2198
▁वृद्धि	-2199
ज्ञा	-2200
▁प्रय	-2201
▁देखने	-2202
▁प्रस्ता	-2203
▁वापस	-2204
ष्ट्रीय	-2205
▁सहेजें	-2206
्रेस	-2207
ँचा	-2208
▁प्रशिक्ष	-2209
शोध	-2210
▁धरती	-2211
पास	-2212
न्व	-2213
भूमि	-2214
▁एल	-2215
▁संबंधी	-2216
▁खुदा	-2217
▁मूसा	-2218
▁मांगो	-2219
▁प्रदर्शित	-2220
▁संचाल	-2221
▁सहयोग	-2222
▁साइ	-2223
्म	-2224
लेट	-2225
पु	-2226
▁मुद्रा	-2227
▁अधिकारी	-2228
▁महेर	-2229
▁महेरबानी	-2230
▁३	-2231
▁असफल	-2232
▁भिन्न	-2233
▁विभा	-2234
स्कार	-2235
▁पदार्थ	-2236
▁12	-2237
▁अंतर्	-2238
▁डेस्क	-2239
संदेह	-2240
▁लेते	-2241
▁पासवर्ड	-2242
▁आन	-2243
▁मोटी	-2244
▁क़ौम	-2245
स्थिति	-2246
▁प्रस्ताव	-2247
रिया	-2248
▁अपे	-2249
▁खुलती	-2250
▁भूमिका	-2251
ानों	-2252
▁बिला	-2253
▁अनुप्र	-2254
▁निर्यात	-2255
▁१९	-2256
▁जिससे	-2257
▁दक्षिण	-2258
▁विंडों	-2259
▁कने	-2260
▁सच	-2261
▁छाप	-2262
▁सफलता	-2263
र्ट	-2264
ईल	-2265
क्या	-2266
▁f	-2267
▁स्वर	-2268
▁E	-2269
वुं	-2270
▁बुरा	-2271
पूर्वक	-2272
▁पहुंच	-2273
पट	-2274
▁संरचना	-2275
▁समर्थन	-2276
करी	-2277
▁लाख	-2278
▁ज़मीन	-2279
▁टोच	-2280
िश्त	-2281
▁सेना	-2282
▁संभाव	-2283
ेस	-2284
▁पाणी	-2285
▁ड्राइ	-2286
▁देशों	-2287
▁नाना	-2288
▁ब्रा	-2289
र्घ	-2290
▁लिखा	-2291
िप्	-2292
▁ट्रेक	-2293
▁बेसीने	-2294
▁माना	-2295
अप	-2296
▁जूथ	-2297
▁फरी	-2298
▁हतो	-2299
▁कूट	-2300
▁खंड	-2301
▁खिला	-2302
▁बनाए	-2303
▁आइ	-2304
▁प्रगति	-2305
▁O	-2306
000	-2307
्यता	-2308
ंगल	-2309
खाण	-2310
▁पिछले	-2311
▁मुला	-2312
क्रमण	-2313
▁बनाएँ	-2314
ंधान	-2315
▁हता	-2316
▁स्कूल	-2317
दर्शन	-2318
▁बदलें	-2319
▁प्रबंधन	-2320
▁तारी	-2321
▁निस्संदेह	-2322
फळ	-2323
en	-2324
▁बटन	-2325
शाली	-2326
▁15	-2327
▁L	-2328
िको	-2329
▁मुं	-2330
▁संकेत	-2331
▁कोड	-2332
▁जोडा	-2333
जरा	-2334
ec	-2335
णु	-2336
▁उद्देश्य	-2337
क्ष्	-2338
▁निष्फळ	-2339
▁वक्त	-2340
ील	-2341
ड़ाई	-2342
▁इतना	-2343
▁m	-2344
▁सत	-2345
▁छोटा	-2346
दाय	-2347
▁रखें	-2348
▁अध्ययन	-2349
▁बिल्ड	-2350
रूप	-2351
▁पहा	-2352
▁न्याय	-2353
▁विफल	-2354
▁बिलाडी	-2355
कृ	-2356
ज़ार	-2357
▁भोजन	-2358
िना	-2359
ंजी	-2360
ळुं	-2361
▁किये	-2362
▁अला	-2363
च्छा	-2364
▁पहली	-2365
▁चाहे	-2366
ॉक	-2367
गें	-2368
▁जनता	-2369
▁हिस्सा	-2370
▁अज्ञ	-2371
▁पांच	-2372
▁माउ	-2373
ड़क	-2374
लिखित	-2375
▁ऑफ	-2376
▁मुक्त	-2377
▁घेट	-2378
▁नो	-2379
▁पंक्ति	-2380
आत	-2381
ववा	-2382
▁निष्क्रिय	-2383
▁अक	-2384
▁शैली	-2385
ou	-2386
▁in	-2387
▁झा	-2388
▁स्टे	-2389
झा	-2390
▁मशी	-2391
▁मिटाएँ	-2392
▁अनुभव	-2393
▁रखना	-2394
▁विकसित	-2395
ियर	-2396
▁जिला	-2397
▁हैंः	-2398
▁दिनों	-2399
कात	-2400
▁देखें	-2401
▁प्रवि	-2402
▁चै	-2403
▁प्रकाशित	-2404
त्न	-2405
▁कहने	-2406
▁सरकारी	-2407
ब्र	-2408
▁दिखाई	-2409
▁रोज	-2410
▁भवि	-2411
म्भ	-2412
st	-2413
▁वर्षों	-2414
▁वास्तविक	-2415
लग्न	-2416
▁जहन्न	-2417
श्चा	-2418
परी	-2419
ीप	-2420
▁ज़ि	-2421
▁संयुक्त	-2422
धिकार	-2423
▁साधन	-2424
▁चुके	-2425
▁इका	-2426
▁आपका	-2427
▁न्यायालय	-2428
▁जाँच	-2429
▁अनुसंधान	-2430
▁छोटी	-2431
▁भविष्य	-2432
▁लखाण	-2433
▁स्टेशन	-2434
रीब	-2435
▁20	-2436
ंज	-2437
राब	-2438
▁द्र	-2439
▁सत्ता	-2440
▁अनुप्रयोग	-2441
▁रिपोर्ट	-2442
▁w	-2443
▁वर्णन	-2444
ेंस	-2445
▁स्टोप	-2446
बि	-2447
▁चुना	-2448
▁भेजा	-2449
▁संत	-2450
▁अज्ञात	-2451
▁बने	-2452
श्वर	-2453
▁कोशिका	-2454
▁तमारा	-2455
▁लाक	-2456
▁सिर	-2457
▁दौ	-2458
▁मालूम	-2459
वरी	-2460
▁196	-2461
ियान	-2462
धुनिक	-2463
ैस	-2464
▁पहुँच	-2465
पक	-2466
प्ता	-2467
ोगे	-2468
▁वित्तीय	-2469
▁हवा	-2470
▁विदेशी	-2471
कीय	-2472
▁क़ुर	-2473
▁डाउनलोड	-2474
ल्ट	-2475
▁बाथरूममां	-2476
खते	-2477
्वे	-2478
▁तकनी	-2479
▁महत्त	-2480
▁शीर्षक	-2481
▁पड	-2482
धारा	-2483
▁तेने	-2484
ध्या	-2485
▁फे	-2486
▁ज़रू	-2487
्वर	-2488
▁कार्यालय	-2489
▁वपराशकर्ता	-2490
ृह	-2491
ठी	-2492
गाह	-2493
▁प्राय	-2494
▁परीक्षा	-2495
यान	-2496
मंत्र	-2497
▁पर्य	-2498
▁गलत	-2499
जो	-2500
▁बज	-2501
घु	-2502
बरा	-2503
▁डो	-2504
▁फी	-2505
▁पुस्तिका	-2506
▁सै	-2507
▁अन्	-2508
▁संवि	-2509
▁संवाद	-2510
लब	-2511
्सा	-2512
▁बेहतर	-2513
▁इनकार	-2514
▁आधुनिक	-2515
ून्य	-2516
सो	-2517
वासी	-2518
हिती	-2519
▁यातना	-2520
▁अवस्था	-2521
मांड	-2522
▁घेटां	-2523
ीण	-2524
रीय	-2525
त्री	-2526
▁बंग	-2527
▁अभिलेख	-2528
्ब	-2529
▁आख़	-2530
▁भंड	-2531
तें	-2532
धित	-2533
▁रस्ता	-2534
▁जाण	-2535
▁मही	-2536
▁प्रोज	-2537
ंगे	-2538
▁आसमान	-2539
▁चका	-2540
याँ	-2541
▁लेना	-2542
जनिक	-2543
▁माहिती	-2544
फार	-2545
▁अनुक	-2546
केट	-2547
्यूशन	-2548
▁सुना	-2549
▁पूरे	-2550
▁यक़ीन	-2551
▁विनि	-2552
ैध	-2553
▁डाटा	-2554
भू	-2555
▁भ्र	-2556
▁लाइट	-2557
▁अधि	-2558
▁अपरा	-2559
▁पंचांग	-2560
▁संपादक	-2561
▁ट्राफिक	-2562
▁माइ	-2563
वस्था	-2564
नार	-2565
▁ऊर्जा	-2566
▁सार्वजनिक	-2567
िकी	-2568
▁गं	-2569
स्ती	-2570
▁खरीद	-2571
▁दया	-2572
▁आपकी	-2573
ड्ड	-2574
लेज	-2575
▁आयु	-2576
▁स्ना	-2577
ंच	-2578
िल्टर	-2579
▁ग्रे	-2580
▁बेठा	-2581
▁वापर	-2582
▁निर्दिष्ट	-2583
▁फूल	-2584
क्सी	-2585
▁पड़ा	-2586
▁जोड	-2587
▁बदले	-2588
▁डिर	-2589
खे	-2590
बत	-2591
मय	-2592
घा	-2593
सत	-2594
▁नर	-2595
श्चित	-2596
▁मौजूदा	-2597
क्का	-2598
▁दाय	-2599
▁अगले	-2600
▁संशोध	-2601
▁अना	-2602
▁समिति	-2603
▁ध्वनि	-2604
▁प्रशा	-2605
ोनी	-2606
▁दल	-2607
▁निजी	-2608
घ्र	-2609
र्ज	-2610
▁खुद	-2611
ज्ञानिक	-2612
ँह	-2613
▁तेओ	-2614
पात	-2615
स्करण	-2616
▁नां	-2617
▁रसोडा	-2618
▁संस	-2619
▁शून्य	-2620
एफ	-2621
वेयर	-2622
▁व्यस्त	-2623
▁चर	-2624
▁संगी	-2625
▁उल्लेख	-2626
▁सारी	-2627
▁परन्तु	-2628
ंमत	-2629
▁अवैध	-2630
▁जोडाण	-2631
▁बनाना	-2632
▁जिन्हें	-2633
▁स्म	-2634
▁पाछळ	-2635
▁ढूं	-2636
▁शुरु	-2637
▁नगर	-2638
▁संलग्न	-2639
शय	-2640
▁डॉ	-2641
▁बातें	-2642
▁पुरु	-2643
▁उल	-2644
िब	-2645
▁अट	-2646
▁बढ	-2647
▁प्रोजेक्ट	-2648
▁छि	-2649
.1	-2650
▁कहे	-2651
▁देती	-2652
▁गांव	-2653
▁पश्चा	-2654
नतम	-2655
▁झू	-2656
चारी	-2657
▁भारी	-2658
▁पुरस्कार	-2659
शल	-2660
▁सुं	-2661
▁औद्योगिक	-2662
▁फोटो	-2663
▁बोर्ड	-2664
▁सम्मान	-2665
▁व्यवहार	-2666
▁आता	-2667
द्धति	-2668
▁पृष्ठभूमि	-2669
हरे	-2670
ानि	-2671
▁काट	-2672
▁प्रेर	-2673
▁इस्	-2674
▁ईसु	-2675
▁नोट	-2676
▁पालन	-2677
▁पेकेज	-2678
▁फ्र	-2679
▁अद्य	-2680
▁पुरुष	-2681
▁सुयोजित	-2682
▁छी	-2683
▁थई	-2684
▁शकाय	-2685
▁दूसरा	-2686
▁कंप्यूटर	-2687
▁प्रशिक्षण	-2688
▁भावना	-2689
▁शक्या	-2690
▁टुक	-2691
▁मुझ	-2692
▁आत्म	-2693
▁हृ	-2694
▁पल	-2695
न्टर	-2696
▁निकट	-2697
▁लागत	-2698
▁अलावा	-2699
सान	-2700
▁कांग	-2701
ोल्यूशन	-2702
▁भौ	-2703
▁घणा	-2704
▁इनमें	-2705
▁पसंदगी	-2706
ोजित	-2707
▁अस्त	-2708
▁राय	-2709
▁e	-2710
▁ब्ल	-2711
▁स्थापना	-2712
▁फ़ॉ	-2713
▁निर्देशिका	-2714
र्चा	-2715
▁लॉग	-2716
▁आपने	-2717
म्मे	-2718
▁ओफ	-2719
ारों	-2720
▁कानून	-2721
▁उपयोक्ता	-2722
▁प्रभावित	-2723
▁पृथ	-2724
▁मिन	-2725
▁लीला	-2726
▁ग्राह	-2727
▁ब्राउ	-2728
टि	-2729
च्चा	-2730
▁तुमने	-2731
▁स्तंभ	-2732
टों	-2733
िप्ट	-2734
▁आंक	-2735
▁ताल	-2736
▁जल्दी	-2737
▁संपूर्ण	-2738
▁प्रदर्शन	-2739
▁संगठन	-2740
▁मामलों	-2741
▁मशीन	-2742
▁निम्नलिखित	-2743
प्ताह	-2744
ंदु	-2745
▁इमार	-2746
▁तेल	-2747
▁कीमत	-2748
▁लघु	-2749
गि	-2750
▁काउ	-2751
▁प्लगइन	-2752
▁धीरे	-2753
▁मुँह	-2754
▁सत्या	-2755
▁हल	-2756
▁शीघ्र	-2757
▁समुद्र	-2758
▁एच	-2759
ोडुं	-2760
▁उभा	-2761
▁वखते	-2762
ment	-2763
ल्पना	-2764
▁त्रण	-2765
▁किंमत	-2766
▁डिरेक्ट	-2767
▁प्रतिक	-2768
▁खसे	-2769
▁बैठक	-2770
▁यक़ीनन	-2771
▁उचित	-2772
▁आवेदन	-2773
रल	-2774
▁तुमसे	-2775
▁नागरिक	-2776
▁गैर	-2777
▁लिखने	-2778
▁इला	-2779
▁पकड़	-2780
▁फोन	-2781
▁बनी	-2782
▁आसपास	-2783
▁G	-2784
▁रखता	-2785
▁ऊँ	-2786
▁हाइ	-2787
▁सलाह	-2788
▁समाव	-2789
▁फु	-2790
▁उम्	-2791
▁नक़	-2792
ंडल	-2793
▁स्थायी	-2794
▁कच	-2795
▁दश	-2796
▁शासन	-2797
्रीका	-2798
▁जित	-2799
▁लाए	-2800
बान	-2801
सिल	-2802
▁उद्य	-2803
▁जमीन	-2804
▁पूंजी	-2805
▁सॉ	-2806
ol	-2807
▁नवा	-2808
श्त	-2809
▁नक	-2810
▁चू	-2811
कस	-2812
ॉन	-2813
फ्त	-2814
ांतर	-2815
▁सुंदर	-2816
छा	-2817
त्सा	-2818
▁ईसा	-2819
▁शिका	-2820
क्षक	-2821
▁आंत	-2822
▁मनो	-2823
▁उन्	-2824
▁नकल	-2825
▁सुधी	-2826
▁H	-2827
▁अत्यन्त	-2828
▁लौट	-2829
▁पंजी	-2830
▁संस्कृत	-2831
▁ढंग	-2832
च्छेद	-2833
▁ढूंढ	-2834
▁मिली	-2835
▁प्रतीक	-2836
▁चिह्नित	-2837
▁पार्टी	-2838
जली	-2839
▁कमांड	-2840
▁तिथि	-2841
▁सर्वो	-2842
▁ग्रामीण	-2843
ार्म	-2844
▁गुजरा	-2845
▁अपेक्षा	-2846
▁चिकित्सा	-2847
▁मूळभूत	-2848
▁h	-2849
▁एफ	-2850
▁बाह	-2851
वेद	-2852
▁ईश्वर	-2853
▁चाहिये	-2854
▁भीतर	-2855
▁तमारी	-2856
▁शेष	-2857
योग्य	-2858
▁संगीत	-2859
▁घं	-2860
वहन	-2861
▁दर्शा	-2862
▁साह	-2863
नलाइन	-2864
▁संसाधन	-2865
▁तेज	-2866
▁बिल्डिंग	-2867
▁गि	-2868
▁विल	-2869
▁पद्धति	-2870
▁चले	-2871
▁एवोल्यूशन	-2872
▁सवारी	-2873
▁वैज्ञानिक	-2874
भाल	-2875
▁कार्ड	-2876
▁चीज	-2877
▁पहल	-2878
▁सुनि	-2879
▁उम	-2880
▁जरूर	-2881
▁रसोडामां	-2882
भीर	-2883
▁दस	-2884
▁सहित	-2885
▁अक्षर	-2886
▁मालिक	-2887
▁मुलाकात	-2888
बु	-2889
▁जाणकारी	-2890
फर	-2891
▁बग	-2892
▁नान	-2893
▁शहेरनी	-2894
▁बनावो	-2895
ैल	-2896
▁असा	-2897
बो	-2898
राह	-2899
शब्द	-2900
▁चलो	-2901
ाइन	-2902
मंत्री	-2903
▁अंड	-2904
▁राजनी	-2905
▁11	-2906
▁नहि	-2907
▁घट	-2908
काम	-2909
टरी	-2910
▁पुनर्	-2911
▁मिलता	-2912
▁साव	-2913
▁आक	-2914
▁भग	-2915
▁गुणव	-2916
▁दस्तावेज़	-2917
स्ट्र	-2918
▁आते	-2919
▁जादू	-2920
कत	-2921
वाले	-2922
▁इंटर	-2923
▁स्क्र	-2924
▁लाव	-2925
थर	-2926
▁मना	-2927
▁रेखा	-2928
▁जिसकी	-2929
▁विन्यास	-2930
लाम	-2931
ताल	-2932
▁मंत्री	-2933
तने	-2934
▁मॉड	-2935
▁शके	-2936
स्ति	-2937
▁साय	-2938
▁]	-2939
बूत	-2940
▁कहना	-2941
▁लेखक	-2942
ट्स	-2943
ट्र	-2944
कृतिक	-2945
▁मंत्रालय	-2946
▁सृ	-2947
▁अद्यतन	-2948
मल	-2949
▁संसार	-2950
▁आकर्	-2951
▁रहती	-2952
▁लक्षण	-2953
▁अधिकांश	-2954
▁विस्तृत	-2955
ड्	-2956
चीन	-2957
ज़े	-2958
▁अक्ष	-2959
▁तुलना	-2960
▁महारा	-2961
▁अधिकतम	-2962
▁गुणवत्ता	-2963
▁रसोडुं	-2964
▁कठिन	-2965
▁मकान	-2966
▁निशान	-2967
▁बॉ	-2968
▁पाने	-2969
▁प्रकृति	-2970
न्डर	-2971
▁अंतर्गत	-2972
वर्ती	-2973
ओनी	-2974
व्र	-2975
गण	-2976
संग	-2977
जिए	-2978
▁खी	-2979
▁कूत	-2980
▁आख़िर	-2981
▁प्रयत्न	-2982
▁चम	-2983
▁खर्च	-2984
वृत्ति	-2985
▁शुल्क	-2986
▁पर्याप्त	-2987
▁धो	-2988
▁शांति	-2989
▁लगी	-2990
▁इन्ह	-2991
▁अद	-2992
▁पहे	-2993
▁पां	-2994
▁बाळ	-2995
▁सुनिश्चित	-2996
ंद्र	-2997
▁दिवाल	-2998
▁नंबर	-2999
▁आशा	-3000
क्ष्म	-3001
▁शर्	-3002
ोह	-3003
ंसा	-3004
▁छीए	-3005
▁नक़ल	-3006
▁समाचार	-3007
▁कोल	-3008
कला	-3009
▁नियु	-3010
ट्ट	-3011
राज	-3012
▁विज्ञ	-3013
▁ब्या	-3014
▁बिक	-3015
▁प्रकट	-3016
ैव	-3017
▁युवा	-3018
▁त्यां	-3019
▁u	-3020
▁सेक	-3021
नेवाले	-3022
फ्	-3023
▁धार	-3024
▁आसान	-3025
▁अध्या	-3026
प्ति	-3027
▁सफल	-3028
▁खाना	-3029
▁दृष्ट	-3030
▁g	-3031
▁वज	-3032
▁काळा	-3033
▁अफ्रीका	-3034
▁प्रयुक्त	-3035
लोकन	-3036
▁गाय	-3037
▁निशानी	-3038
▁आती	-3039
ूद	-3040
औन	-3041
धर	-3042
▁व्यापक	-3043
▁रद्द	-3044
▁वायु	-3045
ायेल	-3046
वाला	-3047
▁देखो	-3048
▁काग	-3049
▁मळ	-3050
▁फ़र	-3051
▁वार	-3052
दर्शी	-3053
▁चुकी	-3054
▁बुला	-3055
▁व्यवसाय	-3056
▁बू	-3057
▁अंश	-3058
▁दाखल	-3059
र्न	-3060
▁प्राकृतिक	-3061
▁x	-3062
ेंच	-3063
वानो	-3064
▁रक्षा	-3065
▁मतलब	-3066
तरी	-3067
▁उपभ	-3068
▁नसी	-3069
▁प्रेष	-3070
▁फ़ॉन्ट	-3071
▁लाइन	-3072
▁मेमो	-3073
▁उपस्थित	-3074
▁प्रोत्सा	-3075
मीद	-3076
▁संभावना	-3077
▁परीक्षण	-3078
▁तीस	-3079
▁जम	-3080
▁199	-3081
▁चढ़	-3082
▁पशु	-3083
र्ड	-3084
▁डाला	-3085
▁अंग्रेजी	-3086
ोलन	-3087
▁समझा	-3088
▁कहानी	-3089
वत	-3090
▁हाँ	-3091
▁ग्रह	-3092
्श	-3093
▁अक्	-3094
चित्र	-3095
▁बिंदु	-3096
▁व्याख्या	-3097
▁एर	-3098
▁16	-3099
▁अवश्य	-3100
▁स्ट्री	-3101
्रु	-3102
▁हतुं	-3103
▁यूरोप	-3104
re	-3105
षिक	-3106
▁उपाय	-3107
▁निर्भर	-3108
▁नार	-3109
▁2018	-3110
▁करनी	-3111
▁रहना	-3112
मारी	-3113
▁कॉन्	-3114
▁शेयर	-3115
▁दबा	-3116
▁सवाल	-3117
▁रहेंगे	-3118
▁सप्ताह	-3119
मेट	-3120
▁सरल	-3121
▁तुमको	-3122
स्ते	-3123
▁W	-3124
▁स्वतः	-3125
ेंड	-3126
ैतिक	-3127
्वा	-3128
बाई	-3129
▁आत	-3130
▁कांग्रेस	-3131
लाइ	-3132
▁संस्करण	-3133
्यार	-3134
▁मेन	-3135
▁अनिवार	-3136
ताव	-3137
स्ल	-3138
▁कोइ	-3139
▁प्रतिनि	-3140
▁अस्थ	-3141
▁अक्षम	-3142
▁बजे	-3143
▁इकाई	-3144
▁बधी	-3145
▁अर्थव्य	-3146
▁जैसी	-3147
कुल	-3148
▁दरवा	-3149
▁कदम	-3150
मीटर	-3151
▁त्व	-3152
▁५	-3153
▁लु	-3154
ुमार	-3155
▁हित	-3156
▁मुसल	-3157
▁भेजें	-3158
▁हुं	-3159
▁अंध	-3160
▁अत्यंत	-3161
▁वध	-3162
▁वाक	-3163
ल्कुल	-3164
▁देगा	-3165
▁माता	-3166
षक	-3167
सव	-3168
▁ख़ा	-3169
▁l	-3170
बेस	-3171
,000	-3172
वेदन	-3173
▁उपचार	-3174
ुओं	-3175
▁सीधे	-3176
▁कं	-3177
▁जाति	-3178
▁जिनके	-3179
ौती	-3180
▁स्वच्छ	-3181
▁बीज	-3182
▁हक़	-3183
▁पत्त	-3184
▁मुक़	-3185
▁परिवर्त	-3186
स्यों	-3187
▁सम्म	-3188
▁[	-3189
▁चर्चा	-3190
धानी	-3191
▁पहला	-3192
▁सामान	-3193
el	-3194
दों	-3195
▁पुलिस	-3196
▁शब्दों	-3197
▁जोइ	-3198
▁ज्ञापन	-3199
▁निर्मित	-3200
▁स्वतंत्रता	-3201
▁एड	-3202
▁बिल्कुल	-3203
क्रो	-3204
▁बनाव	-3205
▁बाइक	-3206
▁स्थल	-3207
▁मिट्टी	-3208
▁कूटशब्द	-3209
नर	-3210
किल	-3211
ष्क	-3212
यामत	-3213
▁वां	-3214
तरा	-3215
▁बाप	-3216
▁मुसलमान	-3217
▁अनिवार्य	-3218
▁फा	-3219
सिद्ध	-3220
▁गंभीर	-3221
▁मिश्र	-3222
▁दोष	-3223
▁25	-3224
▁नये	-3225
▁मोह	-3226
▁विशाल	-3227
▁रखी	-3228
▁इत्या	-3229
▁आउटपुट	-3230
▁पश्चिम	-3231
▁खास	-3232
▁रखे	-3233
▁कक्ष	-3234
▁नियत	-3235
▁खाद्य	-3236
▁विश्ले	-3237
▁कविता	-3238
चय	-3239
▁जोईए	-3240
▁लां	-3241
ारोह	-3242
▁तारीख	-3243
▁न्यूनतम	-3244
वाना	-3245
ोक्ता	-3246
▁अर्थव्यवस्था	-3247
▁नसीहत	-3248
भूति	-3249
▁तरीका	-3250
▁जहन्नुम	-3251
▁सात	-3252
फ़ी	-3253
▁शकता	-3254
▁बीमा	-3255
खवा	-3256
जीव	-3257
▁आंतरिक	-3258
▁सज	-3259
▁काय	-3260
नेवाला	-3261
▁किंतु	-3262
▁जहा	-3263
▁नियमित	-3264
रेक	-3265
▁बीजा	-3266
▁उद्यम	-3267
▁चरण	-3268
▁हृदय	-3269
ंकर	-3270
काव	-3271
▁द्वार	-3272
▁अस्तित्व	-3273
ितीय	-3274
▁आवी	-3275
▁ऑनलाइन	-3276
पान	-3277
न्दर	-3278
▁चक्र	-3279
▁बाग़	-3280
▁मीडिया	-3281
▁उम्मीद	-3282
शुदा	-3283
▁शिकायत	-3284
▁अयोग्य	-3285
▁जर	-3286
▁आवेल	-3287
▁परिवहन	-3288
िक्स	-3289
▁लम्	-3290
▁सूर्य	-3291
▁हासिल	-3292
▁मल	-3293
▁एन्	-3294
▁प्राचीन	-3295
▁फ्ल	-3296
▁धरावे	-3297
▁पोर्ट	-3298
▁४	-3299
्वी	-3300
एन	-3301
बह	-3302
▁तहत	-3303
▁वजह	-3304
▁मेईल	-3305
▁मुद्र	-3306
▁बिक्री	-3307
▁पंजा	-3308
▁करवानी	-3309
▁पाए	-3310
▁इत्यादि	-3311
omment	-3312
▁जिन्होंने	-3313
▁पूर्वा	-3314
▁क्षति	-3315
्द	-3316
▁नोड	-3317
▁तेजी	-3318
▁प्रारूप	-3319
वीं	-3320
▁लेन	-3321
▁२००	-3322
▁लाने	-3323
▁पश्चात	-3324
▁एज	-3325
▁संपत्ति	-3326
▁अवि	-3327
णीय	-3328
्रेड	-3329
▁पोता	-3330
साफ	-3331
▁वस्तुओं	-3332
▁अनुवाद	-3333
▁योगदान	-3334
▁घे	-3335
▁तारा	-3336
▁सीडी	-3337
▁डिरेक्टरी	-3338
▁बंगाल	-3339
▁बैक	-3340
▁बातों	-3341
▁क़यामत	-3342
▁लिंक	-3343
▁अनुमान	-3344
▁अल्प	-3345
िकोण	-3346
▁उपयोगी	-3347
▁नक्	-3348
▁रहो	-3349
दारों	-3350
▁करोड़	-3351
▁राज्यों	-3352
▁व्यक्तिगत	-3353
▁बौ	-3354
▁हवाई	-3355
चालित	-3356
▁लगाया	-3357
▁सभ	-3358
▁बजा	-3359
▁टिप्	-3360
▁फरीथी	-3361
▁अध्यक्ष	-3362
मेंट	-3363
▁आदर्श	-3364
▁दरम	-3365
▁नमू	-3366
न्नत	-3367
▁तत्	-3368
▁पड़ता	-3369
▁युक्ति	-3370
▁वास्ते	-3371
टिल	-3372
वु	-3373
िकार	-3374
▁गीत	-3375
▁ब्याज	-3376
▁समारोह	-3377
ार्ट	-3378
▁इच्छा	-3379
▁व्यक्तियों	-3380
▁ऑफ़	-3381
▁समुदा	-3382
ंदा	-3383
रान	-3384
न्दा	-3385
झी	-3386
ालीन	-3387
▁चिं	-3388
▁ध्रु	-3389
▁तयशुदा	-3390
कु	-3391
▁पात्र	-3392
वेर	-3393
▁प्रधानमंत्री	-3394
▁दीर्घ	-3395
▁मुह	-3396
▁चौड़ाई	-3397
▁सदस्यों	-3398
कना	-3399
जनक	-3400
▁खू	-3401
▁साधारण	-3402
क्षी	-3403
नोम	-3404
▁=	-3405
▁कट	-3406
▁कनेक्शन	-3407
▁करवानुं	-3408
▁पहेल	-3409
▁टैब	-3410
लेन्डर	-3411
चीत	-3412
▁पढ़ने	-3413
▁ऊभा	-3414
▁डरा	-3415
▁सेटिंग	-3416
शाला	-3417
▁1961	-3418
▁सरना	-3419
▁आंद	-3420
▁नानी	-3421
▁फ़ाइलें	-3422
दु	-3423
▁दै	-3424
Comment	-3425
▁क्ला	-3426
▁नीक	-3427
▁अस्था	-3428
▁नष्ट	-3429
▁पैग़	-3430
▁स्थिर	-3431
▁जिनमें	-3432
▁पहुँचा	-3433
▁युग	-3434
▁गहरा	-3435
कारात्मक	-3436
▁खान	-3437
▁दिख	-3438
▁बताया	-3439
▁धा	-3440
▁वधु	-3441
▁संस्कृति	-3442
▁14	-3443
▁खुश	-3444
हीम	-3445
▁आर्	-3446
▁शुभ	-3447
▁कितने	-3448
खर	-3449
▁तर्क	-3450
▁छुट	-3451
▁छुपा	-3452
▁वापरो	-3453
ठित	-3454
▁उड़	-3455
▁नों	-3456
▁मीटर	-3457
▁रहेला	-3458
फे	-3459
पूर	-3460
फ़ॉ	-3461
▁कचरा	-3462
बई	-3463
▁घटा	-3464
पोर्ट	-3465
▁केन्द	-3466
ड्र	-3467
▁छात्र	-3468
टें	-3469
▁इक	-3470
▁विवाह	-3471
▁सरक	-3472
मेज	-3473
▁टर्म	-3474
▁दिये	-3475
▁आत्मा	-3476
बोध	-3477
▁बिजली	-3478
▁मछ	-3479
साद	-3480
ोमां	-3481
राज्य	-3482
सूस	-3483
▁अके	-3484
▁तुर	-3485
▁संविधान	-3486
▁प्रजा	-3487
ांकन	-3488
्रिया	-3489
▁क्लिप	-3490
▁कम्प्यूटर	-3491
वाली	-3492
▁कानू	-3493
▁क्षमा	-3494
▁प्रसार	-3495
▁मस	-3496
▁वाता	-3497
▁प्रसन्न	-3498
ियल	-3499
वक	-3500
खंड	-3501
▁बारी	-3502
यण	-3503
▁आतंक	-3504
▁तस्वी	-3505
▁प्रायः	-3506
स्व	-3507
▁13	-3508
क्षे	-3509
▁अल्	-3510
▁विज	-3511
ार्थी	-3512
▁सेवाओं	-3513
▁डिज	-3514
▁निर्वा	-3515
▁संपादन	-3516
▁फिल्म	-3517
▁आपो	-3518
▁इंडिया	-3519
▁तमा	-3520
▁भागी	-3521
▁स्वामी	-3522
टोप	-3523
सों	-3524
▁माह	-3525
▁अपराध	-3526
▁संशोधन	-3527
िनल	-3528
▁घोष	-3529
▁भगवान	-3530
▁प्रसिद्ध	-3531
्राष्ट्रीय	-3532
द्दी	-3533
स्वर	-3534
▁फैला	-3535
ार्मिक	-3536
▁मानते	-3537
▁दूरी	-3538
▁कूतरो	-3539
लेक्ट	-3540
▁चिह्	-3541
▁होनी	-3542
▁संपादित	-3543
▁फाय	-3544
▁हार	-3545
▁ऑडियो	-3546
▁ख़ु	-3547
▁वेतन	-3548
▁सीमित	-3549
प्रिय	-3550
▁महीने	-3551
▁कार्यों	-3552
▁आख	-3553
रेखा	-3554
▁परिष	-3555
▁फेरफार	-3556
वानगी	-3557
▁जेट	-3558
द्रीय	-3559
▁मुश्	-3560
▁दूरस्थ	-3561
▁अधीन	-3562
▁आनंद	-3563
▁क़सम	-3564
▁महत्त्व	-3565
भाष	-3566
▁इतनी	-3567
▁पत्नी	-3568
▁सीख	-3569
▁गतिविध	-3570
▁खोलो	-3571
▁बदलो	-3572
▁लेता	-3573
▁मुसाफ	-3574
▁कब	-3575
वाळा	-3576
▁शिव	-3577
▁इनके	-3578
▁अनुकूल	-3579
▁पीठ	-3580
▁अधिकतर	-3581
▁हिन्दू	-3582
▁अस्प	-3583
▁देंगे	-3584
▁एप	-3585
▁सदैव	-3586
▁पोस्ट	-3587
▁महसूस	-3588
क्षेत्र	-3589
▁विशेषता	-3590
तया	-3591
वाही	-3592
▁आंख	-3593
▁कदा	-3594
▁सुल	-3595
ing	-3596
यक	-3597
▁धार्मिक	-3598
▁मौसम	-3599
दाता	-3600
▁विजे	-3601
he	-3602
त्तर	-3603
▁दवा	-3604
▁बेच	-3605
चारियों	-3606
▁रास्ता	-3607
▁संदेशो	-3608
▁बाकी	-3609
▁बन्दों	-3610
▁सम्बन्धी	-3611
वालों	-3612
▁ऊंचाई	-3613
▁ज़रूर	-3614
▁पेट	-3615
▁व्यय	-3616
▁अक्सर	-3617
▁व्याव	-3618
▁झुठलाया	-3619
▁30	-3620
▁रन	-3621
▁जानी	-3622
▁हजार	-3623
▁टॉ	-3624
▁वर	-3625
▁रखो	-3626
▁दर्द	-3627
ाळ	-3628
▁दूध	-3629
▁तीव्र	-3630
▁सूक्ष्म	-3631
ac	-3632
ut	-3633
ँव	-3634
िनी	-3635
▁मोक	-3636
टॉप	-3637
म्स	-3638
भाषा	-3639
▁नमा	-3640
▁खड़े	-3641
▁आधारभूत	-3642
▁ग्रं	-3643
▁पुकार	-3644
▁रूपरेख	-3645
ल्लो	-3646
वलोकन	-3647
▁इबरा	-3648
▁कहाँ	-3649
▁पहेला	-3650
▁प्राधिक	-3651
▁नेता	-3652
▁विरोध	-3653
िकल	-3654
▁इंच	-3655
▁मानक	-3656
मद	-3657
देव	-3658
▁मजबूत	-3659
▁इन्हें	-3660
र्जी	-3661
▁ठहरा	-3662
▁लड़के	-3663
बित	-3664
▁डाय	-3665
न्त्र	-3666
▁जानवर	-3667
▁परवानगी	-3668
▁कॉल	-3669
▁तट	-3670
▁कार्र	-3671
▁सम्मिल	-3672
▁केंद्रीय	-3673
▁गुनाह	-3674
▁किनारे	-3675
▁प्रत्यक्ष	-3676
▁गल	-3677
▁अनुप	-3678
▁स्वरूप	-3679
▁अवर	-3680
▁खराब	-3681
▁गुरु	-3682
मीर	-3683
▁फॉ	-3684
▁मिलने	-3685
धारी	-3686
▁मुंबई	-3687
▁खड़ा	-3688
▁वार्षिक	-3689
मर	-3690
▁चुनाव	-3691
▁यंत्र	-3692
▁17	-3693
▁दब	-3694
▁झाड	-3695
▁रोड	-3696
▁नळ	-3697
▁क़ि	-3698
▁वैश्व	-3699
▁संग्र	-3700
▁स्वागत	-3701
घात	-3702
▁पाई	-3703
▁थोड़ा	-3704
▁बेठेला	-3705
▁तौ	-3706
▁हल्	-3707
▁समझौ	-3708
▁उपभोक्ता	-3709
▁V	-3710
▁दुर्	-3711
▁ईमेल	-3712
राक	-3713
▁आँख	-3714
▁घु	-3715
▁आये	-3716
▁पान	-3717
कारों	-3718
▁हालत	-3719
▁बीमारी	-3720
ुमा	-3721
▁कथा	-3722
▁जोख	-3723
▁बेस	-3724
▁बदलाव	-3725
▁कृत	-3726
▁सित	-3727
▁तकती	-3728
िगर	-3729
▁आवृ	-3730
▁जोर	-3731
▁घंटे	-3732
▁सुबह	-3733
▁इबराहीम	-3734
ष्ट्र	-3735
▁देखाव	-3736
रेट	-3737
ुत्व	-3738
▁उपा	-3739
▁आंदोलन	-3740
▁मिलती	-3741
▁प्रभु	-3742
▁फ़िल्म	-3743
▁उनपर	-3744
▁चालू	-3745
▁प्लेट	-3746
▁195	-3747
▁विध	-3748
▁मिनट	-3749
▁हाला	-3750
फ़ॉल्ट	-3751
▁कल्पना	-3752
▁उपयुक्त	-3753
▁सायकल	-3754
मह	-3755
▁नाटक	-3756
▁पूछा	-3757
▁संय	-3758
▁फ़िल्टर	-3759
▁डिफ़ॉल्ट	-3760
▁औष	-3761
▁किरा	-3762
▁संसद	-3763
▁सम्प	-3764
▁हस्त	-3765
fo	-3766
▁गू	-3767
▁चारों	-3768
▁डेस्कटॉप	-3769
▁पट	-3770
न्ना	-3771
▁उम्र	-3772
ंकन	-3773
सेट	-3774
▁स्वि	-3775
▁पुत्र	-3776
▁पूर्वावलोकन	-3777
▁शकातु	-3778
किस्तान	-3779
▁स्मृति	-3780
▁पत	-3781
चिका	-3782
▁खाने	-3783
▁निदेश	-3784
▁मूल्या	-3785
थे	-3786
पट्टी	-3787
▁आराम	-3788
▁समझते	-3789
▁प्रबंधक	-3790
ब्ल	-3791
ायक	-3792
▁टेबल	-3793
▁नोंध	-3794
▁पर्वत	-3795
आन	-3796
▁रोजगार	-3797
▁साध	-3798
▁विद्युत	-3799
▁पैग़म्बर	-3800
▁प्रतिष्ठ	-3801
▁मिर	-3802
▁शाह	-3803
▁ब्रह	-3804
▁कितनी	-3805
थन	-3806
▁थइ	-3807
▁वैध	-3808
▁निधि	-3809
▁बेसे	-3810
▁माँग	-3811
▁६	-3812
▁बनाई	-3813
सरों	-3814
▁दीवार	-3815
▁उपन्यास	-3816
▁निर्धारण	-3817
डि	-3818
्रास	-3819
▁असर	-3820
▁नजर	-3821
▁पाथ	-3822
▁तल	-3823
▁बाह्य	-3824
▁विचारों	-3825
पणी	-3826
र्त	-3827
▁भरो	-3828
▁द्वीप	-3829
▁सम्मेल	-3830
▁वातावरण	-3831
▁100	-3832
▁बुक	-3833
▁पहुंचा	-3834
ेलि	-3835
▁चालु	-3836
▁पुराने	-3837
▁संरक्षण	-3838
स्पर	-3839
▁फसल	-3840
▁शिश	-3841
▁बैठे	-3842
▁त्रुटिः	-3843
▁दर्शन	-3844
▁सच्चे	-3845
▁आपू	-3846
▁ख़बर	-3847
▁गुजरात	-3848
ंपरा	-3849
▁चलता	-3850
▁निरा	-3851
▁इलेक्ट	-3852
▁प्रार्थ	-3853
▁पर्यावरण	-3854
▁निगम	-3855
लाल	-3856
बारा	-3857
▁पैर	-3858
▁प्राप्ति	-3859
▁जंग	-3860
▁प्रिं	-3861
▁तस्वीर	-3862
▁अत्यधिक	-3863
इल	-3864
वंश	-3865
▁टू	-3866
▁नमाज़	-3867
▁बनावी	-3868
▁लगाने	-3869
▁प्राणी	-3870
▁जय	-3871
▁संचार	-3872
▁फ्लो	-3873
▁मार्च	-3874
दृ	-3875
्यास	-3876
▁माटेनी	-3877
▁प्रभावी	-3878
राष्ट्रीय	-3879
▁उत्तम	-3880
▁विधान	-3881
il	-3882
ृंख	-3883
निंग	-3884
▁रिक्त	-3885
▁सम्मिलित	-3886
ल्म	-3887
▁दशा	-3888
her	-3889
▁वितरण	-3890
▁प्रार्थना	-3891
▁तथ	-3892
▁समृ	-3893
स्कृत	-3894
▁ध्वज	-3895
▁विरु	-3896
▁आयतों	-3897
न्दु	-3898
▁उर्	-3899
▁जोइए	-3900
▁लेबल	-3901
▁कार्रवाई	-3902
▁विश्लेषण	-3903
वर्तन	-3904
▁सख्त	-3905
▁कॉन्फ़	-3906
▁दृष्टिकोण	-3907
सक	-3908
▁y	-3909
▁50	-3910
▁आना	-3911
▁रूम	-3912
▁श्वे	-3913
▁चिह्नो	-3914
▁घटक	-3915
▁शैतान	-3916
▁मोटरसाय	-3917
▁गृह	-3918
▁फ्रे	-3919
▁विवाद	-3920
तल	-3921
पादन	-3922
ियोग	-3923
दो	-3924
▁परंपरा	-3925
▁समाधान	-3926
राव	-3927
▁सुख	-3928
▁जीवित	-3929
▁क़ुरान	-3930
▁बहा	-3931
▁रहेगा	-3932
▁वच्चे	-3933
▁दिखाया	-3934
▁रोगी	-3935
▁रुपये	-3936
▁ज़र	-3937
▁बाव	-3938
दिन	-3939
डिंग	-3940
नांक	-3941
▁मांस	-3942
▁हुक्	-3943
ार्थियों	-3944
▁एक्	-3945
मण	-3946
पों	-3947
▁पस	-3948
▁194	-3949
▁अपील	-3950
▁भौतिक	-3951
▁जायेगा	-3952
▁समुदाय	-3953
ांस	-3954
चलित	-3955
स्को	-3956
▁बुद्धि	-3957
साब	-3958
वृत्त	-3959
▁अगला	-3960
▁पेनल	-3961
▁जिम्मे	-3962
▁देर	-3963
▁पेटी	-3964
▁बधाई	-3965
▁वाक़	-3966
▁फोन्ट	-3967
▁अग्	-3968
▁टैग	-3969
ia	-3970
▁+	-3971
ओगे	-3972
▁तेमना	-3973
▁समर्थित	-3974
▁पहुँ	-3975
▁करेली	-3976
▁माउस	-3977
▁लेखन	-3978
▁मोकल	-3979
▁कर्मचारी	-3980
वाळी	-3981
▁ताप	-3982
▁चेक	-3983
▁पीळा	-3984
▁काव्य	-3985
▁सुधारा	-3986
सायन	-3987
▁सूर	-3988
▁एकत्र	-3989
▁त्वचा	-3990
▁संदेशाओ	-3991
िटी	-3992
▁तमने	-3993
ce	-3994
कम	-3995
ढ़ी	-3996
ियत	-3997
▁इनपुट	-3998
▁सर्वा	-3999
▁प्रान्त	-4000
▁प्रतिक्रिया	-4001
ंका	-4002
▁197	-4003
▁जाल	-4004
▁ऊभेला	-4005
िक्र	-4006
▁खरेख	-4007
▁ध्रुव	-4008
हि	-4009
▁रद	-4010
उन्ड	-4011
▁नामः	-4012
▁आयोग	-4013
▁करीब	-4014
▁खरेखर	-4015
िकता	-4016
▁ब्रिट	-4017
▁स्वचालित	-4018
जात	-4019
ुआ	-4020
ब्रे	-4021
▁जंगल	-4022
▁सामना	-4023
▁तंत्रिका	-4024
▁i	-4025
▁चीन	-4026
वित्र	-4027
ृंखला	-4028
वै	-4029
▁विरो	-4030
▁शोधी	-4031
▁पृथ्वी	-4032
ुप	-4033
▁दायित्व	-4034
▁आवृत्ति	-4035
▁स्त्रोत	-4036
डाना	-4037
▁अकबर	-4038
▁सॉफ्ट	-4039
▁तमाम	-4040
▁सारा	-4041
ड़ना	-4042
▁दरेक	-4043
▁पिक्	-4044
▁प्रविष्ट	-4045
▁अधिकारियों	-4046
▁कू	-4047
▁बिन	-4048
▁बरसा	-4049
▁हिसाब	-4050
▁एकल	-4051
▁कहो	-4052
▁गंगा	-4053
▁जोखिम	-4054
धों	-4055
ुता	-4056
▁एं	-4057
▁रास्ते	-4058
▁बयान	-4059
▁गुप्त	-4060
▁आयोजित	-4061
ङ्	-4062
▁सन	-4063
▁फें	-4064
▁पेड़	-4065
▁सकें	-4066
▁भरा	-4067
▁निरी	-4068
▁स्टी	-4069
▁आकाशमां	-4070
▁कर्मचारियों	-4071
कृष्ट	-4072
▁द्वि	-4073
स्वरूप	-4074
▁परिस्थित	-4075
▁चेताव	-4076
▁पहाड़	-4077
▁देखभाल	-4078
em	-4079
▁रहें	-4080
▁अर्था	-4081
▁टिप्पणी	-4082
▁खिस	-4083
▁चलते	-4084
▁ओळ	-4085
▁चेतावनी	-4086
▁वैश्विक	-4087
मेन	-4088
▁अत्या	-4089
▁संतुल	-4090
फो	-4091
कने	-4092
▁सबको	-4093
▁अस्थायी	-4094
▁करनेवाला	-4095
▁बाँ	-4096
वेक्षण	-4097
▁प्राथमिकता	-4098
वां	-4099
ित्त	-4100
▁खुले	-4101
▁परा	-4102
▁कठोर	-4103
▁सम्मेलन	-4104
▁सिद्धांत	-4105
▁रवि	-4106
▁केन्द्रीय	-4107
जूद	-4108
▁आठ	-4109
अर	-4110
▁अज	-4111
▁चिप	-4112
▁सूत्र	-4113
▁वाण	-4114
▁चुने	-4115
▁डबल	-4116
▁गणना	-4117
▁पॉ	-4118
▁फाइलो	-4119
▁तकनीकी	-4120
▁ग्राहक	-4121
▁विनिमय	-4122
▁समी	-4123
▁मस्ति	-4124
▁औसत	-4125
▁दर्ज	-4126
पीय	-4127
▁जैव	-4128
▁दुकान	-4129
▁ढूंढें	-4130
जिन	-4131
▁क्व	-4132
▁जटिल	-4133
▁दर्शावो	-4134
▁मुश्किल	-4135
ठळ	-4136
▁उड	-4137
▁डिब	-4138
▁पढ़ा	-4139
▁हेठळ	-4140
िमी	-4141
▁लै	-4142
▁शुक्र	-4143
▁संचालन	-4144
▁लोकप्रिय	-4145
कलन	-4146
ज्ज	-4147
▁टेली	-4148
▁पाठ्य	-4149
▁हुक्म	-4150
अल	-4151
▁खुशी	-4152
▁संपर्	-4153
▁क़िस्म	-4154
▁पवित्र	-4155
▁क्लिपबोर्ड	-4156
केल	-4157
िज्य	-4158
▁गोल	-4159
▁महिलाओं	-4160
ठे	-4161
्यूल	-4162
कालीन	-4163
▁बोले	-4164
▁मैने	-4165
वण	-4166
▁कर्य	-4167
▁मान्य	-4168
▁ब्रिटिश	-4169
▁मूल्यांकन	-4170
▁198	-4171
सना	-4172
िपी	-4173
▁घण	-4174
ार्क	-4175
▁आवाज	-4176
▁कोष्ट	-4177
▁पक्षीओ	-4178
▁टर्मिनल	-4179
qu	-4180
गोल	-4181
िकेट	-4182
▁दुख	-4183
▁छिपा	-4184
▁हटाएँ	-4185
▁पार्किंग	-4186
विज्ञान	-4187
▁क़ा	-4188
▁पर्	-4189
▁पसार	-4190
▁मजदू	-4191
▁कॉन्फ़िगर	-4192
ंदन	-4193
▁बौद्ध	-4194
▁विद्व	-4195
▁अभिव्य	-4196
▁साम्रा	-4197
▁गणराज्य	-4198
दिक	-4199
नियों	-4200
▁करनेवालों	-4201
ra	-4202
्युटर	-4203
▁थीम	-4204
▁मज़	-4205
▁शारी	-4206
▁खोलने	-4207
▁संघर्ष	-4208
▁नियुक्त	-4209
ुन	-4210
▁लीटी	-4211
▁मैदान	-4212
▁सिक्	-4213
▁अदा	-4214
▁जून	-4215
▁हिम	-4216
▁छोड़कर	-4217
▁राजनीतिक	-4218
▁प्रारंभिक	-4219
लीय	-4220
▁देवी	-4221
▁प्रोटो	-4222
▁छूट	-4223
▁कृष्ण	-4224
▁वाणिज्य	-4225
▁प्रविष्टि	-4226
मेन्ट	-4227
▁कानूनी	-4228
साह	-4229
▁बनाते	-4230
▁पाद	-4231
▁एकबी	-4232
न्ध	-4233
वणी	-4234
▁दोस्त	-4235
▁कह्युं	-4236
▁प्रशासन	-4237
चरण	-4238
▁वॉ	-4239
▁for	-4240
▁राजन	-4241
नेवालों	-4242
जाल	-4243
युं	-4244
▁टेक	-4245
▁सेल	-4246
ुत्	-4247
ेलो	-4248
▁भंडार	-4249
▁केलेन्डर	-4250
▁ड्राइव	-4251
बाइल	-4252
▁बेक	-4253
▁कितना	-4254
▁भागों	-4255
▁फ़िर	-4256
▁मेहर	-4257
▁पर्यटन	-4258
िप्त	-4259
▁भरी	-4260
▁ख्या	-4261
ानो	-4262
▁अख	-4263
ओमां	-4264
▁टीम	-4265
▁उमेरो	-4266
वीय	-4267
▁विवे	-4268
▁पिक्से	-4269
▁लाकडाना	-4270
इयों	-4271
▁तमारे	-4272
▁मिलकर	-4273
ोळ	-4274
ब्जे	-4275
▁प्राण	-4276
▁वर्षा	-4277
▁श्रेष्ठ	-4278
ag	-4279
▁प्रतीक्षा	-4280
▁v	-4281
▁परिषद	-4282
▁सेवाएं	-4283
ंडी	-4284
कोश	-4285
▁ढां	-4286
▁आयोजन	-4287
▁आसानी	-4288
▁ग्रहण	-4289
▁नामक	-4290
▁लिखें	-4291
▁दिनांक	-4292
▁आश्च	-4293
▁किलो	-4294
▁दोहरा	-4295
▁रेलवे	-4296
▁वापरवा	-4297
▁पाकिस्तान	-4298
▁छोड	-4299
▁वगा	-4300
▁प्रभुत्व	-4301
ंजन	-4302
ार्ज	-4303
▁इंग	-4304
▁सलाम	-4305
▁युक्त	-4306
▁चोक	-4307
▁विना	-4308
▁हानि	-4309
▁स्नान	-4310
▁बैंकों	-4311
▁रूपांतर	-4312
▁ऊभी	-4313
▁अधिस	-4314
▁कर्ता	-4315
▁घडिया	-4316
▁आल	-4317
▁बरफ	-4318
▁अमरी	-4319
▁आज्ञा	-4320
▁नेत्र	-4321
▁कार्यान्व	-4322
ालत	-4323
▁संस्थानों	-4324
▁आंतर	-4325
▁शारीरिक	-4326
▁पूजा	-4327
▁कल्या	-4328
▁सैनिक	-4329
शोथ	-4330
धर्म	-4331
▁दैनिक	-4332
▁अन्तर्	-4333
▁पहेलां	-4334
▁प्रसंग	-4335
▁बावजूद	-4336
▁आश्चर्य	-4337
▁विरुद्ध	-4338
▁नियंत्रित	-4339
▁समाप्ति	-4340
et	-4341
▁०	-4342
▁दह	-4343
▁बाग	-4344
▁वाड	-4345
▁नज़र	-4346
▁ट्रैक	-4347
▁कार्	-4348
▁खेती	-4349
▁चीनी	-4350
▁बदलने	-4351
▁श्वेत	-4352
▁आपूर्ति	-4353
ष्प	-4354
ियाई	-4355
▁देन	-4356
भाषित	-4357
▁संक्रमण	-4358
फ्र	-4359
▁ऊंची	-4360
▁बजाय	-4361
▁लाकड	-4362
▁अग्नि	-4363
▁काउन्टर	-4364
▁ग़र	-4365
▁करार	-4366
▁पाना	-4367
▁उद्या	-4368
▁इंटरनेट	-4369
▁स्थानिक	-4370
▁24	-4371
▁आहार	-4372
▁सोफ्ट	-4373
ावो	-4374
ूंगा	-4375
▁चुप	-4376
▁शता	-4377
▁प्री	-4378
▁साथेना	-4379
▁सम्बन्ध	-4380
▁बिल्डिंगनी	-4381
▁लिखी	-4382
▁अमेरिक	-4383
▁इस्लाम	-4384
▁सत्यापन	-4385
▁प्रभार	-4386
▁शिक्षण	-4387
▁विशेषज्ञ	-4388
कृति	-4389
▁दंड	-4390
▁इतने	-4391
▁लख	-4392
▁मुक	-4393
▁हाथी	-4394
▁ज़्या	-4395
▁नारंगी	-4396
▁मानसिक	-4397
ॉट	-4398
दित	-4399
▁वार्ता	-4400
▁गर	-4401
द्री	-4402
▁वंश	-4403
▁उतार	-4404
▁पूर्वदर्शन	-4405
▁अफ़	-4406
▁उतर	-4407
▁वाहन	-4408
▁पत्थर	-4409
▁बातचीत	-4410
▁पश्चिमी	-4411
▁सॉफ्टवेयर	-4412
सला	-4413
ांकि	-4414
्यवाद	-4415
▁परेश	-4416
▁घोषणा	-4417
▁हिस्से	-4418
▁भय	-4419
▁*	-4420
▁कहता	-4421
▁देखकर	-4422
▁बनाकर	-4423
▁उत	-4424
▁गैस	-4425
▁रेड	-4426
▁टोळुं	-4427
ate	-4428
कनी	-4429
▁जुओ	-4430
▁जुड़े	-4431
▁बीमार	-4432
▁जाग	-4433
▁इमेज	-4434
▁प्ला	-4435
ँकि	-4436
वें	-4437
▁झग	-4438
गामी	-4439
▁डीवी	-4440
▁सीधा	-4441
▁दिखाने	-4442
कू	-4443
झर	-4444
शास्त्र	-4445
▁चाहेंगे	-4446
▁इलेक्ट्र	-4447
ानु	-4448
▁कमा	-4449
▁इन्स	-4450
▁चैनल	-4451
▁जिनका	-4452
▁समस्याओं	-4453
▁नाज़	-4454
▁विस्तारमां	-4455
bo	-4456
घन	-4457
▁हँ	-4458
▁कीट	-4459
▁अचान	-4460
▁दूसरों	-4461
▁मध	-4462
ट्टा	-4463
▁परिचय	-4464
▁बच्चा	-4465
▁तोड़	-4466
▁संवर्	-4467
▁विभाजित	-4468
▁मस्तिष्क	-4469
ow	-4470
ब्दी	-4471
▁फक्त	-4472
▁अधिसू	-4473
▁आग्रह	-4474
▁देखना	-4475
▁कल्याण	-4476
▁दरमियान	-4477
▁प्रेरित	-4478
अमत	-4479
▁ईंट	-4480
▁नेअमत	-4481
▁तार	-4482
▁अपरि	-4483
▁ट्रै	-4484
▁अचानक	-4485
▁कठिना	-4486
▁जीनोम	-4487
बरी	-4488
भुत	-4489
▁सहज	-4490
▁मिरर	-4491
▁मेळवी	-4492
▁विभाजन	-4493
गढ़	-4494
लीक	-4495
▁वस	-4496
▁सश	-4497
ांकित	-4498
▁फाईलो	-4499
▁फिरऔन	-4500
▁प्रचार	-4501
▁वस्तुओ	-4502
मिन	-4503
िपि	-4504
▁भला	-4505
▁खिसका	-4506
▁चिंता	-4507
▁बिलकुल	-4508
छेद	-4509
▁मृ	-4510
गन	-4511
दास	-4512
▁भरे	-4513
भि	-4514
▁वात	-4515
▁खुला	-4516
▁दादा	-4517
▁शुद्ध	-4518
▁अभियान	-4519
▁वृक्षो	-4520
▁जेल	-4521
▁नयी	-4522
▁विशाळ	-4523
▁जोड़ने	-4524
जीन	-4525
▁देखे	-4526
▁घडियाळ	-4527
▁लगातार	-4528
▁चिकित्स	-4529
फ़ा	-4530
▁सिवाय	-4531
ट्ठा	-4532
▁info	-4533
▁टाइल	-4534
▁हालांकि	-4535
▁उपयोगकर्ता	-4536
इड	-4537
बीर	-4538
▁देय	-4539
▁निरंतर	-4540
डवा	-4541
बन्ध	-4542
▁गौर	-4543
▁जाकर	-4544
▁निभा	-4545
▁रात्र	-4546
▁लंबाई	-4547
▁अरब	-4548
▁टिक	-4549
▁सतह	-4550
▁फरमा	-4551
▁प्रका	-4552
▁बुनिया	-4553
पथ	-4554
▁डीवीडी	-4555
▁मोबाइल	-4556
▁सोफ्टवेर	-4557
▁st	-4558
▁शल	-4559
ृत्व	-4560
▁सें	-4561
▁टन	-4562
▁जूनी	-4563
▁क्षेत्रीय	-4564
ूर्ण	-4565
▁तभी	-4566
▁सौर	-4567
▁हालाँकि	-4568
se	-4569
▁घरेल	-4570
▁सुभाष	-4571
▁निर्वाचन	-4572
▁गौ	-4573
▁दाह	-4574
▁उठाए	-4575
▁वधारे	-4576
▁स्त्र	-4577
▁जिल्लो	-4578
▁नियमों	-4579
we	-4580
▁मेनु	-4581
▁सड़क	-4582
▁अन्तर	-4583
▁प्रदू	-4584
▁मुझसे	-4585
▁उन्हीं	-4586
नाक	-4587
▁गरीब	-4588
▁दावा	-4589
▁बदली	-4590
▁मिशन	-4591
▁प्राव	-4592
▁वर्गी	-4593
▁धरावती	-4594
▁मुसाफरी	-4595
िड	-4596
णों	-4597
तां	-4598
पेट	-4599
▁घन	-4600
▁ज्यां	-4601
▁किसानों	-4602
▁आवाज़	-4603
▁सर्वाधिक	-4604
टिंग	-4605
▁आपे	-4606
▁कहान	-4607
▁काला	-4608
▁ग्राफ	-4609
श्छ	-4610
क्षेप	-4611
▁स्ट्र	-4612
▁संग्रहो	-4613
▁प्रिय	-4614
▁शकाती	-4615
▁क़ुरआन	-4616
▁पसंदित	-4617
ख्य	-4618
देह	-4619
▁मुद्	-4620
▁हाथों	-4621
▁अभ्यास	-4622
▁साम्राज्य	-4623
▁गतिविधियों	-4624
सेस	-4625
गिज़	-4626
▁खसेडो	-4627
▁एका	-4628
▁दर्	-4629
▁छाया	-4630
जोर	-4631
▁हद	-4632
▁पराम	-4633
टिक	-4634
▁आलो	-4635
▁फोल्ड	-4636
▁परिवर्तित	-4637
लील	-4638
च्ची	-4639
▁शको	-4640
▁चलने	-4641
▁ठिका	-4642
▁लोगो	-4643
▁समर्	-4644
▁वायदा	-4645
तिहासिक	-4646
▁पंजीकरण	-4647
▁महत्त्वपूर्ण	-4648
श्रम	-4649
▁कैं	-4650
▁चाली	-4651
▁वाक्य	-4652
▁रह्युं	-4653
▁21	-4654
ियार	-4655
▁मात	-4656
▁अनुपात	-4657
▁उद्यान	-4658
▁दिखायें	-4659
रक	-4660
▁आमत	-4661
▁कोय	-4662
▁सुझ	-4663
डु	-4664
शाह	-4665
▁निपट	-4666
▁समाय	-4667
▁ग़रज़	-4668
▁माइक्रो	-4669
▁विज्ञप्ति	-4670
▁अंतर्राष्ट्रीय	-4671
▁मिस	-4672
▁गवाह	-4673
▁जोवा	-4674
▁आतंकवाद	-4675
शीलता	-4676
▁खींच	-4677
▁चलाने	-4678
▁तुरंत	-4679
▁अता	-4680
▁जहाज	-4681
▁प्रत	-4682
▁भरें	-4683
▁वांच	-4684
▁घरेलू	-4685
▁लिमि	-4686
ॉँ	-4687
▁कड़ी	-4688
▁कौशल	-4689
▁साइट	-4690
्ष्	-4691
▁भली	-4692
सीय	-4693
मानी	-4694
मारक	-4695
सायिक	-4696
▁श्रम	-4697
▁सोचा	-4698
▁किस्म	-4699
▁ग्रीन	-4700
क़्त	-4701
▁वचन	-4702
▁भाषण	-4703
▁मॉडल	-4704
▁आमतौर	-4705
▁प्रवाह	-4706
िव	-4707
कल्प	-4708
▁नारा	-4709
▁प्रे	-4710
ब्रेरी	-4711
▁अस्वी	-4712
▁त्याग	-4713
▁हिंदी	-4714
▁लिमिटेड	-4715
▁रण	-4716
दायत	-4717
▁सदा	-4718
▁भेजे	-4719
▁हिदायत	-4720
▁स्थानों	-4721
▁मार्गदर्शन	-4722
वता	-4723
ान्	-4724
▁ग्री	-4725
▁उत्कृष्ट	-4726
▁ऊण्	-4727
मात्र	-4728
▁बांध	-4729
श्छ्ष्	-4730
▁ऊण्श्छ्ष्	-4731
▁हट	-4732
ड्डी	-4733
पेक्ष	-4734
▁लिखित	-4735
ावे	-4736
मंडल	-4737
AT	-4738
ीदा	-4739
▁मांथी	-4740
▁बत	-4741
▁हथ	-4742
▁उड्ड	-4743
▁शिशु	-4744
▁लोकतंत्र	-4745
▁संस्थापित	-4746
▁स्क्रिप्ट	-4747
▁स्थितिमां	-4748
▁कोलेज	-4749
▁साबित	-4750
▁प्रोत्साहन	-4751
ry	-4752
▁to	-4753
ount	-4754
विंग	-4755
▁प्रतिनिध	-4756
▁23	-4757
▁नुक	-4758
▁पैरा	-4759
▁मछली	-4760
▁हार्	-4761
▁पूर्वी	-4762
▁परम	-4763
▁ख़ास	-4764
▁बुद्ध	-4765
▁परामर्श	-4766
ंतो	-4767
▁होम	-4768
▁खत्म	-4769
▁ज़्यादा	-4770
▁संलग्नक	-4771
▁टाइप	-4772
▁बनने	-4773
▁संध्या	-4774
रस	-4775
कोष	-4776
▁लक	-4777
▁पाइ	-4778
▁अंतरराष्ट्रीय	-4779
▁खिलाफ	-4780
▁समन्व	-4781
ईन	-4782
▁नेह	-4783
▁वैसे	-4784
ँग	-4785
▁७	-4786
ँगा	-4787
▁मूर्	-4788
▁करेंः	-4789
▁लगाना	-4790
स्कृतिक	-4791
▁एल्	-4792
▁रेश	-4793
▁सिल	-4794
▁विजय	-4795
▁उड्डयन	-4796
▁मंड	-4797
▁मंजू	-4798
ld	-4799
ng	-4800
पचार	-4801
▁अनुसर	-4802
▁अनुसू	-4803
▁पुरानी	-4804
▁सर्वेक्षण	-4805
ad	-4806
ूँगा	-4807
▁बुरी	-4808
▁समीक्षा	-4809
▁सर्वोच्च	-4810
ावी	-4811
ल्ले	-4812
स्तर	-4813
▁लूत	-4814
▁सब्	-4815
▁जनसं	-4816
▁ताली	-4817
▁बताव	-4818
▁संसाध	-4819
पल	-4820
▁पोल	-4821
▁अर्ध	-4822
ur	-4823
▁केडी	-4824
▁घड़ी	-4825
▁विपरी	-4826
▁परस्पर	-4827
▁कहेंगे	-4828
▁स्थाना	-4829
बले	-4830
ीनी	-4831
▁रजि	-4832
▁ऊंचा	-4833
▁बोला	-4834
▁बढ़ाने	-4835
दरा	-4836
ather	-4837
▁कैसा	-4838
▁जनवरी	-4839
तीत	-4840
पाई	-4841
▁पति	-4842
▁परत	-4843
▁भंडारण	-4844
▁आश	-4845
त्कार	-4846
▁दृढ़	-4847
▁साफ़	-4848
▁रेडियो	-4849
▁प्रकाशन	-4850
▁सांस्कृतिक	-4851
फोन	-4852
▁वेद	-4853
▁बढ़ावा	-4854
▁भाषाओं	-4855
▁पसंदीदा	-4856
▁तस	-4857
▁हेडर	-4858
▁हार्ड	-4859
▁विपरीत	-4860
▁बं	-4861
ग्ध	-4862
▁बाबत	-4863
▁यूरो	-4864
▁भेद	-4865
▁इसको	-4866
▁फ़रिश्त	-4867
▁महाराष्ट्र	-4868
▁जर्म	-4869
▁अंतराल	-4870
▁हरगिज़	-4871
▁शताब्दी	-4872
▁तकनीक	-4873
टीन	-4874
▁the	-4875
.2014	-4876
ेश्वर	-4877
▁पड़ी	-4878
▁इमारतो	-4879
▁सदस्यता	-4880
▁ऐतिहासिक	-4881
.5	-4882
▁कडी	-4883
▁जला	-4884
▁मोट	-4885
▁मौत	-4886
चार्य	-4887
▁वादा	-4888
▁ग्रंथ	-4889
▁जाहेर	-4890
▁व्यावसायिक	-4891
मुक	-4892
▁यो	-4893
▁नूह	-4894
विष्ट	-4895
▁नेहरू	-4896
ME	-4897
वॉक	-4898
▁अत	-4899
▁विरोधी	-4900
▁सुयोजनो	-4901
िने	-4902
▁पें	-4903
वाळुं	-4904
▁मारा	-4905
▁लाइस	-4906
▁मर्या	-4907
▁एंड	-4908
कालिक	-4909
▁बोली	-4910
▁मुस्ल	-4911
▁वहीं	-4912
▁खुल्ला	-4913
र्र	-4914
▁नु	-4915
न्या	-4916
▁धातु	-4917
र्घटना	-4918
▁बेल	-4919
▁पहोळ	-4920
weather	-4921
▁चुनौती	-4922
▁मुस्लिम	-4923
▁उधार	-4924
▁प्लस	-4925
▁मानो	-4926
▁दुर्घटना	-4927
▁विद्यार्थियों	-4928
त्तम	-4929
येला	-4930
▁193	-4931
▁शिकार	-4932
▁नाज़िल	-4933
▁शुरुआत	-4934
▁प्रयासों	-4935
राई	-4936
▁लंबे	-4937
ग्रस्त	-4938
▁नमूना	-4939
▁आमंत्र	-4940
एँगे	-4941
▁कर्ण	-4942
▁टोपी	-4943
▁आख़िरत	-4944
ालिब	-4945
▁रंगीन	-4946
▁प्रशांत	-4947
दंड	-4948
▁एह	-4949
▁अम्	-4950
▁तमिल	-4951
▁फ्लै	-4952
▁शक्त	-4953
▁वृद्ध	-4954
इस	-4955
न्थ	-4956
ालिम	-4957
▁राख	-4958
▁गूगल	-4959
▁साइड	-4960
▁परमाण	-4961
▁द्वितीय	-4962
ौल	-4963
▁यद्य	-4964
▁नौकरी	-4965
▁पिछला	-4966
▁पैकेज	-4967
▁परिस्थिति	-4968
▁तैय	-4969
▁गर्भ	-4970
▁सिखा	-4971
▁भरपूर	-4972
जनन	-4973
िरा	-4974
ेंज	-4975
▁सचि	-4976
▁अनुरूप	-4977
▁शिक्षक	-4978
▁आकर्षित	-4979
▁मुसलमानों	-4980
यू	-4981
▁हाई	-4982
▁पौधे	-4983
▁माबू	-4984
मति	-4985
▁कॅ	-4986
चालन	-4987
्लेट	-4988
▁चां	-4989
▁निच	-4990
▁गुला	-4991
▁निगर	-4992
▁फ्रेम	-4993
वासियों	-4994
ुंब	-4995
▁यौ	-4996
▁शख	-4997
श्मीर	-4998
▁लाया	-4999
▁विगत	-5000
▁पंजाब	-5001
▁ज़ालिम	-5002
▁डरते	-5003
▁समग्र	-5004
AN	-5005
धीन	-5006
विधि	-5007
ष्टा	-5008
▁आवास	-5009
▁औजार	-5010
▁शख्स	-5011
▁सूचक	-5012
क्रिप्ट	-5013
▁ग़ालिब	-5014
▁बंधारण	-5015
▁यद्यपि	-5016
ist	-5017
▁तेमां	-5018
▁प्रभुत्वशाली	-5019
ूक	-5020
ॉलर	-5021
▁दुः	-5022
▁अंतः	-5023
▁आँक	-5024
ख़्श	-5025
▁गली	-5026
वान्व	-5027
▁किसान	-5028
▁प्यार	-5029
भारत	-5030
माने	-5031
▁भेंट	-5032
▁लौटा	-5033
▁सागर	-5034
ुस्तान	-5035
▁X	-5036
िस्ट	-5037
तृत्व	-5038
▁साथी	-5039
▁कलाकार	-5040
▁पग	-5041
▁बख	-5042
▁१०	-5043
▁उदार	-5044
▁कॉपी	-5045
ड़ियों	-5046
▁संबोध	-5047
▁ऑफ़लाइन	-5048
▁पत्रिका	-5049
िफ़	-5050
▁तळ	-5051
▁बट	-5052
▁जड़	-5053
▁नवो	-5054
▁तेरे	-5055
टेन	-5056
कोने	-5057
म्मत	-5058
▁चालता	-5059
▁पुनरा	-5060
▁नकारात्मक	-5061
उंड	-5062
ैर्य	-5063
▁देखी	-5064
▁अनुरोध	-5065
▁नुकसान	-5066
▁क्रिकेट	-5067
▁श्रृंखला	-5068
डेल	-5069
शंकर	-5070
सेन्	-5071
▁उगा	-5072
▁नाट	-5073
▁रूपरेखा	-5074
आप	-5075
णुं	-5076
स्फ	-5077
▁अवतर	-5078
▁दिला	-5079
▁दौड़	-5080
▁विरा	-5081
▁अनुक्रम	-5082
▁मई	-5083
▁क्रो	-5084
▁चोकठ	-5085
▁यक़ीनी	-5086
ावर	-5087
दर्शक	-5088
▁जितना	-5089
▁भरोसा	-5090
▁समक्ष	-5091
and	-5092
ाले	-5093
▁com	-5094
▁आजा	-5095
▁आपस	-5096
▁तरफ़	-5097
▁देकर	-5098
च्छेदन	-5099
▁मिलेगा	-5100
▁निगरानी	-5101
▁राजधानी	-5102
oo	-5103
▁नृत	-5104
▁मूक	-5105
▁थोड़ी	-5106
क़ी	-5107
सिं	-5108
▁गें	-5109
▁दोनो	-5110
▁उठाया	-5111
▁धन्यवाद	-5112
▁उत्पादों	-5113
ढ़ा	-5114
मती	-5115
▁लिखे	-5116
▁चिन्ह	-5117
▁फोल्डरो	-5118
▁विन्डोनी	-5119
▁22	-5120
▁कुफ्	-5121
▁स्वस्थ	-5122
वली	-5123
कल्पिक	-5124
▁चुकता	-5125
▁ठिकाना	-5126
िफ	-5127
त्ती	-5128
▁पडे	-5129
▁पाक	-5130
▁चेहरे	-5131
▁प्रथा	-5132
▁जनसंख्या	-5133
▁गंत	-5134
▁जशे	-5135
▁अनुमो	-5136
▁जादूगर	-5137
▁निरीक्षण	-5138
धीश	-5139
▁con	-5140
▁घणी	-5141
▁लेप	-5142
▁साझा	-5143
▁उन्होने	-5144
▁बुनियादी	-5145
पसंद	-5146
▁तिर	-5147
▁बोझ	-5148
भाविक	-5149
▁मारी	-5150
▁औज़ार	-5151
▁ब्राह	-5152
बीह	-5153
रेटर	-5154
▁आलेख	-5155
▁साझी	-5156
नेवाली	-5157
▁K	-5158
▁जीवा	-5159
▁उत्तरी	-5160
▁परिस्थितियों	-5161
▁इनका	-5162
▁उड़ा	-5163
▁आकाशों	-5164
मरी	-5165
्युम	-5166
▁कारक	-5167
▁जुड़	-5168
▁नेतृत्व	-5169
▁विप	-5170
▁दोबारा	-5171
▁समावेश	-5172
▁जाएं	-5173
▁अस्थि	-5174
▁दाखिल	-5175
▁पौधों	-5176
▁शास्त	-5177
▁विन्डोमां	-5178
box	-5179
▁परहे	-5180
▁शोधो	-5181
▁स्की	-5182
▁लेंगे	-5183
▁सुझाव	-5184
ब्जेक्ट	-5185
ोरि	-5186
▁नं	-5187
ंतरण	-5188
मांक	-5189
▁बचाव	-5190
▁अप्रैल	-5191
▁सामर्थ	-5192
▁करनेवाले	-5193
▁वैकल्पिक	-5194
▁खबर	-5195
▁पैसे	-5196
▁९	-5197
ॉर्ड	-5198
▁ओवर	-5199
▁कां	-5200
▁हमे	-5201
कामना	-5202
▁विद्या	-5203
▁उज	-5204
▁व्	-5205
▁गुफा	-5206
▁इंजीन	-5207
सभा	-5208
▁कव	-5209
फ़ार	-5210
▁गिन	-5211
▁चाय	-5212
▁संगण	-5213
▁सरकश	-5214
नात्मक	-5215
▁जेमां	-5216
▁आंतरछेद	-5217
▁प्रावधान	-5218
▁of	-5219
▁भाँ	-5220
▁सकाः	-5221
▁पाश्व	-5222
▁मध्यम	-5223
▁कोशिकाओं	-5224
▁निका	-5225
▁अन्ततः	-5226
▁जाएंगे	-5227
▁सरनामा	-5228
▁प्रतिभा	-5229
▁प्रसन्नता	-5230
▁कागज	-5231
स्ट्रेल	-5232
▁गुणधर्म	-5233
▁८	-5234
▁छह	-5235
ेंडर	-5236
▁कार्ब	-5237
▁मामला	-5238
▁सावधान	-5239
▁विद्यमान	-5240
▁प्रवृत्ति	-5241
शित	-5242
ूबर	-5243
म्मद	-5244
▁गाळ	-5245
▁हरि	-5246
मार्ग	-5247
▁खोजें	-5248
घर	-5249
▁१८	-5250
▁यूआर	-5251
▁केडीई	-5252
▁रूपरेखांकन	-5253
फु	-5254
क्क	-5255
ज़ू	-5256
▁शल्य	-5257
▁संकट	-5258
▁हिंदू	-5259
प्ट	-5260
▁परहेज़	-5261
▁मूर्ति	-5262
▁संवेदन	-5263
भु	-5264
▁टा	-5265
▁कैम	-5266
▁अमुक	-5267
▁अदालत	-5268
▁महत्तम	-5269
ेशनल	-5270
▁छुं	-5271
▁जाओगे	-5272
▁भेजने	-5273
▁संक्ष	-5274
▁बिन्दु	-5275
▁यादीने	-5276
▁संबंधों	-5277
▁राजस्थान	-5278
▁जल्द	-5279
▁चन्द्र	-5280
▁निकाला	-5281
▁प्रशंसा	-5282
▁उपस्थिति	-5283
करा	-5284
▁qu	-5285
व्या	-5286
▁खोली	-5287
▁आपोआप	-5288
▁बुकमार्	-5289
▁सामान्यतः	-5290
▁अवय	-5291
▁निः	-5292
▁टेलि	-5293
▁नांखो	-5294
▁मुद्द	-5295
▁लिखना	-5296
de	-5297
यल	-5298
ोबार	-5299
▁गोठ	-5300
▁रनवे	-5301
▁सीधी	-5302
सेन्जर	-5303
▁तालीम	-5304
OR	-5305
di	-5306
▁कही	-5307
▁चतु	-5308
▁यूनि	-5309
▁कुमार	-5310
▁संसाधनों	-5311
जक	-5312
वश	-5313
▁खर	-5314
▁टब	-5315
गारों	-5316
▁मारे	-5317
▁वरीय	-5318
▁कक्षा	-5319
▁गंतव्य	-5320
ैम	-5321
▁नद	-5322
▁पावर	-5323
▁लंबी	-5324
▁पत्ता	-5325
▁प्रतिबंध	-5326
वायु	-5327
▁अमल	-5328
▁तला	-5329
▁देखता	-5330
▁इन्सान	-5331
▁व्यापारी	-5332
20	-5333
ण्य	-5334
लाप	-5335
▁गै	-5336
▁केश	-5337
▁चमक	-5338
▁वीर	-5339
▁कायम	-5340
▁दबाव	-5341
▁स्टोव	-5342
▁मनपसंद	-5343
▁निशानियाँ	-5344
श्वास	-5345
▁धैर्य	-5346
▁चरित्र	-5347
▁असामान्य	-5348
us	-5349
▁आं	-5350
ग्रा	-5351
लैंड	-5352
▁ऊपरी	-5353
▁नैतिक	-5354
▁यूरोपीय	-5355
▁पेसेन्जर	-5356
ायर	-5357
परिक	-5358
▁लगाए	-5359
वान्वेष	-5360
▁नवान्वेष	-5361
ड़ित	-5362
▁मळी	-5363
▁डॉलर	-5364
कुम	-5365
रित	-5366
ायी	-5367
▁भूत	-5368
▁घणां	-5369
▁ताला	-5370
▁नेपाल	-5371
▁स्ट्रीम	-5372
कीन	-5373
▁40	-5374
▁it	-5375
्दारा	-5376
▁अभिन	-5377
▁काफ़ी	-5378
▁सूचित	-5379
▁प्रतिनिधित्व	-5380
▁ठा	-5381
▁२०	-5382
▁तुर्	-5383
▁मादा	-5384
▁पूज्य	-5385
▁समृद्ध	-5386
विल	-5387
▁श्व	-5388
▁परमाणु	-5389
▁प्रचलित	-5390
▁गर्म	-5391
▁कीजिए	-5392
▁आक्रमण	-5393
▁प्रतिल	-5394
▁लाइसेंस	-5395
▁विकल्पो	-5396
▁प्रतियोग	-5397
थक	-5398
▁वासी	-5399
▁विनिर्	-5400
▁बैंकिंग	-5401
▁शुभकामना	-5402
निस	-5403
बादत	-5404
ाहित	-5405
▁कमरे	-5406
▁कर्त	-5407
▁इबादत	-5408
▁फ्लोर	-5409
▁फ़ाइलों	-5410
ूस	-5411
▁रौ	-5412
▁मंच	-5413
धिकरण	-5414
▁पाँच	-5415
▁विधे	-5416
▁चकासो	-5417
▁बुराई	-5418
▁शख़्श	-5419
ion	-5420
▁शर	-5421
▁१५	-5422
▁आनन्द	-5423
▁जहन्नम	-5424
▁निदेशक	-5425
▁प्रमाणे	-5426
▁मूल्यों	-5427
यिक	-5428
रूष	-5429
▁महल	-5430
▁बेटे	-5431
▁ख्याल	-5432
▁नृत्य	-5433
▁अभिव्यक्ति	-5434
oc	-5435
्राव	-5436
▁गठन	-5437
▁टुकड़े	-5438
▁व्युत्	-5439
▁असल	-5440
▁क्यू	-5441
ountry	-5442
▁नक्की	-5443
▁फार्म	-5444
▁सहभाग	-5445
▁Z	-5446
▁खुली	-5447
▁पाते	-5448
▁कराने	-5449
▁गिरोह	-5450
▁जुलाई	-5451
▁सारणी	-5452
▁अध्याय	-5453
▁तैयारी	-5454
▁फिल्टर	-5455
उल	-5456
▁UR	-5457
वर्त	-5458
▁गयो	-5459
निष्ठ	-5460
▁काळी	-5461
▁खण्ड	-5462
▁बनाता	-5463
▁कनेक्ट	-5464
▁प्लगिन	-5465
▁दीन	-5466
▁सरदार	-5467
▁एकबीजा	-5468
▁मुखर्जी	-5469
▁अधिसूचना	-5470
▁स्वीकृति	-5471
▁अश	-5472
▁अली	-5473
▁खेला	-5474
▁दिमा	-5475
▁उन्नत	-5476
जीवी	-5477
▁quot	-5478
▁डिग्री	-5479
▁सुधारो	-5480
▁महात्मा	-5481
▁परियोजनाओं	-5482
बंद	-5483
्टी	-5484
्वाह	-5485
▁टीवी	-5486
▁संचालित	-5487
▁ऍ	-5488
ंटी	-5489
क्कर	-5490
ंक्शन	-5491
िटल	-5492
▁ठोस	-5493
▁पलट	-5494
क्षिक	-5495
▁अगस्त	-5496
▁उठाने	-5497
▁उत्तरा	-5498
▁प्रेरणा	-5499
▁नै	-5500
▁हां	-5501
▁समये	-5502
▁संविदा	-5503
▁J	-5504
दीय	-5505
▁रेख	-5506
▁हालनी	-5507
▁समुद्री	-5508
▁संक्षिप्त	-5509
करो	-5510
▁छू	-5511
▁तेथी	-5512
▁जिसको	-5513
ाये	-5514
▁छत	-5515
िरों	-5516
▁गंद	-5517
▁बाब	-5518
▁काली	-5519
▁जिले	-5520
▁अंकित	-5521
▁जीराफ	-5522
▁मासिक	-5523
▁भागीदारी	-5524
काय	-5525
विक	-5526
▁दान	-5527
▁विजेट	-5528
▁सभ्यता	-5529
SL	-5530
र्ती	-5531
▁ज़ु	-5532
▁अरबी	-5533
▁दयाल	-5534
▁लाकडानी	-5535
▁शहेरमां	-5536
th	-5537
▁अठ	-5538
पेटी	-5539
▁त्रि	-5540
▁समाहित	-5541
एगा	-5542
▁उभ	-5543
▁वळ	-5544
▁उडती	-5545
▁जोड़ा	-5546
▁माबूद	-5547
स्तियों	-5548
▁मिश्रण	-5549
▁आकर	-5550
▁ऊतक	-5551
▁ब्रे	-5552
▁सवार	-5553
▁युवान	-5554
▁प्रत्या	-5555
▁ऊभो	-5556
▁कोण	-5557
▁कोम	-5558
▁खुर	-5559
▁चोट	-5560
▁इनकी	-5561
▁अभिगम	-5562
▁ज्ञात	-5563
▁भाँति	-5564
▁समाविष्ट	-5565
पेश	-5566
▁2000	-5567
▁चाहती	-5568
▁नानुं	-5569
▁मान्यता	-5570
जाम	-5571
▁परिस	-5572
▁पोषण	-5573
▁लगती	-5574
▁कमजोर	-5575
▁निहित	-5576
▁पाठ्यक्रम	-5577
ेन	-5578
मंड	-5579
▁बन्दे	-5580
▁स्लाइ	-5581
▁27	-5582
िकरण	-5583
▁खोराक	-5584
▁समझने	-5585
▁प्रतीत	-5586
▁क्यांतो	-5587
दल	-5588
मै	-5589
दायक	-5590
▁केस	-5591
▁शान	-5592
याल	-5593
ह्न	-5594
▁झड	-5595
ेलुं	-5596
▁आवरण	-5597
▁दयावान	-5598
▁ड्राइविंग	-5599
▁प्रयोक्ता	-5600
▁सेंट	-5601
▁संदेह	-5602
▁माउन्ट	-5603
उस	-5604
▁शरु	-5605
▁साझे	-5606
▁जिनकी	-5607
▁अगली	-5608
▁अन्तर्गत	-5609
iv	-5610
क्षीय	-5611
▁तथापि	-5612
▁मिलते	-5613
▁स्वाभाविक	-5614
▁कार्यक्रमों	-5615
▁अवा	-5616
▁लगते	-5617
▁स्तन	-5618
▁आह	-5619
▁एयर	-5620
▁ओपन	-5621
▁चश्	-5622
▁बजट	-5623
▁रिस	-5624
▁मज़ा	-5625
▁विलो	-5626
▁समझौता	-5627
दाह	-5628
▁तथ्य	-5629
▁पारि	-5630
▁संजाल	-5631
▁सहकारी	-5632
▁संदेशाओने	-5633
▁$	-5634
▁धु	-5635
▁उत्स	-5636
▁एनको	-5637
▁क्लो	-5638
▁रिया	-5639
▁अस्पताल	-5640
▁टूट	-5641
▁शक़	-5642
▁अनुसरण	-5643
▁राजनैतिक	-5644
मुच	-5645
ल्फ	-5646
▁पढ	-5647
▁ख़ूब	-5648
▁प्रॉ	-5649
▁बैठा	-5650
▁वरीयता	-5651
ख्यात	-5652
▁इलाज	-5653
▁पीने	-5654
ड्रन्ट	-5655
▁सुनने	-5656
▁स्पष्टीकरण	-5657
ळु	-5658
नगर	-5659
वर्ग	-5660
वर्ष	-5661
▁कुरान	-5662
▁घटनाओं	-5663
▁स्वर्ण	-5664
▁लाइब्रेरी	-5665
▁पृष्ठभूमिमां	-5666
पत	-5667
गरी	-5668
▁28	-5669
▁कलक	-5670
▁सहे	-5671
▁ऊँचाई	-5672
▁घोषित	-5673
▁सचमुच	-5674
▁ढा	-5675
ation	-5676
▁तुझे	-5677
▁स्ट्रीट	-5678
▁तेवी	-5679
▁फ़ैस	-5680
▁फ़िरऔन	-5681
▁सारांश	-5682
▁26	-5683
▁आदम	-5684
▁झील	-5685
▁सचे	-5686
▁पैसा	-5687
▁शांत	-5688
▁इन्टर	-5689
▁छोड़ें	-5690
▁झुठलाओगे	-5691
ोजी	-5692
▁देवता	-5693
▁पुरूष	-5694
▁द्दारा	-5695
द्वीप	-5696
स्पति	-5697
▁अभाव	-5698
▁परना	-5699
▁मुकद	-5700
▁सृजन	-5701
▁कदापि	-5702
▁बैकअप	-5703
▁राजनीति	-5704
▁प्रदर्शक	-5705
▁राज्यपाल	-5706
प्स	-5707
राशि	-5708
▁बचत	-5709
न्दगी	-5710
▁आरम्भ	-5711
▁पेंशन	-5712
▁बढ़ती	-5713
▁परिमाण	-5714
▁आओ	-5715
▁रॉ	-5716
सनीय	-5717
▁चली	-5718
▁शिखर	-5719
▁मुक़ा	-5720
▁चीज़ों	-5721
▁संग्रहालय	-5722
लेस	-5723
किया	-5724
▁आयी	-5725
▁फाइ	-5726
▁उद्ध	-5727
▁केरल	-5728
▁टॉगल	-5729
▁दुर्भ	-5730
▁आंकड़ा	-5731
▁पक्षों	-5732
झन	-5733
दनी	-5734
ोनो	-5735
▁पित	-5736
बिनेट	-5737
▁अनाज	-5738
▁आरोप	-5739
▁बाज़	-5740
▁लड़ाई	-5741
प्राप्त	-5742
▁मर्यादा	-5743
क्की	-5744
▁गार	-5745
▁टोइ	-5746
शिष्ट	-5747
▁एकदम	-5748
▁बाळक	-5749
▁कामना	-5750
▁कॉलेज	-5751
▁पहेले	-5752
▁रहस्य	-5753
▁फाइलने	-5754
▁याचिका	-5755
तापूर्वक	-5756
▁रिकार्ड	-5757
▁नागरिकों	-5758
▁सामर्थ्य	-5759
▁प्राप्तकर्ता	-5760
ay	-5761
▁फट	-5762
▁हं	-5763
लिंग	-5764
▁अपार	-5765
▁आईडी	-5766
▁होंगी	-5767
▁मिटाना	-5768
ch	-5769
ेय	-5770
▁कहला	-5771
▁विशे	-5772
▁सिंध	-5773
▁अन्दर	-5774
▁चंद्र	-5775
▁रह्यो	-5776
▁शहरों	-5777
▁समीकरण	-5778
तियां	-5779
▁सादा	-5780
प्रदाय	-5781
▁कराया	-5782
▁बनाये	-5783
▁जायेगी	-5784
▁टोइलेट	-5785
▁क़ु	-5786
▁घूम	-5787
▁यथा	-5788
▁हशे	-5789
▁पिछली	-5790
टाई	-5791
▁लड़की	-5792
▁छुपाएँ	-5793
▁माटेना	-5794
▁शास्त्र	-5795
age	-5796
ंडा	-5797
ग्स	-5798
▁धूम	-5799
▁कहां	-5800
▁लेती	-5801
▁ज़रुर	-5802
▁प्रस्तु	-5803
▁आब	-5804
▁वान	-5805
▁वधार	-5806
▁कारनी	-5807
▁अनुच्छेद	-5808
प्रे	-5809
▁मरा	-5810
▁ईसुए	-5811
▁शहरी	-5812
▁संगम	-5813
पचारिक	-5814
▁भक्ति	-5815
▁इंडियन	-5816
▁गिरफ्त	-5817
▁एकमात्र	-5818
बाल	-5819
लीस	-5820
▁स्टा	-5821
▁जेम	-5822
▁बडी	-5823
▁रोब	-5824
▁नेशनल	-5825
▁मूत्र	-5826
स्थापित	-5827
लन	-5828
साई	-5829
▁अका	-5830
▁बुल	-5831
▁स्रो	-5832
▁पानां	-5833
▁विनष्ट	-5834
▁कीबोर्ड	-5835
▁प्रतिभूति	-5836
▁शुभकामनाएं	-5837
yp	-5838
पणन	-5839
घाटन	-5840
▁गुजर	-5841
▁करेगी	-5842
▁जानने	-5843
▁कम्पनी	-5844
▁बन्दगी	-5845
▁संदेशों	-5846
▁नल	-5847
सीसी	-5848
▁इंद	-5849
▁नील	-5850
▁अनक़	-5851
▁चकास	-5852
▁पेशी	-5853
▁दिलों	-5854
▁घरों	-5855
▁अनुदान	-5856
▁तत्काल	-5857
▁ज़िम्मे	-5858
▁उद्योगों	-5859
िमा	-5860
▁वं	-5861
▁१२	-5862
▁दशक	-5863
▁इसने	-5864
▁गुरू	-5865
▁बंदर	-5866
▁शिष्य	-5867
▁कोष्टक	-5868
▁प्रयोजन	-5869
▁मध्यमां	-5870
▁संबोधित	-5871
▁न्यायाधीश	-5872
▁सफलतापूर्वक	-5873
ाग्य	-5874
नुसार	-5875
▁रोज़	-5876
▁कर्यो	-5877
▁द्विप	-5878
▁बाध्य	-5879
▁बॉक्स	-5880
▁शरूआत	-5881
▁प्रशास	-5882
▁प्रेषक	-5883
▁निष्पादन	-5884
▁आनु	-5885
▁आखिर	-5886
▁तेरी	-5887
▁सर्वोत्तम	-5888
जल	-5889
▁आफ	-5890
हेरा	-5891
▁बोस	-5892
▁सहन	-5893
ष्यों	-5894
▁जलवायु	-5895
▁लेपटोप	-5896
▁सम्पर्क	-5897
▁वोल	-5898
ांतों	-5899
▁बाधा	-5900
▁गुमराह	-5901
▁अय	-5902
▁इंत	-5903
▁अवयव	-5904
▁गुणा	-5905
▁तमार	-5906
▁रानी	-5907
▁संगठ	-5908
▁सोने	-5909
▁विद्र	-5910
▁होस्ट	-5911
▁ब्राह्म	-5912
▁मेहरबान	-5913
▁ग्राहकों	-5914
ध्व	-5915
्रि	-5916
▁चेत	-5917
▁हरा	-5918
▁ट्रक	-5919
▁निवास	-5920
▁राजस्व	-5921
▁सुविधाएं	-5922
ॉक्स	-5923
▁जानवरों	-5924
▁मुक़र्र	-5925
िरी	-5926
▁शत्र	-5927
▁अग्रिम	-5928
▁बनाववा	-5929
सोस	-5930
लाइट	-5931
▁नाश	-5932
▁एकता	-5933
▁परिभाषित	-5934
▁शीर्षिका	-5935
▁प्रतियोगिता	-5936
भ्र	-5937
ोना	-5938
▁चाँ	-5939
▁ट्यू	-5940
▁सराह	-5941
▁रोकने	-5942
▁चिकित्सक	-5943
▁व्यवस्थित	-5944
as	-5945
▁फुट	-5946
▁फैल	-5947
▁उसपर	-5948
▁अवरोध	-5949
▁जुड़ा	-5950
▁विपणन	-5951
▁तापमान	-5952
▁लोकोनो	-5953
▁translat	-5954
olor	-5955
▁कंट	-5956
▁जीत	-5957
▁डाले	-5958
▁नस्ल	-5959
▁लाते	-5960
▁समस्त	-5961
▁कश्मीर	-5962
▁चोकठां	-5963
▁प्रदूषण	-5964
आउट	-5965
ल्टी	-5966
ड़िया	-5967
▁जूना	-5968
▁अकेले	-5969
▁अनक़रीब	-5970
▁व्यवस्थापक	-5971
▁दरिया	-5972
▁पुष्टि	-5973
▁ठहर	-5974
▁दर्शाता	-5975
ञ्	-5976
फू	-5977
बम	-5978
ेदार	-5979
▁शोर	-5980
▁पहलू	-5981
▁यहीं	-5982
▁आध्या	-5983
न्द्रनाथ	-5984
▁विद्यार्थी	-5985
फेस	-5986
▁आभा	-5987
▁चाव	-5988
▁दिव	-5989
▁सूजन	-5990
▁मोकलो	-5991
▁केटलीक	-5992
▁संस्थाओं	-5993
यित	-5994
▁मक	-5995
▁थशे	-5996
▁नकदी	-5997
▁नीला	-5998
▁मुंह	-5999
चलन	-6000
▁एन्ड	-6001
▁जोड़े	-6002
▁वय	-6003
▁मने	-6004
▁रवी	-6005
▁लिप	-6006
▁बख्श	-6007
▁लिपि	-6008
▁गर्भा	-6009
▁बिहार	-6010
▁लकड़ी	-6011
टका	-6012
न्सी	-6013
▁खून	-6014
▁मनोर	-6015
▁लिंग	-6016
▁रद्दी	-6017
▁स्टोर	-6018
▁आँकड़ा	-6019
▁उत्साह	-6020
▁कंपनियों	-6021
▁प्रोत्साहित	-6022
mp	-6023
ata	-6024
रीबी	-6025
▁क्षण	-6026
▁बादशाह	-6027
▁पुस्तकाल	-6028
०००	-6029
▁टु	-6030
▁आंश	-6031
▁मधुम	-6032
स्तानी	-6033
▁आयतें	-6034
▁विक्र	-6035
▁अंतरिक्ष	-6036
▁प्रतिदिन	-6037
▁प्रॉक्सी	-6038
षी	-6039
द्धा	-6040
▁छुप	-6041
▁परे	-6042
▁पॉप	-6043
▁आपसे	-6044
▁ताकत	-6045
▁बस्ती	-6046
▁छात्रों	-6047
▁ढूँ	-6048
कृष्ण	-6049
▁विफलः	-6050
▁तत्वदर्शी	-6051
▁कार्यान्वयन	-6052
▁ऑंख	-6053
▁बढा	-6054
.2015	-6055
▁गणित	-6056
▁टाइम	-6057
▁नवुं	-6058
▁छोड़ा	-6059
▁मानवीय	-6060
▁अमेरिकी	-6061
▁पहेलेथी	-6062
लिक	-6063
ज्जा	-6064
लाईन	-6065
▁ओडियो	-6066
▁डिस्प	-6067
▁आरंभिक	-6068
▁वस्त्र	-6069
▁खिलाड़ी	-6070
▁शैक्षिक	-6071
▁उन्न	-6072
▁गेंद	-6073
▁भावी	-6074
▁श्रो	-6075
▁मिलेगी	-6076
▁संग्रही	-6077
▁समर्पित	-6078
▁आध्यात्म	-6079
▁दुर्भाग्य	-6080
गां	-6081
विस	-6082
▁पंख	-6083
▁सकी	-6084
▁साई	-6085
▁राहत	-6086
▁हत्या	-6087
ri	-6088
ॉनिक	-6089
▁जता	-6090
▁घेरा	-6091
▁ब्रै	-6092
▁प्रेस	-6093
▁पूर्ति	-6094
▁प्रिंटर	-6095
▁31	-6096
ीकृत	-6097
▁आंध	-6098
▁सजा	-6099
▁खेंच	-6100
▁घाटी	-6101
▁भाष्	-6102
▁आंशिक	-6103
▁सुविधाओं	-6104
स्ट्रेलिया	-6105
▁प्रतिलिपि	-6106
्ता	-6107
▁तद	-6108
▁फू	-6109
▁शोक	-6110
▁उतना	-6111
▁काफ़	-6112
ंत्रिक	-6113
▁अंतरण	-6114
▁तेमनी	-6115
▁संकल्प	-6116
▁योग्यता	-6117
▁be	-6118
रुरी	-6119
▁पेज	-6120
▁मीम	-6121
▁रिम	-6122
स्टिक	-6123
िल्ली	-6124
्रेता	-6125
▁इसपर	-6126
▁बांग	-6127
▁मातृ	-6128
▁जंगली	-6129
▁कठिनाई	-6130
▁मूलभूत	-6131
▁जोडायेल	-6132
बों	-6133
सागर	-6134
▁तिल	-6135
▁खूणा	-6136
▁इमारत	-6137
दरत	-6138
▁लाई	-6139
▁वकी	-6140
▁मुर्	-6141
▁लंबा	-6142
पालिका	-6143
▁गहराई	-6144
▁अमर	-6145
▁नाइ	-6146
विध्य	-6147
▁आर्ट	-6148
▁कष्ट	-6149
▁कपड़े	-6150
▁इकट्ठा	-6151
▁ब्रह्म	-6152
▁विडियो	-6153
▁विविधता	-6154
▁प्रारम्भ	-6155
▁80	-6156
▁ti	-6157
ेंसी	-6158
▁बीजी	-6159
▁प्रजनन	-6160
▁विषयों	-6161
▁सम्पूर्ण	-6162
▁पैग़म्बरों	-6163
भवी	-6164
▁डु	-6165
▁सदी	-6166
▁असली	-6167
▁ब्ले	-6168
▁बढ़कर	-6169
▁रसायन	-6170
▁वैविध्य	-6171
▁सावधानी	-6172
▁TR	-6173
कार्ड	-6174
▁चीजों	-6175
▁स्टेट	-6176
▁कलकत्ता	-6177
एच	-6178
his	-6179
▁करू	-6180
▁यहू	-6181
▁जरिए	-6182
▁सजदा	-6183
▁डालें	-6184
▁समझता	-6185
▁साइडवॉक	-6186
▁किलोमीटर	-6187
ॉग	-6188
▁बिट	-6189
▁प्रच	-6190
▁बाबू	-6191
▁फैसला	-6192
▁पुराना	-6193
50	-6194
ब्बा	-6195
▁अजी	-6196
▁छबी	-6197
पादित	-6198
▁पुष्प	-6199
▁मुक़र्रर	-6200
▁प्रतिनिधि	-6201
ळे	-6202
hat	-6203
▁छव	-6204
▁नम	-6205
▁झूठ	-6206
▁बक्	-6207
ेंद्र	-6208
▁अमान	-6209
▁दिलच	-6210
▁अर्थात	-6211
▁प्रयोज	-6212
/2	-6213
छित	-6214
हाई	-6215
ांड	-6216
ैया	-6217
▁ताज	-6218
▁भूख	-6219
▁इंग्ल	-6220
▁मानना	-6221
▁OF	-6222
नाटक	-6223
ानुं	-6224
▁अंदा	-6225
▁विरू	-6226
▁कहेगा	-6227
▁गर्मी	-6228
▁छोकरी	-6229
▁वांची	-6230
▁इसीलिए	-6231
▁संतुलन	-6232
▁परिभाषा	-6233
▁वाणिज्यिक	-6234
▁इम	-6235
▁फ्ले	-6236
▁दिखाता	-6237
▁एरपोर्ट	-6238
्यौ	-6239
▁60	-6240
▁मक्	-6241
▁सच्चा	-6242
▁क्रमांक	-6243
▁विद्यालय	-6244
बादी	-6245
▁भंग	-6246
▁हंस	-6247
▁खड़ी	-6248
▁चिंत	-6249
▁पंजीकृत	-6250
▁प्रोटोक	-6251
मेरा	-6252
▁ज्व	-6253
▁फर्म	-6254
▁आव्यो	-6255
▁दिखाना	-6256
▁परिणामस्वरूप	-6257
डल	-6258
बिं	-6259
ting	-6260
न्तर	-6261
▁अरु	-6262
▁कड़	-6263
▁सिक	-6264
▁उल्ल	-6265
▁बतौर	-6266
▁असाधारण	-6267
▁कर्तव्य	-6268
▁संवर्धन	-6269
▁नियुक्ति	-6270
निटर	-6271
पालन	-6272
▁टेक्	-6273
▁पंक्त	-6274
तिज	-6275
▁चैन	-6276
▁सबके	-6277
▁कोइपण	-6278
▁डोमेन	-6279
▁धारणा	-6280
▁ज़ुल्म	-6281
▁समानता	-6282
▁क्रांति	-6283
▁संक्रिया	-6284
▁दास	-6285
▁TRAN	-6286
▁देखाय	-6287
चु	-6288
दायी	-6289
म्पा	-6290
राही	-6291
▁चोर	-6292
▁परो	-6293
▁ज़ाह	-6294
▁डेकर	-6295
▁मजबू	-6296
▁समित	-6297
▁पहोळाई	-6298
▁हिमालय	-6299
▁मश	-6300
ATOR	-6301
माना	-6302
श्री	-6303
▁सीट	-6304
▁कर्सर	-6305
▁संचालक	-6306
णो	-6307
धक	-6308
माइ	-6309
िज़	-6310
बाजी	-6311
▁चूं	-6312
ATORS	-6313
▁अंडे	-6314
▁थोडा	-6315
▁नथीः	-6316
▁पाये	-6317
▁बर्फ	-6318
SLATORS	-6319
▁प्रोफ़	-6320
▁ब्राउझर	-6321
▁TRANSLATORS	-6322
त्रिम	-6323
▁सत्ताधिकरण	-6324
ढ़े	-6325
▁जम्	-6326
▁बाई	-6327
▁मेळव	-6328
▁रामा	-6329
▁अपमान	-6330
▁इन्कार	-6331
▁दरवाजा	-6332
▁बारणुं	-6333
▁विनियम	-6334
▁पदार्थों	-6335
ew	-6336
▁sh	-6337
्वास	-6338
क्राम	-6339
▁इच्छ	-6340
▁बहुम	-6341
▁करतां	-6342
▁जायें	-6343
▁प्रसं	-6344
▁प्रांत	-6345
▁समूहों	-6346
▁जिम्मेदारी	-6347
िश्र	-6348
▁रहित	-6349
▁शराब	-6350
▁सांस	-6351
▁साहब	-6352
▁निर्गम	-6353
▁एट	-6354
▁गाँ	-6355
▁शेर	-6356
▁आएगा	-6357
▁तकली	-6358
▁लागु	-6359
▁संभवतः	-6360
▁कर्नाटक	-6361
ियु	-6362
▁तह	-6363
विदा	-6364
▁विट	-6365
▁काले	-6366
▁किनारा	-6367
▁चेतवणी	-6368
▁स्पर्श	-6369
▁शौचालयनी	-6370
ामिन	-6371
▁आमाल	-6372
▁हिमा	-6373
▁होटल	-6374
▁आकृति	-6375
▁प्रोफ	-6376
▁लांबी	-6377
िपीडिया	-6378
▁पहाड़ी	-6379
▁स्तम्भ	-6380
▁वनस्पति	-6381
पद	-6382
ind	-6383
मों	-6384
▁बढ़ने	-6385
▁बरसात	-6386
▁मिलियन	-6387
▁पार्किंगनी	-6388
ंधन	-6389
परि	-6390
वाँ	-6391
▁गे	-6392
काता	-6393
▁191	-6394
▁कुम	-6395
▁वजन	-6396
▁उमेर	-6397
▁जेने	-6398
▁मानता	-6399
▁मेमोरी	-6400
▁दृश्यमान	-6401
▁प्रतिबिं	-6402
▁स्त्रियों	-6403
▁कोष	-6404
▁आपणे	-6405
▁उपदेश	-6406
▁निगाह	-6407
▁वापसी	-6408
▁कृत्रिम	-6409
▁वस्तुएं	-6410
सास	-6411
▁In	-6412
गोरि	-6413
▁ढेर	-6414
▁करशे	-6415
▁क्षै	-6416
▁मुका	-6417
▁कैंसर	-6418
▁रहेगी	-6419
▁खेलाडी	-6420
▁विरासत	-6421
▁योजनाओं	-6422
वाय	-6423
जीवन	-6424
संगत	-6425
▁मुम	-6426
▁रसी	-6427
▁आवशे	-6428
▁आँखों	-6429
▁उच्चतम	-6430
▁पिक्सेल	-6431
नाइ	-6432
▁उद	-6433
डीएफ	-6434
निर्	-6435
▁हरो	-6436
▁स्ने	-6437
▁मुक्ति	-6438
▁संबद्ध	-6439
▁इल	-6440
र्फ़	-6441
्त्र	-6442
▁वरि	-6443
▁बाबतो	-6444
▁पड़ेगा	-6445
सिटी	-6446
▁नाक	-6447
▁जवाहर	-6448
▁मेळवो	-6449
▁रिश्त	-6450
▁अपनाया	-6451
▁छुट्टी	-6452
▁कारोबार	-6453
▁स्वीकृत	-6454
▁प्रतिस्प	-6455
ज़न	-6456
ज़िर	-6457
▁कैश	-6458
.2016	-6459
▁गहरी	-6460
▁सचेत	-6461
▁गरीबी	-6462
▁जापान	-6463
▁भत्ता	-6464
▁गांवों	-6465
▁डिजाइन	-6466
▁मंजूरी	-6467
▁महाभारत	-6468
ीत	-6469
थान	-6470
▁जुल	-6471
▁खिसकाएँ	-6472
खार	-6473
▁दम	-6474
ैक्ट	-6475
▁१९९	-6476
▁जरुर	-6477
▁सिटी	-6478
▁चूंकि	-6479
▁पुस्तकालय	-6480
AME	-6481
टकी	-6482
पटल	-6483
पीड	-6484
▁जुए	-6485
▁मरी	-6486
▁हवे	-6487
▁अटकी	-6488
▁चुनौ	-6489
▁ट्री	-6490
▁त्वर	-6491
▁धराव	-6492
▁मानी	-6493
▁वक्र	-6494
▁भाग्य	-6495
▁तालिका	-6496
▁बारगाह	-6497
▁कुफ्फ़ार	-6498
▁निष्फळता	-6499
▁प्रोटोकॉल	-6500
कलो	-6501
सनी	-6502
ाइड	-6503
▁अँ	-6504
▁संह	-6505
शक्ति	-6506
▁कुर्	-6507
▁पूछे	-6508
▁गुज़र	-6509
▁पहेरी	-6510
▁पारित	-6511
▁लोकोने	-6512
सीन	-6513
राना	-6514
▁काफ	-6515
▁कों	-6516
▁नौका	-6517
▁मुगल	-6518
▁आवेला	-6519
▁तुमपर	-6520
▁पालने	-6521
▁प्रेमच	-6522
▁केंद्रित	-6523
▁नियंत्रक	-6524
दक	-6525
हट	-6526
▁हजु	-6527
▁गौरव	-6528
▁तेणे	-6529
▁सुदृ	-6530
▁चाहें	-6531
▁तमारो	-6532
▁निकास	-6533
▁निरूप	-6534
▁प्रदाह	-6535
▁कम्प्युटर	-6536
मनी	-6537
शनी	-6538
▁फि	-6539
एमएल	-6540
कर्ष	-6541
माता	-6542
्युल	-6543
▁अरी	-6544
▁मेज	-6545
ंपरिक	-6546
कुमार	-6547
▁पहों	-6548
▁मंडल	-6549
▁कराना	-6550
▁चेतना	-6551
▁वाद्य	-6552
स्क्रीन	-6553
▁मेन्यू	-6554
MA	-6555
ूली	-6556
▁गहन	-6557
▁पंड	-6558
▁हेड	-6559
▁द्रव	-6560
▁दीजिए	-6561
▁पहुँचे	-6562
▁पोताना	-6563
▁डाटाबेस	-6564
▁व्युत्पन्न	-6565
▁डरो	-6566
▁बगी	-6567
▁मेह	-6568
▁रकम	-6569
▁वसा	-6570
क्रिप्	-6571
▁चलाएँ	-6572
▁छापें	-6573
▁दिमाग	-6574
▁सुनते	-6575
▁स्विच	-6576
▁पैमाने	-6577
▁विधेयक	-6578
▁संकेतक	-6579
▁साथेनी	-6580
▁साथेनो	-6581
▁उद्घाटन	-6582
फलक	-6583
ुद्ध	-6584
▁सोम	-6585
▁कतार	-6586
▁वन्य	-6587
▁अकेला	-6588
▁तीसरे	-6589
▁प्रणब	-6590
▁प्लेन	-6591
▁तुम्हे	-6592
▁प्रशासनिक	-6593
मलव	-6594
ट्टे	-6595
स्टे	-6596
▁पाय	-6597
▁मिथ	-6598
मित्व	-6599
▁चांदी	-6600
▁चिपका	-6601
▁जीवों	-6602
▁रिमोट	-6603
▁निकालने	-6604
▁विशेषकर	-6605
▁कचरापेटी	-6606
▁विकिपीडिया	-6607
ुंड	-6608
▁खतर	-6609
▁सड़	-6610
वायेल	-6611
▁खतरा	-6612
▁चीजें	-6613
▁सिर्फ़	-6614
▁डिस्प्ले	-6615
इंट	-6616
टिन	-6617
वारो	-6618
▁अहे	-6619
▁खनि	-6620
▁दुःख	-6621
▁भड़क	-6622
▁मंगल	-6623
▁सचिव	-6624
▁बाळको	-6625
▁संवेद	-6626
▁वॉकिंग	-6627
▁सिंचाई	-6628
▁गुमराही	-6629
▁ज़िन्दा	-6630
▁पुस्तकों	-6631
▁केक	-6632
▁जां	-6633
▁झों	-6634
▁जन्नत	-6635
दर्शिता	-6636
▁ज़ाहिर	-6637
▁माटेनो	-6638
▁अपेक्षित	-6639
▁अच	-6640
▁बध	-6641
लाना	-6642
▁देह	-6643
▁जनजा	-6644
▁बिता	-6645
▁जितनी	-6646
▁सशक्त	-6647
▁जीवाणु	-6648
▁पीड़ित	-6649
▁सकेंगे	-6650
▁आरक्षित	-6651
हो	-6652
▁पाप	-6653
▁मस्	-6654
▁item	-6655
▁तलाश	-6656
▁जरुरी	-6657
▁दशमलव	-6658
▁सुनता	-6659
▁अग्रणी	-6660
▁पारंपरिक	-6661
▁सम्बन्धित	-6662
चाप	-6663
बाज	-6664
▁35	-6665
▁ID	-6666
खाना	-6667
ोर्स	-6668
धियों	-6669
सूत्र	-6670
▁ताळु	-6671
▁सज़ा	-6672
क्षणिक	-6673
▁कोर्स	-6674
▁खुल्ल	-6675
▁तत्वों	-6676
▁पहुंचे	-6677
▁साक्षी	-6678
▁औपचारिक	-6679
▁आध्यात्मिक	-6680
जान	-6681
▁192	-6682
▁ख्रि	-6683
▁रुचि	-6684
▁शकायु	-6685
▁हिंसा	-6686
▁अक्षरो	-6687
▁सुन्दर	-6688
▁डेस्कटोप	-6689
▁रजू	-6690
▁धारण	-6691
▁सफाई	-6692
▁रहमान	-6693
▁आलोचना	-6694
▁निकलने	-6695
▁दक्षिणी	-6696
▁वोल्युम	-6697
▁विमानक्षेत्र	-6698
ंछ	-6699
नन	-6700
दुर	-6701
हाल	-6702
▁खड	-6703
▁यथ	-6704
▁सप	-6705
क्कस	-6706
▁दुआ	-6707
▁data	-6708
▁अवगण	-6709
▁प्रि	-6710
▁बसनी	-6711
▁तेमने	-6712
▁परिसर	-6713
▁क्षैतिज	-6714
▁प्रतिस्पर्	-6715
चिक	-6716
्ली	-6717
▁हॉ	-6718
▁मंग	-6719
▁बेटा	-6720
▁वृत्त	-6721
▁छुटकारा	-6722
▁संयंत्र	-6723
ort	-6724
स्तव	-6725
▁फोट	-6726
▁लंब	-6727
▁सदन	-6728
▁हाय	-6729
्युशन	-6730
▁कुशल	-6731
▁कारणों	-6732
▁दयालुता	-6733
▁अधिकारों	-6734
वत्	-6735
▁तना	-6736
▁हिक	-6737
▁हड्ड	-6738
▁रोज़ी	-6739
▁वर्मा	-6740
▁धनराशि	-6741
tle	-6742
ैण्ड	-6743
▁आरो	-6744
▁सोल	-6745
▁सीता	-6746
▁पसन्द	-6747
▁लड़का	-6748
▁संभाल	-6749
▁स्तरो	-6750
▁रूममां	-6751
▁वास्तु	-6752
▁उपकरणों	-6753
▁केबिनेट	-6754
्ति	-6755
▁ढल	-6756
▁टका	-6757
▁नाप	-6758
▁सतत	-6759
▁कृपा	-6760
▁मेटा	-6761
▁बेटरी	-6762
▁सम्पन्न	-6763
▁स्वामित्व	-6764
ub	-6765
ोष	-6766
▁कस	-6767
▁टि	-6768
प्रद	-6769
लांग	-6770
▁फिट	-6771
▁रिज	-6772
▁किरण	-6773
▁मोड़	-6774
▁संगणक	-6775
▁सामूह	-6776
▁चित्रने	-6777
▁संशोधित	-6778
▁स्ट्रिंग	-6779
▁कार्यवाही	-6780
▁\	-6781
बूल	-6782
वेल	-6783
▁29	-6784
स्वा	-6785
्लेन	-6786
▁मला	-6787
▁छपाई	-6788
▁पडशे	-6789
▁सहमत	-6790
▁कीटों	-6791
▁खातरी	-6792
▁गाड़ी	-6793
▁पड़ती	-6794
▁रोगों	-6795
▁करवानो	-6796
▁प्रवास	-6797
▁वरिष्ठ	-6798
um	-6799
भेद	-6800
ुरा	-6801
▁खि	-6802
्रेट	-6803
▁डिप	-6804
▁हतु	-6805
▁अटका	-6806
▁तौबा	-6807
▁फेंक	-6808
▁शाळा	-6809
▁कैमरा	-6810
▁मनुष्यों	-6811
ast	-6812
ंभव	-6813
नीति	-6814
▁ओछा	-6815
▁चूक	-6816
▁माळ	-6817
▁जनरल	-6818
▁सौथी	-6819
▁नजीकना	-6820
▁श्रमिक	-6821
ee	-6822
ig	-6823
▁असं	-6824
▁तरल	-6825
▁नबी	-6826
▁जावा	-6827
▁रोका	-6828
▁तसबीह	-6829
▁वहेंच	-6830
▁डिजिटल	-6831
▁डॉक्टर	-6832
▁दाहिने	-6833
▁मुद्दों	-6834
▁क्षेत्रमां	-6835
बिल	-6836
▁रम	-6837
▁बडा	-6838
मार्ट	-6839
▁घाटे	-6840
▁घुमा	-6841
▁भर्ती	-6842
▁घासमां	-6843
▁महाराजा	-6844
▁विरूद्ध	-6845
▁इलेक्ट्रॉनिक	-6846
ैश	-6847
▁Y	-6848
ष्ठा	-6849
्लोक	-6850
▁ख़ुश	-6851
▁मुसी	-6852
▁थोड़े	-6853
▁सामूहिक	-6854
▁विश्वसनीय	-6855
▁मोटरसायकलो	-6856
डोर	-6857
▁or	-6858
▁तीर	-6859
च्छिक	-6860
▁गर्व	-6861
▁देगी	-6862
▁राखो	-6863
▁रौशन	-6864
▁अग्रे	-6865
▁उन्हे	-6866
▁उर्दू	-6867
▁मुद्रित	-6868
▁योजनाएं	-6869
▁विन्डोने	-6870
,1	-6871
कित	-6872
▁तृ	-6873
लेखन	-6874
▁बनकर	-6875
▁उत्तेज	-6876
▁संसदीय	-6877
▁प्राधिकरण	-6878
ve	-6879
ess	-6880
▁मण	-6881
सेरो	-6882
▁नती	-6883
▁विम	-6884
▁हरी	-6885
ction	-6886
वाहित	-6887
▁पटेल	-6888
▁भूरा	-6889
▁सूचन	-6890
▁अवकाश	-6891
▁बुलाया	-6892
▁मिलाकर	-6893
▁श्रीवा	-6894
▁गतिविधि	-6895
ers	-6896
बला	-6897
टाना	-6898
▁गेट	-6899
▁जरा	-6900
▁बसव	-6901
▁ईंधन	-6902
▁बेठक	-6903
▁वकील	-6904
▁हलाक	-6905
▁अवतार	-6906
▁देवना	-6907
▁मल्टी	-6908
▁लम्बी	-6909
▁संहिता	-6910
▁विश्वविद्यालयों	-6911
कीर	-6912
ुमान	-6913
▁जिनको	-6914
▁झिल्ली	-6915
▁प्रभाग	-6916
▁मूळभुत	-6917
▁रविशंकर	-6918
▁संभावित	-6919
▁प्रतिष्ठित	-6920
30	-6921
wor	-6922
डकर	-6923
▁उपे	-6924
▁कथन	-6925
▁तबा	-6926
.2019	-6927
▁उभार	-6928
▁छापो	-6929
▁टावर	-6930
पूर्ति	-6931
▁कर्या	-6932
▁चलाया	-6933
▁ज़रूरत	-6934
▁वर्तनी	-6935
▁अस्वीकार	-6936
▁नवान्वेषण	-6937
▁पेर	-6938
▁ग्रा	-6939
▁दांत	-6940
▁पाता	-6941
▁माने	-6942
धिकारी	-6943
▁सुदृढ़	-6944
▁पहुंचने	-6945
▁फोल्डरमां	-6946
▁व्यक्तित्व	-6947
▁श्रीवास्तव	-6948
.11	-6949
शेष	-6950
▁घाव	-6951
▁जाऊ	-6952
▁दाम	-6953
▁बडे	-6954
▁बसो	-6955
▁सुम	-6956
▁कबीर	-6957
▁शादी	-6958
▁संतु	-6959
▁गिरफ्तार	-6960
▁मुक़ाबले	-6961
षे	-6962
ुंज	-6963
िकीय	-6964
िप्र	-6965
▁मास	-6966
▁अहीं	-6967
▁पादप	-6968
▁हड्डी	-6969
ोल्युशन	-6970
▁बंधबेस	-6971
▁बाज़ार	-6972
▁कोलकाता	-6973
▁आमंत्रित	-6974
▁वार्तालाप	-6975
▁संवेदनशील	-6976
▁सकारात्मक	-6977
जूर	-6978
▁IS	-6979
▁सल	-6980
स्टी	-6981
▁नमक	-6982
▁फलक	-6983
▁साँ	-6984
▁फायर	-6985
▁भेजी	-6986
▁मुना	-6987
▁सूरज	-6988
▁टेकरी	-6989
▁यूनिक	-6990
▁डाक्टर	-6991
▁स्मार्ट	-6992
▁प्राधिकार	-6993
▁सिद्धान्त	-6994
सिंह	-6995
▁कोर	-6996
▁छेः	-6997
▁गलती	-6998
▁हँसी	-6999
त्ते	-7000
बर्ग	-7001
▁नेक	-7002
▁शरण	-7003
▁अभिक	-7004
▁कोर्ट	-7005
▁रोबोट	-7006
▁रामायण	-7007
▁सराहना	-7008
▁गांधीजी	-7009
▁बांग्ला	-7010
▁re	-7011
▁खें	-7012
▁हिला	-7013
ॉर्मेट	-7014
▁एन्जिन	-7015
▁संपन्न	-7016
▁स्वभाव	-7017
▁वर्गीकरण	-7018
ैत	-7019
महल	-7020
फारो	-7021
▁औरत	-7022
▁धान	-7023
▁पहन	-7024
▁अहिं	-7025
▁घटित	-7026
▁नवीन	-7027
▁रहमत	-7028
▁तबाही	-7029
▁सकेगा	-7030
▁चोक्कस	-7031
ाणु	-7032
काया	-7033
जमान	-7034
ष्णु	-7035
▁आल्	-7036
▁पाछा	-7037
▁समूद	-7038
▁तुल्य	-7039
▁सिफार	-7040
▁नेताओं	-7041
शक	-7042
ओनो	-7043
ळमां	-7044
शासन	-7045
▁टेब	-7046
▁ज़ोर	-7047
▁तळाव	-7048
▁सन्द	-7049
▁जानना	-7050
▁बाजुना	-7051
▁हाज़िर	-7052
▁समायोजन	-7053
▁संदेशाने	-7054
▁प्रयोगशाला	-7055
फ़र	-7056
बाबू	-7057
मिया	-7058
▁खिल	-7059
▁अंधे	-7060
▁आश्र	-7061
▁नीकळ	-7062
▁लाना	-7063
▁मिलना	-7064
▁अमरीका	-7065
▁बुकमार्क	-7066
दीक	-7067
▁पूर	-7068
▁हान	-7069
▁गहरे	-7070
▁ख्वाह	-7071
▁साँचा	-7072
▁हटाने	-7073
▁यूआरएल	-7074
▁अनुमोदन	-7075
▁जग्यामां	-7076
op	-7077
योजन	-7078
▁कूद	-7079
▁बेर	-7080
विन्द	-7081
▁निधन	-7082
▁बुरे	-7083
▁सौंप	-7084
▁हमको	-7085
▁ब्रह्	-7086
▁सिविल	-7087
▁एल्गोरि	-7088
▁जायेंगे	-7089
नक	-7090
तरे	-7091
दानी	-7092
ंतरित	-7093
फोर्म	-7094
▁चेनल	-7095
▁हाजर	-7096
▁आगळना	-7097
▁पीड़ा	-7098
▁बताता	-7099
▁उत्पादक	-7100
▁फेरफारो	-7101
कोर	-7102
▁फार	-7103
▁आकलन	-7104
▁दुश्	-7105
▁पागल	-7106
▁याता	-7107
▁वैसा	-7108
▁करोगे	-7109
▁क्रेड	-7110
▁रोकें	-7111
▁पोतानी	-7112
▁शर्तों	-7113
▁मिश्रित	-7114
▁मॉड्यूल	-7115
▁अनुकम्पा	-7116
▁तुं	-7117
▁ख़ुद	-7118
▁मोटे	-7119
▁लंदन	-7120
▁साहस	-7121
▁करूणा	-7122
▁मोटुं	-7123
▁अहेवाल	-7124
▁प्रेषित	-7125
▁दं	-7126
▁खोला	-7127
▁ग्ला	-7128
▁छत्र	-7129
▁भरने	-7130
▁भलाई	-7131
▁युनि	-7132
▁प्रणाल	-7133
▁सन्तान	-7134
▁समन्वय	-7135
▁गर्भाशय	-7136
▁मित्रों	-7137
▁प्रोफ़ाइल	-7138
ser	-7139
िरण	-7140
ेरत	-7141
काने	-7142
▁रोम	-7143
▁2005	-7144
▁इसरा	-7145
▁ड्रा	-7146
▁प्या	-7147
▁लक्ष	-7148
▁सहमति	-7149
▁पाणीना	-7150
▁संकेतो	-7151
▁घाट	-7152
▁बहस	-7153
▁इनसे	-7154
▁किस्	-7155
▁चलना	-7156
▁चाले	-7157
▁जुदा	-7158
▁नांख	-7159
▁करनार	-7160
▁करवुं	-7161
▁सम्रा	-7162
▁अपूर्ण	-7163
▁सहेजने	-7164
▁भि	-7165
साइड	-7166
▁फर्	-7167
▁2007	-7168
▁डोमे	-7169
▁आजादी	-7170
▁क्रोस	-7171
▁जागरू	-7172
▁ढांचा	-7173
▁मौज़ू	-7174
▁हल्का	-7175
▁Country	-7176
▁ड्राइवर	-7177
▁मंत्रणा	-7178
▁यातायात	-7179
▁रजिस्टर	-7180
▁अंग्रेज़ी	-7181
ap	-7182
ir	-7183
नस	-7184
पश	-7185
▁ईन	-7186
▁किल	-7187
कीर्ण	-7188
भाग्य	-7189
▁चैतन	-7190
▁पेपर	-7191
▁रुपए	-7192
▁आव्या	-7193
▁उर्वर	-7194
▁फरवरी	-7195
▁हिकमत	-7196
▁आव्युं	-7197
▁चित्रो	-7198
▁मौज़ूदा	-7199
▁ब्राउज़र	-7200
▁प्रयोजनों	-7201
▁द्विपक्षीय	-7202
ect	-7203
▁डूब	-7204
▁बहि	-7205
▁तेनो	-7206
▁दोज़	-7207
▁गुणों	-7208
▁पुराण	-7209
▁प्रमा	-7210
▁बताने	-7211
▁तुममें	-7212
▁तेजस्वी	-7213
▁कार्यक्रमो	-7214
मूल	-7215
▁अहम	-7216
▁उभर	-7217
▁ज़रा	-7218
▁लावो	-7219
▁उत्सव	-7220
▁गुलाबी	-7221
▁रासायन	-7222
▁हार्दिक	-7223
▁शक्तिशाली	-7224
▁साहित्यिक	-7225
▁me	-7226
ंदगी	-7227
▁धूप	-7228
▁आर्य	-7229
▁विषा	-7230
▁हमसे	-7231
▁ख्रिस्त	-7232
▁झुठलाने	-7233
▁संतुलित	-7234
▁सत्यापित	-7235
टने	-7236
ण्ट	-7237
वीर	-7238
बारी	-7239
▁चित	-7240
▁दंत	-7241
▁नाथ	-7242
▁बगल	-7243
▁उपनि	-7244
▁उठाना	-7245
▁शान्त	-7246
कर्ताओं	-7247
▁व्यर्थ	-7248
▁संग्रहवा	-7249
ंघन	-7250
▁लई	-7251
वाथी	-7252
▁आदर	-7253
▁करु	-7254
म्परा	-7255
▁2006	-7256
▁तेमणे	-7257
▁बदलना	-7258
▁अमान्य	-7259
▁छेल्ली	-7260
▁बेठेली	-7261
▁वस्तुत	-7262
▁ग्राफिक	-7263
ंटन	-7264
ज़त	-7265
रीन	-7266
लीन	-7267
हान	-7268
▁मक्का	-7269
▁नांखवा	-7270
▁विमर्श	-7271
▁ट्रेक्स	-7272
▁ब्रैसेरो	-7273
▁आवश्यकताओं	-7274
न्टे	-7275
▁दुखद	-7276
▁मेटल	-7277
▁दर्शक	-7278
▁अपराधी	-7279
▁तुर्की	-7280
▁पहेलाथी	-7281
ुंध	-7282
स्कर	-7283
▁डाइ	-7284
▁पते	-7285
▁झगड़	-7286
▁ब्रि	-7287
त्याशित	-7288
▁जांचें	-7289
▁फ़ैसला	-7290
▁भड़कती	-7291
▁युवाओं	-7292
▁रिकॉर्ड	-7293
▁साथियों	-7294
tt	-7295
डू	-7296
यम	-7297
ियस	-7298
मियम	-7299
▁अरे	-7300
▁थयो	-7301
ांतिक	-7302
▁अब्द	-7303
▁किला	-7304
▁गीता	-7305
▁परिप	-7306
▁बारह	-7307
स्ट्री	-7308
▁वैदिक	-7309
▁परेशान	-7310
▁साँचाः	-7311
▁क्रेडिट	-7312
▁पाणीमां	-7313
af	-7314
लाद	-7315
▁रै	-7316
दस्त	-7317
▁बनना	-7318
▁तेओने	-7319
▁सोचते	-7320
▁परिवेश	-7321
▁मुद्दे	-7322
पं	-7323
न्य	-7324
वाट	-7325
जानी	-7326
पानी	-7327
▁उठे	-7328
▁गद्य	-7329
▁तारे	-7330
▁कार्बन	-7331
▁प्रोटीन	-7332
▁भारतीयों	-7333
एमई	-7334
टली	-7335
▁फौ	-7336
सलों	-7337
▁आदत	-7338
▁आपी	-7339
▁इंट	-7340
▁सुलभ	-7341
▁आयुर्	-7342
▁कारणे	-7343
▁पीढ़ी	-7344
▁मददथी	-7345
▁एप्लेट	-7346
▁चैतन्य	-7347
▁महीनों	-7348
▁शानदार	-7349
गित	-7350
डों	-7351
दिवस	-7352
नियम	-7353
▁लाम	-7354
▁मरने	-7355
▁अनुया	-7356
▁ढांचे	-7357
▁फोटोग	-7358
▁परिसंप	-7359
▁रासायनिक	-7360
अत	-7361
▁धू	-7362
▁कवर	-7363
▁संतो	-7364
▁बेकार	-7365
▁सीखने	-7366
▁फुवारो	-7367
▁स्मारक	-7368
▁सिफारिश	-7369
▁ज़िन्दगी	-7370
▁स्वीकार्य	-7371
लक	-7372
.10	-7373
प्न	-7374
रार	-7375
▁ठाक	-7376
▁नाख	-7377
▁वगर	-7378
▁सिम	-7379
▁कैसी	-7380
▁तूने	-7381
▁पीछा	-7382
▁कोईपण	-7383
▁पंडित	-7384
▁यजमान	-7385
▁स्मरण	-7386
▁एकीकृत	-7387
▁चकासणी	-7388
▁प्रेषण	-7389
▁शाखाओं	-7390
▁माटेनुं	-7391
पै	-7392
पार	-7393
ृश्य	-7394
▁पचा	-7395
▁रूट	-7396
त्त्व	-7397
▁अव्य	-7398
▁ताज़ा	-7399
▁तीसरा	-7400
▁द्रश्य	-7401
▁पुस्तकें	-7402
▁प्रश्नों	-7403
▁प्रतिबद्ध	-7404
▁घुट	-7405
▁मळे	-7406
▁करोः	-7407
▁गाँव	-7408
▁चर्च	-7409
▁डाली	-7410
▁नानक	-7411
▁शत्रु	-7412
▁संप्र	-7413
▁दिखाएं	-7414
▁नारायण	-7415
▁समझौते	-7416
▁उपलब्धि	-7417
▁उल्लेखनीय	-7418
▁बहन	-7419
▁मेघ	-7420
परेशन	-7421
▁आचरण	-7422
▁चराई	-7423
▁दावे	-7424
▁बनता	-7425
▁वाणी	-7426
▁जम्मू	-7427
▁बढ़ते	-7428
▁अमरीकी	-7429
▁दोज़ख़	-7430
▁कॉन्फ़िगरेशन	-7431
मस	-7432
शः	-7433
▁१६	-7434
म्बा	-7435
र्जन	-7436
ुत्त	-7437
▁गोप	-7438
▁पूज	-7439
▁फ़ी	-7440
▁सपा	-7441
▁बदलवा	-7442
▁मूर्ख	-7443
▁मौलिक	-7444
▁निविदा	-7445
▁परिचित	-7446
▁सौभाग्य	-7447
चो	-7448
ric	-7449
जरी	-7450
ंसिल	-7451
स्थल	-7452
▁खेत	-7453
▁टाई	-7454
▁दार	-7455
▁अद्व	-7456
▁डिबग	-7457
▁हैदरा	-7458
▁चीज़ें	-7459
▁मैत्री	-7460
▁रसूलों	-7461
▁मोटरसायकल	-7462
▁घुम	-7463
▁सैन	-7464
ग्रहण	-7465
▁चाहा	-7466
▁निवार	-7467
▁सेक्टर	-7468
▁रूपांतरण	-7469
▁व्यापारिक	-7470
ौरन	-7471
▁नहर	-7472
▁रूस	-7473
▁चलती	-7474
▁चालो	-7475
▁नीकळो	-7476
▁अर्थात्	-7477
▁गुजराती	-7478
▁परम्परा	-7479
क्ल	-7480
तकों	-7481
▁सफळ	-7482
▁गोपन	-7483
▁नींद	-7484
▁हुकुम	-7485
▁अनुदेश	-7486
▁पीडीएफ	-7487
▁मरम्मत	-7488
▁वांछित	-7489
▁प्रजाति	-7490
गमन	-7491
▁इरा	-7492
▁पना	-7493
▁करवी	-7494
▁देशी	-7495
▁धीमी	-7496
▁छिद्र	-7497
▁जुड़ी	-7498
▁मज़दू	-7499
▁मेमरी	-7500
▁स्पर्	-7501
▁वर्गों	-7502
▁दरम्यान	-7503
▁विज्ञापन	-7504
▁हिंदुस्तान	-7505
▁अप्रत्याशित	-7506
.12	-7507
▁उछ	-7508
▁आधा	-7509
▁पेन	-7510
▁यूँ	-7511
▁वसू	-7512
▁अकाद	-7513
▁कृति	-7514
▁जोडी	-7515
▁टिकट	-7516
▁निकालें	-7517
▁रूपरेखांकित	-7518
लापन	-7519
▁एटी	-7520
▁बही	-7521
color	-7522
द्दीन	-7523
▁आपेल	-7524
▁शंकर	-7525
▁आबादी	-7526
▁कोष्ठ	-7527
वर्सिटी	-7528
▁लोकोनी	-7529
▁संपर्को	-7530
पीएस	-7531
वाने	-7532
▁नाव	-7533
▁हरे	-7534
चिह्न	-7535
बेडकर	-7536
▁चावल	-7537
▁तरंग	-7538
▁हाउस	-7539
▁आगामी	-7540
▁राखवा	-7541
▁शेरीनी	-7542
▁साथेनुं	-7543
▁ईमानदारों	-7544
राय	-7545
सेना	-7546
▁आज़	-7547
▁छां	-7548
ोत्तर	-7549
▁अजीब	-7550
▁मेनू	-7551
▁कस्टम	-7552
▁जग्याए	-7553
▁ईव	-7554
▁११	-7555
▁नकद	-7556
▁हड़	-7557
▁अपवाद	-7558
▁बाग़ों	-7559
▁संयोजन	-7560
▁मांसपेश	-7561
▁सरनामां	-7562
ैंक	-7563
▁ओह	-7564
▁नज	-7565
काना	-7566
काशे	-7567
श्रे	-7568
▁बोध	-7569
▁कर्ज	-7570
▁ज़ूम	-7571
▁पंचाय	-7572
▁बनाएं	-7573
▁भेजना	-7574
▁विटामिन	-7575
▁विलोपित	-7576
दूत	-7577
▁ऊन	-7578
▁कण	-7579
शाही	-7580
▁गले	-7581
स्फोट	-7582
िकाओं	-7583
▁गोली	-7584
▁बाउल	-7585
▁यानी	-7586
▁आंध्र	-7587
▁टेनिस	-7588
▁मास्ट	-7589
▁अलार्म	-7590
▁आंकड़े	-7591
▁पुकारा	-7592
▁शैक्षणिक	-7593
ंकु	-7594
नेस	-7595
▁खैर	-7596
▁नुं	-7597
▁पाड	-7598
हीनता	-7599
▁आरेख	-7600
▁परजीवी	-7601
▁बदलावो	-7602
▁दर्शावे	-7603
85	-7604
ine	-7605
▁बम	-7606
▁छिप	-7607
▁जगत	-7608
▁फिल	-7609
धारणा	-7610
▁काळो	-7611
▁नेकी	-7612
▁हालॉ	-7613
▁इस्ला	-7614
▁मिसाल	-7615
▁प्रातः	-7616
▁फरिश्त	-7617
▁अंग्रेज	-7618
▁प्रतिमा	-7619
▁कार्यकला	-7620
ठ्	-7621
लभ	-7622
.08	-7623
ओना	-7624
वों	-7625
ण्डल	-7626
▁भक्त	-7627
▁अंततः	-7628
▁तीर्थ	-7629
▁लांबा	-7630
▁ज़िक्र	-7631
▁जापानी	-7632
▁देखेंगे	-7633
▁बेहिश्त	-7634
▁लेवामां	-7635
▁वृक्षनी	-7636
▁संवेदना	-7637
▁फोल्डरने	-7638
,2	-7639
▁औऱ	-7640
क्टो	-7641
राबी	-7642
ोनें	-7643
▁अशो	-7644
▁असी	-7645
▁एनी	-7646
▁बफर	-7647
▁आजकल	-7648
▁बाएँ	-7649
▁संकलन	-7650
▁तमिलना	-7651
▁पंजाबी	-7652
▁उल्लंघन	-7653
दत्त	-7654
रचना	-7655
▁गाम	-7656
▁बेड	-7657
▁अक्त	-7658
▁टीका	-7659
▁बचपन	-7660
dition	-7661
स्थापन	-7662
▁सांके	-7663
▁ग्रन्थ	-7664
▁निवेदन	-7665
▁संचिका	-7666
▁अनुसूचित	-7667
os	-7668
ष्म	-7669
हारी	-7670
▁काश	-7671
▁तुझ	-7672
▁बिर	-7673
▁चुंब	-7674
▁जाया	-7675
▁नर्स	-7676
▁श्रेण	-7677
▁इकाइयों	-7678
▁देवताओं	-7679
▁प्रासंग	-7680
▁सरकारों	-7681
▁बस्तियों	-7682
वट	-7683
जीत	-7684
ृंग	-7685
▁अशु	-7686
▁फूँ	-7687
ecast	-7688
स्मिक	-7689
▁गोया	-7690
▁नर्म	-7691
▁फ्री	-7692
▁शरीक	-7693
▁हमला	-7694
▁मस्जि	-7695
▁कोरिया	-7696
▁गणतंत्र	-7697
▁यादीमां	-7698
▁संरक्षक	-7699
▁forecast	-7700
नाई	-7701
बीन	-7702
भाई	-7703
▁हक	-7704
तिया	-7705
▁जमी	-7706
▁दोर	-7707
▁वाई	-7708
▁शब्	-7709
▁छोडी	-7710
▁पूछो	-7711
▁मेहन	-7712
▁उपनाम	-7713
▁उमेरी	-7714
▁लम्बे	-7715
▁विलंब	-7716
▁स्क्रॉल	-7717
am	-7718
ल्टा	-7719
स्थि	-7720
▁मसौ	-7721
▁हिल	-7722
गोलिक	-7723
योजित	-7724
िकेशन	-7725
▁ज्यो	-7726
▁बाक़ी	-7727
▁रह्यां	-7728
▁वाक़िफ	-7729
▁ब्राह्मण	-7730
डक	-7731
तिश	-7732
वेशन	-7733
▁उपज	-7734
▁पाम	-7735
▁वाइ	-7736
▁संभ	-7737
▁आवता	-7738
▁तेवा	-7739
▁पृथक	-7740
▁रीति	-7741
▁आमदनी	-7742
▁ब्रेक	-7743
▁उपकरणो	-7744
▁कृतज्ञ	-7745
▁परिपक्	-7746
▁प्रसाद	-7747
▁आकस्मिक	-7748
▁इंजीनियर	-7749
▁परिवारों	-7750
.09	-7751
िन्त	-7752
▁190	-7753
▁पटल	-7754
▁2008	-7755
▁उमेद	-7756
▁गवर्	-7757
▁संधि	-7758
▁सुपर	-7759
▁चिड़ी	-7760
▁वगाडो	-7761
▁संपदा	-7762
▁होल्ड	-7763
▁उपक्रम	-7764
▁गारंटी	-7765
▁नोकिया	-7766
▁कार्यरत	-7767
▁भौगोलिक	-7768
▁हैदराबाद	-7769
काई	-7770
ड्स	-7771
ताप	-7772
▁02	-7773
▁कश	-7774
▁कुश	-7775
▁खाय	-7776
▁समू	-7777
▁2014	-7778
▁औषधि	-7779
▁खनिज	-7780
▁नानो	-7781
▁सांभ	-7782
▁खोजने	-7783
▁जितने	-7784
▁बचाने	-7785
▁बोक्स	-7786
▁वंचित	-7787
▁सेकंड	-7788
▁सेकेंड	-7789
▁हालॉकि	-7790
▁संगठनों	-7791
▁जवाहरलाल	-7792
▁जिम्मेदार	-7793
ूण	-7794
ब्ब	-7795
वधि	-7796
▁प्रव	-7797
▁लेगा	-7798
▁उपबंध	-7799
▁गंदकी	-7800
▁अवतरित	-7801
▁इन्हीं	-7802
▁निपटान	-7803
▁पार्श्व	-7804
▁फाइलोने	-7805
▁सांकेतिक	-7806
aj	-7807
nu	-7808
ँजी	-7809
▁90	-7810
▁गुर	-7811
▁जाह	-7812
▁इनको	-7813
▁पट्ट	-7814
▁सर्विस	-7815
▁वैविध्यपूर्ण	-7816
ul	-7817
un	-7818
गंध	-7819
▁कंई	-7820
▁जबर	-7821
▁संकु	-7822
▁चार्ज	-7823
▁पढ़ाई	-7824
▁पेट्र	-7825
▁शकाशे	-7826
▁सम्भव	-7827
▁निवासी	-7828
▁यथार्थ	-7829
▁ईवोल्युशन	-7830
थित	-7831
सले	-7832
▁01	-7833
▁ऋतु	-7834
▁सद्	-7835
▁गयेल	-7836
▁बचने	-7837
▁मोती	-7838
▁श्या	-7839
▁ऊभेली	-7840
▁छेल्ले	-7841
▁त्वरित	-7842
▁नदियों	-7843
▁हिमाचल	-7844
क्रिप्शन	-7845
▁अग्रेषित	-7846
पय	-7847
▁चों	-7848
▁जैन	-7849
▁झुक	-7850
▁नाय	-7851
▁पथ्	-7852
▁मुज	-7853
world	-7854
▁अखबार	-7855
▁चेन्न	-7856
▁मोमिन	-7857
▁सच्ची	-7858
▁ऑपरेशन	-7859
▁मुद्रण	-7860
▁रस्ताना	-7861
▁प्रसंस्करण	-7862
ोप	-7863
▁ch	-7864
डींग	-7865
्रपान	-7866
▁औलाद	-7867
▁खतरे	-7868
▁अनुस्	-7869
▁गाँधी	-7870
▁चक्कर	-7871
▁चेहरा	-7872
▁बगडेल	-7873
▁स्टील	-7874
▁पत्रों	-7875
▁ष	-7876
मेर	-7877
▁08	-7878
▁पठ	-7879
▁उदय	-7880
▁धूल	-7881
▁पेय	-7882
▁बूट	-7883
▁बेट	-7884
ियामत	-7885
▁बादल	-7886
▁रसीद	-7887
▁डराने	-7888
▁बालों	-7889
▁वसूली	-7890
▁प्लास्टिक	-7891
माला	-7892
▁गईं	-7893
▁ग्ल	-7894
ष्कार	-7895
▁ईमानवालों	-7896
दिर	-7897
▁सूच	-7898
भावना	-7899
▁ऊँची	-7900
▁लायक	-7901
▁भांति	-7902
▁मतभेद	-7903
▁शब्दा	-7904
▁आकर्षण	-7905
▁निरूपित	-7906
टर्स	-7907
▁रस्	-7908
▁वेश	-7909
▁मुहा	-7910
▁सब्र	-7911
▁तेनुं	-7912
▁सहारा	-7913
▁दिवालो	-7914
id	-7915
ङ्ग	-7916
डीओ	-7917
ांज	-7918
▁नीं	-7919
▁बिछ	-7920
▁देवे	-7921
▁रसोई	-7922
तन्त्र	-7923
▁क़रीब	-7924
▁सृजित	-7925
▁अंतर्व	-7926
▁हालनां	-7927
▁क़ियामत	-7928
▁डिरेक्ट्री	-7929
चला	-7930
▁la	-7931
▁लू	-7932
▁गंध	-7933
▁फूट	-7934
▁बिग	-7935
बॉक्स	-7936
▁2001	-7937
▁चार्	-7938
▁मौका	-7939
▁वगाड	-7940
▁किराये	-7941
▁मानवता	-7942
▁ईमानदार	-7943
▁पश्चात्	-7944
▁प्रसारण	-7945
▁विद्रोह	-7946
क़त	-7947
▁टॅ	-7948
ियरी	-7949
▁टाल	-7950
▁चारा	-7951
▁खातों	-7952
▁संतोष	-7953
▁अनुग्रह	-7954
▁पहेरीने	-7955
▁राजकुमार	-7956
▁अनुस्मारक	-7957
▁वास्तविकता	-7958
▁रवीन्द्रनाथ	-7959
विड	-7960
सूची	-7961
▁भले	-7962
▁मैन	-7963
▁शिक	-7964
क्टरी	-7965
▁आगरा	-7966
▁ईसाई	-7967
▁लड़क	-7968
▁खानगी	-7969
▁निकले	-7970
▁मिटाने	-7971
▁मुसीबत	-7972
▁अक्तूबर	-7973
▁मध्यस्थ	-7974
▁लेखापरी	-7975
▁ओब्जेक्ट	-7976
▁निष्कर्ष	-7977
▁प्रोफाइल	-7978
न्ज	-7979
इयां	-7980
ड़की	-7981
लीस्ट	-7982
▁नंखा	-7983
▁वाकई	-7984
▁विनाश	-7985
▁अवज्ञा	-7986
▁जर्मनी	-7987
▁विष्णु	-7988
▁क्षमाशील	-7989
▁ज्यादातर	-7990
▁साझेदारी	-7991
AR	-7992
बाज़	-7993
श्ता	-7994
▁साच	-7995
▁आईटी	-7996
▁आवरी	-7997
▁किंग	-7998
▁खोले	-7999
▁घबरा	-8000
▁सोचता	-8001
▁दुर्लभ	-8002
▁सुभाषबाबू	-8003
IL	-8004
up	-8005
xt	-8006
लर	-8007
कोट	-8008
दरी	-8009
बुक	-8010
ोत्	-8011
ener	-8012
ज़ोर	-8013
देवी	-8014
▁कति	-8015
▁एमएस	-8016
▁जिनसे	-8017
▁दरबार	-8018
▁विवेक	-8019
▁एशियाई	-8020
▁तारीख़	-8021
▁मुद्दा	-8022
▁न्यायिक	-8023
▁सुयोजीत	-8024
▁मास्टर्स	-8025
क़्	-8026
धीय	-8027
नान	-8028
▁बीस	-8029
▁दौरा	-8030
▁बाबा	-8031
▁रखती	-8032
्टवेयर	-8033
▁दंपति	-8034
▁लिखते	-8035
▁पन	-8036
ब्बे	-8037
शियन	-8038
▁मेट	-8039
.2013	-8040
▁शिल्प	-8041
▁action	-8042
▁जाँचें	-8043
▁प्रवासी	-8044
▁विकलांग	-8045
▁घासवाळुं	-8046
▁शिक्षकों	-8047
▁प्रतिवादी	-8048
थ्	-8049
सूर	-8050
▁अश्	-8051
▁जॉन	-8052
▁दिस	-8053
पत्ति	-8054
▁संकल	-8055
▁विराम	-8056
▁सहेजा	-8057
▁टेलिवि	-8058
▁तरीकों	-8059
▁सम्राट	-8060
▁एक्सटें	-8061
▁परिश्रम	-8062
▁विक्रेता	-8063
▁condition	-8064
.7	-8065
टब	-8066
गीरी	-8067
▁कब्	-8068
▁टेप	-8069
▁पिन	-8070
▁तेज़	-8071
▁सुनी	-8072
▁कतिपय	-8073
▁लगाकर	-8074
▁किराया	-8075
▁खतरनाक	-8076
▁चिल्ला	-8077
▁हजारों	-8078
▁निकालना	-8079
▁स्रोतों	-8080
▁सम्मानित	-8081
▁ठे	-8082
▁तने	-8083
▁नज़	-8084
▁मत्	-8085
▁अर्क	-8086
▁क्रय	-8087
▁ख़ैर	-8088
▁चाँद	-8089
▁चोरी	-8090
▁नाते	-8091
▁मन्द	-8092
▁घासना	-8093
▁चकासी	-8094
▁बताना	-8095
▁स्टार	-8096
▁परोक्ष	-8097
▁मोनिटर	-8098
▁अवधारणा	-8099
▁एकत्रित	-8100
▁विद्वान	-8101
▁पार्टीशन	-8102
▁फलस्वरूप	-8103
▁साधनपट्टी	-8104
.4	-8105
टके	-8106
ताज	-8107
ैरह	-8108
▁ढी	-8109
▁बक	-8110
्यूट	-8111
▁चिर	-8112
▁परस	-8113
▁वास	-8114
▁कब्र	-8115
▁तेरा	-8116
▁title	-8117
▁कार्ट	-8118
▁खोलवा	-8119
▁डालने	-8120
▁रोशनी	-8121
▁राजभाषा	-8122
▁परिवर्तनों	-8123
▁वपराशकर्ताने	-8124
गुण	-8125
गृह	-8126
▁जई	-8127
पोषण	-8128
▁अद्	-8129
▁ग़ौर	-8130
▁फार्	-8131
▁फॉर्म	-8132
▁सरकशी	-8133
▁खरीदने	-8134
▁करूणाकर	-8135
▁श्रीमती	-8136
▁अन्तर्राष्ट्रीय	-8137
IN	-8138
शोर	-8139
सिस	-8140
टकों	-8141
▁गुल	-8142
▁टोप	-8143
▁मों	-8144
▁रोल	-8145
ात्मक	-8146
▁कलाक	-8147
▁कापी	-8148
▁क्री	-8149
▁डेवल	-8150
▁रेशम	-8151
▁लपेट	-8152
▁वायर	-8153
▁अभयार	-8154
▁सीमाओं	-8155
▁स्तरीय	-8156
▁डेटाबेस	-8157
▁उन्होनें	-8158
▁फ़रिश्ते	-8159
▁प्लेटफोर्म	-8160
art	-8161
कूट	-8162
▁शह	-8163
ब्रा	-8164
▁लखी	-8165
▁लार	-8166
▁मानस	-8167
▁रेगि	-8168
▁नवंबर	-8169
▁निकला	-8170
▁नोड्स	-8171
▁मार्क	-8172
▁सुनकर	-8173
▁कर्युं	-8174
▁चलाववा	-8175
▁मजदूरी	-8176
▁माँगता	-8177
▁जन्मदिन	-8178
डुं	-8179
देन	-8180
▁32	-8181
वस्तु	-8182
▁शर्त	-8183
▁गर्दन	-8184
▁फ़रमा	-8185
▁अन्यथा	-8186
▁समुचित	-8187
▁सम्बंध	-8188
▁सलाहकार	-8189
▁तमिलनाडु	-8190
▁प्रकाशना	-8191
कट	-8192
द्म	-8193
राण	-8194
रोड	-8195
▁थै	-8196
टिका	-8197
न्टी	-8198
▁what	-8199
▁इंजन	-8200
▁उग्र	-8201
▁चट्ट	-8202
▁बेटी	-8203
नेवालो	-8204
▁लगाते	-8205
▁वारिस	-8206
▁चलावती	-8207
▁मस्जिद	-8208
▁विचित्र	-8209
▁हस्तांतरण	-8210
किम	-8211
कोल	-8212
गारी	-8213
नानी	-8214
स्के	-8215
▁बड़	-8216
▁चन्द	-8217
▁टोकन	-8218
▁परथी	-8219
▁गिनती	-8220
▁पूछें	-8221
▁अर्जित	-8222
▁अवसरों	-8223
▁आकर्षक	-8224
▁पिक्सेलो	-8225
▁पैरामीटर	-8226
▁सामान्यतया	-8227
▁व्याख्यायित	-8228
विन	-8229
▁HT	-8230
▁छः	-8231
▁अफग	-8232
▁जीन	-8233
▁तंग	-8234
.2017	-8235
नामुं	-8236
▁अतीत	-8237
▁गिरा	-8238
▁बगैर	-8239
▁लगने	-8240
स्मृति	-8241
▁ग्रिड	-8242
▁तीनों	-8243
▁बढ़ता	-8244
▁बनावट	-8245
▁सोचने	-8246
▁स्वाद	-8247
▁ट्रांस	-8248
▁वातचीत	-8249
tic	-8250
टीक	-8251
पहर	-8252
चाना	-8253
▁फेफ	-8254
▁मधु	-8255
sthis	-8256
द्वार	-8257
▁अमृत	-8258
▁भव्य	-8259
ब्ल्यू	-8260
▁छोकरो	-8261
▁जिसपर	-8262
▁टेस्ट	-8263
▁स्केल	-8264
▁इंतजार	-8265
▁रात्रे	-8266
▁टेलीफोन	-8267
▁whatsthis	-8268
रम	-8269
बेर	-8270
िरो	-8271
ोजक	-8272
ित्य	-8273
▁आंग	-8274
▁आवि	-8275
▁नाल	-8276
▁रुक	-8277
णीकरण	-8278
▁ब्यू	-8279
▁आश्रम	-8280
▁गार्ड	-8281
▁तारों	-8282
▁बाथटब	-8283
▁आचार्य	-8284
▁ऑफलाइन	-8285
▁गोपनीय	-8286
▁स्वप्न	-8287
ानिस्तान	-8288
▁नीतियों	-8289
▁मुहम्मद	-8290
▁उपलब्धता	-8291
हल	-8292
िग	-8293
ain	-8294
bel	-8295
बैक	-8296
रेज	-8297
▁उक	-8298
▁तप	-8299
▁२५	-8300
▁कोच	-8301
▁गड़	-8302
▁दाव	-8303
▁ईच्छ	-8304
▁निषे	-8305
▁चार्ट	-8306
▁मुस्क	-8307
▁इंदिरा	-8308
▁जोड़ना	-8309
▁दक्षता	-8310
▁मुख्या	-8311
▁सितंबर	-8312
▁स्वर्ग	-8313
▁पक्षियों	-8314
डन	-8315
☻☻	-8316
▁खीं	-8317
▁फीस	-8318
▁अनंत	-8319
▁जज़ा	-8320
▁पड़ो	-8321
▁मोटो	-8322
▁विधा	-8323
▁शॉर्	-8324
▁सीआर	-8325
▁खुरशी	-8326
▁वापरी	-8327
▁करवाना	-8328
▁पूर्वक	-8329
ान्स	-8330
▁कोट	-8331
▁माफ	-8332
▁वहन	-8333
▁सौं	-8334
ाइयों	-8335
▁आदान	-8336
▁उतनी	-8337
▁शिरा	-8338
▁फसलों	-8339
▁वयस्क	-8340
▁मुख्यतः	-8341
▁प्रबंधित	-8342
▁z	-8343
क़ा	-8344
नोल	-8345
ाल्	-8346
ुखी	-8347
▁मैथ	-8348
्यस्त	-8349
▁एचटी	-8350
▁माथा	-8351
▁व्ही	-8352
▁जर्मन	-8353
▁बारिश	-8354
▁हटाना	-8355
▁शेयरों	-8356
▁बौद्धिक	-8357
▁यूनिकोड	-8358
णि	-8359
▁तन	-8360
ओनुं	-8361
स्तो	-8362
▁चुक	-8363
शुल्क	-8364
▁कॉर्	-8365
▁दरख्त	-8366
▁निकाय	-8367
▁पशुओं	-8368
▁सतर्क	-8369
▁स्कैन	-8370
▁स्टॉक	-8371
▁मकाननी	-8372
▁सांख्य	-8373
▁पेट्रोल	-8374
▁समृद्धि	-8375
▁अनुक्रिया	-8376
▁वैज्ञानिकों	-8377
टाने	-8378
मेशन	-8379
▁बृह	-8380
▁तात्	-8381
▁दबाण	-8382
▁दलील	-8383
▁दाख़	-8384
▁सिरे	-8385
▁सुपु	-8386
▁निचले	-8387
▁समझना	-8388
▁उपग्रह	-8389
▁संतुष्ट	-8390
आइ	-8391
एक	-8392
ail	-8393
जना	-8394
नीन	-8395
▁ओल	-8396
▁उधर	-8397
▁ऊंट	-8398
▁नली	-8399
rance	-8400
तीकरण	-8401
▁अखिल	-8402
▁किले	-8403
▁ज्वर	-8404
▁पाइप	-8405
▁शक्य	-8406
ांक्षा	-8407
▁दीवाल	-8408
▁निदान	-8409
▁संगठित	-8410
▁साक्ष्य	-8411
▁अभयारण्य	-8412
ढे	-8413
ध्	-8414
ang	-8415
ाना	-8416
क्चर	-8417
खाने	-8418
टिया	-8419
न्ने	-8420
वहार	-8421
▁अठवा	-8422
▁मोहन	-8423
▁हफ्त	-8424
▁पट्टा	-8425
▁पथ्थर	-8426
▁वेस्ट	-8427
▁भागमां	-8428
▁वस्तुतः	-8429
▁उपयोगिता	-8430
▁फोटोग्राफ	-8431
इन्ट	-8432
ण्डी	-8433
ॉर्ज	-8434
▁अपर	-8435
▁जयं	-8436
▁तरा	-8437
▁सिने	-8438
▁हारून	-8439
▁किंमतो	-8440
▁जिल्ला	-8441
▁जातियों	-8442
.00	-8443
पोर	-8444
▁हन	-8445
ंटित	-8446
ोग्य	-8447
▁झां	-8448
▁पोत	-8449
▁मील	-8450
स्टोर	-8451
▁इन्त	-8452
▁क़ाय	-8453
▁दिसं	-8454
▁सौंद	-8455
▁दर्जे	-8456
▁पड़ने	-8457
▁सहभागी	-8458
▁un	-8459
म्मा	-8460
▁खाल	-8461
▁झडप	-8462
▁फीड	-8463
▁बंने	-8464
▁संगत	-8465
दाताओं	-8466
▁असंभव	-8467
▁बनाती	-8468
▁बायाँ	-8469
▁मराठी	-8470
▁लीजिए	-8471
▁बहादुर	-8472
▁साउन्ड	-8473
▁विस्फोट	-8474
▁`	-8475
णता	-8476
याम	-8477
▁झी	-8478
केशन	-8479
वाया	-8480
▁रेस	-8481
▁धुंध	-8482
▁ब्रो	-8483
▁युग्	-8484
▁अभिने	-8485
▁कटौती	-8486
▁खेंची	-8487
▁बनायी	-8488
▁भाषाएँ	-8489
▁ट्रेननी	-8490
▁देवामां	-8491
▁फ़रिश्तों	-8492
▁व्याख्यान	-8493
ंकार	-8494
▁but	-8495
▁घेर	-8496
▁पॉल	-8497
▁मीन	-8498
▁पेशे	-8499
▁ब्रश	-8500
▁रखकर	-8501
eneric	-8502
क्रामक	-8503
▁इलाहा	-8504
▁प्रको	-8505
▁भ्रूण	-8506
▁श्वसन	-8507
▁प्रोफे	-8508
▁वितरित	-8509
▁हवामां	-8510
▁दिसम्बर	-8511
▁रस्तानी	-8512
▁तुल्यकाल	-8513
▁नियन्त्र	-8514
▁एक्सटेंशन	-8515
बन	-8516
ttp	-8517
श्न	-8518
कोनी	-8519
बर्ट	-8520
▁ओछी	-8521
▁पैट	-8522
▁भगत	-8523
▁भटक	-8524
▁मोर	-8525
▁चौथा	-8526
▁पीळो	-8527
▁विनय	-8528
▁गणतरी	-8529
▁ड्राई	-8530
▁नमूने	-8531
▁बच्चन	-8532
▁बोलते	-8533
▁रूपये	-8534
▁ग्रंथि	-8535
▁ताजमहल	-8536
▁निरन्तर	-8537
▁परिचालन	-8538
▁वर्गीकृत	-8539
▁किलोग्राम	-8540
▁परिवर्धित	-8541
हु	-8542
लंब	-8543
▁नॉ	-8544
▁आधे	-8545
▁औषध	-8546
▁जनक	-8547
▁लखो	-8548
▁शैल	-8549
▁गुस्	-8550
▁तेओए	-8551
▁परनी	-8552
▁भयान	-8553
▁रंगो	-8554
▁सूरत	-8555
▁स्वे	-8556
▁होवी	-8557
▁ऊतकों	-8558
▁हरिया	-8559
▁फ्रांस	-8560
▁मुकदमा	-8561
▁अभिदाता	-8562
▁वाक़िफ़	-8563
▁सरनामुं	-8564
▁क्रियान्व	-8565
▁प्रस्तावित	-8566
खिक	-8567
डेट	-8568
▁ऑप	-8569
▁घुस	-8570
▁रहीं	-8571
▁सौदा	-8572
▁ग्लास	-8573
▁चीज़े	-8574
▁दुर्ग	-8575
▁पॉपअप	-8576
▁महामह	-8577
▁अधिकृत	-8578
▁दिसंबर	-8579
▁मुद्रक	-8580
▁विक्रय	-8581
▁सेकन्ड	-8582
▁उपेक्षा	-8583
▁अपराधियों	-8584
नाल	-8585
NAME	-8586
▁टाप	-8587
▁ठंड	-8588
▁१९८	-8589
▁आईपी	-8590
▁कराई	-8591
▁केवी	-8592
▁गयीं	-8593
▁बरकत	-8594
▁बिगा	-8595
▁अरीसा	-8596
▁जोड़ी	-8597
▁फायदा	-8598
▁फूलों	-8599
श्रेष्ठ	-8600
▁अनुचित	-8601
▁ओफलाईन	-8602
▁दाख़िल	-8603
▁प्रशंस	-8604
▁बताववा	-8605
▁मिथ्या	-8606
▁रात्रि	-8607
▁स्थापन	-8608
▁प्रबन्ध	-8609
जुन	-8610
भुज	-8611
सवां	-8612
▁पोप	-8613
▁सरस	-8614
▁हर्	-8615
▁आपसी	-8616
▁धोखा	-8617
▁पचास	-8618
▁पाठक	-8619
▁ज्योति	-8620
.6	-8621
▁भीड	-8622
▁रहम	-8623
▁गोला	-8624
▁नाखो	-8625
▁बालक	-8626
▁वर्क	-8627
▁एक्सप	-8628
▁दोपहर	-8629
▁स्लाइड	-8630
▁शक्तियों	-8631
▁केन्द्रित	-8632
▁70	-8633
हाइट	-8634
▁URI	-8635
▁अटल	-8636
▁ऑटो	-8637
▁गमे	-8638
▁लाह	-8639
▁सच्	-8640
नियां	-8641
्युअल	-8642
▁क्लब	-8643
▁निया	-8644
▁रहेल	-8645
▁रिज़	-8646
▁चलाना	-8647
▁मोकली	-8648
▁श्वास	-8649
▁महामहिम	-8650
▁मोहम्मद	-8651
ha	-8652
जत	-8653
▁१४	-8654
नियन	-8655
▁उलट	-8656
▁मिट	-8657
▁तनाव	-8658
्राफ्ट	-8659
▁आभासी	-8660
▁जयंती	-8661
▁निवेद	-8662
▁सुनाई	-8663
▁गुणधर्मो	-8664
▁संपर्कों	-8665
कती	-8666
खण्ड	-8667
▁असह	-8668
▁आधी	-8669
▁गेह	-8670
▁ढाल	-8671
▁लॉक	-8672
▁वाम	-8673
▁सकल	-8674
▁अण्ड	-8675
▁उन्म	-8676
▁ऊँचे	-8677
▁फ्ला	-8678
▁अपलोड	-8679
▁प्रतिर	-8680
▁राजवंश	-8681
▁सच्चाई	-8682
▁पहाड़ों	-8683
ुति	-8684
कारक	-8685
ूल्य	-8686
▁टूल	-8687
दावाद	-8688
▁अशोक	-8689
▁बर्न	-8690
▁बाढ़	-8691
▁यकीन	-8692
▁वादी	-8693
▁अन्दा	-8694
▁घोड़े	-8695
▁पूछता	-8696
▁बहुते	-8697
▁लॉगिन	-8698
▁समावे	-8699
▁स्राव	-8700
▁ज़रूरी	-8701
▁पहुँची	-8702
▁साक्षर	-8703
▁प्रमाणित	-8704
▁अपेक्षाकृत	-8705
ob	-8706
भौ	-8707
▁अड	-8708
▁आइए	-8709
▁महे	-8710
▁व्र	-8711
▁संब	-8712
▁होश	-8713
र्दों	-8714
▁आयकर	-8715
▁हटकर	-8716
चन्द्र	-8717
▁आंखों	-8718
▁चालती	-8719
▁प्रबल	-8720
▁माणसो	-8721
▁मोहलत	-8722
▁यूनिट	-8723
▁स्केट	-8724
▁आनुवंश	-8725
▁वर्णित	-8726
▁धूम्रपान	-8727
▁अंग्रेजों	-8728
ory	-8729
ंधे	-8730
▁36	-8731
क्तिक	-8732
▁अकार	-8733
▁डिज़	-8734
▁ताजा	-8735
क्ष्मी	-8736
▁टेम्प	-8737
▁मजदूर	-8738
▁सेटअप	-8739
▁गतिशील	-8740
▁ट्रेनो	-8741
▁मधुमेह	-8742
▁वपरायेल	-8743
स्क्रिप्ट	-8744
▁निशानियों	-8745
▁प्रमाणीकरण	-8746
TP	-8747
ुका	-8748
▁चट	-8749
MAIL	-8750
क्के	-8751
शिंग	-8752
▁गोर	-8753
▁यौन	-8754
▁परिक	-8755
▁बेहद	-8756
▁शासक	-8757
▁जोडणी	-8758
▁ब्लेक	-8759
▁ब्लोक	-8760
▁भयानक	-8761
▁सालों	-8762
▁शहेरना	-8763
▁दिनांकः	-8764
▁व्यावहार	-8765
▁विनिर्माण	-8766
▁तस्	-8767
▁पवन	-8768
indow	-8769
फ्रिज	-8770
▁अश्व	-8771
▁कोने	-8772
▁ग्लो	-8773
▁भीड़	-8774
▁हेल्	-8775
▁होगे	-8776
▁कीटना	-8777
▁चलावो	-8778
▁दुग्ध	-8779
▁पैरों	-8780
▁मेहनत	-8781
▁वाहनो	-8782
▁टाइम्स	-8783
▁अमदावाद	-8784
▁ब्रिटेन	-8785
▁राजमार्ग	-8786
▁प्रासंगिक	-8787
डीए	-8788
ण्डा	-8789
▁कैल	-8790
▁अक्ट	-8791
▁पदों	-8792
▁लड़ी	-8793
▁स्लो	-8794
▁चित्रण	-8795
▁चुनेंः	-8796
▁फंक्शन	-8797
▁परेशानी	-8798
▁ऑब्जेक्ट	-8799
▁टेलिविझन	-8800
▁शास्त्री	-8801
▁३०	-8802
माळा	-8803
▁खां	-8804
▁दीं	-8805
धानिक	-8806
▁अनदे	-8807
▁आईसी	-8808
स्त्री	-8809
▁महिना	-8810
▁श्रोत	-8811
▁सैन्य	-8812
▁होगें	-8813
▁हाशिया	-8814
▁पूर्णतः	-8815
▁रेफ्रिज	-8816
▁प्रतिष्ठा	-8817
▁हस्तक्षेप	-8818
▁हिन्दुस्तान	-8819
ust	-8820
टिव	-8821
िनो	-8822
ज्जु	-8823
विंद	-8824
▁189	-8825
▁छाँ	-8826
▁पाउ	-8827
▁भात	-8828
▁मजा	-8829
यंत्र	-8830
▁आन्द	-8831
णात्मक	-8832
▁आँखें	-8833
▁स्नायु	-8834
▁प्रोफेसर	-8835
▁उत्तरदायी	-8836
▁एनक्रिप्ट	-8837
.05	-8838
थ्म	-8839
▁किर	-8840
▁चाप	-8841
▁बलि	-8842
▁हंम	-8843
ांजलि	-8844
▁पितृ	-8845
▁फौरन	-8846
▁मारफ	-8847
▁लखवा	-8848
▁विषे	-8849
▁स्थळ	-8850
व्यापी	-8851
▁बोलने	-8852
▁मसौदा	-8853
▁मानदंड	-8854
▁रिजर्व	-8855
▁अनुपस्थित	-8856
▁सर्वश्रेष्ठ	-8857
/1	-8858
ज़ल	-8859
वाइ	-8860
▁75	-8861
हरों	-8862
▁इधर	-8863
▁ऊंच	-8864
▁इन्ड	-8865
▁दत्त	-8866
▁सबका	-8867
▁सेवन	-8868
▁अर्ज़	-8869
▁अवतरण	-8870
▁कालेज	-8871
▁रीसेट	-8872
▁तथ्यों	-8873
▁सौंदर्य	-8874
▁इंग्लैंड	-8875
▁प्रवाहित	-8876
▁समस्याएं	-8877
▁रेफ्रिजरेटर	-8878
ico	-8879
शरू	-8880
▁इमे	-8881
▁थया	-8882
▁मचा	-8883
▁डाबे	-8884
▁स्नि	-8885
▁कम्पो	-8886
▁प्रसव	-8887
त्तियों	-8888
▁दुश्मन	-8889
▁नवम्बर	-8890
▁परसतिश	-8891
▁दर्शाववा	-8892
ानत	-8893
▁जॉ	-8894
▁ड़	-8895
▁लल	-8896
फ़्त	-8897
मिंग	-8898
▁एपी	-8899
▁चमकी	-8900
▁करेला	-8901
▁कोम्प	-8902
▁दिखाए	-8903
▁पैरवी	-8904
▁बल्ले	-8905
▁लौटने	-8906
▁डोमेइन	-8907
▁निराशा	-8908
▁पेकेजो	-8909
▁विश्राम	-8910
enericName	-8911
.3	-8912
खत	-8913
▁Q	-8914
दिश	-8915
मैन	-8916
▁भो	-8917
▁वु	-8918
जनों	-8919
लिये	-8920
▁URL	-8921
▁अनो	-8922
▁एनि	-8923
▁लीग	-8924
नियाई	-8925
▁अवाज	-8926
▁लकीर	-8927
▁सकने	-8928
▁स्वै	-8929
france	-8930
ध्यक्ष	-8931
▁जाहिर	-8932
▁पड़ते	-8933
▁बाजुए	-8934
▁भ्रमण	-8935
▁सिग्न	-8936
▁शस्त्र	-8937
▁दिलचस्प	-8938
▁एनकोडिंग	-8939
▁उद्देश्यों	-8940
,5	-8941
थो	-8942
ter	-8943
बुद	-8944
वात	-8945
शिप	-8946
▁is	-8947
मुखी	-8948
▁काँ	-8949
▁छेद	-8950
▁Name	-8951
▁कहें	-8952
▁जंतु	-8953
▁देरी	-8954
▁मेगा	-8955
▁मौजि	-8956
▁सौदे	-8957
▁स्के	-8958
▁होडी	-8959
▁अन्वे	-8960
▁आप्यो	-8961
▁चुनने	-8962
▁टुवाल	-8963
▁बेचने	-8964
▁अकादमी	-8965
▁छेल्ला	-8966
▁पाणीनी	-8967
▁व्यवस्थापन	-8968
ef	-8969
▁अज़	-8970
▁दिश	-8971
▁वॉल	-8972
▁शास	-8973
क्तता	-8974
चिकित	-8975
▁गाळक	-8976
▁पांड	-8977
▁पांद	-8978
▁हल्के	-8979
▁शॉर्टक	-8980
▁अपरिचित	-8981
▁चुनौतियों	-8982
▁स्वीकारें	-8983
▁युनिवर्सिटी	-8984
किट	-8985
रुप	-8986
शाक	-8987
गांठ	-8988
वनार	-8989
▁दीप	-8990
▁भूक	-8991
▁भोज	-8992
▁शीट	-8993
▁सिख	-8994
▁अम्ल	-8995
▁भेगा	-8996
▁अंगों	-8997
▁क्लास	-8998
▁ग्रेफ	-8999
▁सुलझा	-9000
▁विकिरण	-9001
▁श्रव्य	-9002
▁सहेजना	-9003
▁हथियार	-9004
▁डिस्कने	-9005
▁व्याकरण	-9006
▁कहानियों	-9007
▁निर्माता	-9008
GenericName	-9009
▁दस्तावेजों	-9010
▁सिद्धांतों	-9011
त्स	-9012
ंगिक	-9013
फ्रे	-9014
▁असंग	-9015
▁पराग	-9016
▁बायो	-9017
▁क्यां	-9018
▁खुल्लम	-9019
▁बख्शने	-9020
▁मास्टर	-9021
▁आयुर्वेद	-9022
▁परंपरागत	-9023
▁हार्डवेयर	-9024
▁कार्यान्वित	-9025
pp	-9026
एव	-9027
ृश	-9028
ायल	-9029
रींग	-9030
श्ले	-9031
▁शनि	-9032
▁2013	-9033
▁ज़बर	-9034
▁थयुं	-9035
▁नौकर	-9036
▁बाएं	-9037
▁विनो	-9038
▁उपहार	-9039
▁काटने	-9040
▁डालते	-9041
▁श्रील	-9042
ष्टाचार	-9043
▁अंशदान	-9044
▁घनिष्ठ	-9045
▁निवारण	-9046
▁साधनों	-9047
▁क्रांतिक	-9048
▁प्रतिबिंब	-9049
▁विचारधारा	-9050
लास	-9051
क्टे	-9052
ष्मा	-9053
▁रिट	-9054
▁वडे	-9055
पोरेट	-9056
प्रथम	-9057
युद्ध	-9058
▁ऊंचे	-9059
▁चुपके	-9060
▁ज़बान	-9061
▁निराश	-9062
▁वाटकी	-9063
▁बढ़ाना	-9064
▁उच्छेदन	-9065
▁आज्ञाकारी	-9066
▁प्रस्तुति	-9067
▁प्रजातियों	-9068
.01	-9069
गोश	-9070
▁45	-9071
▁हज	-9072
वेदी	-9073
्यूम	-9074
▁अणु	-9075
▁उदर	-9076
▁मेड	-9077
ब्लिक	-9078
▁नायक	-9079
▁पिला	-9080
कारिता	-9081
▁भारती	-9082
▁अनुभाग	-9083
▁एजेंसी	-9084
▁पर्यटकों	-9085
▁प्राधिकारी	-9086
▁मोटरसाइकलनी	-9087
eg	-9088
▁१३	-9089
विटी	-9090
▁भोग	-9091
मांकन	-9092
▁कागळ	-9093
▁जरुरत	-9094
▁भागना	-9095
▁मनाया	-9096
▁अर्पित	-9097
▁निकलता	-9098
▁शुरूआत	-9099
▁पसंदगीओ	-9100
▁शिक्षित	-9101
▁होल्डिंग	-9102
ंदी	-9103
▁उग	-9104
ट्ठे	-9105
वर्ण	-9106
▁दंप	-9107
EMAIL	-9108
▁2012	-9109
▁घंटा	-9110
▁दार्	-9111
ियुक्त	-9112
▁अफसोस	-9113
▁किशोर	-9114
▁क्रिस	-9115
▁त्यार	-9116
▁महिमा	-9117
▁व्यास	-9118
धिकारिक	-9119
्लिकेशन	-9120
▁उपायों	-9121
▁करूँगा	-9122
▁ग्रस्त	-9123
▁अनुमानित	-9124
गेट	-9125
टीय	-9126
दूर	-9127
▁09	-9128
▁भव	-9129
नाडा	-9130
▁रिए	-9131
▁सजाव	-9132
▁जानती	-9133
▁पाण्ड	-9134
▁मास्क	-9135
▁समापन	-9136
▁जाएँगी	-9137
▁मुलाका	-9138
▁पुनःशरू	-9139
▁सुपुर्द	-9140
▁इलाहाबाद	-9141
▁वर्षगांठ	-9142
▁अनुस्मृति	-9143
▁प्रभावशाली	-9144
ct	-9145
ype	-9146
नीटर	-9147
फीति	-9148
बिया	-9149
वाइस	-9150
▁कमर	-9151
▁नरम	-9152
▁मंज	-9153
संग्र	-9154
▁खूणे	-9155
▁गंदा	-9156
क्साइड	-9157
▁जॉर्ज	-9158
▁रह्यु	-9159
काववानी	-9160
▁आरोग्य	-9161
▁द्रव्य	-9162
▁कार्मिक	-9163
▁शब्दकोश	-9164
▁विस्तारित	-9165
▁एल्गोरिथ्म	-9166
गढ	-9167
भवन	-9168
▁धम	-9169
▁तित	-9170
▁बें	-9171
▁राइ	-9172
ख़बरी	-9173
▁खाका	-9174
▁फलों	-9175
▁बाजू	-9176
▁भुरो	-9177
▁भूलः	-9178
▁कोयला	-9179
▁प्रां	-9180
▁बढ़ना	-9181
▁यार्ड	-9182
▁श्रेय	-9183
▁जाहेरा	-9184
▁लाभांश	-9185
▁स्वच्छता	-9186
▁निर्देशांक	-9187
vin	-9188
ंबई	-9189
ाइट	-9190
ould	-9191
▁ओळख	-9192
▁चेर	-9193
▁२०१	-9194
▁2015	-9195
▁जाणी	-9196
▁म्यु	-9197
▁लोकता	-9198
▁अन्तिम	-9199
▁नवीनतम	-9200
▁आदमियों	-9201
▁मनोरंजन	-9202
▁महासागर	-9203
▁राष्ट्रों	-9204
गीर	-9205
▁चक	-9206
▁झे	-9207
▁१७	-9208
एक्स	-9209
ज़ाम	-9210
मेळे	-9211
्वान	-9212
▁खाई	-9213
वर्धन	-9214
▁गुर्	-9215
▁संको	-9216
▁सांप	-9217
वृद्धि	-9218
▁गवाही	-9219
▁पढ़ना	-9220
▁लाखों	-9221
▁ओफलाइन	-9222
▁जिंदगी	-9223
▁पर्यटक	-9224
▁अक्टूबर	-9225
▁क्रममां	-9226
▁मंदिरों	-9227
▁आधिकारिक	-9228
▁जागरूकता	-9229
▁प्रतिदान	-9230
▁स्थितियों	-9231
▁प्रत्युत्त	-9232
▁लेखापरीक्षा	-9233
end	-9234
ाइम	-9235
ोंग	-9236
ोलो	-9237
▁39	-9238
▁48	-9239
वश्य	-9240
▁वृह	-9241
▁आएगी	-9242
▁ओळखा	-9243
▁देनी	-9244
▁नासा	-9245
▁राधा	-9246
▁अलिफ़	-9247
▁क्रोध	-9248
▁गुच्छ	-9249
▁गुलाम	-9250
▁ग्रुप	-9251
▁तीसरी	-9252
▁विकार	-9253
▁अद्भुत	-9254
▁मुसाफरो	-9255
▁मुख्यालय	-9256
og	-9257
ंकी	-9258
ज़्	-9259
बली	-9260
ब्स	-9261
म्म	-9262
राइड	-9263
▁बेन	-9264
▁भरत	-9265
बन्धन	-9266
ांत्र	-9267
▁ओफिस	-9268
▁गोवा	-9269
▁घाटा	-9270
▁नेको	-9271
▁पतंग	-9272
▁परित	-9273
▁शर्ट	-9274
क्सीजन	-9275
▁इंस्ट	-9276
▁मतदान	-9277
▁साधनो	-9278
▁प्लेयर	-9279
ग्राउन्ड	-9280
▁शब्दकोष	-9281
ile	-9282
ions	-9283
ठ्ठी	-9284
पादक	-9285
समूह	-9286
ान्ड	-9287
च्चार	-9288
▁आगमन	-9289
▁कदाच	-9290
▁घेरे	-9291
▁जेवा	-9292
▁झूठे	-9293
▁मूको	-9294
▁लावी	-9295
▁औरतों	-9296
▁डालना	-9297
▁मेदान	-9298
▁संयोज	-9299
▁should	-9300
▁आपमेळे	-9301
▁पड़ोसी	-9302
▁प्लगईन	-9303
▁स्थगित	-9304
▁पर्वतीय	-9305
▁विद्वानों	-9306
▁व्यावहारिक	-9307
▁प्रक्रियाओं	-9308
ढा	-9309
नत	-9310
पृ	-9311
ॉस	-9312
▁गज	-9313
ड्डा	-9314
भाषण	-9315
वाणी	-9316
▁जगा	-9317
▁ताम	-9318
▁प्य	-9319
▁माय	-9320
▁साख	-9321
▁http	-9322
▁एनआई	-9323
▁कहती	-9324
▁पॉलि	-9325
▁भेड़	-9326
▁जैविक	-9327
▁थ्रेड	-9328
▁दिखता	-9329
▁बकाया	-9330
▁भागने	-9331
▁मिलान	-9332
▁वपराय	-9333
▁कामचला	-9334
▁निकलना	-9335
▁सुयोजन	-9336
▁मानचित्र	-9337
▁लानेवालो	-9338
▁समितियों	-9339
▁सम्पत्ति	-9340
ah	-9341
िणी	-9342
ख्ते	-9343
▁अलब	-9344
चंद्र	-9345
▁आईएस	-9346
▁कुकी	-9347
▁दाएँ	-9348
▁भागे	-9349
▁उड़ान	-9350
▁जहाँन	-9351
▁नतीजा	-9352
ानुभूति	-9353
▁अपनाने	-9354
▁धरावता	-9355
▁पैटर्न	-9356
▁शर्तें	-9357
▁रेस्टोर	-9358
▁जानेवाले	-9359
▁परिपूर्ण	-9360
▁प्रोक्सी	-9361
कर्म	-9362
लेटर	-9363
ाराम	-9364
▁कुट	-9365
ियाना	-9366
▁आघात	-9367
▁परदा	-9368
▁बंबई	-9369
▁मापन	-9370
▁रोचक	-9371
▁आंत्र	-9372
▁पोशाक	-9373
▁प्राप	-9374
▁फेरवो	-9375
▁रूपों	-9376
▁हज़ार	-9377
दायित्व	-9378
▁उमेरवा	-9379
▁हंमेशा	-9380
▁झुठलाते	-9381
▁संग्रहित	-9382
▁प्लेलीस्ट	-9383
ओए	-9384
खन	-9385
बोल	-9386
ड़ने	-9387
िकारक	-9388
▁क्रे	-9389
▁घातक	-9390
▁त्यो	-9391
▁पौधा	-9392
▁योनि	-9393
यक्तिक	-9394
▁आर्टस	-9395
▁खोलना	-9396
▁जिसमे	-9397
▁तकलीफ	-9398
▁दायाँ	-9399
▁निंदा	-9400
▁पूँजी	-9401
▁लॉन्च	-9402
▁शकातो	-9403
▁बेहश्त	-9404
▁वर्ल्ड	-9405
▁सन्देश	-9406
▁रखनेवालों	-9407
▁बांग्लादेश	-9408
ंठ	-9409
▁ः	-9410
ext	-9411
बेल	-9412
रात	-9413
▁कन	-9414
दिता	-9415
लेखा	-9416
▁फ़ो	-9417
▁बसा	-9418
▁मछल	-9419
▁आपदा	-9420
▁खसेड	-9421
▁बाहम	-9422
▁असत्य	-9423
▁ट्यूब	-9424
▁पक्का	-9425
▁बनावे	-9426
▁समयगा	-9427
▁आत्मनि	-9428
▁दरवाजे	-9429
▁निकाले	-9430
▁निरपेक्ष	-9431
▁रचनात्मक	-9432
▁प्रशिक्षित	-9433
ओएस	-9434
डेड	-9435
वाक	-9436
सेन	-9437
▁इश	-9438
ताएं	-9439
▁आशय	-9440
▁गरम	-9441
▁जनन	-9442
▁पठन	-9443
▁बिख	-9444
▁उज्ज	-9445
▁डरता	-9446
▁नवां	-9447
▁पनाह	-9448
▁ब्रॉ	-9449
▁सर्प	-9450
▁सिन्	-9451
▁सीखा	-9452
त्मकता	-9453
▁कराता	-9454
▁फील्ड	-9455
▁रवाना	-9456
वादियों	-9457
▁अभिन्न	-9458
▁दुर्गा	-9459
▁सिखाया	-9460
▁किताबें	-9461
▁पुरुषों	-9462
▁विदेशों	-9463
▁सैनिकों	-9464
▁हिस्सों	-9465
▁अद्वितीय	-9466
▁रूपांतरित	-9467
पीठ	-9468
ब्ध	-9469
सिड	-9470
्वल	-9471
टींग	-9472
▁लसी	-9473
ज्जित	-9474
▁नजात	-9475
▁लार्	-9476
▁कवियों	-9477
▁श्रद्ध	-9478
▁स्नातक	-9479
▁नेअमतों	-9480
▁प्राणीओ	-9481
▁देवनागरी	-9482
▁प्रतिरोध	-9483
▁अनुमतियाँ	-9484
धो	-9485
दाम	-9486
सरत	-9487
▁तं	-9488
जिये	-9489
फ्फु	-9490
म्बे	-9491
र्ता	-9492
▁खर्	-9493
▁तैर	-9494
▁सरी	-9495
दृश्य	-9496
▁ढलान	-9497
▁लागे	-9498
▁अवशेष	-9499
▁कूतरा	-9500
▁बक्सा	-9501
▁यात्री	-9502
▁अध्यापक	-9503
▁दिशामां	-9504
▁सापेक्ष	-9505
▁शब्दावली	-9506
▁श्रीलंका	-9507
बेक	-9508
पिंग	-9509
▁आएँ	-9510
▁एटल	-9511
▁करम	-9512
ड़ीसा	-9513
▁2010	-9514
▁एंटर	-9515
▁एकसा	-9516
▁ताजे	-9517
▁बताए	-9518
▁मारो	-9519
▁सजदे	-9520
▁समतल	-9521
▁सिंग	-9522
▁स्क्	-9523
▁ईसुने	-9524
▁कपड़ा	-9525
▁चश्मा	-9526
▁शुष्क	-9527
▁श्याम	-9528
▁सोचना	-9529
▁अवलोकन	-9530
▁आयातित	-9531
▁समुच्च	-9532
▁स्वदेश	-9533
▁इस्लामी	-9534
▁प्रपत्र	-9535
▁फ्लैग्स	-9536
▁पकाववानी	-9537
▁रेगिस्तान	-9538
ड़न	-9539
पणे	-9540
स्टन	-9541
▁डिक	-9542
▁मौन	-9543
▁आपवा	-9544
▁कुंज	-9545
▁गठित	-9546
▁दहला	-9547
▁धारक	-9548
▁फोकस	-9549
▁महफू	-9550
▁सब्ज	-9551
▁उतारा	-9552
▁दंपती	-9553
▁न्यास	-9554
▁मानों	-9555
▁हितों	-9556
▁इसराईल	-9557
▁देखोगे	-9558
▁हालमां	-9559
▁सुधाराओ	-9560
▁अनुक्रमण	-9561
▁ग्रेफिटी	-9562
▁तारामंडल	-9563
ैंट	-9564
तेला	-9565
▁चैट	-9566
▁ढाळ	-9567
▁दाँ	-9568
▁नस्	-9569
▁पिघ	-9570
▁इसमे	-9571
▁मानद	-9572
▁मेइल	-9573
ाधिकार	-9574
▁label	-9575
▁अन्या	-9576
▁कच्चे	-9577
▁पर्दा	-9578
▁बगीचा	-9579
▁वापिस	-9580
▁संतान	-9581
▁मद्रास	-9582
▁सहयोगी	-9583
▁प्रचालन	-9584
▁उत्पादित	-9585
ard	-9586
दाद	-9587
▁डू	-9588
न्ता	-9589
▁आहरण	-9590
▁खजूर	-9591
▁दौरे	-9592
▁बार्	-9593
▁काटें	-9594
▁उद्भवी	-9595
▁आंबेडकर	-9596
▁दर्दनाक	-9597
▁वस्तुएँ	-9598
▁ज़ालिमों	-9599
▁साक्षरता	-9600
ँक	-9601
ent	-9602
काइ	-9603
काळ	-9604
शान	-9605
्रम	-9606
ख़्त	-9607
चेंज	-9608
टेनर	-9609
यंकर	-9610
▁बचे	-9611
▁2017	-9612
▁माला	-9613
▁दबाएँ	-9614
▁पट्टे	-9615
▁भागनो	-9616
▁संचित	-9617
▁मज़बूत	-9618
▁पहुँचने	-9619
▁बंदरगाह	-9620
▁विंडोज़	-9621
▁संग्राम	-9622
▁स्वाधीन	-9623
▁असमर्थित	-9624
▁ईमानवाले	-9625
▁निःशुल्क	-9626
▁उत्पादकता	-9627
ock	-9628
ंटर	-9629
▁Ch	-9630
▁हस	-9631
्रोल	-9632
▁कंक	-9633
▁जर्	-9634
▁बैल	-9635
▁मनी	-9636
▁सफ़	-9637
▁सैक	-9638
▁जेथी	-9639
▁बढ़े	-9640
▁ईनपुट	-9641
▁कर्यु	-9642
▁तालाब	-9643
▁ब्रिज	-9644
▁स्टाफ	-9645
▁महफूज़	-9646
▁संज्ञा	-9647
▁किताबों	-9648
▁तीव्रता	-9649
▁निवेशकों	-9650
▁सेटिंग्स	-9651
▁परहेज़गार	-9652
▁अस्तित्वमां	-9653
हू	-9654
ोश	-9655
गिक	-9656
डाओ	-9657
शनल	-9658
▁घृ	-9659
ateg	-9660
पक्ष	-9661
ान्ट	-9662
▁इबर	-9663
▁मुर	-9664
▁वीज	-9665
▁सरळ	-9666
▁हाम	-9667
स्केप	-9668
▁2009	-9669
▁ईमेज	-9670
▁पेशा	-9671
▁मोदी	-9672
▁रावण	-9673
▁लानत	-9674
▁अभिनय	-9675
▁दीक्ष	-9676
▁पकड़े	-9677
▁पार्ट	-9678
▁बजाएँ	-9679
▁अहिंसा	-9680
▁छवियों	-9681
▁डेल्टा	-9682
▁मोकलवा	-9683
▁प्रदत्त	-9684
▁स्क्रीनश	-9685
▁प्रेमचन्द	-9686
▁स्थानांतरित	-9687
.8	-9688
ूलन	-9689
▁कद	-9690
प्पा	-9691
▁राव	-9692
▁सना	-9693
▁2003	-9694
▁2011	-9695
▁अपाव	-9696
▁राखी	-9697
▁लेवा	-9698
▁क्रमा	-9699
▁ठाकुर	-9700
▁भठ्ठी	-9701
▁मुफ्त	-9702
▁संकुल	-9703
▁हल्की	-9704
ंत्रिकी	-9705
▁कोमर्स	-9706
▁चुपचाप	-9707
▁मिटाया	-9708
▁स्ट्रो	-9709
▁हिन्दु	-9710
▁अनुसूची	-9711
▁क्रिस्ट	-9712
▁चुंबकीय	-9713
▁निमंत्र	-9714
▁शॉर्टकट	-9715
▁कार्यशील	-9716
▁अंतर्वस्तु	-9717
▁हस्ताक्षरित	-9718
िएशन	-9719
▁धनु	-9720
▁सफर	-9721
लीकरण	-9722
्यारह	-9723
▁गीतो	-9724
▁ढूँढ	-9725
▁पूरक	-9726
▁लाएँ	-9727
▁सुगम	-9728
▁अन्तः	-9729
▁एजेंट	-9730
▁नक्शे	-9731
▁बैटरी	-9732
▁भयंकर	-9733
▁छोड़ने	-9734
▁मामूली	-9735
▁अलबत्ता	-9736
▁आपवामां	-9737
▁निवेदित	-9738
▁कृतज्ञता	-9739
▁प्रतिकूल	-9740
▁कार्यकारी	-9741
▁स्वादिष्ट	-9742
▁उत्कृष्टता	-9743
▁परियोजनाएं	-9744
ंती	-9745
नरी	-9746
पशप	-9747
म्र	-9748
फीला	-9749
यर्स	-9750
▁वेग	-9751
▁स्ल	-9752
क्ष्ण	-9753
र्देश	-9754
स्राव	-9755
▁एकड़	-9756
▁किमी	-9757
▁कोमल	-9758
▁गपशप	-9759
▁नेमत	-9760
▁वर्च	-9761
▁सरखा	-9762
▁हरित	-9763
▁अमानत	-9764
▁कामया	-9765
▁पड़ोस	-9766
▁सकताः	-9767
▁आह्वान	-9768
▁मददगार	-9769
▁अनुपालन	-9770
▁भागीदार	-9771
▁मुकाबले	-9772
▁देनेवाला	-9773
▁एनक्रिप्शन	-9774
▁उत्तरदायित्व	-9775
,3	-9776
जय	-9777
डम	-9778
म्य	-9779
▁गठ	-9780
▁जक	-9781
ट्टर	-9782
▁खजा	-9783
▁लश्	-9784
▁2020	-9785
▁इबरत	-9786
▁उतरा	-9787
▁केटल	-9788
▁चुनी	-9789
▁छिपी	-9790
▁नींव	-9791
▁पर्ण	-9792
▁वादळ	-9793
▁सबकी	-9794
▁होवा	-9795
क्रमित	-9796
▁उपभोग	-9797
▁कामों	-9798
▁जीवंत	-9799
▁झाडनी	-9800
▁यहूदि	-9801
▁वृक्क	-9802
▁कीमतों	-9803
▁तत्त्व	-9804
▁रचनाओं	-9805
▁किनारों	-9806
▁रिएक्टर	-9807
▁संक्षेप	-9808
▁संग्रहण	-9809
▁सार्वभौ	-9810
▁संकल्पना	-9811
▁विशेषताएं	-9812
▁हाईड्रन्ट	-9813
▁देशवासियों	-9814
▁आस्ट्रेलिया	-9815
ारत	-9816
पयोग	-9817
प्पी	-9818
मुना	-9819
िलिक	-9820
▁कुर	-9821
▁खाओ	-9822
▁घंट	-9823
▁बकर	-9824
▁मुआ	-9825
▁लाय	-9826
▁१९७	-9827
पात्र	-9828
▁करवु	-9829
▁जमणे	-9830
▁ड्यू	-9831
▁मीम॰	-9832
▁समयः	-9833
▁हर्ष	-9834
▁अपनाई	-9835
▁खरगोश	-9836
▁ज़लील	-9837
▁देखिए	-9838
▁पुर्त	-9839
▁पोलीस	-9840
▁उड़ीसा	-9841
▁कमज़ोर	-9842
▁सिस्को	-9843
▁चमत्कार	-9844
▁दीवारों	-9845
▁स्टार्ट	-9846
▁जन्मदिवस	-9847
ुज	-9848
ुलर	-9849
सिया	-9850
▁गढ़	-9851
▁मेर	-9852
▁लेब	-9853
▁इण्ड	-9854
▁बाइट	-9855
▁वारा	-9856
▁सीएस	-9857
▁आस्था	-9858
▁चिंतन	-9859
▁मजबूर	-9860
▁सेन्ट	-9861
ategory	-9862
▁अस्थिर	-9863
▁डिवाइस	-9864
▁स्तरों	-9865
▁सूचकांक	-9866
▁समायोजित	-9867
▁सर्वप्रथम	-9868
▁translated	-9869
खाव	-9870
वित	-9871
समा	-9872
वार्	-9873
वश्यक	-9874
ष्कृत	-9875
ुलेशन	-9876
▁ख़ान	-9877
▁पायी	-9878
▁पैनल	-9879
▁रंगः	-9880
▁ज़कात	-9881
▁मंजूर	-9882
▁विधिक	-9883
▁विभेद	-9884
▁हममें	-9885
राष्ट्र	-9886
▁आख़ेरत	-9887
▁खसेडवा	-9888
▁टिप्पण	-9889
▁नेताजी	-9890
▁माइक्र	-9891
▁मारफते	-9892
▁अधिवेशन	-9893
▁लक्ष्मी	-9894
▁साझीदार	-9895
▁पारदर्शी	-9896
▁माध्यमिक	-9897
▁सहानुभूति	-9898
मॅ	-9899
डाई	-9900
लेन	-9901
▁ww	-9902
सूरत	-9903
स्पद	-9904
▁बीत	-9905
▁शपथ	-9906
स्वती	-9907
▁चहेरा	-9908
▁पत्ते	-9909
▁अर्जुन	-9910
▁क्रमशः	-9911
▁व्हाइट	-9912
▁अनुशासन	-9913
▁चिपकाएँ	-9914
▁बहुतेरे	-9915
▁कहानियाँ	-9916
▁अनुकम्पाओं	-9917
पटा	-9918
▁लड	-9919
बंदी	-9920
▁www	-9921
▁बुत	-9922
संचार	-9923
▁ईस्ट	-9924
▁करूँ	-9925
▁गयुं	-9926
▁नारी	-9927
▁फर्क	-9928
▁म्यू	-9929
▁रूसी	-9930
▁हरोळ	-9931
वस्थित	-9932
▁पड़ना	-9933
▁पानुं	-9934
▁संचरण	-9935
▁अनिच्छ	-9936
▁भगवान्	-9937
▁सुनवाई	-9938
▁सृष्टि	-9939
▁भावनाओं	-9940
▁मित्रता	-9941
▁रिज़र्व	-9942
▁सम्बद्ध	-9943
▁अठवाडिया	-9944
▁गुणसूत्र	-9945
▁प्रतिवर्ष	-9946
हम	-9947
पोल	-9948
ैनी	-9949
▁03	-9950
डियम	-9951
▁ISO	-9952
▁दूँ	-9953
ग्राम	-9954
निहित	-9955
बन्दी	-9956
मुक्त	-9957
वर्सन	-9958
▁अखंड	-9959
▁अतएव	-9960
▁पुणे	-9961
▁बीबी	-9962
▁कुदरत	-9963
▁सकेगी	-9964
▁दुबारा	-9965
▁पाछळना	-9966
▁सड़कों	-9967
▁सिनेमा	-9968
▁अमेरिकन	-9969
▁ड्राफ्ट	-9970
▁तीक्ष्ण	-9971
▁मज़दूरी	-9972
▁रोगियों	-9973
▁विभागों	-9974
▁शास्त्रीय	-9975
▁शल्यक्रिया	-9976
gle	-9977
han	-9978
परक	-9979
टीपी	-9980
▁org	-9981
▁ऊँट	-9982
▁ज्य	-9983
▁शेल	-9984
▁सभ्य	-9985
▁आकारः	-9986
▁जिलों	-9987
▁डेविड	-9988
▁ब्लॉक	-9989
▁वधारा	-9990
▁सेंटर	-9991
▁कहलाता	-9992
▁केमेरा	-9993
▁ग्यारह	-9994
▁निष्ठा	-9995
▁पुर्तग	-9996
▁स्थलों	-9997
▁बर्निंग	-9998
▁श्रद्धा	-9999
AP	-10000
ML	-10001
ुश	-10002
ुष	-10003
rica	-10004
मोहन	-10005
▁विर	-10006
▁सेन	-10007
लिस्ट	-10008
▁आजीव	-10009
▁उठता	-10010
▁डालर	-10011
▁मिया	-10012
▁रेती	-10013
▁किराए	-10014
▁बुखार	-10015
▁मुल्क	-10016
▁रंगों	-10017
र्याप्त	-10018
▁क़ुदरत	-10019
▁ट्रस्ट	-10020
▁दार्शन	-10021
▁शृंखला	-10022
▁सिग्नल	-10023
▁अवस्थित	-10024
▁परिपत्र	-10025
▁प्रत्युत्तर	-10026
are	-10027
रीद	-10028
▁07	-10029
स्पी	-10030
▁500	-10031
▁चूर	-10032
▁नाभ	-10033
▁मर्	-10034
▁रेत	-10035
▁लाप	-10036
▁हँस	-10037
त्तीस	-10038
▁आपात	-10039
▁कतरा	-10040
▁क्यो	-10041
▁गणेश	-10042
▁गोरा	-10043
▁बुढ़	-10044
▁सांक	-10045
▁सुनो	-10046
▁सोना	-10047
▁वर्गम	-10048
प्ताहिक	-10049
▁दिखाते	-10050
▁दिशानि	-10051
▁लेखकों	-10052
▁वाक्या	-10053
▁सुसंगत	-10054
▁हनुमान	-10055
▁अस्पष्ट	-10056
▁आमंत्रण	-10057
▁विख्यात	-10058
▁संस्कार	-10059
▁स्कूलों	-10060
▁वैयक्तिक	-10061
▁स्थानांतरण	-10062
▁याचिकाकर्ता	-10063
ID	-10064
.03	-10065
बिन	-10066
मास	-10067
▁इब	-10068
▁धर	-10069
राइट	-10070
ापुर	-10071
▁फीट	-10072
▁फोर	-10073
▁मेक	-10074
▁मोज	-10075
दाबाद	-10076
▁आजाद	-10077
▁कन्न	-10078
▁गनोम	-10079
▁दलों	-10080
▁पढ़ें	-10081
▁फारसी	-10082
▁बतावे	-10083
▁रहेलो	-10084
▁लगेगा	-10085
▁उच्चार	-10086
▁क्लाइंट	-10087
▁मजदूरों	-10088
▁सबवर्सन	-10089
▁अत्याचार	-10090
▁ज़बरदस्त	-10091
▁संरक्षित	-10092
▁प्राधिकृत	-10093
▁साप्ताहिक	-10094
▁प्रतिस्पर्धा	-10095
erm	-10096
est	-10097
िके	-10098
ट्ठी	-10099
र्भर	-10100
▁डाँ	-10101
▁दमन	-10102
▁विघ	-10103
▁विच	-10104
▁शाक	-10105
▁१००	-10106
ट्रिक	-10107
▁2004	-10108
▁कुदर	-10109
▁पोषक	-10110
▁मोनो	-10111
▁रत्न	-10112
पोरेशन	-10113
भ्रष्ट	-10114
▁अतिथि	-10115
▁भूगोल	-10116
▁उच्चतर	-10117
▁उद्यमी	-10118
▁उन्नयन	-10119
▁पोर्टल	-10120
▁प्रचुर	-10121
▁भंडारित	-10122
▁संप्रती	-10123
▁सफळतापूर्वक	-10124
60	-10125
उथ	-10126
.07	-10127
ver	-10128
थ्य	-10129
स्र	-10130
हाद	-10131
ांट	-10132
ाग्र	-10133
▁एंट	-10134
▁धनी	-10135
▁लची	-10136
▁लहर	-10137
▁शीत	-10138
प्रति	-10139
ियमित	-10140
▁क्षय	-10141
▁श्ले	-10142
▁अभिया	-10143
▁आवेली	-10144
▁क़ायम	-10145
▁टैगोर	-10146
▁लेआउट	-10147
▁स्नेह	-10148
▁अनुयायी	-10149
▁कामचलाउ	-10150
▁वर्गमूल	-10151
▁प्रकारना	-10152
▁अपर्याप्त	-10153
बै	-10154
ोए	-10155
.02	-10156
ायु	-10157
स्की	-10158
▁एवी	-10159
▁डोक	-10160
▁ताक	-10161
▁नंब	-10162
▁समज	-10163
▁हुम	-10164
▁हेम	-10165
▁2002	-10166
▁आस्त	-10167
▁पीळी	-10168
▁भ्रम	-10169
▁माया	-10170
▁समेट	-10171
▁स्कू	-10172
▁चित्त	-10173
▁नम्बर	-10174
▁पिक्स	-10175
▁वायरस	-10176
▁स्टोल	-10177
▁इलाकों	-10178
▁मेजबान	-10179
▁हाइड्र	-10180
▁प्रणालियों	-10181
▁क्रांतिकारी	-10182
बध	-10183
है	-10184
सेल	-10185
लब्ध	-10186
िपुर	-10187
▁असु	-10188
▁टूं	-10189
▁शोथ	-10190
▁हॉल	-10191
▁जेनी	-10192
▁समीप	-10193
▁घुमाव	-10194
▁नामों	-10195
▁पुष्ट	-10196
▁बोलना	-10197
▁टुकड़ा	-10198
▁तुरन्त	-10199
▁प्रिंट	-10200
▁बिगाड़	-10201
▁विलियम	-10202
▁समर्पण	-10203
▁साक्षा	-10204
▁आन्दोलन	-10205
▁लाभप्रद	-10206
▁आकांक्षा	-10207
▁एचटीएमएल	-10208
▁गतिविधियां	-10209
▁स्केटबोर्ड	-10210
▁दिशानिर्देश	-10211
▁बेकग्राउन्ड	-10212
खल	-10213
वुड	-10214
चेरी	-10215
▁जथ्	-10216
▁थती	-10217
▁धड़	-10218
▁बला	-10219
▁विय	-10220
▁सिग	-10221
▁जेना	-10222
▁झूठा	-10223
▁माफ़	-10224
▁वाहक	-10225
▁स्पी	-10226
▁हिमन	-10227
▁अर्जी	-10228
▁आश्वास	-10229
▁इन्द्र	-10230
▁मत्स्य	-10231
▁कविताओं	-10232
▁पूर्णता	-10233
▁ब्राउज़	-10234
▁दार्शनिक	-10235
▁सूचीबद्ध	-10236
▁उम्मीदवार	-10237
859	-10238
इंग	-10239
न्ग	-10240
ोगी	-10241
▁34	-10242
▁sp	-10243
▁आउ	-10244
▁छल	-10245
रेशन	-10246
▁खिं	-10247
▁थाः	-10248
▁फुल	-10249
▁बूझ	-10250
▁रखर	-10251
▁रुट	-10252
▁लाओ	-10253
▁नकली	-10254
▁मुहर	-10255
▁रेको	-10256
▁प्रभा	-10257
▁दीर्घा	-10258
▁अक्षरों	-10259
▁कड़ियाँ	-10260
▁कोविन्द	-10261
▁पुकारते	-10262
▁सितम्बर	-10263
▁घेटांनुं	-10264
▁एप्लिकेशन	-10265
▁प्राणियों	-10266
ुण	-10267
▁ओछ	-10268
ital	-10269
प्टर	-10270
फ़्र	-10271
ुल्य	-10272
▁खरा	-10273
▁घने	-10274
▁बेव	-10275
▁हकी	-10276
ताबिक	-10277
▁अभ्य	-10278
▁असुर	-10279
▁उष्ण	-10280
▁टांग	-10281
लेरिया	-10282
▁अंतरा	-10283
▁खेंचो	-10284
▁परिपथ	-10285
▁रोमां	-10286
▁सिंहा	-10287
▁उपरांत	-10288
▁ओनलाइन	-10289
▁कुशलता	-10290
▁फिटकार	-10291
▁अभिभाषण	-10292
▁मुताबिक	-10293
▁स्टेन्ड	-10294
▁काफ़िरों	-10295
▁क्रमादेश	-10296
▁विकासशील	-10297
▁पुनःप्राप्त	-10298
ंघ	-10299
वह	-10300
▁II	-10301
▁ढ़	-10302
ahoo	-10303
ंख्य	-10304
▁खाद	-10305
्रेषण	-10306
▁8859	-10307
▁निशा	-10308
▁मंदी	-10309
▁शकाई	-10310
▁शर्म	-10311
▁सटीक	-10312
▁सदृश	-10313
▁सबूत	-10314
▁स्पे	-10315
▁इंद्र	-10316
▁वर्षो	-10317
▁अर्द्ध	-10318
▁आवेलुं	-10319
▁इसलिये	-10320
▁धर्मों	-10321
▁पाएंगे	-10322
▁पेड़ों	-10323
▁रखरखाव	-10324
▁जाहेरात	-10325
हृ	-10326
ary	-10327
तिल	-10328
कोटा	-10329
षकों	-10330
ावली	-10331
ुम्ब	-10332
▁जन्	-10333
▁पढ़े	-10334
▁फूँक	-10335
▁सज्ज	-10336
नाइटेड	-10337
▁उठाकर	-10338
▁परवाह	-10339
▁बताते	-10340
▁शिश्न	-10341
▁हास्य	-10342
▁अनियमित	-10343
▁अनुभूति	-10344
▁मोकलनार	-10345
▁विवेकान	-10346
▁एकबीजानी	-10347
▁प्रवृत्त	-10348
ोक	-10349
ुलन	-10350
ोदय	-10351
▁इता	-10352
▁एजे	-10353
▁एरप	-10354
▁रुम	-10355
शियों	-10356
▁अंगू	-10357
▁अनुर	-10358
▁इल्म	-10359
▁ठंडा	-10360
▁थोडी	-10361
▁निवल	-10362
▁बेहत	-10363
▁समेक	-10364
▁गोठवो	-10365
▁भरेली	-10366
▁सरलता	-10367
▁अन्याय	-10368
▁अपशिष्ट	-10369
▁अपावनार	-10370
▁उपकरणने	-10371
▁कानूनों	-10372
▁चित्रों	-10373
▁खोलवामां	-10374
▁शक्तियां	-10375
▁समाविष्टो	-10376
▁कार्यक्रमनी	-10377
ip	-10378
कै	-10379
माद	-10380
▁झि	-10381
सर्ग	-10382
▁185	-10383
▁Mac	-10384
▁चाइ	-10385
▁टर्	-10386
▁दां	-10387
▁दाल	-10388
▁नीच	-10389
▁ईरान	-10390
▁डालो	-10391
▁दुरु	-10392
▁बंधन	-10393
▁मेवे	-10394
▁संता	-10395
▁नीकळी	-10396
▁पाउंड	-10397
▁लसीका	-10398
▁वळांक	-10399
▁संघीय	-10400
ख्तेयार	-10401
▁नस्लों	-10402
▁बिस्तर	-10403
▁व्यायाम	-10404
▁क्षेत्रफल	-10405
▁दस्तावेजो	-10406
▁बनाववामां	-10407
▁वर्तमानमां	-10408
तू	-10409
िंट	-10410
▁04	-10411
▁ऑन	-10412
▁५०	-10413
पीसी	-10414
रियल	-10415
▁लखन	-10416
▁अष्ट	-10417
▁करवो	-10418
▁कारा	-10419
▁मुख़	-10420
▁गिराव	-10421
▁ढूँढ़	-10422
▁फिरते	-10423
▁मरियम	-10424
▁रहोगे	-10425
▁रास्त	-10426
▁अन्जाम	-10427
▁पुरुषो	-10428
▁पॉलिसी	-10429
▁प्रौढ़	-10430
▁फरमाया	-10431
▁बैकेंड	-10432
▁समुच्चय	-10433
▁सरस्वती	-10434
▁दीक्षांत	-10435
od	-10436
ौफ	-10437
ore	-10438
ंधा	-10439
ठाई	-10440
बधा	-10441
ेलर	-10442
कृमि	-10443
मिति	-10444
म्बो	-10445
वाहक	-10446
▁थवा	-10447
▁फॉर	-10448
▁मैच	-10449
▁सरे	-10450
बाज़ी	-10451
▁अभिर	-10452
▁उपर्	-10453
▁गाने	-10454
▁झडपी	-10455
▁बाँध	-10456
▁जानकर	-10457
▁दिवसे	-10458
▁सुदूर	-10459
▁सौंपा	-10460
▁एकीकरण	-10461
▁खुल्ली	-10462
▁नारियल	-10463
▁सांसार	-10464
▁स्थाने	-10465
▁हड़ताल	-10466
▁उत्सर्जन	-10467
▁दूरसंचार	-10468
▁प्रिन्टर	-10469
▁शोधवामां	-10470
▁प्रस्थिति	-10471
▁संभावनाएं	-10472
▁भ्रष्टाचार	-10473
िद	-10474
खना	-10475
▁शव	-10476
▁खार	-10477
▁भाल	-10478
▁रेक	-10479
▁साद	-10480
▁हेल	-10481
▁अंडा	-10482
▁एंटी	-10483
▁छाती	-10484
▁एजेंस	-10485
▁कनाडा	-10486
▁चलावे	-10487
▁पूछते	-10488
▁मानने	-10489
▁मुम्ब	-10490
▁ओछामां	-10491
▁सुतेला	-10492
▁अनुमोदित	-10493
▁आनुवंशिक	-10494
▁प्रतिज्ञा	-10495
▁पूर्ववर्ती	-10496
▁क्षतिपूर्ति	-10497
▁क्लिपबोर्डमां	-10498
ऍं	-10499
नेल	-10500
िसी	-10501
▁गत	-10502
क्यू	-10503
गींग	-10504
वालय	-10505
▁300	-10506
▁अमी	-10507
▁एकज	-10508
▁कैन	-10509
▁बरस	-10510
▁मोल	-10511
डियों	-10512
▁जमान	-10513
▁तेणी	-10514
▁पांव	-10515
▁फूलो	-10516
▁लोहे	-10517
▁अल्फा	-10518
▁आंखें	-10519
▁आश्रय	-10520
▁खाड़ी	-10521
▁खेतों	-10522
▁पढ़ते	-10523
▁मारने	-10524
▁संतति	-10525
▁अधिकरण	-10526
▁करायेल	-10527
▁किनारी	-10528
▁छोड़ना	-10529
▁तमारुं	-10530
▁पहचाना	-10531
▁मानकों	-10532
▁रणनीति	-10533
▁सेवाएँ	-10534
▁आंकड़ों	-10535
▁निवृत्त	-10536
▁बेटियाँ	-10537
▁अस्वीकृत	-10538
▁लक्ष्यों	-10539
▁परिकल्पना	-10540
▁विषयवस्तु	-10541
ॉं	-10542
lic	-10543
दली	-10544
▁an	-10545
▁बछ	-10546
ject	-10547
चरित	-10548
ब्बत	-10549
ापति	-10550
▁छोर	-10551
▁टॅब	-10552
बाक्स	-10553
▁कमाई	-10554
▁टिका	-10555
▁ठहरे	-10556
▁शंकु	-10557
▁अंकुर	-10558
▁अपडेट	-10559
▁आखिरी	-10560
▁तृतीय	-10561
▁अफ़सोस	-10562
▁इस्पात	-10563
▁गरीबों	-10564
▁फुफ्फु	-10565
▁एक्सप्रेस	-10566
▁केबिनेट्स	-10567
▁ग्राफिक्स	-10568
▁अनुप्रयोगों	-10569
ER	-10570
ss	-10571
फन	-10572
स्टा	-10573
▁ऊर्	-10574
▁कैद	-10575
▁पैन	-10576
▁भैं	-10577
▁सरो	-10578
▁झुका	-10579
▁डिस्	-10580
▁बिंब	-10581
▁दवाओं	-10582
▁नामित	-10583
▁मुहलत	-10584
▁लंबवत	-10585
▁लेखकः	-10586
▁शर्मा	-10587
▁असफलता	-10588
▁रविवार	-10589
▁लार्वा	-10590
▁जाएँगें	-10591
▁दोस्तों	-10592
▁पारस्पर	-10593
▁फ़ंक्शन	-10594
▁शब्दकूट	-10595
▁संख्याः	-10596
▁वस्तुओने	-10597
▁पंक्तियों	-10598
मोन	-10599
लोक	-10600
▁शू	-10601
पंथी	-10602
पाली	-10603
र्षि	-10604
्युट	-10605
▁केन	-10606
▁जाव	-10607
▁पतन	-10608
▁मरण	-10609
रिलिक	-10610
▁आज़ा	-10611
▁तख्त	-10612
▁दुखी	-10613
▁पूंछ	-10614
▁पूरु	-10615
▁बजाए	-10616
▁माइम	-10617
संग्रह	-10618
▁ईन्टर	-10619
▁पूजते	-10620
▁लाहौर	-10621
▁सीआरए	-10622
रेन्द्र	-10623
▁प्रताप	-10624
▁बढ़िया	-10625
प्रदायिक	-10626
▁प्रतिफल	-10627
▁सरदारों	-10628
▁उमेदवारी	-10629
▁समाजवादी	-10630
▁सांसारिक	-10631
लम	-10632
वड	-10633
ट्ठ	-10634
ताई	-10635
लोर	-10636
▁काप	-10637
▁घों	-10638
▁दली	-10639
▁पसी	-10640
▁कोर्	-10641
▁गुज़	-10642
▁रंगम	-10643
▁वसूल	-10644
▁सिया	-10645
▁असफलः	-10646
▁इताअत	-10647
▁क़ब्र	-10648
▁दूँगा	-10649
विश्वास	-10650
▁पुनर्भ	-10651
▁आजीविका	-10652
▁गुनाहों	-10653
▁स्थिरता	-10654
▁इन्होंने	-10655
▁हानिकारक	-10656
▁इंजीनियरिंग	-10657
ome	-10658
सेक	-10659
वाळो	-10660
▁आरा	-10661
▁जोश	-10662
oogle	-10663
▁इनाम	-10664
▁सीवी	-10665
▁जगहों	-10666
▁पूछना	-10667
▁स्थूल	-10668
त्रियों	-10669
▁चित्रा	-10670
▁दीवाना	-10671
▁नीचेनी	-10672
▁मुम्बई	-10673
▁प्रक्रम	-10674
▁क्रियाकला	-10675
▁पेट्रोलियम	-10676
धम	-10677
ंजक	-10678
ूर्व	-10679
▁188	-10680
▁इजा	-10681
▁करत	-10682
▁गैल	-10683
▁घात	-10684
▁धरो	-10685
ायेला	-10686
▁कलाम	-10687
▁पीआई	-10688
▁यूसु	-10689
▁विवर	-10690
▁तुर्क	-10691
▁भित्त	-10692
▁मळ्यो	-10693
▁गिरावट	-10694
▁नियामक	-10695
▁बरफीला	-10696
▁चित्रनी	-10697
▁निर्वाह	-10698
▁इन्टरफेस	-10699
▁वाक्यांश	-10700
▁साइरिलिक	-10701
▁पारस्परिक	-10702
▁स्टेशनमां	-10703
▁पूर्वोत्तर	-10704
ॉय	-10705
फ़ल	-10706
वना	-10707
ेशे	-10708
द्दा	-10709
▁अगा	-10710
▁गौण	-10711
▁फौज	-10712
▁भीम	-10713
▁लंग	-10714
वरणीय	-10715
वारिक	-10716
▁अहमद	-10717
▁डेलि	-10718
▁भरना	-10719
▁रहकर	-10720
▁समझो	-10721
कोशिका	-10722
▁असमान	-10723
▁खुराक	-10724
▁फोर्म	-10725
▁माहौल	-10726
▁यौगिक	-10727
▁वैष्ण	-10728
▁स्थाप	-10729
▁चेन्नई	-10730
▁विनम्र	-10731
▁एमएसएमई	-10732
▁चाहूंगा	-10733
▁ट्रैकिंग	-10734
▁शब्दमाळा	-10735
▁उपलब्धियों	-10736
▁कोम्प्युटर	-10737
▁रेस्टोरन्ट	-10738
ढी	-10739
प्प	-10740
▁ओप	-10741
▁घू	-10742
iver	-10743
रानी	-10744
▁अनू	-10745
▁गोद	-10746
क्टेड	-10747
थियों	-10748
नीकरण	-10749
▁गायब	-10750
▁पोर्	-10751
▁बटनो	-10752
▁लगाई	-10753
▁समझे	-10754
▁state	-10755
▁अनन्य	-10756
▁एरिया	-10757
▁खुलने	-10758
▁खेलने	-10759
▁झुकाव	-10760
▁बर्तन	-10761
▁मौखिक	-10762
▁रजूआत	-10763
▁स्टाक	-10764
▁अधिष्ठ	-10765
▁एनपीएस	-10766
▁मुकदमे	-10767
▁श्रोता	-10768
▁दरवाज़े	-10769
▁आस्तियों	-10770
▁संक्रामक	-10771
▁संस्थाएं	-10772
▁निष्पादित	-10773
▁प्रोग्रामिंग	-10774
eb	-10775
रज	-10776
लू	-10777
आती	-10778
खों	-10779
णां	-10780
वाब	-10781
▁33	-10782
▁हौ	-10783
न्थि	-10784
र्मी	-10785
▁187	-10786
▁केप	-10787
▁खाम	-10788
▁नाज	-10789
संख्य	-10790
्राफी	-10791
▁1999	-10792
▁एण्ड	-10793
▁टापु	-10794
▁धोरण	-10795
▁नामे	-10796
▁पीले	-10797
▁बुर्	-10798
▁ब्यौ	-10799
▁रिवा	-10800
▁वल्ल	-10801
▁विज़	-10802
▁संभा	-10803
▁सूखा	-10804
▁छोड़े	-10805
▁नोटिस	-10806
▁फ्रां	-10807
▁मारते	-10808
▁कुफ़्र	-10809
▁पूछताछ	-10810
▁राजाओं	-10811
▁सर्वथा	-10812
▁सुंदरता	-10813
▁क्षेत्रनी	-10814
▁आत्मनिर्भर	-10815
▁लोकतांत्रिक	-10816
ुए	-10817
ॅल	-10818
▁२१	-10819
lect	-10820
गंगा	-10821
प्रण	-10822
्यां	-10823
▁अधू	-10824
▁करन	-10825
▁टॉम	-10826
▁वें	-10827
▁शहे	-10828
▁सप्	-10829
▁अंधा	-10830
▁करतो	-10831
▁गरदन	-10832
▁छुपी	-10833
▁पीना	-10834
▁बैंग	-10835
▁राखे	-10836
▁वैसी	-10837
▁दिव्य	-10838
▁नलिका	-10839
▁फ्लेग	-10840
▁वधारो	-10841
त्तियां	-10842
▁इकट्ठे	-10843
▁दिवसीय	-10844
▁प्रलेख	-10845
▁त्योहार	-10846
▁निधियों	-10847
▁लक्षणों	-10848
▁हेल्मेट	-10849
▁नियन्त्रण	-10850
▁अफगानिस्तान	-10851
▁महाविद्यालय	-10852
.06	-10853
ग्व	-10854
बुल	-10855
्मी	-10856
गरीय	-10857
भूषण	-10858
सीआई	-10859
सीडी	-10860
▁थाम	-10861
▁पडी	-10862
▁ह्र	-10863
पृष्ठ	-10864
▁अहले	-10865
▁कशेर	-10866
▁कृमि	-10867
▁नीचा	-10868
▁नेवि	-10869
▁पत्थ	-10870
▁पिंड	-10871
▁पीला	-10872
▁शाहज	-10873
स्वामी	-10874
▁कट्टर	-10875
▁दशकों	-10876
▁मैथुन	-10877
▁एक्सेस	-10878
▁छत्तीस	-10879
▁छुपावो	-10880
▁लक्ष्म	-10881
▁खेंचीने	-10882
▁चलचित्र	-10883
▁विकल्पः	-10884
▁राष्ट्री	-10885
अन	-10886
▁·	-10887
केश	-10888
कोण	-10889
वेव	-10890
▁on	-10891
ांगी	-10892
▁उखा	-10893
▁कन्	-10894
▁खरु	-10895
▁ध्य	-10896
▁सघन	-10897
टेक्स	-10898
मावली	-10899
▁अंहि	-10900
▁ऊँचा	-10901
▁घोडो	-10902
▁पाचन	-10903
▁मज़े	-10904
▁सन्त	-10905
िस्तान	-10906
▁आबंटन	-10907
▁दूंगा	-10908
▁नियोजन	-10909
▁पर्वतो	-10910
▁प्रेमी	-10911
▁बेठेलुं	-10912
▁महादेवी	-10913
▁सशस्त्र	-10914
▁कार्यकाल	-10915
▁कुंजीपटल	-10916
▁कॅलेन्डर	-10917
▁इंजीनियरी	-10918
▁उपर्युक्त	-10919
▁वास्तुकला	-10920
ON	-10921
कें	-10922
ecur	-10923
▁आइट	-10924
▁इक्	-10925
▁तक़	-10926
▁सवे	-10927
दायगी	-10928
बार्ड	-10929
▁Info	-10930
▁अन्न	-10931
▁बिछा	-10932
▁मंज़	-10933
▁विदा	-10934
▁शाही	-10935
▁कानों	-10936
▁त्रिप	-10937
▁बदलते	-10938
▁हफ्ते	-10939
▁निम्ना	-10940
▁पहलुओं	-10941
▁रेलरोड	-10942
▁कंपनियां	-10943
▁लड़कियों	-10944
▁औजारपट्टी	-10945
▁पुनर्प्राप्त	-10946
फान	-10947
मंद	-10948
शोभ	-10949
कल्स	-10950
न्टन	-10951
ब्रू	-10952
व्रत	-10953
▁ऋषि	-10954
▁खौल	-10955
▁माछ	-10956
▁वसी	-10957
▁सिड	-10958
▁अभिम	-10959
▁उतरे	-10960
▁जवान	-10961
▁पटना	-10962
▁फोटा	-10963
▁लटका	-10964
▁अर्जन	-10965
▁उपाधि	-10966
▁कामका	-10967
▁विक्ष	-10968
▁सांभळ	-10969
▁सुशोभ	-10970
▁स्टेड	-10971
▁कीरींग	-10972
▁गर्भाव	-10973
▁निर्धन	-10974
▁पहोळाइ	-10975
▁लाएँगे	-10976
▁हरियाणा	-10977
▁विकल्पों	-10978
▁विन्यस्त	-10979
▁translate	-10980
▁श्रेणियों	-10981
▁न्यायालयों	-10982
Ch	-10983
ati	-10984
uer	-10985
नीत	-10986
मंडळ	-10987
य्या	-10988
र्मर	-10989
सूचक	-10990
▁BAR	-10991
▁आडी	-10992
▁नित	-10993
▁फंड	-10994
▁सैर	-10995
▁०००	-10996
क़्ति	-10997
धारित	-10998
▁आवती	-10999
▁ऊभुं	-11000
▁काबू	-11001
▁जमणी	-11002
▁तेलु	-11003
▁बढ़ी	-11004
▁बढ़ो	-11005
▁बहुल	-11006
▁शोषण	-11007
▁सबवे	-11008
▁समया	-11009
▁हरेक	-11010
▁छत्री	-11011
▁लम्बा	-11012
▁शासित	-11013
▁संरेख	-11014
▁सिंधु	-11015
▁सुगंध	-11016
▁अब्दुल	-11017
▁कार्यो	-11018
▁ख़राबी	-11019
▁प्रवर्	-11020
▁राजकीय	-11021
▁संकलित	-11022
▁नीतियां	-11023
▁कोशिकाएं	-11024
▁दर्शाववामां	-11025
.04	-11026
दोष	-11027
लाभ	-11028
ारस	-11029
▁\\	-11030
माही	-11031
ायुं	-11032
▁डिफ	-11033
▁पिक	-11034
▁बेग	-11035
▁मुश	-11036
दाश्त	-11037
बोक्स	-11038
▁1957	-11039
▁अंगे	-11040
▁क़दम	-11041
▁गयाः	-11042
▁चलकर	-11043
▁बन्ध	-11044
▁संतृ	-11045
▁किनार	-11046
▁ख़त्म	-11047
▁संपीड	-11048
▁साकार	-11049
▁अस्थाई	-11050
▁उर्वरक	-11051
▁नाटकों	-11052
▁पिताजी	-11053
▁यूनानी	-11054
▁काफिरों	-11055
▁प्रबन्धन	-11056
▁विशेषाधिकार	-11057
डब	-11058
▁कछ	-11059
▁२२	-11060
hort	-11061
िटरी	-11062
ियॉँ	-11063
▁बन्	-11064
▁वखत	-11065
▁हैस	-11066
▁होई	-11067
▁एकला	-11068
▁किन्	-11069
▁घुसा	-11070
▁जीने	-11071
▁नळना	-11072
▁पद्म	-11073
▁सूखे	-11074
▁कन्या	-11075
▁ग्रीक	-11076
▁तदबीर	-11077
▁शब्दो	-11078
▁स्वाय	-11079
▁असंख्य	-11080
▁छिपाते	-11081
▁सुधारी	-11082
▁उन्मूलन	-11083
▁लाभदायक	-11084
▁निर्णायक	-11085
▁निर्देशित	-11086
▁वित्तपोषण	-11087
ऊँ	-11088
शीदा	-11089
▁150	-11090
▁चौक	-11091
▁कमरा	-11092
▁गड़ब	-11093
▁दरें	-11094
▁दादी	-11095
▁पतली	-11096
▁पाती	-11097
▁फिल्	-11098
▁आयातक	-11099
▁निबंध	-11100
▁निपटने	-11101
▁पत्तों	-11102
▁मिटाकर	-11103
▁स्त्रो	-11104
▁लक्ष्मण	-11105
▁शेरीनुं	-11106
▁संकीर्ण	-11107
▁सिंहासन	-11108
▁परिणामों	-11109
▁प्रतिभूत	-11110
▁शुक्राणु	-11111
▁हिन्दुओं	-11112
▁अत्याचारी	-11113
▁केन्द्रों	-11114
▁बीमारियों	-11115
▁सत्याग्रह	-11116
tr	-11117
ग़ल	-11118
राश	-11119
कर्स	-11120
यतों	-11121
वायर	-11122
▁एलि	-11123
▁ग़ु	-11124
▁चूँ	-11125
▁जती	-11126
istan	-11127
ंडिंग	-11128
▁अंचल	-11129
▁अरजी	-11130
▁बधां	-11131
▁बेगम	-11132
▁मधुर	-11133
▁रूचि	-11134
▁yahoo	-11135
▁अभिला	-11136
▁थयेला	-11137
▁दहकती	-11138
▁पकड़ा	-11139
▁मिस्र	-11140
▁मेळवन	-11141
▁विधवा	-11142
▁क़ादिर	-11143
▁दुर्बल	-11144
▁स्कूटर	-11145
▁महिलाएं	-11146
▁वक्तव्य	-11147
▁विशुद्ध	-11148
▁सुधारने	-11149
▁एक्सचेंज	-11150
▁केंद्रों	-11151
▁परिदृश्य	-11152
▁प्रदेशों	-11153
▁प्रवर्तन	-11154
▁सिमुलेशन	-11155
▁हड्डियों	-11156
▁प्रस्तावों	-11157
गिर	-11158
माल	-11159
सवा	-11160
ॉजी	-11161
▁टक	-11162
star	-11163
कक्ष	-11164
शोधन	-11165
ुतोष	-11166
्रीम	-11167
▁दाग	-11168
ज्ञाप	-11169
मानों	-11170
ांटिक	-11171
▁form	-11172
▁चमत्	-11173
▁दोषी	-11174
▁नोडल	-11175
▁यज्ञ	-11176
▁हमले	-11177
▁हवाइ	-11178
वर्तित	-11179
▁क़द्र	-11180
▁कारगर	-11181
▁चरणों	-11182
▁छापवा	-11183
▁जहाज़	-11184
▁तेज़ी	-11185
▁धरोहर	-11186
▁ध्येय	-11187
▁नजदीक	-11188
▁मापने	-11189
▁अभिप्र	-11190
▁कर्मों	-11191
▁क़ुबूल	-11192
▁गवर्नर	-11193
▁जिन्ना	-11194
▁नीलामी	-11195
▁पुनर्व	-11196
▁लोकसभा	-11197
▁पथभ्रष्ट	-11198
▁प्रेमचंद	-11199
▁स्वाधीनता	-11200
▁कार्यालयों	-11201
▁प्रतिबंधित	-11202
▁विकिपीडियाः	-11203
गों	-11204
यता	-11205
ारह	-11206
िनि	-11207
▁चढ	-11208
▁लइ	-11209
न्दन	-11210
भवती	-11211
रहित	-11212
▁चरम	-11213
▁पोट	-11214
▁बसे	-11215
▁भूट	-11216
▁सीन	-11217
काव्य	-11218
▁आचार	-11219
▁आयाम	-11220
▁गुहा	-11221
▁चलाव	-11222
▁जाळी	-11223
▁झुंड	-11224
▁लखनऊ	-11225
▁विषम	-11226
▁सुले	-11227
रेटिंग	-11228
▁क़रार	-11229
▁नाट्य	-11230
▁संयोग	-11231
▁उत्सुक	-11232
▁खिड़की	-11233
▁चिंतित	-11234
▁निरस्त	-11235
▁भेदभाव	-11236
▁रेल्वे	-11237
▁समांतर	-11238
▁सिंकनी	-11239
▁Infobox	-11240
▁जरूरतों	-11241
▁पत्तियों	-11242
▁संप्रतीक	-11243
▁विशेषताओं	-11244
sp	-11245
गू	-11246
दती	-11247
▁वग	-11248
▁शत	-11249
तनाम	-11250
पर्य	-11251
ेलना	-11252
▁कसौ	-11253
▁ग्व	-11254
▁मग़	-11255
▁अनाथ	-11256
▁चढ़ा	-11257
▁नीले	-11258
▁मंडप	-11259
▁यानि	-11260
▁रोमन	-11261
▁संकळ	-11262
▁सेतु	-11263
▁इंसान	-11264
▁खसेडी	-11265
▁खौलते	-11266
▁बूढ़े	-11267
▁माछली	-11268
▁विधाय	-11269
▁वैद्य	-11270
▁ड्रग्स	-11271
▁ताजेतर	-11272
▁पुत्री	-11273
▁फेन्सी	-11274
▁महाराज	-11275
▁वापरेल	-11276
▁विरोधा	-11277
▁संबधित	-11278
▁सामुदा	-11279
▁नाबार्ड	-11280
▁प्रकारः	-11281
▁वहेंचणी	-11282
▁सुनेंगे	-11283
▁वरीयताएँ	-11284
▁प्रोटोकोल	-11285
▁प्रस्तुतीकरण	-11286
कोड	-11287
वचन	-11288
सरे	-11289
वानि	-11290
▁कमे	-11291
▁मुअ	-11292
▁चेता	-11293
▁जीते	-11294
▁पुष्	-11295
▁मृदा	-11296
साधारण	-11297
▁केलिए	-11298
▁गेहूं	-11299
▁प्रया	-11300
▁शिष्ट	-11301
▁साधना	-11302
▁सोसाय	-11303
▁स्कीम	-11304
▁हेडरो	-11305
▁कॅमेरा	-11306
▁तकलीफ़	-11307
▁दृढ़ता	-11308
▁नर्मदा	-11309
▁निकलते	-11310
▁सूचनाएँ	-11311
▁स्टेडियम	-11312
▁प्रारम्भिक	-11313
ुख	-11314
our	-11315
ड़ो	-11316
य्य	-11317
▁जण	-11318
ड्डे	-11319
हाक़	-11320
▁कलम	-11321
▁थ्र	-11322
▁बाघ	-11323
शीर्ष	-11324
▁गाडू	-11325
▁घरनी	-11326
▁बनती	-11327
▁मद्य	-11328
▁रिहा	-11329
▁रुख़	-11330
संरचना	-11331
▁उल्ला	-11332
▁ग्रेड	-11333
▁पत्रक	-11334
▁पोपअप	-11335
▁बहुमत	-11336
▁विगतो	-11337
▁आशुतोष	-11338
▁इसहाक़	-11339
▁मापदंड	-11340
▁रंगमंच	-11341
▁सन्देह	-11342
▁प्रक्षे	-11343
▁फॉर्मेट	-11344
▁सतर्कता	-11345
▁सर्वज्ञ	-11346
▁पूर्णतया	-11347
ey	-11348
▁इज	-11349
▁जौ	-11350
विया	-11351
▁एकक	-11352
▁दूत	-11353
▁निध	-11354
▁पडा	-11355
▁बनो	-11356
▁शार	-11357
▁इजरा	-11358
▁इष्ट	-11359
▁कच्छ	-11360
▁कोटा	-11361
▁त्यौ	-11362
▁देवा	-11363
▁फरते	-11364
▁बंधक	-11365
▁हाइड	-11366
▁२००८	-11367
▁आल्बम	-11368
▁चलावी	-11369
▁पंद्र	-11370
▁रस्तो	-11371
▁व्हील	-11372
▁हाइवे	-11373
▁अज्ञान	-11374
▁अनुबंध	-11375
▁उदासीन	-11376
▁नीकळवा	-11377
▁पंचायत	-11378
▁पकड़ने	-11379
▁समझाने	-11380
▁वस्तुने	-11381
▁स्निपेट	-11382
▁देखावमां	-11383
▁प्रकारनी	-11384
▁सम्पादित	-11385
45	-11386
ीर	-11387
ंडर	-11388
कावट	-11389
त्था	-11390
▁पला	-11391
▁मुल	-11392
▁लौह	-11393
▁सों	-11394
द्रता	-11395
▁अन्ध	-11396
▁बनते	-11397
▁बम्ब	-11398
▁सपने	-11399
▁सॉफ़	-11400
▁उत्पा	-11401
▁काल्प	-11402
▁गीतों	-11403
▁राजेश	-11404
▁अदृश्य	-11405
▁आबंटित	-11406
▁तस्बीह	-11407
▁देखरेख	-11408
▁मन्त्र	-11409
▁यूनियन	-11410
▁अन्वेषण	-11411
▁आसमानों	-11412
▁उपनिवेश	-11413
▁गर्भवती	-11414
▁डिबगींग	-11415
▁पृष्ठों	-11416
▁उत्पत्ति	-11417
▁गुनाहगार	-11418
▁नियोक्ता	-11419
▁फ़ॉर्मेट	-11420
▁रेखांकित	-11421
▁संस्थापन	-11422
▁स्वायत्त	-11423
▁माइक्रोवेव	-11424
ev	-11425
थाम	-11426
▁बँ	-11427
▁बॅ	-11428
नामा	-11429
विले	-11430
ष्णा	-11431
ायें	-11432
▁125	-11433
▁ऊंघ	-11434
▁जीभ	-11435
▁शेख	-11436
▁कारी	-11437
▁गुंज	-11438
▁दण्ड	-11439
▁भुला	-11440
▁मदों	-11441
▁वनों	-11442
eeting	-11443
▁अनन्त	-11444
▁खासकर	-11445
▁तत्पर	-11446
▁तेवुं	-11447
▁द्रुत	-11448
▁नक्शा	-11449
▁पीड़क	-11450
▁बंगला	-11451
▁संकाय	-11452
▁मन्दिर	-11453
▁महर्षि	-11454
▁मुर्गी	-11455
▁मेट्रो	-11456
▁प्रमाणन	-11457
▁सचिवालय	-11458
▁सुलेमान	-11459
▁काल्पनिक	-11460
▁फरिश्तों	-11461
▁पारिवारिक	-11462
▁सामुदायिक	-11463
▁पुनरावर्तन	-11464
▁क्रियान्वयन	-11465
ik	-11466
ase	-11467
डिओ	-11468
थिल	-11469
▁65	-11470
स्का	-11471
ार्द	-11472
ियास	-11473
▁तौल	-11474
▁वग़	-11475
▁सूझ	-11476
विहीन	-11477
▁1000	-11478
▁उक्त	-11479
▁चालक	-11480
▁दरों	-11481
▁फैली	-11482
▁बांड	-11483
▁मेने	-11484
▁ऑंखों	-11485
▁घटनाओ	-11486
▁फ्लैग	-11487
▁अनुकरण	-11488
▁आपत्ति	-11489
▁पंद्रह	-11490
▁आश्वासन	-11491
▁निर्देशक	-11492
▁निष्पक्ष	-11493
oun	-11494
ध्द	-11495
राग	-11496
▁सँ	-11497
जन्य	-11498
स्मा	-11499
ावधि	-11500
▁गुट	-11501
▁घोर	-11502
▁थोक	-11503
▁मथक	-11504
▁हिर	-11505
कास्ट	-11506
द्रिक	-11507
मिनीन	-11508
्रीकी	-11509
▁उपजा	-11510
▁उलटे	-11511
▁एसोस	-11512
▁केबल	-11513
▁जेवी	-11514
▁वक्ष	-11515
▁समता	-11516
▁एहसान	-11517
▁कमीशन	-11518
▁जयपुर	-11519
▁नोंधो	-11520
▁फायदे	-11521
▁बरबाद	-11522
▁सहेजी	-11523
▁मेळववा	-11524
▁जिराफनी	-11525
▁त्यौहार	-11526
▁नामांकन	-11527
▁प्रोसेस	-11528
▁मोमिनीन	-11529
▁राजनयिक	-11530
▁होनेवाली	-11531
▁सुपुर्दगी	-11532
▁हाइड्रन्ट	-11533
:1	-11534
ँस	-11535
दह	-11536
ेळ	-11537
ोरी	-11538
जिंग	-11539
▁mon	-11540
वाहिक	-11541
▁दुरू	-11542
▁यूएस	-11543
▁रंजन	-11544
▁रोटी	-11545
▁अड्डा	-11546
▁तलवार	-11547
▁देवनी	-11548
▁मंजिल	-11549
▁मेहरा	-11550
▁सीखना	-11551
▁कुदरती	-11552
▁कौंसिल	-11553
▁ठहराते	-11554
▁सीवीएस	-11555
▁सेवानि	-11556
▁एरप्लेन	-11557
▁अनिश्चित	-11558
▁निमंत्रण	-11559
▁मूल्यवान	-11560
▁संपर्कोने	-11561
▁उपभोक्ताओं	-11562
40	-11563
थल	-11564
ian	-11565
चने	-11566
तीब	-11567
रना	-11568
ोरा	-11569
▁थल	-11570
▁अपी	-11571
▁सॉल	-11572
.2018	-11573
▁एसएस	-11574
▁कोल्	-11575
▁देशभ	-11576
▁मुजब	-11577
▁सजीव	-11578
▁निभाई	-11579
▁पुख्त	-11580
▁बदलती	-11581
▁मंगोल	-11582
▁यमुना	-11583
▁राजपू	-11584
▁समाना	-11585
▁आयुक्त	-11586
▁उन्नति	-11587
▁करूंगा	-11588
▁घणाबधा	-11589
▁पांदडा	-11590
▁विकृति	-11591
▁सिक्का	-11592
▁सूर्या	-11593
▁प्रस्थान	-11594
▁माइक्रोस	-11595
▁संदर्भित	-11596
▁छत्तीसगढ़	-11597
▁मेळववामां	-11598
▁परहेज़गारों	-11599
ैट	-11600
फिल	-11601
भास	-11602
मॅप	-11603
सुर	-11604
▁le	-11605
नायत	-11606
पूरक	-11607
माइश	-11608
▁कैर	-11609
▁भड़	-11610
▁विस	-11611
▁ह्य	-11612
▁१९६	-11613
ार्थक	-11614
▁गौतम	-11615
▁घायल	-11616
▁जोशी	-11617
▁हुये	-11618
स्फीति	-11619
▁कीमॅप	-11620
▁घनत्व	-11621
▁जमारा	-11622
▁न्यूय	-11623
▁बक्से	-11624
▁बम्बई	-11625
▁भीतरी	-11626
▁कारकों	-11627
▁पेशेवर	-11628
▁बहारना	-11629
▁मणिपुर	-11630
▁माननीय	-11631
▁मुहाफ़	-11632
▁हिब्रू	-11633
▁खूणामां	-11634
▁समकालीन	-11635
▁अरीसामां	-11636
▁पार्कमां	-11637
▁माहितीने	-11638
▁अध्यक्षता	-11639
▁अभिव्यक्त	-11640
▁गर्भावस्था	-11641
▁कार्यकलापों	-11642
कथा	-11643
गिन	-11644
पाइ	-11645
ेथी	-11646
▁05	-11647
कर्ण	-11648
ज़ाह	-11649
पुरी	-11650
मापी	-11651
▁and	-11652
▁ताश	-11653
▁पिं	-11654
▁बीप	-11655
▁बोट	-11656
▁अमीर	-11657
▁एवुं	-11658
▁कहकर	-11659
▁सर्फ	-11660
▁सुखद	-11661
प्रेशन	-11662
▁उत्सा	-11663
▁दर्पण	-11664
▁पहोंच	-11665
▁माणिक	-11666
▁शोधवा	-11667
▁कानपुर	-11668
▁देखिये	-11669
▁नेटवर्	-11670
▁भौतिकी	-11671
▁लड़कों	-11672
▁वृत्ता	-11673
▁सेनाओं	-11674
▁सोसायटी	-11675
▁इन्टरनेट	-11676
▁उत्तेजित	-11677
▁उल्लेखित	-11678
▁संपादकमां	-11679
▁सांख्यिकी	-11680
.9	-11681
इश	-11682
lat	-11683
कोन	-11684
लें	-11685
▁२३	-11686
▁२४	-11687
▁☻☻	-11688
न्डी	-11689
▁अँग	-11690
▁खड़	-11691
▁खपत	-11692
▁गों	-11693
▁मख़	-11694
▁रिच	-11695
▁रेग	-11696
▁एरोप	-11697
▁क्षु	-11698
▁चोटी	-11699
▁धमकी	-11700
▁पहने	-11701
▁फैले	-11702
क्सिको	-11703
ज्ञानी	-11704
▁कमेटी	-11705
▁डिबगर	-11706
▁दर्जा	-11707
▁पौराण	-11708
▁वायुम	-11709
▁छवियाँ	-11710
▁नामकरण	-11711
▁ब्यूरो	-11712
▁विभाजक	-11713
▁दिवालनी	-11714
▁बेन्चनी	-11715
▁मार्केट	-11716
▁सुधारों	-11717
▁मंत्रीमंडळ	-11718
▁पुनरावृत्ति	-11719
▁प्रोजेक्टने	-11720
im	-11721
खने	-11722
हेड	-11723
गोचर	-11724
बिले	-11725
▁अजा	-11726
▁काठ	-11727
▁बोर	-11728
▁मरे	-11729
▁रूह	-11730
वक्ता	-11731
व्यों	-11732
▁कालि	-11733
▁क्ली	-11734
▁डाबी	-11735
▁फ़्र	-11736
▁फेरब	-11737
▁बहती	-11738
▁सरपर	-11739
▁औषधीय	-11740
▁पित्त	-11741
▁बेसती	-11742
▁साम्य	-11743
▁एकसाथे	-11744
▁लैंगिक	-11745
▁शान्ति	-11746
▁हिम्मत	-11747
▁हेक्टे	-11748
▁दर्शाया	-11749
▁धरावतुं	-11750
▁दिलचस्पी	-11751
▁प्रीमियम	-11752
▁समुदायों	-11753
▁सिस्टमने	-11754
▁परिपक्वता	-11755
▁स्वतन्त्र	-11756
▁अर्थशास्त्र	-11757
▁मैत्रीपूर्ण	-11758
▁विनिर्दिष्ट	-11759
एनए	-11760
जील	-11761
तिर	-11762
▁मठ	-11763
▁यश	-11764
गणित	-11765
गुना	-11766
ब्बी	-11767
सिका	-11768
▁अंट	-11769
▁जंक	-11770
दस्ती	-11771
द्दति	-11772
स्पेस	-11773
ोत्सव	-11774
▁गाइड	-11775
▁ढांक	-11776
▁पाछी	-11777
▁पुरी	-11778
▁भट्ट	-11779
▁मृदु	-11780
▁लेनी	-11781
▁स्को	-11782
africa	-11783
indows	-11784
▁क़ाबू	-11785
▁लॉगइन	-11786
Country	-11787
िरपेक्ष	-11788
▁Google	-11789
▁अभियोग	-11790
▁बादलों	-11791
▁मशीनों	-11792
▁रोकथाम	-11793
▁वृत्ति	-11794
▁उद्यमों	-11795
▁पैदावार	-11796
वैज्ञानिक	-11797
▁अभियुक्त	-11798
▁आतंकवादी	-11799
▁संक्रमित	-11800
▁हड्डियाँ	-11801
▁पंक्तिबद्ध	-11802
टु	-11803
ial	-11804
iss	-11805
नीस	-11806
्रल	-11807
एमएस	-11808
▁एंप	-11809
▁कम्	-11810
▁गुं	-11811
▁मणी	-11812
▁शिल	-11813
▁उपल्	-11814
▁केळा	-11815
▁पडता	-11816
▁बांस	-11817
▁मिलन	-11818
▁मेले	-11819
▁मौके	-11820
▁लीटर	-11821
▁चूँकि	-11822
▁जोज़े	-11823
▁नवजात	-11824
▁रुपया	-11825
▁उद्धरण	-11826
▁दिखायी	-11827
▁सर्किट	-11828
▁अनुपलब्ध	-11829
▁ईमानदारी	-11830
▁चित्रमां	-11831
▁महाद्वीप	-11832
▁पारदर्शिता	-11833
ाइश	-11834
▁आण	-11835
ghan	-11836
पड़ी	-11837
लींग	-11838
स्पे	-11839
▁एवा	-11840
▁सता	-11841
▁होट	-11842
▁आपणा	-11843
▁ऋणों	-11844
▁कम्ब	-11845
▁मुकर	-11846
▁मेरु	-11847
▁इरादा	-11848
▁उमेरा	-11849
▁कब्जा	-11850
▁खेलों	-11851
▁जमाने	-11852
▁झगड़ा	-11853
▁देखती	-11854
▁बाइको	-11855
▁बातिल	-11856
▁काफ़िर	-11857
▁नज़दीक	-11858
▁पब्लिक	-11859
▁रमतोनो	-11860
▁लाकडुं	-11861
▁संकुचन	-11862
▁कोरियाई	-11863
▁सिक्किम	-11864
ghanistan	-11865
▁अभिप्राय	-11866
▁एरोप्लेन	-11867
▁बताववामां	-11868
▁बुद्धिमान	-11869
▁बेकग्राउन्डमां	-11870
ov	-11871
गान	-11872
भंग	-11873
▁आध	-11874
▁रज	-11875
▁२६	-11876
व्यू	-11877
ालों	-11878
▁अड़	-11879
▁आनी	-11880
▁एने	-11881
▁जाँ	-11882
▁झार	-11883
▁डिझ	-11884
▁थता	-11885
▁मसू	-11886
▁यान	-11887
.2012	-11888
ख़्या	-11889
दिग्ध	-11890
▁2016	-11891
▁कंईक	-11892
▁खादी	-11893
▁घृणा	-11894
▁मृतक	-11895
▁मेला	-11896
▁ज़रिए	-11897
▁बन्दा	-11898
▁वेदों	-11899
▁स्पेस	-11900
वैधानिक	-11901
▁अमलमां	-11902
▁घुमाएँ	-11903
▁पोशीदा	-11904
▁मजबूती	-11905
▁वैष्णव	-11906
▁Windows	-11907
▁चिड़िया	-11908
▁प्रख्यात	-11909
▁फ़ाइलनाम	-11910
▁बगीचामां	-11911
▁विधानसभा	-11912
▁प्रगतिशील	-11913
▁वर्च्युअल	-11914
▁आश्चर्यजनक	-11915
▁मांसपेशियों	-11916
ton	-11917
पेड	-11918
लिफ	-11919
ूनी	-11920
▁क्	-11921
▁धप	-11922
नुअल	-11923
श्ती	-11924
▁माध	-11925
▁यहा	-11926
▁आइटम	-11927
▁एक्ट	-11928
▁एटले	-11929
▁छतां	-11930
▁जीता	-11931
▁झोंक	-11932
▁धोखे	-11933
▁बैठी	-11934
▁रिंग	-11935
▁करुणा	-11936
▁काटना	-11937
▁तार्क	-11938
▁तुलसी	-11939
▁न्यून	-11940
▁पहेली	-11941
▁मण्डल	-11942
▁रस्सी	-11943
▁वसीयत	-11944
▁शिविर	-11945
▁स्पेन	-11946
कर्त्ता	-11947
▁कुटुंब	-11948
▁ड्राईव	-11949
▁राजदूत	-11950
▁इंटरफेस	-11951
▁उच्चारण	-11952
▁कंट्रोल	-11953
▁घेटांना	-11954
▁त्रिकोण	-11955
▁रखनेवाले	-11956
▁संवादमां	-11957
ापा	-11958
ोगो	-11959
▁आभ	-11960
▁गॉ	-11961
▁मग	-11962
▁वल	-11963
mage	-11964
येली	-11965
षिकी	-11966
ृष्ट	-11967
▁1/2	-11968
▁कीं	-11969
▁तान	-11970
▁मित	-11971
ड़ाना	-11972
स्केट	-11973
▁कपास	-11974
▁निवे	-11975
▁साँस	-11976
▁साबु	-11977
▁अनुमत	-11978
▁आशंका	-11979
▁पाथने	-11980
▁प्राइ	-11981
▁बैठने	-11982
▁यहूदी	-11983
▁रक्षक	-11984
▁वीर्य	-11985
▁स्टेज	-11986
▁मेडिकल	-11987
▁हवामान	-11988
▁हैसियत	-11989
▁जानेवाली	-11990
▁देनेवाली	-11991
▁सुयोजनोने	-11992
▁प्रतिबद्धता	-11993
▁उत्तराधिकारी	-11994
▁प्रतिभूतियों	-11995
av	-11996
्भ	-11997
Reg	-11998
णित	-11999
ण्ठ	-12000
तको	-12001
मथक	-12002
ोन्	-12003
ज्या	-12004
र्ची	-12005
सानी	-12006
ॉर्क	-12007
▁आवक	-12008
▁खाव	-12009
▁डरे	-12010
▁पीप	-12011
ष्ठान	-12012
ियोजन	-12013
▁अम्ब	-12014
▁क्ले	-12015
▁खातु	-12016
▁दुष्	-12017
▁सपना	-12018
▁इंकार	-12019
▁गोल्ड	-12020
▁त्रिज	-12021
▁पेरिस	-12022
▁मकबरा	-12023
▁महान्	-12024
▁लोकोए	-12025
▁सपाटी	-12026
▁अशुद्ध	-12027
▁आरक्षण	-12028
▁पाएँगे	-12029
▁बहुविध	-12030
▁महावीर	-12031
▁गंभीरता	-12032
▁पत्थरों	-12033
▁मुकाबला	-12034
▁आविष्कार	-12035
▁किंमतमां	-12036
▁यांत्रिक	-12037
▁पारिस्थित	-12038
▁यादीमांथी	-12039
▁पर्यावरणीय	-12040
ैब	-12041
▁j	-12042
ंता	-12043
ाहट	-12044
ोधन	-12045
▁नख	-12046
क्रा	-12047
र्तन	-12048
िंगर	-12049
▁आयत	-12050
▁केर	-12051
▁घसी	-12052
▁चंद	-12053
▁छंद	-12054
▁माई	-12055
न्नों	-12056
▁menu	-12057
▁अवशो	-12058
▁आभार	-12059
▁दस्त	-12060
▁पठित	-12061
ढ़ियों	-12062
▁अधिका	-12063
▁घंटों	-12064
▁जेम्स	-12065
▁तेनां	-12066
▁प्रगा	-12067
▁भिक्ष	-12068
▁विकृत	-12069
▁सवेरे	-12070
▁मधुमक्	-12071
▁वग़ैरह	-12072
▁खूबसूरत	-12073
▁प्रशासक	-12074
▁वृक्षों	-12075
▁अत्याधिक	-12076
▁सॉफ़्टवेयर	-12077
धरी	-12078
राइ	-12079
▁थक	-12080
▁हॆ	-12081
▁पदक	-12082
▁लवण	-12083
▁सेव	-12084
नीयता	-12085
शिल्प	-12086
▁1950	-12087
▁अनुश	-12088
▁धमनी	-12089
▁फ़ाय	-12090
▁भागो	-12091
▁रींछ	-12092
▁लिखत	-12093
▁वस्त	-12094
▁साची	-12095
▁हमपर	-12096
ावस्था	-12097
▁अगलों	-12098
▁गिरने	-12099
▁प्लगइ	-12100
▁मनाही	-12101
▁विषयक	-12102
▁हिमनद	-12103
▁ह्रास	-12104
▁उपल्बध	-12105
▁जोडाणो	-12106
▁धरावतो	-12107
▁परिषद्	-12108
▁पाठकों	-12109
▁प्रकरण	-12110
▁मशीनरी	-12111
▁लम्बाई	-12112
▁प्रदाता	-12113
▁विस्तारनी	-12114
ेप	-12115
cri	-12116
शकर	-12117
आईटी	-12118
मानु	-12119
▁अबु	-12120
▁कॉम	-12121
▁डोग	-12122
▁मदर	-12123
▁रमा	-12124
▁संच	-12125
ज्ज़त	-12126
▁HTML	-12127
▁चयनक	-12128
▁पढ़ी	-12129
▁शंका	-12130
▁खरीदी	-12131
▁गिरवी	-12132
▁तळिये	-12133
▁तिथिः	-12134
▁लाववा	-12135
▁व्यंग	-12136
▁संबन्	-12137
▁करवाया	-12138
▁कुर्सी	-12139
▁फ्रन्ट	-12140
▁लेनदेन	-12141
चिकित्सा	-12142
▁पात्रता	-12143
▁प्रत्ये	-12144
▁अधिसूचित	-12145
▁टेम्पलेट	-12146
▁प्रतिष्ठान	-12147
▁न्यायपालिका	-12148
ue	-12149
ुथ	-12150
ेत	-12151
ith	-12152
ूपी	-12153
▁अछ	-12154
र्मा	-12155
▁आशी	-12156
▁दाब	-12157
▁पदा	-12158
▁बदन	-12159
▁हृद	-12160
त्रिक	-12161
▁1948	-12162
▁आपरा	-12163
▁चलें	-12164
▁द्रो	-12165
▁पौंड	-12166
▁फ़ोन	-12167
▁बीजो	-12168
▁बैंड	-12169
▁आईएसओ	-12170
▁कसौटी	-12171
▁घटकों	-12172
▁घोड़ा	-12173
▁टैम्प	-12174
▁डायरे	-12175
▁नहिंः	-12176
▁बन्दर	-12177
▁विषयः	-12178
▁पड़ेगी	-12179
▁बंगाली	-12180
▁शेरीना	-12181
▁इंडियाना	-12182
▁दोरवामां	-12183
▁पेकेजोने	-12184
▁कार्यकलाप	-12185
▁ऑस्ट्रेलिया	-12186
▁झुठलानेवालों	-12187
ts	-12188
तेह	-12189
लीज	-12190
श्म	-12191
ायन	-12192
ालो	-12193
िटर	-12194
▁इट	-12195
▁नट	-12196
आईडी	-12197
▁कंस	-12198
▁चरा	-12199
▁डोल	-12200
▁निब	-12201
▁नूर	-12202
▁सल्	-12203
आधारी	-12204
निस्ट	-12205
▁कल्प	-12206
▁कोटि	-12207
▁खडको	-12208
▁खोटी	-12209
▁लगना	-12210
▁month	-12211
▁एकजुट	-12212
▁एक्से	-12213
▁ख़र्च	-12214
▁खुदरा	-12215
▁गोपाल	-12216
▁चढ़ाई	-12217
▁नियति	-12218
▁पेशाब	-12219
▁बदलता	-12220
▁रहेली	-12221
▁राज़ी	-12222
▁लड़ने	-12223
▁वरसाद	-12224
▁हटाया	-12225
▁अखंडता	-12226
▁तमारां	-12227
▁बहारनी	-12228
▁शिशुओं	-12229
▁अभिनेता	-12230
▁चित्रित	-12231
▁डब्ल्यू	-12232
▁पासफ्रे	-12233
▁पौराणिक	-12234
▁मोड्युल	-12235
▁वीकार्ड	-12236
▁अमानतदार	-12237
afghanistan	-12238
ece	-12239
्टो	-12240
▁CO	-12241
▁bl	-12242
▁चह	-12243
▁शण	-12244
डानी	-12245
भावी	-12246
रोधी	-12247
ापित	-12248
▁अस्	-12249
▁कवक	-12250
मार्क	-12251
लेन्ड	-12252
▁User	-12253
▁कृषक	-12254
▁ठेके	-12255
▁नुक़	-12256
▁शिया	-12257
▁सवाब	-12258
▁हुकू	-12259
lation	-12260
▁कुष्ठ	-12261
▁चुनना	-12262
▁बैठकर	-12263
▁ब्लॉग	-12264
ट्रिक्स	-12265
▁इज्ज़त	-12266
▁करवाने	-12267
▁कामकाज	-12268
▁पेइन्ट	-12269
▁टेक्स्ट	-12270
▁लोकोनुं	-12271
▁इमारतोनी	-12272
▁मुहाफ़ज़ाह	-12273
▁साक्षात्कार	-12274
22	-12275
ep	-12276
ुस	-12277
ink	-12278
टाइ	-12279
डां	-12280
ध्ध	-12281
निश	-12282
ौली	-12283
▁06	-12284
ध्वज	-12285
न्नी	-12286
र्दी	-12287
वाड़	-12288
▁ऑर्	-12289
▁मीर	-12290
▁अंते	-12291
▁आड़ा	-12292
▁बिनआ	-12293
▁बोटल	-12294
मूर्ति	-12295
▁ऊंचाइ	-12296
▁छाजली	-12297
▁फैसले	-12298
▁विनोद	-12299
▁विश्र	-12300
▁सख्ती	-12301
▁सीमां	-12302
▁हटाएं	-12303
▁अटकावो	-12304
▁खावाथी	-12305
▁विफलता	-12306
▁समेकित	-12307
▁हालिया	-12308
▁ट्रान्स	-12309
▁द्वारका	-12310
▁वॉल्यूम	-12311
▁खुशख़बरी	-12312
▁पासपोर्ट	-12313
▁बहुमूल्य	-12314
▁प्रातःकाल	-12315
▁यात्रियों	-12316
▁प्रतिरक्षा	-12317
esh	-12318
ज़ु	-12319
बरे	-12320
श्क	-12321
▁मॅ	-12322
▁लट	-12323
Char	-12324
येलो	-12325
लिता	-12326
▁झलक	-12327
▁झाँ	-12328
▁टोक	-12329
▁लूप	-12330
▁वधी	-12331
न्नति	-12332
▁ऑफिस	-12333
▁टाटा	-12334
▁तिलक	-12335
▁मुआव	-12336
▁युवक	-12337
▁सपाट	-12338
▁साधु	-12339
▁होली	-12340
ेन्द्र	-12341
▁कोयले	-12342
▁पुरात	-12343
▁भूटान	-12344
▁मूलतः	-12345
▁समझती	-12346
▁स्पैम	-12347
▁हालना	-12348
▁इच्छुक	-12349
▁जनजाति	-12350
▁तिमाही	-12351
▁तेलुगु	-12352
▁दांतों	-12353
▁भाइयों	-12354
▁शनिवार	-12355
▁स्टाइल	-12356
▁स्थानः	-12357
▁अंटार्क	-12358
▁अंतरफलक	-12359
▁प्रगाढ़	-12360
▁फेफड़ों	-12361
▁रेकोर्ड	-12362
▁सरपरस्त	-12363
▁त्रिज्या	-12364
▁दर्शावती	-12365
▁कठिनाइयों	-12366
▁पुनर्निर्	-12367
▁संवैधानिक	-12368
▁स्वैच्छिक	-12369
▁एक्सप्रेशन	-12370
▁कार्यपालिका	-12371
ak	-12372
usa	-12373
करे	-12374
वलय	-12375
▁रथ	-12376
ज़ूद	-12377
साना	-12378
▁115	-12379
▁आमा	-12380
▁आहि	-12381
▁ईमे	-12382
▁ग़ा	-12383
▁डेन	-12384
▁मकर	-12385
▁रपट	-12386
▁सुप	-12387
▁स्फ	-12388
कर्षण	-12389
भिमान	-12390
मियों	-12391
▁अस्व	-12392
▁कमिट	-12393
▁ग़लत	-12394
▁जूते	-12395
▁पहना	-12396
▁पाकी	-12397
▁पेंट	-12398
▁बताओ	-12399
▁भृंग	-12400
▁रुजू	-12401
▁अमिता	-12402
▁कीड़े	-12403
▁गुम्ब	-12404
▁ट्रां	-12405
▁वसवाट	-12406
▁साचुं	-12407
▁उपासना	-12408
▁गुर्दे	-12409
▁चट्टान	-12410
▁डेवलपर	-12411
▁दादाओं	-12412
▁विजेता	-12413
▁विषाणु	-12414
▁सुलभता	-12415
▁टेलिफोन	-12416
▁डिज़ाइन	-12417
▁तार्किक	-12418
▁फरिश्ते	-12419
▁वधारानी	-12420
▁करनेवाली	-12421
▁शिकायतों	-12422
▁गुनाहगारों	-12423
▁पिक्सेलोमां	-12424
iz	-12425
दीप	-12426
न्क	-12427
प्ल	-12428
ायो	-12429
▁अघ	-12430
▁चं	-12431
▁आलू	-12432
▁चैक	-12433
▁दुर	-12434
▁पैक	-12435
▁हज़	-12436
टिबंध	-12437
नियाँ	-12438
हार्य	-12439
ारोपण	-12440
▁कटाई	-12441
▁करोड	-12442
▁चलाए	-12443
▁तपास	-12444
▁फेरा	-12445
▁भण्ड	-12446
▁लगीं	-12447
▁लिफा	-12448
▁अवगणो	-12449
▁इंगित	-12450
▁तरीक़	-12451
▁दोहरी	-12452
▁बचाया	-12453
▁माउंट	-12454
▁मारता	-12455
▁हालात	-12456
▁हिंदु	-12457
▁ग्रसनी	-12458
▁ढूंढने	-12459
▁प्रेरक	-12460
▁बरसाया	-12461
▁लखाणने	-12462
▁साइकिल	-12463
शास्त्री	-12464
▁अनुसारः	-12465
▁आपराधिक	-12466
▁ऋणात्मक	-12467
▁कुंजीपट	-12468
▁पूर्णांक	-12469
▁प्रतिबन्ध	-12470
ategoryName	-12471
▁स्क्रीननुं	-12472
▁श्रद्धांजलि	-12473
िआ	-12474
ोम	-12475
ond	-12476
एआर	-12477
कुं	-12478
झोन	-12479
फिक	-12480
ोही	-12481
▁रग	-12482
टेन्	-12483
दिरा	-12484
वारा	-12485
▁उठी	-12486
▁उडे	-12487
▁उपफ	-12488
▁तड़	-12489
▁पीट	-12490
▁1947	-12491
▁तटीय	-12492
▁दायर	-12493
▁मच्छ	-12494
▁ऑफसेट	-12495
▁कच्चा	-12496
▁कोलंब	-12497
▁परमिट	-12498
▁मुर्ग	-12499
▁मौसमः	-12500
िश्रमिक	-12501
▁अदायगी	-12502
▁जग्याओ	-12503
▁टेलीवि	-12504
▁नवाचार	-12505
▁बलिदान	-12506
▁आदिवासी	-12507
▁किन्हीं	-12508
▁विनियमन	-12509
▁आस्तियां	-12510
▁परवानगीओ	-12511
▁पहुंचाने	-12512
▁सहभागिता	-12513
▁बनाववानुं	-12514
▁पारिश्रमिक	-12515
▁सोफ्टवेरने	-12516
25	-12517
ईस	-12518
ख़ी	-12519
टेक	-12520
णने	-12521
दना	-12522
समी	-12523
ेंग	-12524
ेगा	-12525
सन्न	-12526
सेवर	-12527
ुटुथ	-12528
▁एंज	-12529
▁जलन	-12530
▁पों	-12531
▁सौह	-12532
बिंदु	-12533
र्करा	-12534
▁उलटी	-12535
▁कोले	-12536
▁गामा	-12537
▁टूटी	-12538
▁तालु	-12539
▁बेतर	-12540
▁मरना	-12541
▁सुझा	-12542
▁सूअर	-12543
▁२००७	-12544
यात्री	-12545
सिस्टम	-12546
▁कायमी	-12547
▁चलेगा	-12548
▁चोंटा	-12549
▁बेरोज	-12550
▁महीना	-12551
▁लगाएँ	-12552
▁सुमेळ	-12553
▁अस्त्र	-12554
▁ईतिहास	-12555
▁चिन्ता	-12556
▁विमानो	-12557
▁अपमानित	-12558
▁किबोर्ड	-12559
▁ब्लुटुथ	-12560
▁हिंदुओं	-12561
▁बाइंडिंग	-12562
▁महाकाव्य	-12563
▁हेक्टेयर	-12564
रह	-12565
घ्न	-12566
िलि	-12567
▁37	-12568
▁खन	-12569
मस्त	-12570
शियम	-12571
▁अंद	-12572
▁अपा	-12573
▁गंग	-12574
▁बग़	-12575
▁मेम	-12576
▁सिन	-12577
▁अभिश	-12578
▁अश्र	-12579
▁उपरो	-12580
▁क्वा	-12581
▁चंडी	-12582
▁झाड़	-12583
▁पताः	-12584
▁यूरे	-12585
▁लशकर	-12586
▁सींग	-12587
▁हुईं	-12588
▁आवंटन	-12589
▁जमानत	-12590
▁निचला	-12591
▁फ़ोटो	-12592
▁सुप्र	-12593
▁हाइपर	-12594
▁अपनाना	-12595
▁क्रमिक	-12596
▁निवेशक	-12597
▁मतदाता	-12598
▁वपराती	-12599
▁सरेराश	-12600
▁उत्प्रे	-12601
▁बास्केट	-12602
▁विधियों	-12603
▁निरीक्षक	-12604
▁मुलाकातो	-12605
▁लाववामां	-12606
▁द्विआधारी	-12607
▁निर्देशों	-12608
इए	-12609
ack	-12610
per	-12611
वंत	-12612
▁85	-12613
ऊँगा	-12614
▁आत्	-12615
▁बीट	-12616
▁वहे	-12617
KChar	-12618
चरिता	-12619
▁अवगत	-12620
▁इन्द	-12621
▁उठना	-12622
▁टकरा	-12623
▁रूजू	-12624
कृष्णन	-12625
क्षमता	-12626
▁एहसास	-12627
▁नंबरो	-12628
▁पृथक्	-12629
▁मुकाम	-12630
▁लेखों	-12631
▁चुकौती	-12632
▁निकासी	-12633
▁निष्का	-12634
▁सभापति	-12635
▁समर्थक	-12636
विज्ञानी	-12637
▁नंखायेल	-12638
▁मार्टिन	-12639
▁मुर्दों	-12640
▁मेंटेनर	-12641
▁स्नातको	-12642
▁अवसंरचना	-12643
▁प्रतिरूप	-12644
▁विशेषज्ञता	-12645
▁समाचारपत्र	-12646
CategoryName	-12647
▁अनुक्रमणिका	-12648
▁विमानक्षेत्रों	-12649
Cal	-12650
बाब	-12651
बेन	-12652
▁गइ	-12653
▁३१	-12654
जोरी	-12655
द्वि	-12656
सेवक	-12657
ोगिक	-12658
▁अचल	-12659
▁इल्	-12660
▁उज़	-12661
▁चेन	-12662
▁फेस	-12663
▁अज्र	-12664
▁आरोह	-12665
▁गाथा	-12666
▁चौदह	-12667
▁जागर	-12668
▁डिजी	-12669
▁तिरु	-12670
▁नीची	-12671
▁पराव	-12672
▁मुरा	-12673
▁श्लो	-12674
विद्या	-12675
▁किसने	-12676
▁डकोटा	-12677
▁युग्म	-12678
▁रोकना	-12679
▁स्थाई	-12680
▁हूंफा	-12681
▁अनदेखा	-12682
▁जिज्ञा	-12683
▁मैनुअल	-12684
▁विपक्ष	-12685
▁सेकण्ड	-12686
▁आज़माइश	-12687
▁क़ब्रों	-12688
▁चोकठांओ	-12689
▁बेहतरीन	-12690
▁मलेरिया	-12691
▁मूकवामां	-12692
▁वार्षिकी	-12693
▁एजेंसियों	-12694
▁मंत्रियों	-12695
▁दृष्टिगोचर	-12696
,6	-12697
इक	-12698
ऐं	-12699
▁ं	-12700
iew	-12701
lay	-12702
out	-12703
स्ड	-12704
▁55	-12705
▁फं	-12706
ypro	-12707
टेबल	-12708
नाइट	-12709
▁गम्	-12710
▁जात	-12711
▁भाष	-12712
▁मता	-12713
▁सडक	-12714
vince	-12715
शासित	-12716
▁इन्फ	-12717
▁काढो	-12718
▁गांठ	-12719
▁घेटा	-12720
▁झूठी	-12721
▁नाफर	-12722
▁निरु	-12723
▁फज़ल	-12724
▁बेठो	-12725
▁सल्त	-12726
कुमारी	-12727
ानुसार	-12728
▁अब्बा	-12729
▁करतूत	-12730
▁उभारें	-12731
▁जुड़ने	-12732
▁नौसेना	-12733
▁प्रचलन	-12734
▁फ़रवरी	-12735
▁सिक्के	-12736
▁अनिवासी	-12737
▁अप्रत्य	-12738
▁दोहराएँ	-12739
▁परिपक्व	-12740
▁सूचनाओं	-12741
▁घेरायेला	-12742
▁निवेदिता	-12743
▁तुल्यकालन	-12744
▁प्रदर्शनी	-12745
▁मोटरसाइकल्स	-12746
कॉ	-12747
तृ	-12748
निय	-12749
बिट	-12750
शाल	-12751
सिन	-12752
▁उं	-12753
▁ओं	-12754
▁ओन	-12755
खड़ा	-12756
गर्भ	-12757
जीपी	-12758
ार्ग	-12759
▁पकड	-12760
▁व्ह	-12761
icode	-12762
ितानी	-12763
▁1990	-12764
▁आउटल	-12765
▁घमंड	-12766
▁तैना	-12767
▁बताई	-12768
▁बहाल	-12769
▁वज़न	-12770
▁उपनिष	-12771
▁क्रोए	-12772
▁खारिज	-12773
▁घटाना	-12774
▁चालीस	-12775
▁चिंघा	-12776
▁रातों	-12777
▁रेन्ड	-12778
▁शहेरी	-12779
ोनेशिया	-12780
▁कीमिया	-12781
▁कुत्ते	-12782
▁पैमाना	-12783
▁फ़ाइलः	-12784
▁फ़ैसले	-12785
▁बढ़ाया	-12786
▁महाप्र	-12787
▁रिश्ते	-12788
▁सलामती	-12789
▁स्थिती	-12790
italypro	-12791
▁कामगीरी	-12792
▁चार्ल्स	-12793
▁बांधकाम	-12794
▁बेतरतीब	-12795
▁संदिग्ध	-12796
▁सुचरिता	-12797
▁स्पर्धा	-12798
▁अधिग्रहण	-12799
▁स्नातकोत्तर	-12800
italyprovince	-12801
one	-12802
काण	-12803
बूझ	-12804
िले	-12805
▁ढु	-12806
▁लह	-12807
दण्ड	-12808
▁एसी	-12809
▁बतक	-12810
▁रां	-12811
ख्वाह	-12812
नेशनल	-12813
▁cont	-12814
▁इनकम	-12815
▁उड़न	-12816
▁कथित	-12817
▁निगल	-12818
▁परिच	-12819
▁पैदल	-12820
▁बकरी	-12821
▁सेवक	-12822
▁सोलह	-12823
Region	-12824
नोलोजी	-12825
ब्राल्	-12826
▁अभ्या	-12827
▁इनायत	-12828
▁ख़याल	-12829
▁चुम्ब	-12830
▁फाइनल	-12831
▁रहेशे	-12832
▁वांचन	-12833
तापूर्ण	-12834
▁आउटलुक	-12835
▁कंप्यू	-12836
▁गम्भीर	-12837
▁गुप्ता	-12838
▁झेब्रा	-12839
▁समझाया	-12840
▁सीमांत	-12841
▁दीपावली	-12842
▁द्वीपों	-12843
▁नियोजित	-12844
▁कहानियां	-12845
▁प्रसारित	-12846
▁श्रीकृष्ण	-12847
▁सार्वभौमिक	-12848
▁स्क्रीनशोट	-12849
▁डिरेक्टरीने	-12850
Imp	-12851
ord	-12852
बॉल	-12853
रिश	-12854
िकन	-12855
ीयर	-12856
▁38	-12857
▁51	-12858
चुअल	-12859
वर्स	-12860
▁अप्	-12861
▁खनन	-12862
▁गुज	-12863
▁जाळ	-12864
▁जेब	-12865
▁जोग	-12866
▁थाई	-12867
▁बुर	-12868
▁मरु	-12869
▁रिफ	-12870
▁वेर	-12871
▁वोट	-12872
▁हीन	-12873
वर्धक	-12874
▁आरटी	-12875
▁उदास	-12876
▁खगोल	-12877
▁चाचा	-12878
▁चौबी	-12879
▁जीती	-12880
▁पाँव	-12881
▁पाकर	-12882
▁फेरे	-12883
▁बांट	-12884
▁लेंस	-12885
▁विलय	-12886
▁विवश	-12887
▁व्यू	-12888
नामकरण	-12889
▁needs	-12890
▁अठारह	-12891
▁असफ़ल	-12892
▁तिहाई	-12893
▁प्रसि	-12894
▁रोकता	-12895
▁संकोच	-12896
▁एंपेथी	-12897
▁ग्लोबल	-12898
▁पुरातन	-12899
▁पुरूषो	-12900
▁ब्राउझ	-12901
▁मणीलाल	-12902
▁स्वराज	-12903
▁अभिलेखा	-12904
▁आनेवाली	-12905
▁कैलेंडर	-12906
▁क्रियाओ	-12907
▁लाभकारी	-12908
▁स्थितिः	-12909
▁बंधबेसता	-12910
▁असुरक्षित	-12911
▁फ़ोल्डरों	-12912
▁पर्यवेक्षण	-12913
CA	-12914
धना	-12915
सम्	-12916
▁नफ	-12917
able	-12918
rome	-12919
गांव	-12920
ड़ें	-12921
फ़ोन	-12922
वेली	-12923
▁चलन	-12924
▁ज़े	-12925
▁बाण	-12926
arely	-12927
ग्रही	-12928
न्तरण	-12929
र्वाद	-12930
स्टिट	-12931
▁type	-12932
▁आश्व	-12933
▁एसिड	-12934
▁पोजी	-12935
▁भूलो	-12936
▁मरीज	-12937
▁सीसी	-12938
श्लेषण	-12939
▁इन्ते	-12940
▁घुटने	-12941
▁ट्रेड	-12942
▁देगें	-12943
▁भरेंः	-12944
▁मळ्या	-12945
▁मिलें	-12946
▁सिस्ट	-12947
▁rarely	-12948
▁आवासीय	-12949
▁जानकार	-12950
▁मुहैया	-12951
▁शासकों	-12952
▁काउंसिल	-12953
▁चांदीना	-12954
▁निकोबार	-12955
▁पर्वतों	-12956
▁श्लोकों	-12957
▁संकुचित	-12958
▁सौहार्द	-12959
▁श्रमिकों	-12960
▁अधिकारिता	-12961
▁माननेवाले	-12962
▁विशेषताएँ	-12963
▁कार्यक्रमने	-12964
▁निम्नानुसार	-12965
Con	-12966
क्श	-12967
खोर	-12968
फ़त	-12969
लिन	-12970
सेफ	-12971
ुवा	-12972
ौना	-12973
roup	-12974
ियुं	-12975
ैक्स	-12976
▁नफ़	-12977
▁भाप	-12978
▁लीध	-12979
न्सोल	-12980
वर्डो	-12981
▁अकृत	-12982
▁खिंच	-12983
▁छिड़	-12984
▁धीमा	-12985
▁राजी	-12986
▁स्या	-12987
▁अहसास	-12988
▁ऑंखें	-12989
▁क़ौमे	-12990
▁गिर्द	-12991
▁जीर्ण	-12992
▁तुच्छ	-12993
▁नाशुक	-12994
▁नोट्स	-12995
▁बेकअप	-12996
▁बेमेल	-12997
▁मिनिट	-12998
▁लिपिक	-12999
▁विहार	-13000
▁स्पीड	-13001
प्रणाली	-13002
▁format	-13003
▁एलार्म	-13004
▁खींचने	-13005
▁ख्याति	-13006
▁ग्रीवा	-13007
▁ठहराया	-13008
▁प्रचंड	-13009
▁मॉनीटर	-13010
▁व्यतीत	-13011
▁शेयर्स	-13012
▁सार्थक	-13013
▁हुकूमत	-13014
ब्राल्टर	-13015
▁इनकमिंग	-13016
▁एनआईओएस	-13017
▁ऑक्सीजन	-13018
▁जेनेरिक	-13019
▁तदनुसार	-13020
▁पाबन्दी	-13021
▁द्वितीयक	-13022
▁जाणकारीने	-13023
▁प्रतिबिंबित	-13024
▁पूर्णस्क्रीन	-13025
if	-13026
int	-13027
क्य	-13028
टोन	-13029
तुर	-13030
दून	-13031
नोट	-13032
stel	-13033
हाउस	-13034
▁आयो	-13035
▁आला	-13036
▁कस्	-13037
▁गला	-13038
▁घटी	-13039
▁छान	-13040
▁जूट	-13041
▁डेक	-13042
▁नका	-13043
▁बरह	-13044
▁रेज	-13045
▁वाग	-13046
पुष्प	-13047
▁अँधे	-13048
▁ऑप्ट	-13049
▁तरती	-13050
▁नकार	-13051
▁पूरो	-13052
▁राज़	-13053
▁रुग्	-13054
▁लाम॰	-13055
▁लोकल	-13056
प्रदेश	-13057
▁औरतें	-13058
▁क़्या	-13059
▁खोजना	-13060
▁बोलता	-13061
▁मायने	-13062
▁उल्लास	-13063
▁निर्या	-13064
▁मिटाएं	-13065
▁स्कीमा	-13066
▁अग्रसार	-13067
▁कलात्मक	-13068
▁क़िस्मः	-13069
▁बागवानी	-13070
▁प्रकोष्ठ	-13071
▁विजेताओं	-13072
▁समितियां	-13073
▁हूंफाळुं	-13074
▁अपीलार्थी	-13075
▁चमत्कारों	-13076
▁बाथरूमनुं	-13077
▁प्रतिस्थापन	-13078
▁स्क्रीनसेवर	-13079
रन	-13080
कैल	-13081
चंद	-13082
वेट	-13083
्ती	-13084
▁42	-13085
▁ईस	-13086
▁पछ	-13087
उन्ट	-13088
ऊंगा	-13089
बंधन	-13090
ूंगी	-13091
▁आखा	-13092
▁नोक	-13093
▁एकमो	-13094
▁कारख	-13095
▁जुटा	-13096
▁डराओ	-13097
▁डायल	-13098
▁ब्ला	-13099
▁लिहा	-13100
▁लोगे	-13101
▁अगरचे	-13102
▁इंजिन	-13103
▁खर्चे	-13104
▁जमींद	-13105
▁नगरों	-13106
▁पूरती	-13107
▁मोडेल	-13108
▁सौन्द	-13109
व्यवहार	-13110
▁तकतीनी	-13111
▁नीचेना	-13112
▁फाइलें	-13113
▁यूआरआई	-13114
▁सिफ़ार	-13115
▁स्वरुप	-13116
▁स्वदेशी	-13117
▁संपूर्णपणे	-13118
ong	-13119
किक	-13120
भीत	-13121
मोद	-13122
ोशी	-13123
क्टी	-13124
च्छद	-13125
तानी	-13126
ध्वा	-13127
यादी	-13128
▁are	-13129
▁आवो	-13130
▁लैन	-13131
▁शतर	-13132
ड्यूल	-13133
ारायण	-13134
ेशिया	-13135
▁अकड़	-13136
▁अतिक	-13137
▁आमने	-13138
▁आर्क	-13139
▁करों	-13140
▁चादर	-13141
▁पाडे	-13142
▁बाला	-13143
▁सोया	-13144
▁block	-13145
▁उल्टी	-13146
▁कंपोज	-13147
▁दिखला	-13148
▁सपनों	-13149
▁सॉकेट	-13150
▁कमजोरी	-13151
▁निस्बत	-13152
▁संदेशः	-13153
▁उपरोक्त	-13154
▁पहुँचना	-13155
▁पेकेजने	-13156
▁फिल्मों	-13157
▁फैक्टरी	-13158
▁सुशोभित	-13159
▁सैकड़ों	-13160
▁तात्पर्य	-13161
▁पासवर्डो	-13162
▁विधायिका	-13163
▁निश्चिन्त	-13164
▁वाक़िफकार	-13165
▁विशेषज्ञों	-13166
IME	-13167
ber	-13168
एफ़	-13169
फाई	-13170
बाइ	-13171
सने	-13172
ितु	-13173
अंदा	-13174
गेरे	-13175
विता	-13176
श्या	-13177
सिडी	-13178
▁186	-13179
▁कवच	-13180
▁कौर	-13181
▁गरि	-13182
▁टूर	-13183
▁तां	-13184
▁पदो	-13185
▁भया	-13186
▁लटक	-13187
▁सुस	-13188
बिम्ब	-13189
▁उतने	-13190
▁करशो	-13191
▁गुने	-13192
▁टैंक	-13193
▁ताना	-13194
▁बनाओ	-13195
▁रीडर	-13196
▁रीढ़	-13197
▁सरोज	-13198
▁हंसी	-13199
ermiss	-13200
▁अरुणा	-13201
▁आच्छा	-13202
▁ठहरने	-13203
▁दायरे	-13204
▁बूढ़ा	-13205
▁ब्लैक	-13206
▁लांबो	-13207
▁उपसर्ग	-13208
▁क्षिति	-13209
▁पकड़कर	-13210
▁तेमांथी	-13211
▁फाइलनाम	-13212
▁भिन्नता	-13213
▁मौजिज़ा	-13214
▁श्रेणीःअ	-13215
▁संख्याओं	-13216
▁पंक्तियाँ	-13217
▁अनुपस्थिति	-13218
ll	-13219
गाव	-13220
डाण	-13221
पाय	-13222
ागर	-13223
िपल	-13224
▁र्	-13225
क़ात	-13226
गेशन	-13227
माईल	-13228
सेसर	-13229
हानी	-13230
▁कंठ	-13231
▁खोख	-13232
▁वरा	-13233
▁हेर	-13234
कार्य	-13235
चित्य	-13236
▁आयतन	-13237
▁खेतर	-13238
▁गुदा	-13239
▁झुके	-13240
▁ब्लू	-13241
▁मेनन	-13242
▁लाठी	-13243
istbox	-13244
ग्रन्थ	-13245
दृष्टि	-13246
▁ग्रेट	-13247
▁चिन्त	-13248
▁नाड़ी	-13249
▁पक्षा	-13250
▁पच्ची	-13251
▁पत्तन	-13252
▁पैकेट	-13253
▁बढावा	-13254
▁महानि	-13255
▁राक्ष	-13256
▁रेज़ा	-13257
▁रोमान	-13258
▁स्पूल	-13259
ोर्निया	-13260
▁अप्रिय	-13261
▁घटनाएं	-13262
▁डिप्लो	-13263
▁मूत्रा	-13264
▁रेस्टर	-13265
▁शकातुं	-13266
▁एनिमेशन	-13267
▁गुंजाइश	-13268
▁नैतिकता	-13269
▁मोड्यूल	-13270
▁सम्पादन	-13271
▁हाइलाइट	-13272
▁उत्तेजना	-13273
▁चमकीलापन	-13274
▁प्रक्रमण	-13275
▁प्रायोगिक	-13276
▁संभावनाओं	-13277
▁उत्तमकारों	-13278
,4	-13279
SC	-13280
ंधी	-13281
सें	-13282
ालन	-13283
▁ठो	-13284
▁रच	-13285
एन्ड	-13286
ज़ेए	-13287
वाहा	-13288
ुलकर	-13289
्राण	-13290
▁raj	-13291
▁अधो	-13292
▁चबा	-13293
▁ठान	-13294
▁डाम	-13295
▁नाच	-13296
▁पिय	-13297
▁पूल	-13298
▁मसल	-13299
▁योह	-13300
▁सान	-13301
ध्याय	-13302
र्मित	-13303
संबंध	-13304
▁असीम	-13305
▁ईर्ष	-13306
▁क्वे	-13307
▁डीपी	-13308
▁पद्य	-13309
▁बीवी	-13310
▁मस्त	-13311
▁सूरी	-13312
select	-13313
ववामां	-13314
▁अनजान	-13315
▁आव्यु	-13316
▁आस्ति	-13317
▁उद्गम	-13318
▁उल्टा	-13319
▁एकांत	-13320
▁चढ़ाव	-13321
▁टुकडा	-13322
▁दिवसो	-13323
▁दुसरे	-13324
▁नोटों	-13325
▁शिथिल	-13326
▁अंडमान	-13327
▁छुपाडो	-13328
▁नवीकरण	-13329
▁वाज़ेए	-13330
▁सिन्धु	-13331
▁स्पर्ध	-13332
▁unicode	-13333
▁खुल्लुं	-13334
▁दर्शाने	-13335
▁मंत्रिम	-13336
▁अहमदाबाद	-13337
▁निर्भरता	-13338
▁ब्रितानी	-13339
▁माइक्रोसॉ	-13340
KCharselect	-13341
▁मुख्यमंत्री	-13342
▁जावास्क्रिप्ट	-13343
ज़ों	-13344
ढ़ने	-13345
दीक़	-13346
▁set	-13347
▁जेओ	-13348
▁सोव	-13349
▁१९४	-13350
धान्य	-13351
विधिक	-13352
▁उडान	-13353
▁एन्ट	-13354
▁कसरत	-13355
▁काया	-13356
▁कॉफी	-13357
▁घिरा	-13358
▁पथरी	-13359
▁परमा	-13360
▁बापू	-13361
▁राहे	-13362
▁सल्ल	-13363
▁सान्	-13364
▁अंकों	-13365
▁खेलते	-13366
▁खोलकर	-13367
▁छोड़ो	-13368
▁थ्रेश	-13369
▁दिखने	-13370
▁बंधबे	-13371
▁भूकंप	-13372
▁मलाशय	-13373
▁मिटाए	-13374
▁रखेगा	-13375
▁विस्म	-13376
▁श्रवण	-13377
▁संभोग	-13378
▁सनातन	-13379
▁नाटकीय	-13380
▁मौद्रिक	-13381
▁सूत्रकृमि	-13382
▁सूक्ष्मदर्शी	-13383
:00	-13384
वृत	-13385
ौरी	-13386
▁he	-13387
▁खौ	-13388
एसडी	-13389
ण्डर	-13390
न्धि	-13391
बूतर	-13392
▁आगम	-13393
▁आली	-13394
▁एरे	-13395
▁कमि	-13396
▁गिल	-13397
▁तें	-13398
▁नें	-13399
▁फाळ	-13400
▁रघु	-13401
▁लात	-13402
▁लूट	-13403
▁शाल	-13404
▁सती	-13405
▁सबक	-13406
▁कोरो	-13407
▁खाती	-13408
▁गियर	-13409
▁तनिक	-13410
▁तबली	-13411
▁थैली	-13412
▁देहा	-13413
▁फर्श	-13414
▁बुझा	-13415
ग्राही	-13416
म्परिक	-13417
▁क्रूर	-13418
▁ज़िला	-13419
▁जार्ज	-13420
▁जिक्र	-13421
▁दुष्ट	-13422
▁माइकल	-13423
▁मैसूर	-13424
▁राहुल	-13425
▁सजावट	-13426
▁साहिब	-13427
रूद्दीन	-13428
▁खाद्या	-13429
▁जंगलों	-13430
▁पोजीशन	-13431
▁फाइलों	-13432
▁बनवाया	-13433
▁भ्रष्ट	-13434
▁मेहमान	-13435
▁मौज़ूद	-13436
▁राजकोट	-13437
▁रिसालत	-13438
▁सेन्टर	-13439
▁जन्मजात	-13440
▁दर्शाती	-13441
▁दुरूस्त	-13442
▁वियतनाम	-13443
▁संग्रहा	-13444
▁आशीर्वाद	-13445
▁चन्द्रमा	-13446
▁नियमावली	-13447
▁विस्तारक	-13448
▁स्थितिने	-13449
▁इलेक्ट्रो	-13450
▁स्पर्धकोने	-13451
सद	-13452
गति	-13453
गेह	-13454
संघ	-13455
हनी	-13456
हें	-13457
ग्रं	-13458
पर्व	-13459
प्रो	-13460
ॉर्ट	-13461
▁एफ़	-13462
▁टेग	-13463
▁बुझ	-13464
▁रवै	-13465
▁साज	-13466
मितीय	-13467
▁NAME	-13468
▁time	-13469
▁अटकल	-13470
▁क्षम	-13471
▁छापा	-13472
▁जाली	-13473
▁मूके	-13474
▁यादृ	-13475
▁सीने	-13476
▁सुवि	-13477
पद्धति	-13478
▁अवसाद	-13479
▁डिम्ब	-13480
▁प्रगट	-13481
▁प्रवी	-13482
▁फुहार	-13483
▁बारीक	-13484
▁लाभों	-13485
▁वांचे	-13486
▁शकायो	-13487
▁सिंधी	-13488
▁गुम्बद	-13489
▁देखाडो	-13490
▁नाइट्र	-13491
▁पुनःसु	-13492
▁बतावेल	-13493
▁बिलियन	-13494
▁लोकोना	-13495
▁संरेखण	-13496
▁हाथमां	-13497
▁क़ाबिले	-13498
▁काश्मीर	-13499
▁कुफ्फार	-13500
▁विलक्षण	-13501
▁सन्दर्भ	-13502
▁उद्यमिता	-13503
▁ऑपरेटिंग	-13504
▁प्रतिभाग	-13505
▁संकळायेल	-13506
▁सब्जियों	-13507
ug	-13508
ठर	-13509
ैड	-13510
ces	-13511
eck	-13512
मैप	-13513
रोग	-13514
लना	-13515
लाव	-13516
▁An	-13517
▁गह	-13518
▁४०	-13519
आरसी	-13520
नोनी	-13521
सरता	-13522
ारसी	-13523
ाववा	-13524
▁अक़	-13525
▁अमू	-13526
▁काच	-13527
▁गेम	-13528
▁चर्	-13529
▁चीख	-13530
▁दुम	-13531
▁बेझ	-13532
▁मरत	-13533
▁यों	-13534
▁वाज	-13535
▁हाव	-13536
नीतिक	-13537
ान्तर	-13538
▁HTTP	-13539
▁इटली	-13540
▁कपूर	-13541
▁कॉलम	-13542
▁जगन्	-13543
▁टाईम	-13544
▁पोते	-13545
▁बंदी	-13546
▁बनवा	-13547
▁बाईं	-13548
▁मूकी	-13549
▁रचित	-13550
▁वृषण	-13551
▁सोचो	-13552
यात्रा	-13553
▁उखाड़	-13554
▁उपरना	-13555
▁चालवा	-13556
▁चूर्ण	-13557
▁डेवलप	-13558
▁बीजों	-13559
▁ब्रेड	-13560
▁रुसवा	-13561
▁विरूप	-13562
▁rajesh	-13563
▁अंधकार	-13564
▁अंधेरे	-13565
▁तन्त्र	-13566
▁दौड़ते	-13567
▁नजीकनी	-13568
▁नीतिगत	-13569
▁सदियों	-13570
▁अवरुद्ध	-13571
▁क्लासिक	-13572
▁ख़बरदार	-13573
▁जनजातीय	-13574
▁डेलिगेट	-13575
▁नुक़सान	-13576
▁पुनःप्र	-13577
▁पेटीमां	-13578
▁प्रामाण	-13579
▁फ़रमाया	-13580
▁रुपरेखा	-13581
▁संकेतों	-13582
▁जबरदस्ती	-13583
▁नरेन्द्र	-13584
▁संप्रदाय	-13585
▁स्त्रोतो	-13586
▁स्थापत्य	-13587
▁कार्यशाला	-13588
▁पुर्तगाली	-13589
▁साफ्टवेयर	-13590
New	-13591
कोज	-13592
ापे	-13593
ुली	-13594
▁ex	-13595
▁आड	-13596
▁उँ	-13597
▁ऐल	-13598
▁पॅ	-13599
डीपी	-13600
त्वा	-13601
बोर्	-13602
▁इंस	-13603
▁गेर	-13604
▁पथः	-13605
ळामां	-13606
▁गायक	-13607
▁दन्त	-13608
▁फोलो	-13609
▁बेपर	-13610
▁भाजक	-13611
▁मिनी	-13612
▁मिर्	-13613
▁संचय	-13614
▁स्ले	-13615
▁हैंड	-13616
क्षत्र	-13617
▁आवधिक	-13618
▁गरिमा	-13619
▁तालिब	-13620
▁ताळुं	-13621
▁फॉन्ट	-13622
▁बुर्ज	-13623
▁मध्या	-13624
▁मलयाल	-13625
▁मुंशी	-13626
▁वगैरह	-13627
▁स्काय	-13628
▁अप्रति	-13629
▁आउटडोर	-13630
▁उत्थान	-13631
▁क्यारे	-13632
▁गणितीय	-13633
▁जाएंगी	-13634
▁डिझाइन	-13635
▁तोड़ने	-13636
▁बुलन्द	-13637
▁मानोगे	-13638
▁योद्धा	-13639
▁शकायुं	-13640
▁अनुलग्न	-13641
▁जीराफ्स	-13642
▁विभागीय	-13643
▁व्याप्त	-13644
▁समयावधि	-13645
▁क्रियाने	-13646
▁क्रोमियम	-13647
▁संस्थापक	-13648
▁सौन्दर्य	-13649
▁यादृच्छिक	-13650
▁अभ्यासक्रम	-13651
गना	-13652
गीय	-13653
डबल	-13654
▁IP	-13655
▁मथ	-13656
ंकित	-13657
ष्मक	-13658
▁अमा	-13659
▁टोय	-13660
▁पगल	-13661
▁बाय	-13662
▁रमो	-13663
▁लेट	-13664
▁सुथ	-13665
िक्षण	-13666
▁अर्श	-13667
▁कर्क	-13668
▁मादक	-13669
▁आभूषण	-13670
▁इलाके	-13671
▁देयता	-13672
▁नाजुक	-13673
▁पाडेल	-13674
▁पुनरु	-13675
▁फैक्स	-13676
▁मियाद	-13677
▁मौसमी	-13678
▁योहान	-13679
▁लश्कर	-13680
▁लौटकर	-13681
▁सुनना	-13682
दर्शकता	-13683
▁अमिताभ	-13684
▁चाहेगा	-13685
▁तात्या	-13686
▁पद्दति	-13687
▁रियायत	-13688
▁रोगाणु	-13689
▁लगेंगे	-13690
▁संकेतन	-13691
▁दृश्यता	-13692
▁अस्पृश्य	-13693
▁पुनर्वास	-13694
▁रखनेवाला	-13695
▁संस्थागत	-13696
▁साझीदारी	-13697
ermissions	-13698
▁अपरिहार्य	-13699
▁विवेकानंद	-13700
▁स्टार्टअप	-13701
▁प्रावधानों	-13702
▁परिसंपत्तियां	-13703
/4	-13704
▁॥	-13705
घाट	-13706
जने	-13707
देय	-13708
बेझ	-13709
रने	-13710
शीय	-13711
क्रे	-13712
गमित	-13713
डीआई	-13714
द्रव	-13715
बरील	-13716
विद्	-13717
श्मी	-13718
सिंग	-13719
▁खली	-13720
▁मोम	-13721
▁रजी	-13722
▁लपे	-13723
▁वाट	-13724
▁वेल	-13725
कर्मी	-13726
त्तरी	-13727
िश्रण	-13728
ोरियम	-13729
▁कोला	-13730
▁क्षे	-13731
▁ख़ौफ	-13732
▁चारे	-13733
▁तबाह	-13734
▁दुरा	-13735
▁धनुष	-13736
▁निपु	-13737
▁युगल	-13738
ध्वाधर	-13739
मीटर्स	-13740
वीक्षा	-13741
संख्यक	-13742
▁इबलीस	-13743
▁कबूतर	-13744
▁जिनपर	-13745
▁रोकते	-13746
▁स्पिन	-13747
जनात्मक	-13748
▁कोष्ठक	-13749
▁जिबरील	-13750
▁नेपाली	-13751
▁बरफमां	-13752
▁बहुभुज	-13753
▁विवरणी	-13754
▁वीजकोष	-13755
▁शिकारी	-13756
▁अकृतज्ञ	-13757
▁अभिकल्प	-13758
▁इकाइयां	-13759
▁सब्सिडी	-13760
▁जादूगरों	-13761
▁निर्णयों	-13762
▁महानिदेश	-13763
▁विज्ञानी	-13764
stellation	-13765
▁बदरूद्दीन	-13766
▁हाइड्रोजन	-13767
▁दीर्घकालीन	-13768
▁परिसंपत्ति	-13769
▁मार्गदर्शक	-13770
▁पुनर्नामकरण	-13771
५०	-13772
डित	-13773
ोला	-13774
▁en	-13775
▁षड	-13776
एसटी	-13777
रिंग	-13778
व्यय	-13779
▁कमल	-13780
▁डॉक	-13781
▁निभ	-13782
▁पंथ	-13783
▁फरे	-13784
▁रेट	-13785
▁सरा	-13786
मांना	-13787
र्तिक	-13788
स्कोप	-13789
▁कपिल	-13790
▁कुंड	-13791
▁ट्रा	-13792
▁तंतु	-13793
▁लिएः	-13794
▁लीली	-13795
▁विला	-13796
▁वृहत	-13797
▁शकशो	-13798
▁सीगल	-13799
ड़ियां	-13800
रीक्षण	-13801
▁उर्जा	-13802
▁ऊष्मा	-13803
▁चौथाई	-13804
▁जायगा	-13805
▁भरेला	-13806
▁मस्ती	-13807
▁लीटीओ	-13808
▁वगेरे	-13809
▁वल्लभ	-13810
▁वाडनी	-13811
▁शतरंज	-13812
▁सहेजे	-13813
▁उद्धृत	-13814
▁औचित्य	-13815
▁कारीगर	-13816
▁कैन्टन	-13817
▁जोरदार	-13818
▁बिल्ली	-13819
▁भेड़ों	-13820
▁मॉनिटर	-13821
▁विलम्ब	-13822
▁श्रोणि	-13823
▁तत्कालीन	-13824
▁ब्रेकपाइ	-13825
▁मेलबॉक्स	-13826
▁यूरेनियम	-13827
▁थ्रेशोल्ड	-13828
▁अप्रत्यक्ष	-13829
▁चित्रात्मक	-13830
▁तुल्यकालित	-13831
▁परहेज़गारी	-13832
▁राधाकृष्णन	-13833
▁मुद्रास्फीति	-13834
▁प्राप्तकर्ताओं	-13835
ST	-13836
फॉ	-13837
भे	-13838
वं	-13839
कां	-13840
चाण	-13841
विच	-13842
सील	-13843
ूदा	-13844
▁अण	-13845
▁ओज	-13846
जियम	-13847
टाउन	-13848
ण्डे	-13849
लिंक	-13850
▁अटक	-13851
▁जुन	-13852
▁दरअ	-13853
▁पाट	-13854
▁भरण	-13855
▁शहद	-13856
▁शही	-13857
▁हैम	-13858
escri	-13859
ानिया	-13860
▁औरंग	-13861
▁नामो	-13862
▁पतला	-13863
▁पीसी	-13864
▁बधुं	-13865
▁व्रत	-13866
स्पष्ट	-13867
▁इक्का	-13868
▁चौधरी	-13869
▁जीवनी	-13870
▁ज्वार	-13871
▁तकिया	-13872
▁तरफथी	-13873
▁दबावो	-13874
▁दीवान	-13875
▁भेजते	-13876
▁मारना	-13877
▁वादळो	-13878
▁विजयी	-13879
▁वृंदा	-13880
▁अग्रसर	-13881
▁उत्तरः	-13882
▁कीमतें	-13883
▁मलयालम	-13884
▁राजकोष	-13885
▁संवेदी	-13886
▁सल्तनत	-13887
▁स्टीकी	-13888
▁आहिस्ता	-13889
▁ख्वाहिश	-13890
▁जरूरिया	-13891
▁दर्शकों	-13892
▁प्राप्य	-13893
▁विवादों	-13894
▁समाजवाद	-13895
▁प्रांप्ट	-13896
▁प्लगइनने	-13897
▁रेस्टरूम	-13898
▁सिंगापुर	-13899
▁होनेवाला	-13900
In	-13901
OL	-13902
नम	-13903
यद	-13904
नुक	-13905
▁41	-13906
▁उच	-13907
जोड़	-13908
नाशी	-13909
्यूब	-13910
▁per	-13911
▁छाल	-13912
▁पीछ	-13913
▁फलन	-13914
▁बुध	-13915
▁बेई	-13916
▁मसी	-13917
▁लोम	-13918
करणीय	-13919
देशिक	-13920
▁कचरे	-13921
▁ड्रो	-13922
▁तुलन	-13923
▁दाने	-13924
▁पढ़ो	-13925
▁फतेह	-13926
▁बचना	-13927
▁याक़	-13928
▁लगों	-13929
▁लाये	-13930
▁शीशे	-13931
▁साउथ	-13932
्रास्ट	-13933
▁चौड़ा	-13934
▁जिंदा	-13935
▁जोईने	-13936
▁ट्रिब	-13937
▁निरोध	-13938
▁मक्खी	-13939
▁म्युझ	-13940
▁ललिता	-13941
▁विडिओ	-13942
▁काउंटर	-13943
▁चमकदार	-13944
▁तेनाथी	-13945
▁मानसून	-13946
▁लक्षित	-13947
▁अनुकूलन	-13948
▁मछलियों	-13949
▁अनुकूलित	-13950
▁एटलांटिक	-13951
▁क्रमबद्ध	-13952
▁क्षमताओं	-13953
▁बाथरूमनी	-13954
▁मूत्राशय	-13955
▁तात्कालिक	-13956
▁प्रियव्रत	-13957
▁संस्थापना	-13958
▁क्रियाकलाप	-13959
▁प्रतिबिम्ब	-13960
▁आत्मविश्वास	-13961
▁क्षतिग्रस्त	-13962
खलन	-13963
खुं	-13964
ालु	-13965
▁चख	-13966
▁टच	-13967
▁बृ	-13968
चक्र	-13969
र्थी	-13970
वानु	-13971
▁एडी	-13972
▁जनस	-13973
▁जना	-13974
▁जमे	-13975
▁नेम	-13976
▁फटा	-13977
▁माथ	-13978
▁मेच	-13979
देशीय	-13980
▁असम्	-13981
▁चलाई	-13982
▁ट्रो	-13983
▁डामर	-13984
▁डुबो	-13985
▁दीदी	-13986
▁धीमे	-13987
▁भरती	-13988
▁लौटे	-13989
▁वरन्	-13990
▁सरका	-13991
▁हरकत	-13992
फ्रेंस	-13993
▁अंडों	-13994
▁अंदाज	-13995
▁अपितु	-13996
▁असंगत	-13997
▁इशारा	-13998
▁जवानी	-13999
▁धब्बे	-14000
▁पाडवा	-14001
▁मीनार	-14002
▁मेनेज	-14003
▁रमतनी	-14004
▁रोडनी	-14005
▁विधेय	-14006
▁सरीही	-14007
▁सॉल्व	-14008
▁हकदार	-14009
▁अलमस्त	-14010
▁उन्मुख	-14011
▁गुणांक	-14012
▁छाँटें	-14013
▁बर्ताव	-14014
▁बाजुनी	-14015
▁सामग्र	-14016
▁असमर्थः	-14017
▁जगन्नाथ	-14018
▁डेटाबेझ	-14019
▁पूर्वान	-14020
▁फार्मेट	-14021
▁फुफ्फुस	-14022
▁संख़्या	-14023
▁हाइड्रो	-14024
▁अधिकाधिक	-14025
▁एख्तेयार	-14026
▁कामगारों	-14027
▁संतृप्ति	-14028
▁सिफ़ारिश	-14029
▁सुस्पष्ट	-14030
▁उद्यमियों	-14031
▁सूर्यास्त	-14032
▁परिवर्तनीय	-14033
▁पहचानकर्ता	-14034
▁अंटार्कटिका	-14035
▁सांप्रदायिक	-14036
▁कार्यक्षेत्र	-14037
IC	-14038
ib	-14039
उंट	-14040
गुआ	-14041
पाट	-14042
हों	-14043
▁इर	-14044
▁द्	-14045
ader	-14046
ंगों	-14047
कार्	-14048
डीयो	-14049
ब्ला	-14050
लेक्	-14051
शिला	-14052
ीर्ण	-14053
▁आसा	-14054
▁इतर	-14055
▁एला	-14056
▁किट	-14057
▁चहे	-14058
▁चाम	-14059
▁टॉप	-14060
▁मैप	-14061
▁सज़	-14062
ंजस्य	-14063
तनामी	-14064
तानों	-14065
फोर्ड	-14066
माण्ड	-14067
स्टीट	-14068
ान्ति	-14069
ायेली	-14070
▁काशी	-14071
▁छिपे	-14072
▁ठंडी	-14073
▁ड्रे	-14074
▁धूसर	-14075
▁पद्ध	-14076
▁फेडर	-14077
▁मीठा	-14078
▁मीरा	-14079
▁सिरा	-14080
▁स्कै	-14081
▁कराती	-14082
▁खरीदा	-14083
▁गोदाम	-14084
▁दुहरा	-14085
▁नरसिं	-14086
▁नागाल	-14087
▁नाराज	-14088
▁प्रफु	-14089
▁बांधी	-14090
▁बेलार	-14091
▁बेसता	-14092
▁युरोप	-14093
▁विखंड	-14094
▁शेल्फ	-14095
▁सर्दी	-14096
▁सोकेट	-14097
▁Chrome	-14098
▁अहंकार	-14099
▁कदाचित	-14100
▁क्योकि	-14101
▁तरीक़े	-14102
▁निद्रा	-14103
▁निर्मा	-14104
▁फैलाया	-14105
▁बर्स्ट	-14106
▁संसूचक	-14107
▁सूरदास	-14108
▁ब्रह्मा	-14109
▁आकाशगंगा	-14110
▁कोम्युटर	-14111
▁गोपनीयता	-14112
▁उपन्यासों	-14113
▁पारम्परिक	-14114
▁अवज्ञाकारी	-14115
▁कार्यकर्ता	-14116
▁पुनःसंग्रह	-14117
▁राष्ट्रध्वज	-14118
ंय	-14119
ंसक	-14120
जीर	-14121
णसी	-14122
माई	-14123
▁नब	-14124
/201	-14125
ंकृत	-14126
ंबार	-14127
चालक	-14128
हिया	-14129
्रमण	-14130
▁how	-14131
▁एंव	-14132
▁घणो	-14133
▁घोल	-14134
▁नहा	-14135
▁यंग	-14136
▁युव	-14137
▁सिय	-14138
▁हा॰	-14139
▁१९३	-14140
खियों	-14141
यियों	-14142
ष्टिक	-14143
▁आपतु	-14144
▁क्रू	-14145
▁घंटी	-14146
▁छड़ी	-14147
▁जलीय	-14148
▁टाउन	-14149
▁तश्त	-14150
▁बजार	-14151
▁वहॉँ	-14152
▁सुखी	-14153
▁होवु	-14154
CalImp	-14155
धारभूत	-14156
▁ईरानी	-14157
▁गुलाब	-14158
▁जानें	-14159
▁दरअसल	-14160
▁धक्का	-14161
▁नाफ़र	-14162
▁नामने	-14163
▁पठनीय	-14164
▁स्कोर	-14165
▁स्टेक	-14166
▁स्टेन	-14167
▁स्पाइ	-14168
▁अध्याप	-14169
▁आदेशों	-14170
▁एकाधिक	-14171
▁परिहास	-14172
▁प्रकोप	-14173
▁भ्रमित	-14174
▁वाशिंग	-14175
▁अखबारों	-14176
▁अनुभवों	-14177
▁डाइनिंग	-14178
▁दुकानों	-14179
▁नक्षत्र	-14180
▁बदलायेल	-14181
▁बारंबार	-14182
▁बेकएन्ड	-14183
▁कार्यभार	-14184
▁क्षेत्रे	-14185
▁मध्यवर्ती	-14186
▁स्क्रीननी	-14187
▁विश्वयुद्ध	-14188
Constellation	-14189
15	-14190
II	-14191
बस	-14192
ंडे	-14193
ख़ा	-14194
ब्ज	-14195
मोट	-14196
शूल	-14197
िकर	-14198
▁43	-14199
▁जळ	-14200
▁डै	-14201
▁२७	-14202
enef	-14203
गेटर	-14204
न्टो	-14205
पोथी	-14206
वादन	-14207
▁एप्	-14208
▁एबी	-14209
▁गणक	-14210
▁रमी	-14211
िक्की	-14212
▁कणों	-14213
▁डीटी	-14214
▁न्यु	-14215
▁बीते	-14216
▁सेमी	-14217
▁हथिय	-14218
काळमां	-14219
▁आयोजक	-14220
▁आलेखी	-14221
▁काष्ठ	-14222
▁जीतने	-14223
▁टोचनी	-14224
▁निगेह	-14225
▁मज्जा	-14226
▁लुप्त	-14227
▁शणगार	-14228
iCalImp	-14229
▁प्रिंस	-14230
▁मुहताज	-14231
▁लोडिंग	-14232
▁शर्करा	-14233
▁घरवालों	-14234
▁जोडाणने	-14235
▁पुनर्वि	-14236
▁मिलेंगे	-14237
▁रोज़गार	-14238
▁वाराणसी	-14239
▁विभाजीत	-14240
▁सिक्कों	-14241
▁स्वचलित	-14242
▁कीमियागर	-14243
▁संप्रेषण	-14244
▁चुनौतियां	-14245
▁आधुनिकीकरण	-14246
▁जिब्राल्टर	-14247
▁ज़िम्मेदारी	-14248
▁व्यापारियों	-14249
▁प्रतिस्थापित	-14250
▁रूपरेखांकनने	-14251
,7	-14252
व्	-14253
हक	-14254
जनी	-14255
जाज	-14256
फ़े	-14257
▁St	-14258
▁औस	-14259
▁तफ	-14260
ring	-14261
ागार	-14262
▁अजन	-14263
▁ऋणी	-14264
▁एम्	-14265
▁ग़म	-14266
▁जाम	-14267
▁झेल	-14268
▁तर्	-14269
▁शकी	-14270
▁होल	-14271
चार्ज	-14272
बरदार	-14273
स्टेट	-14274
ुमेंट	-14275
ुल्ला	-14276
ोध्या	-14277
▁एनाल	-14278
▁कंधे	-14279
▁जनित	-14280
▁जोडो	-14281
▁बूंद	-14282
▁मल्ल	-14283
▁संकर	-14284
▁सदिश	-14285
▁सहसा	-14286
▁सूखी	-14287
enefit	-14288
प्रकाश	-14289
स्तरीय	-14290
▁उपहास	-14291
▁उम्मत	-14292
▁एटीएम	-14293
▁काबुल	-14294
▁चलाएं	-14295
▁जथ्थो	-14296
▁पहेरे	-14297
▁प्रसू	-14298
▁बाधित	-14299
▁भयभीत	-14300
▁राजीव	-14301
▁सहदेव	-14302
ाववामां	-14303
▁क़्यों	-14304
▁कामयाब	-14305
▁खाताने	-14306
▁चलावता	-14307
▁मांगता	-14308
▁रमतमां	-14309
▁सिगरेट	-14310
▁सीमाएं	-14311
किस्तानी	-14312
▁अधीनस्थ	-14313
▁अयोध्या	-14314
▁किस्में	-14315
▁क्षितिज	-14316
▁परिप्रे	-14317
▁सुलझाने	-14318
▁पसंदगीने	-14319
▁मेहरबानी	-14320
▁रजिस्ट्र	-14321
▁अनुक्रमित	-14322
▁पहाड़ियों	-14323
▁मार्गदर्श	-14324
▁स्वरयंत्र	-14325
▁बिनआधारभूत	-14326
▁शांतिपूर्ण	-14327
१०	-14328
आरी	-14329
ारक	-14330
ूरी	-14331
▁ग्	-14332
एंगे	-14333
एसआई	-14334
गणना	-14335
ट्रे	-14336
राहट	-14337
सन्द	-14338
ावान	-14339
▁inl	-14340
▁अहं	-14341
▁गयु	-14342
▁गुआ	-14343
▁चूह	-14344
▁धुन	-14345
▁नौज	-14346
▁मक़	-14347
▁सीए	-14348
▁सीम	-14349
ग्राफ	-14350
शियां	-14351
▁1997	-14352
▁अंडर	-14353
▁अदाल	-14354
▁असंत	-14355
▁कड़ा	-14356
▁नुत्	-14357
▁पाएँ	-14358
▁लगाव	-14359
▁वज्र	-14360
जेक्शन	-14361
बेरंगी	-14362
िपूर्ण	-14363
▁ख़रीद	-14364
▁दोहरे	-14365
▁पलटना	-14366
▁बट्टा	-14367
▁बदकार	-14368
▁बदलाई	-14369
▁मिर्च	-14370
▁मोंटे	-14371
▁संभाळ	-14372
▁सालेह	-14373
▁हेन्ड	-14374
कैलेंडर	-14375
▁एनकोडर	-14376
▁गुस्से	-14377
▁डिजीटल	-14378
▁पीआईबी	-14379
▁चिंघाड़	-14380
▁समन्वित	-14381
▁उल्लिखित	-14382
▁एक्सटेन्	-14383
▁राखवामां	-14384
▁संगमर्मर	-14385
▁होनेवाले	-14386
▁प्रजातियां	-14387
,8	-14388
ठों	-14389
नास	-14390
सुम	-14391
हां	-14392
िरे	-14393
ैंप	-14394
्यक	-14395
▁49	-14396
▁कफ	-14397
▁खट	-14398
▁लघ	-14399
▁लय	-14400
पीयू	-14401
बामा	-14402
वारे	-14403
श्वत	-14404
ारित	-14405
िकलन	-14406
▁उज्	-14407
▁एकम	-14408
▁पडो	-14409
▁पुं	-14410
▁लिथ	-14411
▁हाज	-14412
ुष्टि	-14413
▁केलि	-14414
▁खाया	-14415
▁जमने	-14416
▁जीना	-14417
▁जोता	-14418
▁ढंका	-14419
▁तेरह	-14420
▁दिली	-14421
▁पकडी	-14422
▁फेला	-14423
▁मेजर	-14424
▁रखनी	-14425
▁राइट	-14426
▁रिपो	-14427
▁शाका	-14428
▁check	-14429
▁एशियन	-14430
▁कारों	-14431
▁क्षीण	-14432
▁जड़ें	-14433
▁दलीलो	-14434
▁दिखाओ	-14435
▁पुण्य	-14436
▁भूभाग	-14437
▁लौटना	-14438
▁सर्टि	-14439
▁खींचना	-14440
▁गुस्सा	-14441
▁निकाली	-14442
▁पोस्टर	-14443
▁प्रयत्	-14444
▁मैनेजर	-14445
▁व्यंजन	-14446
▁सर्जरी	-14447
▁सीमेंट	-14448
▁असमानता	-14449
▁कीटनाशक	-14450
▁चुनावों	-14451
▁बाजारों	-14452
▁संबन्धी	-14453
▁सुधारेल	-14454
▁स्वार्थ	-14455
▁एसोसिएशन	-14456
▁पासवर्डः	-14457
▁क्रोएशिया	-14458
▁रंगबेरंगी	-14459
▁श्रेणीःहि	-14460
▁सरनामापोथी	-14461
▁पुनःसुयोजित	-14462
OD	-14463
बक	-14464
ुद	-14465
der	-14466
ive	-14467
rom	-14468
अली	-14469
नाद	-14470
षेक	-14471
▁64	-14472
केली	-14473
ान्व	-14474
▁dis	-14475
▁खेद	-14476
▁डेव	-14477
▁धाम	-14478
▁पका	-14479
▁फिस	-14480
क्रिट	-14481
झीटरी	-14482
▁1995	-14483
▁अनवर	-14484
▁एड्स	-14485
▁कैदी	-14486
▁चोरस	-14487
▁दफ्त	-14488
▁नामए	-14489
▁बस्त	-14490
▁साहा	-14491
▁सीटी	-14492
▁सुल्	-14493
ड़ियाँ	-14494
▁पायथन	-14495
▁बिन्द	-14496
▁सरोवर	-14497
▁सस्ता	-14498
▁10,000	-14499
▁असीमित	-14500
▁कठोरता	-14501
▁चतुर्थ	-14502
▁दिलाने	-14503
▁दूरभाष	-14504
▁निकटतम	-14505
▁पड़ताल	-14506
▁प्रहार	-14507
▁भित्ति	-14508
▁माणसने	-14509
▁मुनाफा	-14510
▁अद्यतनी	-14511
▁आदर्शों	-14512
▁कारखाने	-14513
▁ग्रंथों	-14514
▁नीचेनां	-14515
▁फाईलमां	-14516
▁बकरियों	-14517
▁हरोळमां	-14518
▁एक्सएमएल	-14519
▁पदच्छेदन	-14520
▁सक्रियता	-14521
▁आकाशमांथी	-14522
▁प्रतिवेदन	-14523
▁श्रेष्ठता	-14524
▁अनुयायियों	-14525
▁अव्यवस्थित	-14526
▁प्रायद्वीप	-14527
▁उपयोक्तानाम	-14528
▁हिन्दुस्तानी	-14529
/3	-14530
12	-14531
cc	-14532
रथ	-14533
kaj	-14534
नें	-14535
पाक	-14536
यरी	-14537
वकू	-14538
िक़	-14539
ुम्	-14540
▁नस	-14541
फ़्ट	-14542
र्षण	-14543
सीपी	-14544
हाली	-14545
▁1.5	-14546
▁कोठ	-14547
▁गाल	-14548
▁घण्	-14549
▁पीए	-14550
kajha	-14551
ख़ाना	-14552
गुप्त	-14553
त्विक	-14554
न्दरी	-14555
▁आइसल	-14556
▁एलबम	-14557
▁छाँव	-14558
▁ज्ञा	-14559
▁धुरी	-14560
▁पडेल	-14561
▁पुरो	-14562
▁पोली	-14563
▁फ़ीड	-14564
▁बंगल	-14565
▁बोनस	-14566
▁लंका	-14567
▁लेखे	-14568
▁शोधन	-14569
▁☻☻☻☻	-14570
▁उपवास	-14571
▁केटला	-14572
▁ख़राब	-14573
▁गुनेह	-14574
▁थोडुं	-14575
▁निष्ठ	-14576
▁बायें	-14577
▁लोन्च	-14578
▁वेदना	-14579
▁सर्वि	-14580
▁सस्ती	-14581
▁सावधि	-14582
▁स्काइ	-14583
▁जांबली	-14584
▁जाऊँगा	-14585
▁नमूनों	-14586
▁फ्रेंच	-14587
▁लिफाफा	-14588
▁विवरणः	-14589
▁शिष्यो	-14590
▁निर्दोष	-14591
▁फेरबदली	-14592
▁स्ट्रोक	-14593
▁स्तंभों	-14594
▁कॉपीराइट	-14595
▁घेरायेलो	-14596
▁चेतावनीः	-14597
▁पक्षाघात	-14598
▁पुनर्भंड	-14599
▁फ़ोल्डरः	-14600
▁मेळवनारा	-14601
▁भूतकाळमां	-14602
▁प्रत्याशित	-14603
▁rajeshkajha	-14604
▁उत्तराधिकार	-14605
महा	-14606
▁54	-14607
▁चप	-14608
जारी	-14609
▁कूच	-14610
▁डील	-14611
▁शिम	-14612
▁शिर	-14613
फार्म	-14614
ूर्वक	-14615
▁2019	-14616
▁आन्त	-14617
▁आभास	-14618
▁छापन	-14619
▁ताजी	-14620
▁नकशा	-14621
▁पल्ल	-14622
▁महिल	-14623
▁मुतर	-14624
▁मोचन	-14625
▁रसोइ	-14626
▁अंत्य	-14627
▁अण्डे	-14628
▁कोडेक	-14629
▁चतुष्	-14630
▁जातने	-14631
▁टैक्स	-14632
▁डालता	-14633
▁देशना	-14634
▁पढ़कर	-14635
▁परवलय	-14636
▁पाओगे	-14637
▁प्लेस	-14638
▁बसमां	-14639
▁समरूप	-14640
▁अलगोरि	-14641
▁कार्लो	-14642
▁चेतावन	-14643
▁डिब्बा	-14644
▁पेटेंट	-14645
▁बराबरी	-14646
▁भाषाएं	-14647
▁रिचर्ड	-14648
▁सोवियत	-14649
▁प्रलेखन	-14650
▁सुधारवा	-14651
▁गुमराहों	-14652
▁जहन्नुमी	-14653
▁संदेशानी	-14654
▁सुसज्जित	-14655
▁फ्रांसीसी	-14656
ure	-14657
एगी	-14658
थिक	-14659
सिब	-14660
हूर	-14661
िगा	-14662
▁ईद	-14663
▁हॅ	-14664
ज्जत	-14665
नामी	-14666
नाशक	-14667
पाती	-14668
लोनी	-14669
ल्हा	-14670
▁ऑंक	-14671
▁दुश	-14672
▁वशी	-14673
लैण्ड	-14674
▁अज़ी	-14675
▁कभार	-14676
▁किशो	-14677
▁दाना	-14678
▁पारे	-14679
▁बलों	-14680
▁बहरे	-14681
▁बारा	-14682
जीरिया	-14683
सरतापा	-14684
ियंत्र	-14685
▁अड्डे	-14686
▁कम्यु	-14687
▁कालीन	-14688
▁चौड़ी	-14689
▁जिहाद	-14690
▁ज्वाल	-14691
▁ढांकण	-14692
▁दुर्द	-14693
▁निस्प	-14694
▁पढ़ता	-14695
▁फीसदी	-14696
▁फोर्ट	-14697
[...]
