<unk>	0
<s>	0
</s>	0
[PAD]	0
[UNK]	0
[CLS]	0
[SEP]	0
[MASK]	0
[BOS]	0
[EOS]	0
[UNK0]	0
[UNK1]	0
[UNK2]	0
[UNK3]	0
[UNK4]	0
[UNK5]	0
[UNK6]	0
[UNK7]	0
[UNK8]	0
[UNK9]	0
[unused0]	0
[unused1]	0
[unused2]	0
[unused3]	0
[unused4]	0
[unused5]	0
[unused6]	0
[unused7]	0
[unused8]	0
[unused9]	0
[unused10]	0
[unused11]	0
[unused12]	0
[unused13]	0
[unused14]	0
[unused15]	0
[unused16]	0
[unused17]	0
[unused18]	0
[unused19]	0
[unused20]	0
[unused21]	0
[unused22]	0
[unused23]	0
[unused24]	0
[unused25]	0
[unused26]	0
[unused27]	0
[unused28]	0
[unused29]	0
[unused30]	0
[unused31]	0
[unused32]	0
[unused33]	0
[unused34]	0
[unused35]	0
[unused36]	0
[unused37]	0
[unused38]	0
[unused39]	0
[unused40]	0
[unused41]	0
[unused42]	0
[unused43]	0
[unused44]	0
[unused45]	0
[unused46]	0
[unused47]	0
[unused48]	0
[unused49]	0
[unused50]	0
[unused51]	0
[unused52]	0
[unused53]	0
[unused54]	0
[unused55]	0
[unused56]	0
[unused57]	0
[unused58]	0
[unused59]	0
[unused60]	0
[unused61]	0
[unused62]	0
[unused63]	0
[unused64]	0
[unused65]	0
[unused66]	0
[unused67]	0
[unused68]	0
[unused69]	0
[unused70]	0
[unused71]	0
[unused72]	0
[unused73]	0
[unused74]	0
[unused75]	0
[unused76]	0
[unused77]	0
[unused78]	0
[unused79]	0
[unused80]	0
[unused81]	0
[unused82]	0
[unused83]	0
[unused84]	0
[unused85]	0
[unused86]	0
[unused87]	0
[unused88]	0
[unused89]	0
[unused90]	0
[unused91]	0
[unused92]	0
[unused93]	0
[unused94]	0
[unused95]	0
[unused96]	0
[unused97]	0
[unused98]	0
[unused99]	0
▁t	-0
he	-1
▁a	-2
in	-3
re	-4
▁the	-5
▁o	-6
▁s	-7
er	-8
on	-9
at	-10
is	-11
▁w	-12
en	-13
an	-14
▁c	-15
or	-16
it	-17
▁b	-18
es	-19
▁f	-20
ed	-21
▁of	-22
ou	-23
▁p	-24
nd	-25
ar	-26
al	-27
▁m	-28
▁d	-29
ing	-30
▁in	-31
▁to	-32
ion	-33
▁h	-34
as	-35
le	-36
▁T	-37
ic	-38
▁and	-39
▁A	-40
om	-41
▁n	-42
▁th	-43
▁S	-44
▁I	-45
ll	-46
ent	-47
▁is	-48
ct	-49
ve	-50
▁l	-51
▁be	-52
▁re	-53
ot	-54
▁e	-55
ro	-56
▁g	-57
st	-58
▁The	-59
▁C	-60
ut	-61
id	-62
▁P	-63
im	-64
ur	-65
▁y	-66
et	-67
ation	-68
ly	-69
ad	-70
ow	-71
ay	-72
▁for	-73
se	-74
ce	-75
am	-76
▁M	-77
ver	-78
il	-79
▁u	-80
▁H	-81
▁B	-82
▁you	-83
▁on	-84
ig	-85
▁wh	-86
ol	-87
▁W	-88
ch	-89
▁D	-90
▁he	-91
ir	-92
ag	-93
▁R	-94
▁that	-95
ra	-96
od	-97
▁st	-98
▁it	-99
ul	-100
ment	-101
ill	-102
▁are	-103
if	-104
ess	-105
ter	-106
▁not	-107
▁we	-108
▁an	-109
▁L	-110
▁N	-111
ate	-112
ith	-113
▁G	-114
ab	-115
▁de	-116
▁con	-117
ri	-118
ld	-119
▁E	-120
▁as	-121
▁O	-122
▁F	-123
▁was	-124
her	-125
ave	-126
▁se	-127
▁pro	-128
▁or	-129
▁with	-130
nt	-131
op	-132
ist	-133
ak	-134
and	-135
um	-136
us	-137
ers	-138
ht	-139
rom	-140
ure	-141
▁1	-142
em	-143
ain	-144
▁com	-145
th	-146
▁sh	-147
▁this	-148
ac	-149
ant	-150
▁v	-151
est	-152
pp	-153
ity	-154
ect	-155
qu	-156
▁k	-157
▁ex	-158
▁r	-159
▁have	-160
res	-161
iv	-162
▁by	-163
▁He	-164
all	-165
ive	-166
os	-167
ore	-168
▁will	-169
▁from	-170
ort	-171
▁ne	-172
age	-173
un	-174
art	-175
end	-176
▁at	-177
oc	-178
▁they	-179
▁In	-180
ind	-181
ould	-182
our	-183
▁su	-184
el	-185
ight	-186
ia	-187
▁K	-188
▁al	-189
▁Th	-190
▁ch	-191
▁has	-192
ie	-193
ard	-194
ust	-195
ies	-196
pt	-197
ich	-198
▁Ind	-199
ord	-200
▁them	-201
red	-202
▁U	-203
▁do	-204
▁And	-205
▁2	-206
▁le	-207
▁We	-208
pe	-209
▁his	-210
ge	-211
ous	-212
▁all	-213
av	-214
▁can	-215
▁which	-216
▁who	-217
ome	-218
▁me	-219
▁pl	-220
▁_	-221
ame	-222
ial	-223
▁go	-224
ud	-225
ok	-226
able	-227
cc	-228
ast	-229
hen	-230
pl	-231
▁tr	-232
▁wor	-233
ah	-234
ction	-235
ated	-236
ount	-237
▁ab	-238
ong	-239
▁V	-240
▁It	-241
ose	-242
▁us	-243
ide	-244
rou	-245
og	-246
▁dis	-247
ost	-248
ip	-249
ther	-250
ry	-251
ans	-252
ear	-253
ap	-254
ance	-255
▁im	-256
ail	-257
▁j	-258
ine	-259
ile	-260
▁un	-261
▁ad	-262
▁their	-263
▁your	-264
one	-265
out	-266
ice	-267
▁one	-268
▁man	-269
now	-270
▁Y	-271
▁J	-272
ary	-273
ult	-274
▁int	-275
ff	-276
ang	-277
per	-278
iz	-279
▁All	-280
▁up	-281
ish	-282
▁him	-283
▁cont	-284
ue	-285
very	-286
ep	-287
▁there	-288
ik	-289
▁comp	-290
ib	-291
▁This	-292
▁en	-293
ase	-294
▁pe	-295
▁sa	-296
so	-297
ical	-298
ime	-299
act	-300
▁were	-301
orm	-302
ress	-303
ake	-304
ru	-305
▁India	-306
▁out	-307
are	-308
▁so	-309
ire	-310
ory	-311
ace	-312
ook	-313
▁but	-314
▁had	-315
▁Ch	-316
▁been	-317
ub	-318
▁per	-319
▁St	-320
ass	-321
ens	-322
rit	-323
ack	-324
ions	-325
ach	-326
ove	-327
▁cl	-328
▁know	-329
ence	-330
old	-331
▁also	-332
▁app	-333
gh	-334
▁res	-335
▁ag	-336
au	-337
ople	-338
du	-339
ign	-340
▁ar	-341
ber	-342
▁am	-343
▁when	-344
port	-345
ath	-346
lect	-347
ian	-348
▁pr	-349
▁ind	-350
▁Wh	-351
▁20	-352
▁sp	-353
ree	-354
▁Sh	-355
▁said	-356
vel	-357
▁what	-358
▁part	-359
▁no	-360
ade	-361
ere	-362
▁sc	-363
ings	-364
▁people	-365
ater	-366
▁other	-367
ual	-368
▁So	-369
ject	-370
▁te	-371
ations	-372
ert	-373
ound	-374
▁qu	-375
int	-376
ition	-377
▁time	-378
▁our	-379
ks	-380
▁new	-381
▁any	-382
▁ev	-383
▁Re	-384
erv	-385
ious	-386
▁acc	-387
lic	-388
ite	-389
ike	-390
▁Lord	-391
urn	-392
▁But	-393
vers	-394
ise	-395
row	-396
te	-397
▁As	-398
▁tw	-399
▁comm	-400
reat	-401
▁De	-402
▁They	-403
▁about	-404
▁po	-405
ric	-406
nder	-407
ays	-408
form	-409
▁my	-410
▁if	-411
▁bec	-412
▁19	-413
ild	-414
▁Con	-415
hed	-416
ark	-417
▁Pro	-418
tern	-419
▁inc	-420
▁An	-421
▁only	-422
▁0	-423
▁its	-424
ph	-425
ood	-426
▁fe	-427
fter	-428
▁spe	-429
▁should	-430
▁some	-431
▁those	-432
▁bel	-433
▁off	-434
▁pre	-435
▁rel	-436
fore	-437
▁like	-438
▁rem	-439
▁Allah	-440
▁over	-441
▁There	-442
▁rec	-443
ied	-444
▁Un	-445
▁more	-446
xt	-447
▁bl	-448
aj	-449
▁act	-450
▁Se	-451
ific	-452
▁work	-453
ond	-454
▁year	-455
▁may	-456
▁would	-457
▁You	-458
▁then	-459
▁into	-460
own	-461
oy	-462
ife	-463
▁On	-464
▁these	-465
▁em	-466
cess	-467
▁Com	-468
we	-469
▁ro	-470
ward	-471
▁3	-472
▁sy	-473
▁two	-474
ink	-475
eth	-476
▁shall	-477
iff	-478
ful	-479
ck	-480
▁under	-481
ren	-482
iss	-483
▁God	-484
ces	-485
ational	-486
sel	-487
rib	-488
other	-489
here	-490
ness	-491
ram	-492
pen	-493
oll	-494
▁fl	-495
▁Ex	-496
▁made	-497
ft	-498
ank	-499
ple	-500
▁form	-501
ause	-502
ily	-503
ages	-504
ution	-505
▁Go	-506
ities	-507
vern	-508
ally	-509
▁Ne	-510
▁En	-511
ident	-512
▁ear	-513
▁br	-514
▁ob	-515
▁her	-516
ors	-517
ati	-518
ted	-519
ments	-520
▁get	-521
▁Ad	-522
▁bet	-523
erm	-524
ob	-525
▁see	-526
▁used	-527
▁good	-528
▁count	-529
▁des	-530
▁fir	-531
ull	-532
▁mess	-533
▁ent	-534
▁cons	-535
▁day	-536
▁sub	-537
velop	-538
ange	-539
▁than	-540
▁very	-541
▁Bh	-542
uth	-543
▁ke	-544
▁col	-545
cy	-546
▁right	-547
iew	-548
▁add	-549
▁call	-550
cept	-551
▁dec	-552
▁att	-553
▁diff	-554
▁ra	-555
ved	-556
▁reg	-557
▁want	-558
ism	-559
▁could	-560
ates	-561
ght	-562
wn	-563
erson	-564
sh	-565
stem	-566
▁num	-567
▁inst	-568
▁say	-569
▁To	-570
▁set	-571
▁file	-572
▁cre	-573
ents	-574
ning	-575
▁again	-576
ener	-577
ble	-578
ower	-579
ax	-580
oth	-581
igh	-582
▁trans	-583
▁ac	-584
▁Pr	-585
▁co	-586
ular	-587
led	-588
▁exp	-589
▁after	-590
▁No	-591
▁every	-592
ible	-593
arm	-594
▁sec	-595
▁201	-596
▁If	-597
way	-598
ced	-599
cial	-600
▁life	-601
lp	-602
ature	-603
▁produ	-604
▁ass	-605
ating	-606
▁belie	-607
▁how	-608
aw	-609
▁did	-610
ES	-611
▁Al	-612
ick	-613
▁world	-614
▁inv	-615
ell	-616
ative	-617
▁prov	-618
▁just	-619
▁first	-620
not	-621
▁back	-622
▁For	-623
▁before	-624
les	-625
gan	-626
▁Indian	-627
▁giv	-628
▁down	-629
ash	-630
▁gu	-631
ror	-632
its	-633
▁Am	-634
ug	-635
▁need	-636
indow	-637
ollow	-638
▁person	-639
▁5	-640
ract	-641
me	-642
ata	-643
rough	-644
▁fil	-645
▁writ	-646
▁val	-647
▁make	-648
▁many	-649
olog	-650
▁name	-651
eed	-652
als	-653
▁most	-654
ons	-655
▁serv	-656
ode	-657
▁here	-658
get	-659
▁pres	-660
ility	-661
ock	-662
oss	-663
▁way	-664
round	-665
▁use	-666
app	-667
▁she	-668
▁sm	-669
ting	-670
ty	-671
uch	-672
▁dist	-673
▁cur	-674
▁must	-675
▁help	-676
▁system	-677
▁ret	-678
und	-679
▁4	-680
eng	-681
▁What	-682
vernment	-683
air	-684
▁through	-685
up	-686
▁supp	-687
formation	-688
▁disc	-689
ix	-690
▁follow	-691
▁Sc	-692
▁ed	-693
hes	-694
▁lit	-695
▁being	-696
read	-697
ute	-698
ised	-699
uring	-700
▁develop	-701
▁end	-702
▁such	-703
▁ph	-704
▁When	-705
▁Q	-706
li	-707
▁sign	-708
ize	-709
▁ref	-710
▁does	-711
▁where	-712
EN	-713
▁child	-714
hi	-715
▁def	-716
▁well	-717
▁tra	-718
▁now	-719
tle	-720
▁lo	-721
▁take	-722
ited	-723
▁import	-724
▁come	-725
uc	-726
▁Man	-727
▁resp	-728
ection	-729
ody	-730
▁number	-731
ween	-732
▁av	-733
▁list	-734
ather	-735
▁great	-736
▁start	-737
▁thou	-738
▁rep	-739
ari	-740
ont	-741
angu	-742
lease	-743
older	-744
ha	-745
▁pol	-746
▁ins	-747
▁gr	-748
▁country	-749
ient	-750
roup	-751
▁min	-752
▁years	-753
▁between	-754
▁prog	-755
▁Do	-756
▁bu	-757
▁account	-758
▁even	-759
ural	-760
ices	-761
▁char	-762
▁pass	-763
▁water	-764
▁ty	-765
irect	-766
▁let	-767
▁requ	-768
ven	-769
▁His	-770
con	-771
▁look	-772
▁book	-773
▁mem	-774
imes	-775
▁cent	-776
▁found	-777
self	-778
▁differe	-779
ided	-780
▁imp	-781
▁OF	-782
▁dep	-783
▁long	-784
▁hand	-785
▁mat	-786
▁cert	-787
▁Hind	-788
ves	-789
▁mon	-790
▁window	-791
▁process	-792
ublic	-793
▁open	-794
▁place	-795
▁Is	-796
▁eff	-797
ten	-798
ale	-799
arn	-800
▁inf	-801
▁bas	-802
▁equ	-803
ision	-804
▁tak	-805
lected	-806
ital	-807
▁Then	-808
▁Tr	-809
▁som	-810
ote	-811
▁car	-812
ever	-813
▁PR	-814
ys	-815
▁che	-816
▁gl	-817
▁read	-818
ters	-819
▁hum	-820
▁ser	-821
rent	-822
inal	-823
ouse	-824
▁Comm	-825
ething	-826
▁because	-827
▁going	-828
▁conf	-829
▁lar	-830
ork	-831
ared	-832
▁gener	-833
oci	-834
▁Act	-835
▁ext	-836
der	-837
▁sure	-838
▁200	-839
▁fam	-840
▁loc	-841
ict	-842
▁message	-843
▁dev	-844
▁Add	-845
ered	-846
▁own	-847
▁turn	-848
oint	-849
▁Im	-850
▁New	-851
▁given	-852
ption	-853
▁Our	-854
chn	-855
▁10	-856
▁main	-857
ai	-858
iness	-859
▁away	-860
ya	-861
▁Pres	-862
ne	-863
ually	-864
▁Ar	-865
▁At	-866
▁Pl	-867
ral	-868
▁cap	-869
ana	-870
arch	-871
alth	-872
ov	-873
▁sur	-874
ID	-875
lete	-876
▁langu	-877
▁cour	-878
ants	-879
▁inter	-880
▁How	-881
▁pur	-882
▁Te	-883
ined	-884
▁mark	-885
▁same	-886
▁Be	-887
ars	-888
▁cle	-889
▁6	-890
▁ask	-891
ene	-892
ics	-893
▁show	-894
▁det	-895
▁That	-896
▁My	-897
ired	-898
ries	-899
ains	-900
▁Min	-901
ND	-902
▁Day	-903
▁Show	-904
▁state	-905
ruct	-906
▁different	-907
rap	-908
▁another	-909
less	-910
▁called	-911
ts	-912
▁think	-913
▁mod	-914
▁give	-915
▁sl	-916
stit	-917
▁adv	-918
▁cor	-919
ENT	-920
▁grow	-921
man	-922
ission	-923
ailed	-924
▁er	-925
ished	-926
▁sent	-927
ified	-928
▁unt	-929
ternal	-930
rop	-931
▁word	-932
▁Ph	-933
rong	-934
▁earth	-935
▁occ	-936
▁Res	-937
su	-938
▁avail	-939
▁Pre	-940
ures	-941
conom	-942
ateg	-943
▁Him	-944
ield	-945
▁fore	-946
hether	-947
▁organ	-948
ides	-949
ology	-950
ins	-951
ivers	-952
▁spec	-953
▁happ	-954
▁Le	-955
ines	-956
ctions	-957
▁against	-958
▁Dis	-959
▁power	-960
▁oper	-961
bs	-962
ected	-963
▁Or	-964
ool	-965
▁Can	-966
ination	-967
▁She	-968
▁something	-969
▁small	-970
▁three	-971
▁play	-972
▁sk	-973
▁med	-974
ety	-975
ern	-976
raph	-977
ium	-978
▁stud	-979
▁vis	-980
▁8	-981
asht	-982
ER	-983
▁fact	-984
▁each	-985
▁came	-986
day	-987
▁Cont	-988
▁project	-989
lud	-990
az	-991
▁term	-992
▁information	-993
▁among	-994
▁cannot	-995
▁high	-996
▁much	-997
▁upon	-998
any	-999
▁President	-1000
▁Mah	-1001
▁find	-1002
ros	-1003
ways	-1004
▁both	-1005
▁These	-1006
olution	-1007
ify	-1008
▁means	-1009
uthor	-1010
▁men	-1011
ccess	-1012
▁bus	-1013
▁Par	-1014
▁wom	-1015
▁known	-1016
▁old	-1017
ists	-1018
oun	-1019
ality	-1020
oh	-1021
ience	-1022
▁indust	-1023
▁group	-1024
▁times	-1025
▁last	-1026
▁present	-1027
blem	-1028
ator	-1029
▁return	-1030
ried	-1031
ives	-1032
ets	-1033
▁art	-1034
▁den	-1035
avan	-1036
▁program	-1037
▁ve	-1038
▁7	-1039
put	-1040
▁while	-1041
▁heart	-1042
▁aff	-1043
tc	-1044
alk	-1045
▁too	-1046
▁ver	-1047
ough	-1048
▁pay	-1049
ger	-1050
▁State	-1051
▁support	-1052
▁cal	-1053
▁bo	-1054
▁tem	-1055
▁folder	-1056
line	-1057
ized	-1058
▁full	-1059
iod	-1060
▁exam	-1061
▁body	-1062
▁ca	-1063
esh	-1064
▁Sub	-1065
▁direct	-1066
▁certain	-1067
▁dem	-1068
ara	-1069
▁important	-1070
▁selected	-1071
▁prom	-1072
▁x	-1073
▁PRES	-1074
▁during	-1075
eric	-1076
▁nor	-1077
erest	-1078
aking	-1079
▁fin	-1080
▁Government	-1081
ocu	-1082
lish	-1083
▁econom	-1084
▁lead	-1085
▁point	-1086
ister	-1087
▁type	-1088
bers	-1089
TI	-1090
▁conn	-1091
▁problem	-1092
▁Rem	-1093
▁mar	-1094
▁gre	-1095
osition	-1096
▁heav	-1097
riend	-1098
▁head	-1099
▁bre	-1100
▁fac	-1101
▁things	-1102
▁left	-1103
▁believe	-1104
ON	-1105
▁Please	-1106
▁Cl	-1107
▁sim	-1108
▁created	-1109
▁never	-1110
▁Ram	-1111
▁available	-1112
▁fr	-1113
▁indeed	-1114
▁data	-1115
▁One	-1116
ention	-1117
▁current	-1118
gg	-1119
io	-1120
▁Ab	-1121
▁Me	-1122
▁fun	-1123
ince	-1124
erg	-1125
opy	-1126
ship	-1127
▁land	-1128
▁Cent	-1129
mb	-1130
▁rece	-1131
▁partic	-1132
aving	-1133
▁cond	-1134
▁done	-1135
▁rest	-1136
▁without	-1137
ained	-1138
els	-1139
rol	-1140
▁language	-1141
oad	-1142
ploy	-1143
▁address	-1144
▁chang	-1145
▁human	-1146
land	-1147
▁div	-1148
▁etc	-1149
riv	-1150
ner	-1151
▁put	-1152
▁meet	-1153
▁National	-1154
por	-1155
ource	-1156
AR	-1157
▁view	-1158
IDENT	-1159
▁conc	-1160
wards	-1161
ault	-1162
▁Bhavan	-1163
▁adm	-1164
▁educ	-1165
▁ele	-1166
▁four	-1167
play	-1168
gr	-1169
aid	-1170
▁sit	-1171
▁Us	-1172
▁prev	-1173
▁proper	-1174
oney	-1175
▁par	-1176
▁poss	-1177
▁PRESIDENT	-1178
▁development	-1179
▁Z	-1180
▁op	-1181
▁App	-1182
▁Select	-1183
ived	-1184
▁stand	-1185
ask	-1186
ency	-1187
▁List	-1188
▁tre	-1189
▁contin	-1190
ron	-1191
ane	-1192
IA	-1193
▁interest	-1194
▁little	-1195
▁Open	-1196
▁fear	-1197
▁Rasht	-1198
atic	-1199
amp	-1200
▁run	-1201
▁period	-1202
▁days	-1203
▁move	-1204
▁value	-1205
ey	-1206
ware	-1207
▁Americ	-1208
ann	-1209
eren	-1210
▁ey	-1211
▁Mess	-1212
▁law	-1213
▁best	-1214
bo	-1215
▁kind	-1216
ically	-1217
▁become	-1218
amm	-1219
rapati	-1220
stand	-1221
ee	-1222
thing	-1223
work	-1224
▁Raj	-1225
▁children	-1226
▁files	-1227
erc	-1228
▁Col	-1229
▁dest	-1230
▁don	-1231
▁Eng	-1232
orn	-1233
▁beh	-1234
▁large	-1235
itor	-1236
▁est	-1237
ases	-1238
▁truth	-1239
▁Er	-1240
▁applic	-1241
▁Rashtrapati	-1242
par	-1243
hip	-1244
ocial	-1245
▁keep	-1246
▁quest	-1247
rict	-1248
▁18	-1249
▁di	-1250
▁includ	-1251
▁met	-1252
ization	-1253
outh	-1254
▁sch	-1255
▁Inc	-1256
▁incre	-1257
▁friend	-1258
▁prof	-1259
ining	-1260
ctor	-1261
▁Gu	-1262
ulation	-1263
▁tax	-1264
▁techn	-1265
pr	-1266
ret	-1267
▁ye	-1268
▁Could	-1269
▁activ	-1270
▁relig	-1271
▁taken	-1272
ustom	-1273
irc	-1274
ased	-1275
▁order	-1276
lf	-1277
ration	-1278
▁light	-1279
▁level	-1280
▁commun	-1281
▁Rep	-1282
selves	-1283
ery	-1284
ither	-1285
ense	-1286
▁food	-1287
▁ide	-1288
▁opp	-1289
▁change	-1290
▁case	-1291
den	-1292
▁second	-1293
▁Not	-1294
▁9	-1295
ledge	-1296
istory	-1297
crib	-1298
▁due	-1299
▁Em	-1300
00	-1301
▁Sy	-1302
▁month	-1303
acter	-1304
▁house	-1305
ategory	-1306
osed	-1307
▁thing	-1308
▁might	-1309
▁text	-1310
▁success	-1311
▁image	-1312
word	-1313
ird	-1314
▁Ag	-1315
▁object	-1316
▁leg	-1317
▁effect	-1318
bar	-1319
ember	-1320
▁pop	-1321
ems	-1322
▁dra	-1323
▁real	-1324
iving	-1325
▁File	-1326
▁prot	-1327
ues	-1328
▁Who	-1329
atch	-1330
▁enc	-1331
na	-1332
▁bank	-1333
▁accept	-1334
▁public	-1335
▁area	-1336
▁Now	-1337
▁clear	-1338
▁Acc	-1339
▁Ass	-1340
iqu	-1341
▁Book	-1342
icy	-1343
▁eas	-1344
ait	-1345
ala	-1346
rought	-1347
lection	-1348
ope	-1349
ason	-1350
▁cr	-1351
▁family	-1352
used	-1353
ulture	-1354
▁Error	-1355
▁market	-1356
ently	-1357
ready	-1358
▁author	-1359
▁free	-1360
▁amount	-1361
▁hard	-1362
uss	-1363
earch	-1364
▁contact	-1365
▁path	-1366
ross	-1367
▁By	-1368
elie	-1369
▁aut	-1370
▁mult	-1371
bsite	-1372
HE	-1373
enef	-1374
ider	-1375
ma	-1376
har	-1377
▁12	-1378
▁Set	-1379
ication	-1380
ession	-1381
ffic	-1382
▁Sing	-1383
▁always	-1384
oses	-1385
▁IND	-1386
▁docu	-1387
▁error	-1388
▁Su	-1389
▁var	-1390
▁Your	-1391
▁line	-1392
▁Ed	-1393
▁next	-1394
▁Del	-1395
▁lim	-1396
▁comput	-1397
▁result	-1398
ule	-1399
▁care	-1400
▁Whether	-1401
▁class	-1402
▁night	-1403
▁already	-1404
▁key	-1405
▁rev	-1406
ier	-1407
▁less	-1408
▁business	-1409
▁money	-1410
▁send	-1411
cri	-1412
ament	-1413
▁field	-1414
ring	-1415
▁imm	-1416
▁exper	-1417
▁dr	-1418
▁build	-1419
ructure	-1420
ames	-1421
▁pun	-1422
▁product	-1423
▁Mus	-1424
▁mo	-1425
▁around	-1426
▁00	-1427
▁common	-1428
▁Hindi	-1429
ling	-1430
▁war	-1431
▁Some	-1432
▁better	-1433
umb	-1434
▁issu	-1435
iful	-1436
▁allow	-1437
▁cell	-1438
rah	-1439
▁sol	-1440
▁Ev	-1441
ification	-1442
▁today	-1443
▁health	-1444
▁government	-1445
▁dise	-1446
eds	-1447
▁employ	-1448
▁messages	-1449
▁Mu	-1450
▁seen	-1451
ering	-1452
ential	-1453
▁invest	-1454
▁love	-1455
uro	-1456
ME	-1457
▁create	-1458
agement	-1459
▁Comp	-1460
▁sw	-1461
▁home	-1462
han	-1463
▁Let	-1464
af	-1465
▁mind	-1466
▁After	-1467
ately	-1468
▁15	-1469
iron	-1470
lim	-1471
AN	-1472
▁bring	-1473
▁vill	-1474
AL	-1475
▁America	-1476
▁Bl	-1477
hing	-1478
▁Spe	-1479
ec	-1480
▁surely	-1481
▁website	-1482
▁death	-1483
▁z	-1484
rie	-1485
▁near	-1486
▁got	-1487
▁brought	-1488
▁understand	-1489
▁appro	-1490
ng	-1491
▁cost	-1492
ails	-1493
fer	-1494
ajor	-1495
▁service	-1496
mit	-1497
▁record	-1498
▁mus	-1499
▁went	-1500
▁equal	-1501
▁net	-1502
▁INDIA	-1503
▁const	-1504
ories	-1505
▁Indeed	-1506
▁exist	-1507
▁still	-1508
▁tree	-1509
▁Aut	-1510
▁thought	-1511
▁Category	-1512
heme	-1513
▁offic	-1514
▁Af	-1515
▁non	-1516
▁company	-1517
iversity	-1518
IN	-1519
▁education	-1520
▁test	-1521
▁Sw	-1522
val	-1523
▁plant	-1524
▁fa	-1525
▁true	-1526
▁social	-1527
ek	-1528
▁knowledge	-1529
reen	-1530
▁live	-1531
urity	-1532
▁Gand	-1533
ability	-1534
▁ll	-1535
▁THE	-1536
aut	-1537
▁few	-1538
▁father	-1539
ury	-1540
▁Rs	-1541
▁ri	-1542
gin	-1543
gether	-1544
▁together	-1545
ured	-1546
▁Rec	-1547
▁really	-1548
iver	-1549
ali	-1550
▁following	-1551
▁gave	-1552
ying	-1553
ung	-1554
▁sing	-1555
akes	-1556
▁Dep	-1557
osit	-1558
ificate	-1559
▁liter	-1560
belie	-1561
atus	-1562
▁gra	-1563
▁External	-1564
ran	-1565
▁based	-1566
▁capital	-1567
▁post	-1568
▁big	-1569
▁age	-1570
▁special	-1571
▁size	-1572
▁Cannot	-1573
▁control	-1574
▁Sp	-1575
▁mail	-1576
▁women	-1577
▁others	-1578
▁Fl	-1579
ideo	-1580
▁action	-1581
ances	-1582
▁far	-1583
aining	-1584
▁short	-1585
▁except	-1586
▁matter	-1587
▁able	-1588
▁took	-1589
let	-1590
ours	-1591
▁eng	-1592
▁soci	-1593
▁11	-1594
▁five	-1595
▁school	-1596
▁self	-1597
▁air	-1598
▁Name	-1599
▁Are	-1600
▁trad	-1601
▁With	-1602
▁wrong	-1603
▁anim	-1604
▁side	-1605
▁Use	-1606
▁command	-1607
▁mor	-1608
▁whole	-1609
ards	-1610
▁himself	-1611
imum	-1612
▁Save	-1613
▁opens	-1614
▁lot	-1615
aring	-1616
▁pract	-1617
ream	-1618
▁squ	-1619
endar	-1620
ape	-1621
▁View	-1622
ached	-1623
▁poet	-1624
▁benef	-1625
▁instit	-1626
ta	-1627
▁required	-1628
rial	-1629
br	-1630
▁within	-1631
▁Reg	-1632
▁del	-1633
▁Gener	-1634
▁Qu	-1635
ishment	-1636
▁position	-1637
▁check	-1638
▁god	-1639
▁sou	-1640
▁Sec	-1641
▁question	-1642
▁Pe	-1643
▁prop	-1644
aim	-1645
inc	-1646
▁evil	-1647
▁various	-1648
OR	-1649
▁Fil	-1650
▁el	-1651
▁fav	-1652
▁bar	-1653
▁towards	-1654
pect	-1655
▁meas	-1656
ording	-1657
▁plan	-1658
▁Cre	-1659
ged	-1660
▁tell	-1661
▁ever	-1662
▁X	-1663
reed	-1664
▁appoint	-1665
lished	-1666
▁server	-1667
▁mean	-1668
ges	-1669
▁Cal	-1670
▁pain	-1671
icult	-1672
▁function	-1673
▁deb	-1674
▁mil	-1675
ternational	-1676
arent	-1677
oid	-1678
hem	-1679
▁lab	-1680
▁plac	-1681
ortun	-1682
▁feel	-1683
▁rate	-1684
ior	-1685
▁blood	-1686
▁ut	-1687
▁access	-1688
▁Singh	-1689
ude	-1690
▁expl	-1691
▁asked	-1692
▁using	-1693
otion	-1694
isation	-1695
▁started	-1696
ton	-1697
erence	-1698
▁mag	-1699
▁later	-1700
▁hold	-1701
▁major	-1702
▁cred	-1703
▁circ	-1704
▁pati	-1705
ethod	-1706
ptions	-1707
▁became	-1708
▁national	-1709
ancial	-1710
▁date	-1711
▁Euro	-1712
veral	-1713
▁sal	-1714
▁Gandhi	-1715
▁English	-1716
▁words	-1717
urs	-1718
▁Delhi	-1719
▁sound	-1720
of	-1721
ches	-1722
▁perform	-1723
chie	-1724
▁Mar	-1725
▁ter	-1726
▁character	-1727
artment	-1728
ules	-1729
▁arm	-1730
▁situ	-1731
ension	-1732
▁Europe	-1733
ograph	-1734
▁difficult	-1735
▁Conf	-1736
▁complete	-1737
cl	-1738
▁display	-1739
▁services	-1740
▁task	-1741
ats	-1742
oot	-1743
illed	-1744
▁local	-1745
▁ann	-1746
▁i	-1747
▁custom	-1748
▁dou	-1749
▁unto	-1750
▁hig	-1751
▁cause	-1752
ched	-1753
itte	-1754
▁Des	-1755
▁polit	-1756
ended	-1757
utions	-1758
alf	-1759
tings	-1760
▁Most	-1761
ormal	-1762
▁story	-1763
▁purp	-1764
▁particular	-1765
▁ill	-1766
duct	-1767
▁faith	-1768
▁jud	-1769
▁mode	-1770
itions	-1771
▁talk	-1772
▁whom	-1773
IS	-1774
▁es	-1775
ogn	-1776
▁related	-1777
▁196	-1778
▁above	-1779
▁color	-1780
ayer	-1781
▁top	-1782
ising	-1783
▁economic	-1784
▁themselves	-1785
▁report	-1786
▁bro	-1787
aged	-1788
aper	-1789
ully	-1790
erve	-1791
akh	-1792
ending	-1793
▁why	-1794
▁respect	-1795
▁making	-1796
▁computer	-1797
ivid	-1798
▁mer	-1799
ani	-1800
▁mount	-1801
▁growth	-1802
▁worship	-1803
▁log	-1804
▁estab	-1805
▁application	-1806
▁yet	-1807
cing	-1808
ina	-1809
adesh	-1810
▁Co	-1811
▁000	-1812
▁Serv	-1813
▁document	-1814
uration	-1815
▁page	-1816
▁nothing	-1817
▁countries	-1818
▁enter	-1819
▁mother	-1820
▁Section	-1821
▁once	-1822
TION	-1823
▁199	-1824
▁init	-1825
▁save	-1826
▁dri	-1827
▁young	-1828
▁Develop	-1829
▁fire	-1830
▁fund	-1831
▁vers	-1832
▁Prov	-1833
▁Search	-1834
uture	-1835
▁port	-1836
▁orig	-1837
▁disease	-1838
sw	-1839
aster	-1840
ened	-1841
eness	-1842
▁Trans	-1843
▁Per	-1844
▁mill	-1845
▁belong	-1846
▁nation	-1847
▁history	-1848
ibility	-1849
▁actually	-1850
▁ple	-1851
▁search	-1852
▁write	-1853
ones	-1854
ving	-1855
▁changes	-1856
▁Project	-1857
most	-1858
▁Such	-1859
anks	-1860
▁sat	-1861
▁areas	-1862
pur	-1863
aste	-1864
ush	-1865
▁arch	-1866
▁industry	-1867
▁possible	-1868
viron	-1869
ources	-1870
▁necess	-1871
▁str	-1872
▁city	-1873
▁respons	-1874
▁deal	-1875
anch	-1876
▁aud	-1877
▁goods	-1878
▁close	-1879
ored	-1880
umn	-1881
▁therefore	-1882
ples	-1883
▁ang	-1884
RB	-1885
aps	-1886
ager	-1887
umm	-1888
▁abs	-1889
▁boy	-1890
▁news	-1891
▁Information	-1892
▁comple	-1893
▁nat	-1894
▁method	-1895
▁tot	-1896
lling	-1897
irth	-1898
▁punishment	-1899
ixed	-1900
▁society	-1901
▁repl	-1902
aterial	-1903
▁sector	-1904
▁Failed	-1905
▁source	-1906
dom	-1907
augh	-1908
▁High	-1909
ergy	-1910
itation	-1911
▁16	-1912
rs	-1913
▁doing	-1914
▁having	-1915
▁fall	-1916
▁creat	-1917
▁Asia	-1918
▁subject	-1919
▁Pol	-1920
▁instru	-1921
reng	-1922
itional	-1923
ump	-1924
ners	-1925
fully	-1926
▁soon	-1927
AT	-1928
▁ur	-1929
▁Up	-1930
▁Int	-1931
▁Mon	-1932
▁Afric	-1933
▁Fin	-1934
▁policy	-1935
▁working	-1936
nown	-1937
omes	-1938
▁sun	-1939
▁example	-1940
▁und	-1941
RI	-1942
osp	-1943
▁Che	-1944
▁Hindu	-1945
▁several	-1946
▁written	-1947
iding	-1948
▁Brit	-1949
vironment	-1950
▁obs	-1951
▁forg	-1952
amb	-1953
oph	-1954
▁flow	-1955
▁Def	-1956
▁hy	-1957
ceed	-1958
▁Copy	-1959
▁express	-1960
ilt	-1961
inist	-1962
▁Create	-1963
ke	-1964
udd	-1965
▁strong	-1966
▁production	-1967
▁infl	-1968
cell	-1969
cent	-1970
▁works	-1971
▁low	-1972
▁beaut	-1973
urther	-1974
oose	-1975
ead	-1976
ipp	-1977
▁leave	-1978
▁Cert	-1979
▁Nor	-1980
▁Those	-1981
▁elect	-1982
▁Bank	-1983
▁user	-1984
▁farm	-1985
change	-1986
▁court	-1987
▁eyes	-1988
▁meeting	-1989
▁dom	-1990
▁ident	-1991
▁repres	-1992
▁king	-1993
▁failed	-1994
vert	-1995
▁Ins	-1996
ji	-1997
▁pat	-1998
▁future	-1999
▁rese	-2000
▁Prog	-2001
▁Central	-2002
▁University	-2003
str	-2004
▁Here	-2005
▁Kh	-2006
▁red	-2007
orrow	-2008
▁TO	-2009
ex	-2010
▁ten	-2011
▁associ	-2012
ividual	-2013
▁reason	-2014
rab	-2015
ises	-2016
▁Ver	-2017
ills	-2018
▁face	-2019
▁provide	-2020
▁Dr	-2021
ison	-2022
▁Out	-2023
ief	-2024
ably	-2025
rish	-2026
utes	-2027
▁Rel	-2028
▁Part	-2029
▁relations	-2030
ilities	-2031
▁film	-2032
▁along	-2033
▁Which	-2034
▁compl	-2035
▁course	-2036
irit	-2037
▁Dev	-2038
▁consider	-2039
reme	-2040
olders	-2041
eration	-2042
▁dut	-2043
▁job	-2044
▁son	-2045
idd	-2046
aint	-2047
ony	-2048
▁treat	-2049
face	-2050
▁streng	-2051
▁Cur	-2052
ultural	-2053
▁Beng	-2054
▁nature	-2055
iation	-2056
idence	-2057
▁device	-2058
rect	-2059
▁bra	-2060
▁share	-2061
cle	-2062
▁load	-2063
▁step	-2064
▁provided	-2065
uted	-2066
▁demand	-2067
▁press	-2068
gu	-2069
▁Muslim	-2070
ls	-2071
▁mis	-2072
▁visit	-2073
▁achie	-2074
▁progress	-2075
ibr	-2076
ita	-2077
▁warn	-2078
acity	-2079
▁ce	-2080
▁Tra	-2081
▁impro	-2082
IT	-2083
▁members	-2084
▁entire	-2085
▁gen	-2086
▁often	-2087
▁password	-2088
▁Cor	-2089
▁Thus	-2090
▁region	-2091
▁vol	-2092
▁tool	-2093
▁hon	-2094
▁Lo	-2095
aves	-2096
▁separ	-2097
▁Som	-2098
▁operation	-2099
ians	-2100
ittee	-2101
▁Cong	-2102
▁condition	-2103
uk	-2104
just	-2105
▁fru	-2106
idered	-2107
▁Govern	-2108
▁bit	-2109
▁vari	-2110
▁price	-2111
ama	-2112
▁six	-2113
▁regard	-2114
▁ess	-2115
▁space	-2116
men	-2117
▁pot	-2118
▁however	-2119
▁quality	-2120
▁network	-2121
▁neg	-2122
▁pal	-2123
known	-2124
▁From	-2125
▁brother	-2126
▁25	-2127
cil	-2128
istry	-2129
▁material	-2130
urely	-2131
stitution	-2132
leg	-2133
▁event	-2134
▁link	-2135
▁Income	-2136
▁Shri	-2137
▁learn	-2138
▁issued	-2139
▁considered	-2140
▁Development	-2141
acher	-2142
▁whether	-2143
het	-2144
mission	-2145
unt	-2146
ribution	-2147
▁Qur	-2148
▁mach	-2149
▁Remove	-2150
▁individual	-2151
▁village	-2152
▁comes	-2153
▁continu	-2154
▁Wor	-2155
▁suff	-2156
▁deny	-2157
▁kept	-2158
▁priv	-2159
▁bal	-2160
▁structure	-2161
oice	-2162
▁ones	-2163
▁Start	-2164
une	-2165
▁Sat	-2166
edi	-2167
▁until	-2168
▁heavens	-2169
▁appear	-2170
▁reward	-2171
▁told	-2172
▁2018	-2173
▁soft	-2174
oe	-2175
▁Ty	-2176
plement	-2177
▁occur	-2178
▁signs	-2179
▁Folder	-2180
▁Techn	-2181
▁single	-2182
▁Africa	-2183
▁connect	-2184
epend	-2185
▁disbelie	-2186
▁office	-2187
▁sil	-2188
▁ord	-2189
▁Edit	-2190
stitute	-2191
igure	-2192
itude	-2193
▁phys	-2194
▁Evolution	-2195
▁speak	-2196
yle	-2197
▁prep	-2198
irt	-2199
uck	-2200
▁past	-2201
▁parts	-2202
ilar	-2203
ume	-2204
▁Mem	-2205
▁Mod	-2206
▁effort	-2207
▁Well	-2208
▁Delete	-2209
▁typ	-2210
com	-2211
▁host	-2212
▁destro	-2213
▁Mad	-2214
ript	-2215
▁wid	-2216
▁room	-2217
▁copy	-2218
▁redu	-2219
▁Bo	-2220
AY	-2221
▁since	-2222
▁needs	-2223
▁begin	-2224
▁British	-2225
▁anything	-2226
inary	-2227
▁Account	-2228
▁Why	-2229
▁Image	-2230
▁reve	-2231
▁Contact	-2232
ivil	-2233
▁Direct	-2234
▁ground	-2235
▁problems	-2236
krit	-2237
IC	-2238
▁Sur	-2239
▁General	-2240
ival	-2241
▁itself	-2242
▁ON	-2243
▁rad	-2244
▁Import	-2245
aun	-2246
▁Every	-2247
▁Other	-2248
▁total	-2249
ground	-2250
▁Moses	-2251
▁district	-2252
▁religion	-2253
▁turned	-2254
be	-2255
istan	-2256
att	-2257
▁sav	-2258
aught	-2259
▁answ	-2260
▁Cour	-2261
▁video	-2262
tt	-2263
ott	-2264
▁stop	-2265
▁activities	-2266
ero	-2267
airs	-2268
▁saw	-2269
ler	-2270
▁anc	-2271
▁spread	-2272
ift	-2273
▁ap	-2274
▁living	-2275
atory	-2276
▁vi	-2277
▁property	-2278
▁Ser	-2279
▁remember	-2280
rodu	-2281
▁Loc	-2282
▁necessary	-2283
▁doub	-2284
▁However	-2285
▁sn	-2286
▁Val	-2287
▁try	-2288
▁eight	-2289
▁spirit	-2290
inter	-2291
▁enough	-2292
▁security	-2293
amed	-2294
▁Even	-2295
▁States	-2296
▁install	-2297
▁draw	-2298
▁books	-2299
▁though	-2300
▁pen	-2301
▁wr	-2302
side	-2303
▁tar	-2304
▁woman	-2305
ugin	-2306
▁Move	-2307
▁held	-2308
▁peace	-2309
▁forward	-2310
▁Time	-2311
resh	-2312
ences	-2313
iple	-2314
acy	-2315
▁Right	-2316
▁Minister	-2317
▁financial	-2318
▁inn	-2319
▁certainly	-2320
▁received	-2321
sue	-2322
▁Say	-2323
oom	-2324
▁Gr	-2325
imate	-2326
▁30	-2327
▁enj	-2328
▁ir	-2329
▁foreign	-2330
olk	-2331
▁energy	-2332
▁Mal	-2333
▁role	-2334
cription	-2335
cious	-2336
▁print	-2337
▁loss	-2338
▁seek	-2339
hood	-2340
obal	-2341
ender	-2342
▁deep	-2343
▁Pradesh	-2344
▁further	-2345
aries	-2346
▁Address	-2347
▁natural	-2348
▁Message	-2349
▁destroy	-2350
▁Enable	-2351
▁Chand	-2352
▁Surely	-2353
load	-2354
▁14	-2355
▁Program	-2356
▁request	-2357
elt	-2358
▁wish	-2359
ATION	-2360
ening	-2361
▁gard	-2362
▁May	-2363
▁Unable	-2364
ned	-2365
go	-2366
▁agree	-2367
▁alone	-2368
▁Tem	-2369
AS	-2370
▁burn	-2371
▁behind	-2372
▁opportun	-2373
▁sense	-2374
▁technology	-2375
▁saf	-2376
▁Mark	-2377
▁grant	-2378
inder	-2379
▁default	-2380
yn	-2381
▁fast	-2382
liament	-2383
arat	-2384
▁cro	-2385
▁credit	-2386
▁movement	-2387
ze	-2388
▁knows	-2389
▁dig	-2390
ables	-2391
▁wit	-2392
asion	-2393
ots	-2394
ends	-2395
▁thy	-2396
▁design	-2397
▁Sim	-2398
▁Where	-2399
over	-2400
▁ant	-2401
▁exc	-2402
▁parent	-2403
▁100	-2404
▁writing	-2405
▁political	-2406
▁super	-2407
▁status	-2408
▁Med	-2409
▁crit	-2410
anskrit	-2411
▁South	-2412
▁agric	-2413
▁Window	-2414
▁scheme	-2415
ava	-2416
▁wait	-2417
▁sin	-2418
▁easy	-2419
▁plus	-2420
▁hands	-2421
sect	-2422
overed	-2423
mar	-2424
▁bur	-2425
▁management	-2426
▁da	-2427
erciful	-2428
▁cut	-2429
action	-2430
▁trade	-2431
▁Back	-2432
▁recogn	-2433
ique	-2434
ively	-2435
▁pub	-2436
▁Group	-2437
va	-2438
gest	-2439
uses	-2440
▁Dist	-2441
▁concern	-2442
▁13	-2443
body	-2444
▁half	-2445
▁poor	-2446
▁makes	-2447
abha	-2448
istic	-2449
▁IN	-2450
gar	-2451
aled	-2452
▁paid	-2453
▁cat	-2454
▁wife	-2455
vey	-2456
lear	-2457
oke	-2458
ouncil	-2459
bed	-2460
▁Enter	-2461
ented	-2462
▁hor	-2463
▁Work	-2464
▁bill	-2465
▁invol	-2466
▁Verily	-2467
▁compan	-2468
rows	-2469
board	-2470
▁cover	-2471
▁students	-2472
ental	-2473
▁directory	-2474
▁Of	-2475
▁Att	-2476
▁months	-2477
▁calendar	-2478
uly	-2479
enger	-2480
cribed	-2481
omb	-2482
itiz	-2483
▁basis	-2484
ruction	-2485
▁thee	-2486
▁trust	-2487
▁white	-2488
▁Congress	-2489
▁Will	-2490
▁feed	-2491
light	-2492
▁stra	-2493
pty	-2494
▁jo	-2495
agar	-2496
▁verily	-2497
etic	-2498
itle	-2499
▁break	-2500
▁income	-2501
▁literature	-2502
oon	-2503
▁Sign	-2504
▁determ	-2505
▁higher	-2506
▁Ge	-2507
▁river	-2508
use	-2509
ales	-2510
▁commit	-2511
osis	-2512
▁inte	-2513
▁lost	-2514
atever	-2515
▁everything	-2516
roll	-2517
▁Har	-2518
▁dead	-2519
▁harm	-2520
▁firm	-2521
▁Br	-2522
▁tour	-2523
▁drink	-2524
▁whose	-2525
ires	-2526
abad	-2527
▁enjoy	-2528
icle	-2529
▁Ak	-2530
▁code	-2531
▁birth	-2532
▁general	-2533
erved	-2534
asing	-2535
▁transl	-2536
▁morning	-2537
iction	-2538
▁Net	-2539
▁arr	-2540
▁stay	-2541
▁17	-2542
▁till	-2543
▁certificate	-2544
▁least	-2545
▁System	-2546
rior	-2547
▁rain	-2548
▁claim	-2549
▁environment	-2550
cut	-2551
usion	-2552
new	-2553
▁stri	-2554
ees	-2555
cul	-2556
▁fem	-2557
▁Prev	-2558
▁Off	-2559
▁swe	-2560
▁front	-2561
▁Only	-2562
▁carry	-2563
▁eat	-2564
▁cast	-2565
▁minus	-2566
▁taking	-2567
▁Pass	-2568
▁loan	-2569
▁names	-2570
enty	-2571
▁Inst	-2572
▁Fire	-2573
▁payment	-2574
▁purpose	-2575
▁says	-2576
eal	-2577
hent	-2578
▁World	-2579
▁believers	-2580
rec	-2581
▁Public	-2582
▁details	-2583
▁science	-2584
▁decl	-2585
▁forth	-2586
verse	-2587
▁reject	-2588
▁Fir	-2589
▁CD	-2590
▁Red	-2591
▁maint	-2592
▁Sam	-2593
▁raised	-2594
oud	-2595
eous	-2596
▁Sanskrit	-2597
ole	-2598
anda	-2599
▁Inf	-2600
▁Bi	-2601
▁Pur	-2602
▁gir	-2603
ousand	-2604
ties	-2605
▁Many	-2606
▁bird	-2607
▁bound	-2608
▁soul	-2609
▁format	-2610
▁disp	-2611
abled	-2612
▁hear	-2613
▁early	-2614
▁administ	-2615
ley	-2616
▁Pun	-2617
▁lay	-2618
▁exec	-2619
▁below	-2620
aya	-2621
ech	-2622
rew	-2623
atter	-2624
ological	-2625
▁Gl	-2626
▁sac	-2627
▁gives	-2628
▁implement	-2629
▁Department	-2630
uf	-2631
▁Ac	-2632
uge	-2633
reedom	-2634
▁therein	-2635
▁Bal	-2636
▁Text	-2637
▁greater	-2638
itch	-2639
▁Default	-2640
rast	-2641
undred	-2642
▁remove	-2643
top	-2644
chan	-2645
estic	-2646
▁according	-2647
▁Air	-2648
▁black	-2649
icro	-2650
AP	-2651
▁wanted	-2652
▁wide	-2653
▁Check	-2654
▁mention	-2655
come	-2656
cer	-2657
lier	-2658
▁Ob	-2659
▁oil	-2660
▁chall	-2661
ength	-2662
▁thus	-2663
▁reach	-2664
▁stage	-2665
mber	-2666
▁duty	-2667
▁bad	-2668
▁50	-2669
▁insp	-2670
lam	-2671
▁sea	-2672
▁town	-2673
oly	-2674
ouch	-2675
igation	-2676
▁almost	-2677
▁either	-2678
ney	-2679
▁Sm	-2680
▁Know	-2681
▁teacher	-2682
▁developed	-2683
▁phot	-2684
▁conduct	-2685
▁numbers	-2686
▁font	-2687
▁research	-2688
unk	-2689
▁happy	-2690
▁study	-2691
▁Char	-2692
▁hearts	-2693
▁discuss	-2694
▁quite	-2695
▁Any	-2696
▁pet	-2697
▁force	-2698
▁Republic	-2699
itable	-2700
▁dark	-2701
etimes	-2702
▁deeds	-2703
▁witness	-2704
▁building	-2705
▁situation	-2706
▁Form	-2707
▁built	-2708
▁deli	-2709
▁princ	-2710
▁Bar	-2711
ada	-2712
▁fell	-2713
▁cases	-2714
▁select	-2715
▁Have	-2716
urance	-2717
▁export	-2718
rug	-2719
ades	-2720
▁Bengal	-2721
▁Date	-2722
▁jour	-2723
▁seven	-2724
▁terms	-2725
after	-2726
▁King	-2727
▁accounts	-2728
▁Exp	-2729
▁week	-2730
▁rule	-2731
▁sens	-2732
▁Num	-2733
▁began	-2734
▁road	-2735
iet	-2736
▁People	-2737
▁patient	-2738
▁Committee	-2739
▁Det	-2740
▁Their	-2741
▁usually	-2742
itis	-2743
▁modern	-2744
▁economy	-2745
▁born	-2746
▁1961	-2747
▁answer	-2748
ms	-2749
▁decided	-2750
▁hundred	-2751
▁particip	-2752
aff	-2753
▁neither	-2754
▁Aud	-2755
inks	-2756
▁assist	-2757
▁essential	-2758
ging	-2759
▁authority	-2760
▁viol	-2761
umbai	-2762
▁Mahar	-2763
▁memory	-2764
xy	-2765
inate	-2766
▁Hell	-2767
▁crop	-2768
▁Ministry	-2769
▁column	-2770
▁insect	-2771
ancy	-2772
ogle	-2773
isions	-2774
▁option	-2775
▁remain	-2776
▁occasion	-2777
▁Inter	-2778
▁established	-2779
▁Krish	-2780
▁section	-2781
▁dire	-2782
▁thousand	-2783
ivity	-2784
▁limit	-2785
raft	-2786
▁Bas	-2787
▁graph	-2788
▁contains	-2789
▁industrial	-2790
▁clean	-2791
▁saying	-2792
▁Court	-2793
▁hope	-2794
▁mass	-2795
▁Brah	-2796
▁party	-2797
▁looking	-2798
ulf	-2799
▁transfer	-2800
▁generally	-2801
▁Fr	-2802
▁languages	-2803
omp	-2804
▁subst	-2805
▁scient	-2806
mbol	-2807
▁eye	-2808
▁conv	-2809
▁pack	-2810
▁release	-2811
duc	-2812
ipl	-2813
▁million	-2814
▁indic	-2815
▁normal	-2816
▁simple	-2817
▁culture	-2818
inn	-2819
rog	-2820
▁table	-2821
▁refers	-2822
▁matters	-2823
▁li	-2824
▁dam	-2825
▁Ma	-2826
▁idea	-2827
▁letter	-2828
leep	-2829
▁getting	-2830
▁game	-2831
▁guid	-2832
▁medic	-2833
▁cy	-2834
▁doubt	-2835
▁Display	-2836
▁measure	-2837
▁followed	-2838
▁har	-2839
▁lear	-2840
▁consum	-2841
▁running	-2842
co	-2843
ares	-2844
▁195	-2845
▁Ext	-2846
▁unit	-2847
▁percent	-2848
UR	-2849
▁none	-2850
▁song	-2851
▁reached	-2852
▁righteous	-2853
▁sex	-2854
▁allowed	-2855
iguration	-2856
aximum	-2857
▁relating	-2858
▁popular	-2859
ED	-2860
▁card	-2861
▁moon	-2862
▁cells	-2863
itive	-2864
oving	-2865
▁pict	-2866
▁specified	-2867
cies	-2868
semb	-2869
▁item	-2870
▁regular	-2871
ids	-2872
▁wall	-2873
eter	-2874
▁ris	-2875
irm	-2876
isl	-2877
head	-2878
▁2014	-2879
▁Type	-2880
▁secret	-2881
▁194	-2882
▁Print	-2883
▁values	-2884
▁religious	-2885
araoh	-2886
▁rich	-2887
▁community	-2888
que	-2889
▁initi	-2890
▁Google	-2891
▁Technology	-2892
▁Over	-2893
▁root	-2894
▁connection	-2895
▁Gur	-2896
▁Service	-2897
▁outside	-2898
raw	-2899
▁activity	-2900
ips	-2901
▁citiz	-2902
ktop	-2903
▁198	-2904
▁Port	-2905
▁Pharaoh	-2906
▁independ	-2907
▁products	-2908
▁specific	-2909
▁treatment	-2910
▁cam	-2911
▁coming	-2912
EC	-2913
adu	-2914
ili	-2915
▁Cons	-2916
▁International	-2917
valid	-2918
mes	-2919
▁plants	-2920
war	-2921
▁id	-2922
▁Prof	-2923
▁freedom	-2924
▁inside	-2925
▁exchange	-2926
iddle	-2927
order	-2928
▁programme	-2929
▁goes	-2930
▁Invalid	-2931
▁conditions	-2932
▁capacity	-2933
▁mom	-2934
▁acqu	-2935
▁third	-2936
▁Author	-2937
▁prepared	-2938
vere	-2939
▁places	-2940
▁civil	-2941
▁items	-2942
▁Parliament	-2943
IL	-2944
▁style	-2945
ae	-2946
▁IS	-2947
haps	-2948
▁wrote	-2949
▁24	-2950
▁led	-2951
▁population	-2952
aka	-2953
▁Post	-2954
omm	-2955
▁fixed	-2956
▁round	-2957
▁increase	-2958
▁personal	-2959
▁appointed	-2960
▁bi	-2961
▁ep	-2962
▁Data	-2963
▁rele	-2964
ibrary	-2965
▁Jan	-2966
▁leaders	-2967
sc	-2968
▁Therefore	-2969
▁resources	-2970
▁die	-2971
▁institutions	-2972
▁continue	-2973
▁note	-2974
▁wealth	-2975
lick	-2976
▁Budd	-2977
▁US	-2978
pted	-2979
▁Bec	-2980
▁caused	-2981
▁immedi	-2982
▁Current	-2983
▁ways	-2984
▁trib	-2985
▁Institute	-2986
anced	-2987
▁Gang	-2988
▁require	-2989
jab	-2990
eral	-2991
▁else	-2992
▁believed	-2993
▁River	-2994
▁197	-2995
esides	-2996
▁animals	-2997
▁practice	-2998
mitted	-2999
▁Assist	-3000
▁charge	-3001
▁strength	-3002
era	-3003
▁Tool	-3004
▁forest	-3005
▁Did	-3006
▁subs	-3007
▁rules	-3008
ators	-3009
▁Mumbai	-3010
bit	-3011
▁CO	-3012
▁adop	-3013
▁aware	-3014
▁Applic	-3015
▁target	-3016
▁including	-3017
idden	-3018
▁milk	-3019
▁becomes	-3020
▁Islam	-3021
▁Offic	-3022
▁temple	-3023
▁ID	-3024
▁sky	-3025
▁previous	-3026
▁tried	-3027
▁Sar	-3028
▁dial	-3029
▁skin	-3030
▁Because	-3031
▁Ref	-3032
uff	-3033
▁pray	-3034
▁Certificate	-3035
▁Send	-3036
▁produce	-3037
oved	-3038
▁pie	-3039
ban	-3040
kar	-3041
▁obt	-3042
verage	-3043
▁influ	-3044
asks	-3045
▁der	-3046
▁paper	-3047
▁Tod	-3048
▁summ	-3049
▁democ	-3050
▁creation	-3051
▁Hy	-3052
ressed	-3053
▁official	-3054
▁international	-3055
▁Adv	-3056
▁san	-3057
▁cross	-3058
▁valid	-3059
▁Ke	-3060
▁unf	-3061
ken	-3062
▁Sabha	-3063
▁East	-3064
▁Tw	-3065
▁egg	-3066
▁active	-3067
▁Its	-3068
▁North	-3069
▁mercy	-3070
uary	-3071
▁wise	-3072
box	-3073
▁Ved	-3074
▁Arab	-3075
▁Indust	-3076
▁correct	-3077
▁private	-3078
▁Ret	-3079
▁flu	-3080
iment	-3081
▁Scheme	-3082
▁Dh	-3083
▁speed	-3084
▁sugg	-3085
▁famous	-3086
ami	-3087
cially	-3088
▁beautiful	-3089
▁box	-3090
ula	-3091
▁Mr	-3092
▁ens	-3093
ammad	-3094
▁hours	-3095
▁suggest	-3096
rist	-3097
▁Tur	-3098
▁wind	-3099
▁across	-3100
▁investment	-3101
▁Ant	-3102
▁During	-3103
▁someone	-3104
▁represent	-3105
▁Web	-3106
▁issue	-3107
▁attack	-3108
reg	-3109
▁ru	-3110
▁Lab	-3111
gment	-3112
ternet	-3113
▁global	-3114
fficient	-3115
▁friends	-3116
▁comb	-3117
▁saved	-3118
▁govern	-3119
▁drug	-3120
porary	-3121
▁session	-3122
▁Commission	-3123
iva	-3124
mark	-3125
vest	-3126
▁wis	-3127
▁felt	-3128
▁machine	-3129
la	-3130
ici	-3131
set	-3132
atives	-3133
▁length	-3134
▁History	-3135
▁whatever	-3136
ows	-3137
band	-3138
where	-3139
▁content	-3140
▁walk	-3141
▁compet	-3142
▁heaven	-3143
VE	-3144
▁Find	-3145
▁experience	-3146
▁upd	-3147
▁decision	-3148
▁differen	-3149
▁training	-3150
orage	-3151
osing	-3152
▁guard	-3153
ites	-3154
▁Color	-3155
▁mountains	-3156
▁tor	-3157
▁bear	-3158
▁protect	-3159
▁similar	-3160
▁destroyed	-3161
▁anal	-3162
▁stru	-3163
▁Bus	-3164
▁deg	-3165
▁nove	-3166
▁shown	-3167
▁Change	-3168
▁changed	-3169
olar	-3170
by	-3171
▁War	-3172
▁amp	-3173
▁hot	-3174
oured	-3175
OS	-3176
▁spl	-3177
▁Number	-3178
▁feature	-3179
▁persons	-3180
▁Head	-3181
▁base	-3182
▁groups	-3183
▁passed	-3184
▁music	-3185
omy	-3186
▁green	-3187
▁Merciful	-3188
▁Bab	-3189
▁Pak	-3190
▁foot	-3191
▁empty	-3192
RL	-3193
▁Jud	-3194
▁gone	-3195
▁carried	-3196
▁Don	-3197
▁fort	-3198
▁United	-3199
▁achieve	-3200
hest	-3201
▁fif	-3202
▁location	-3203
oor	-3204
▁Car	-3205
▁returned	-3206
adem	-3207
▁regist	-3208
▁seem	-3209
cks	-3210
yond	-3211
▁Mail	-3212
▁quick	-3213
▁takes	-3214
▁earlier	-3215
▁banks	-3216
▁daugh	-3217
▁Sah	-3218
▁West	-3219
▁knew	-3220
▁forms	-3221
▁script	-3222
▁af	-3223
▁pros	-3224
▁weak	-3225
▁types	-3226
▁speech	-3227
▁Key	-3228
lying	-3229
▁BC	-3230
▁Tax	-3231
aging	-3232
▁Educ	-3233
▁ign	-3234
▁opened	-3235
▁folders	-3236
▁21	-3237
onds	-3238
▁web	-3239
▁fight	-3240
▁height	-3241
▁contract	-3242
RA	-3243
agn	-3244
▁fail	-3245
iture	-3246
▁quot	-3247
▁exists	-3248
▁RRB	-3249
▁foc	-3250
cribe	-3251
▁Fore	-3252
▁Supp	-3253
estern	-3254
▁Av	-3255
ores	-3256
ously	-3257
▁vict	-3258
▁entry	-3259
▁female	-3260
▁contrib	-3261
▁approach	-3262
arge	-3263
▁prob	-3264
▁lower	-3265
▁instead	-3266
ps	-3267
▁Muh	-3268
▁Yes	-3269
itary	-3270
ulate	-3271
▁tele	-3272
▁Corpor	-3273
▁manner	-3274
sequ	-3275
▁gold	-3276
▁Next	-3277
▁scale	-3278
▁supported	-3279
alse	-3280
▁pan	-3281
▁sym	-3282
▁Flag	-3283
▁Council	-3284
ox	-3285
▁Down	-3286
▁Kal	-3287
▁emb	-3288
▁laun	-3289
▁balance	-3290
▁century	-3291
▁Today	-3292
▁heard	-3293
pecially	-3294
▁Disc	-3295
▁tiss	-3296
ography	-3297
ini	-3298
▁legal	-3299
▁attach	-3300
▁reading	-3301
▁added	-3302
▁weight	-3303
hold	-3304
uman	-3305
▁engine	-3306
▁proced	-3307
ilos	-3308
▁ste	-3309
▁Child	-3310
▁output	-3311
ouses	-3312
▁extra	-3313
▁Div	-3314
▁fruit	-3315
▁delete	-3316
▁version	-3317
▁accepted	-3318
isf	-3319
▁DV	-3320
▁physical	-3321
requ	-3322
▁Click	-3323
▁formed	-3324
▁benefit	-3325
▁cry	-3326
▁Home	-3327
▁include	-3328
▁species	-3329
▁settings	-3330
NA	-3331
eb	-3332
▁Punjab	-3333
▁Autom	-3334
▁House	-3335
▁Quran	-3336
▁aw	-3337
▁Langu	-3338
▁drive	-3339
▁contain	-3340
orate	-3341
▁prim	-3342
engers	-3343
▁ready	-3344
▁improve	-3345
▁beyond	-3346
▁introdu	-3347
gn	-3348
▁bow	-3349
▁Unknown	-3350
▁cou	-3351
▁dele	-3352
▁chann	-3353
asc	-3354
rick	-3355
▁produced	-3356
▁cele	-3357
▁hour	-3358
▁sold	-3359
▁Sch	-3360
▁pow	-3361
well	-3362
▁sud	-3363
▁Close	-3364
▁lives	-3365
▁straight	-3366
lege	-3367
▁193	-3368
▁guide	-3369
▁teach	-3370
▁looked	-3371
▁original	-3372
ev	-3373
▁Shah	-3374
▁signific	-3375
▁Tag	-3376
▁pra	-3377
plate	-3378
▁Read	-3379
▁partners	-3380
▁23	-3381
▁rul	-3382
▁Plan	-3383
▁cult	-3384
▁Organ	-3385
▁states	-3386
hy	-3387
▁II	-3388
ipal	-3389
ients	-3390
imal	-3391
kind	-3392
ufact	-3393
iveness	-3394
▁angels	-3395
▁software	-3396
rown	-3397
iting	-3398
▁fair	-3399
icated	-3400
▁member	-3401
▁importance	-3402
▁Docu	-3403
▁watch	-3404
▁images	-3405
▁Di	-3406
▁Log	-3407
▁Unt	-3408
▁lies	-3409
▁innov	-3410
▁Person	-3411
▁moment	-3412
▁DVD	-3413
ifest	-3414
▁screen	-3415
ighty	-3416
▁imag	-3417
▁ancient	-3418
anes	-3419
ression	-3420
▁Last	-3421
▁Muhammad	-3422
▁poll	-3423
▁bab	-3424
▁First	-3425
▁autom	-3426
▁connected	-3427
▁nar	-3428
▁Page	-3429
▁refer	-3430
atically	-3431
▁archive	-3432
rate	-3433
▁Art	-3434
▁Utt	-3435
asure	-3436
▁coll	-3437
▁Custom	-3438
▁plugin	-3439
▁square	-3440
cher	-3441
▁tab	-3442
▁joint	-3443
▁site	-3444
▁input	-3445
▁serious	-3446
urg	-3447
istor	-3448
▁Choose	-3449
▁central	-3450
▁Rad	-3451
▁please	-3452
▁rights	-3453
▁symbol	-3454
▁final	-3455
▁origin	-3456
▁especially	-3457
iers	-3458
▁grie	-3459
▁receive	-3460
▁Union	-3461
ML	-3462
idge	-3463
ithm	-3464
▁cash	-3465
yr	-3466
tered	-3467
▁units	-3468
▁provides	-3469
onent	-3470
▁Nep	-3471
erences	-3472
▁User	-3473
for	-3474
ius	-3475
▁Pat	-3476
▁Her	-3477
▁bless	-3478
▁options	-3479
icles	-3480
▁Load	-3481
▁More	-3482
▁camp	-3483
atab	-3484
▁tri	-3485
iling	-3486
▁posit	-3487
▁desire	-3488
racy	-3489
hib	-3490
▁ge	-3491
▁prior	-3492
▁mankind	-3493
▁published	-3494
▁Enc	-3495
▁sleep	-3496
▁trees	-3497
IR	-3498
▁feet	-3499
▁increased	-3500
AG	-3501
▁Gh	-3502
▁Just	-3503
▁lakh	-3504
▁Proper	-3505
▁police	-3506
▁Bu	-3507
▁male	-3508
▁Export	-3509
▁rather	-3510
▁Krishna	-3511
pper	-3512
▁rural	-3513
uls	-3514
▁branch	-3515
ras	-3516
rest	-3517
▁reb	-3518
▁Path	-3519
▁longer	-3520
▁pers	-3521
▁safe	-3522
▁offline	-3523
▁Sal	-3524
▁Files	-3525
▁sudden	-3526
ESS	-3527
▁emerg	-3528
▁meaning	-3529
▁URL	-3530
▁team	-3531
▁San	-3532
▁blind	-3533
▁squared	-3534
lt	-3535
▁won	-3536
icate	-3537
▁track	-3538
▁Options	-3539
▁Prom	-3540
▁efforts	-3541
▁LRB	-3542
▁Vis	-3543
▁aim	-3544
▁fish	-3545
▁giving	-3546
▁collection	-3547
AC	-3548
amil	-3549
▁Guj	-3550
▁reform	-3551
▁IT	-3552
miss	-3553
omen	-3554
writ	-3555
▁placed	-3556
▁largest	-3557
▁ago	-3558
▁wond	-3559
▁dream	-3560
▁authent	-3561
▁beginning	-3562
▁potential	-3563
▁instrument	-3564
▁Constitution	-3565
▁agreement	-3566
aksh	-3567
omin	-3568
▁external	-3569
▁advance	-3570
▁Ha	-3571
▁argu	-3572
▁encour	-3573
▁transport	-3574
▁Kash	-3575
▁fest	-3576
▁existing	-3577
▁stream	-3578
▁standard	-3579
avi	-3580
▁Ann	-3581
▁miss	-3582
▁Under	-3583
▁issues	-3584
▁useful	-3585
▁direction	-3586
▁false	-3587
▁poetry	-3588
▁Management	-3589
▁doesn	-3590
▁magic	-3591
▁guidance	-3592
▁2015	-3593
▁22	-3594
▁Sk	-3595
lands	-3596
▁stories	-3597
▁didn	-3598
▁covered	-3599
▁Something	-3600
ils	-3601
nal	-3602
orted	-3603
riage	-3604
▁Sa	-3605
▁ic	-3606
obile	-3607
▁collect	-3608
add	-3609
iter	-3610
▁Leg	-3611
▁Yet	-3612
▁Elect	-3613
▁According	-3614
▁esc	-3615
▁Akbar	-3616
raction	-3617
▁attract	-3618
▁Research	-3619
▁Id	-3620
▁basic	-3621
rastructure	-3622
▁Pal	-3623
▁coun	-3624
▁denied	-3625
▁surface	-3626
DE	-3627
▁audio	-3628
▁Education	-3629
athy	-3630
▁mot	-3631
▁China	-3632
▁range	-3633
▁store	-3634
▁revealed	-3635
▁statement	-3636
usp	-3637
▁manager	-3638
▁separate	-3639
▁operations	-3640
▁Ear	-3641
▁hus	-3642
▁notice	-3643
▁satisf	-3644
▁fulf	-3645
▁About	-3646
▁visible	-3647
▁completed	-3648
olute	-3649
▁purch	-3650
▁servants	-3651
▁bat	-3652
▁cook	-3653
▁labour	-3654
ottom	-3655
acters	-3656
▁Class	-3657
▁shows	-3658
▁editor	-3659
▁terror	-3660
▁Centre	-3661
ervation	-3662
▁depend	-3663
▁trying	-3664
▁Muslims	-3665
▁distance	-3666
oo	-3667
vi	-3668
asa	-3669
▁Prop	-3670
enditure	-3671
▁divided	-3672
▁results	-3673
▁Prime	-3674
▁model	-3675
▁offer	-3676
▁selection	-3677
▁Application	-3678
ipt	-3679
ayan	-3680
▁ded	-3681
▁Prot	-3682
▁located	-3683
▁projects	-3684
▁bed	-3685
▁Conn	-3686
▁Prem	-3687
▁ideas	-3688
▁middle	-3689
▁remote	-3690
▁Help	-3691
▁warm	-3692
▁celebr	-3693
▁favour	-3694
▁Ur	-3695
ache	-3696
ospital	-3697
▁26	-3698
road	-3699
ercial	-3700
empt	-3701
iles	-3702
▁dust	-3703
▁waste	-3704
▁advice	-3705
▁aspect	-3706
▁philos	-3707
▁promise	-3708
odes	-3709
▁mort	-3710
▁travel	-3711
▁learning	-3712
oms	-3713
▁Bang	-3714
▁fill	-3715
elf	-3716
owed	-3717
oming	-3718
▁arri	-3719
▁seed	-3720
▁fully	-3721
▁width	-3722
▁storage	-3723
▁relationship	-3724
▁Server	-3725
▁perman	-3726
▁Pakistan	-3727
▁Settings	-3728
▁died	-3729
ulated	-3730
▁button	-3731
▁belongs	-3732
▁Rev	-3733
▁tub	-3734
▁guided	-3735
antly	-3736
▁coop	-3737
hemes	-3738
▁cities	-3739
wise	-3740
▁memo	-3741
▁virt	-3742
▁animal	-3743
▁online	-3744
▁hab	-3745
▁hath	-3746
▁heavy	-3747
▁continued	-3748
ober	-3749
▁judge	-3750
▁quant	-3751
▁leaves	-3752
▁limited	-3753
asth	-3754
▁Men	-3755
▁causes	-3756
▁supply	-3757
▁manufact	-3758
▁reminder	-3759
▁medical	-3760
▁mere	-3761
▁March	-3762
▁undert	-3763
▁expression	-3764
urt	-3765
▁disk	-3766
▁risk	-3767
▁pattern	-3768
▁facilities	-3769
EE	-3770
ename	-3771
▁integr	-3772
TP	-3773
rep	-3774
▁End	-3775
▁thinking	-3776
▁HT	-3777
▁perf	-3778
▁While	-3779
▁immediately	-3780
then	-3781
▁beg	-3782
▁Free	-3783
▁defin	-3784
▁sometimes	-3785
▁rout	-3786
▁Uttar	-3787
▁citizens	-3788
AM	-3789
▁Ah	-3790
▁uns	-3791
▁Writ	-3792
▁revel	-3793
▁twenty	-3794
▁Jap	-3795
ching	-3796
▁magn	-3797
▁worth	-3798
atabase	-3799
▁excell	-3800
▁Board	-3801
▁Assistant	-3802
▁sight	-3803
lig	-3804
ingu	-3805
▁Both	-3806
▁obey	-3807
▁touch	-3808
▁mechan	-3809
▁dialog	-3810
▁average	-3811
▁Moh	-3812
rency	-3813
encies	-3814
▁parents	-3815
wor	-3816
▁Gard	-3817
▁door	-3818
▁lived	-3819
▁evidence	-3820
▁observed	-3821
▁documents	-3822
ING	-3823
▁win	-3824
▁flag	-3825
▁organism	-3826
▁effective	-3827
ophy	-3828
ysis	-3829
▁whe	-3830
▁affect	-3831
▁prayer	-3832
▁industries	-3833
ests	-3834
ipur	-3835
▁shape	-3836
▁benefits	-3837
ikh	-3838
▁08	-3839
ocol	-3840
▁fat	-3841
▁Power	-3842
▁apply	-3843
▁Christ	-3844
▁minutes	-3845
▁companies	-3846
▁Make	-3847
▁Turk	-3848
▁gets	-3849
▁Video	-3850
▁associated	-3851
▁hrs	-3852
ym	-3853
mir	-3854
inct	-3855
▁presence	-3856
▁rail	-3857
▁stre	-3858
▁award	-3859
onse	-3860
▁Nav	-3861
▁ast	-3862
▁lib	-3863
▁mal	-3864
▁needed	-3865
▁removed	-3866
anger	-3867
▁desp	-3868
▁workers	-3869
▁happened	-3870
▁Sup	-3871
▁farmers	-3872
▁Cap	-3873
▁Fund	-3874
▁named	-3875
▁figure	-3876
▁drop	-3877
ropri	-3878
▁Aust	-3879
▁frame	-3880
▁filter	-3881
omet	-3882
▁Sri	-3883
▁buy	-3884
gress	-3885
▁doctor	-3886
▁employment	-3887
▁dry	-3888
▁Requ	-3889
▁liqu	-3890
▁torment	-3891
▁questions	-3892
▁profession	-3893
cel	-3894
▁girl	-3895
sembly	-3896
▁contacts	-3897
▁negative	-3898
▁provision	-3899
▁characters	-3900
istics	-3901
▁funds	-3902
▁novel	-3903
▁concept	-3904
▁proceed	-3905
▁setting	-3906
▁station	-3907
▁mut	-3908
▁media	-3909
▁sides	-3910
▁concerned	-3911
▁repe	-3912
▁deleted	-3913
aur	-3914
▁Kar	-3915
▁Pan	-3916
▁Play	-3917
▁employees	-3918
iny	-3919
ops	-3920
▁Mac	-3921
▁mid	-3922
RO	-3923
▁Process	-3924
▁picture	-3925
▁Gandhiji	-3926
rav	-3927
▁Bel	-3928
▁Park	-3929
▁enem	-3930
lex	-3931
lied	-3932
▁lad	-3933
▁successful	-3934
▁responsible	-3935
▁Nay	-3936
TH	-3937
ica	-3938
▁attention	-3939
PS	-3940
▁27	-3941
▁broad	-3942
▁click	-3943
▁parties	-3944
▁systems	-3945
hru	-3946
enge	-3947
▁opening	-3948
▁Wise	-3949
ora	-3950
▁Dec	-3951
▁folk	-3952
▁slow	-3953
▁events	-3954
▁Network	-3955
▁generation	-3956
▁appointment	-3957
AD	-3958
▁lie	-3959
▁Size	-3960
▁title	-3961
▁Password	-3962
▁Province	-3963
gor	-3964
▁ball	-3965
▁quar	-3966
▁block	-3967
▁theme	-3968
▁happen	-3969
▁univers	-3970
▁establish	-3971
▁Mult	-3972
▁chem	-3973
▁kill	-3974
▁wood	-3975
▁responsibility	-3976
bal	-3977
▁syn	-3978
▁grand	-3979
▁seems	-3980
ja	-3981
▁40	-3982
▁Good	-3983
▁Clear	-3984
▁choose	-3985
ux	-3986
▁inj	-3987
aches	-3988
▁Rama	-3989
▁husband	-3990
che	-3991
omic	-3992
▁Rest	-3993
▁voice	-3994
rection	-3995
▁vision	-3996
▁element	-3997
▁unbelie	-3998
▁Water	-3999
▁lines	-4000
version	-4001
▁profit	-4002
igned	-4003
▁Font	-4004
▁qual	-4005
abh	-4006
▁01	-4007
ming	-4008
▁Services	-4009
▁IC	-4010
▁Mo	-4011
▁Stand	-4012
▁stock	-4013
▁season	-4014
OL	-4015
ctors	-4016
enses	-4017
▁nuc	-4018
▁sust	-4019
▁avoid	-4020
AB	-4021
itt	-4022
uous	-4023
▁nut	-4024
izing	-4025
marks	-4026
▁debt	-4027
▁inval	-4028
▁occup	-4029
▁easily	-4030
EL	-4031
▁Sl	-4032
▁Met	-4033
▁Roy	-4034
▁rise	-4035
▁Count	-4036
▁District	-4037
pped	-4038
anges	-4039
raham	-4040
▁astr	-4041
▁exact	-4042
▁veget	-4043
▁temper	-4044
uel	-4045
▁02	-4046
▁Pac	-4047
phone	-4048
▁mouth	-4049
▁Emp	-4050
▁Oct	-4051
▁Each	-4052
▁nine	-4053
▁evening	-4054
▁processing	-4055
osen	-4056
▁Dem	-4057
▁Ent	-4058
▁Ker	-4059
▁sort	-4060
adi	-4061
▁mand	-4062
ensive	-4063
▁yield	-4064
▁Internet	-4065
▁Tamil	-4066
▁Would	-4067
▁AND	-4068
▁arrange	-4069
▁granted	-4070
▁Messenger	-4071
IV	-4072
▁Bad	-4073
inion	-4074
▁2000	-4075
▁Disable	-4076
pense	-4077
▁pane	-4078
▁astray	-4079
▁expect	-4080
▁28	-4081
▁Bhag	-4082
▁manifest	-4083
▁remained	-4084
arer	-4085
under	-4086
▁addition	-4087
▁Ra	-4088
▁spr	-4089
iance	-4090
icked	-4091
▁tur	-4092
ander	-4093
▁2013	-4094
ashtra	-4095
▁histor	-4096
▁played	-4097
▁strugg	-4098
▁gardens	-4099
▁opportunity	-4100
▁Ap	-4101
▁Two	-4102
▁Great	-4103
▁Secret	-4104
▁hell	-4105
▁youth	-4106
▁complex	-4107
asm	-4108
aken	-4109
▁Nar	-4110
▁capt	-4111
ateral	-4112
▁Pacific	-4113
▁currently	-4114
▁department	-4115
osal	-4116
right	-4117
▁Nehru	-4118
▁plain	-4119
▁initial	-4120
ien	-4121
olid	-4122
▁Run	-4123
inger	-4124
▁Bomb	-4125
▁diss	-4126
▁mighty	-4127
▁Abraham	-4128
▁officer	-4129
▁ax	-4130
edia	-4131
▁emp	-4132
cript	-4133
▁Khan	-4134
▁army	-4135
▁brain	-4136
▁hidden	-4137
▁promised	-4138
▁dece	-4139
▁conce	-4140
▁perhaps	-4141
▁Joh	-4142
▁institution	-4143
TER	-4144
arma	-4145
rene	-4146
▁Tab	-4147
▁exerc	-4148
▁domestic	-4149
aji	-4150
een	-4151
lled	-4152
otic	-4153
▁Apr	-4154
▁rap	-4155
ubs	-4156
izont	-4157
▁purposes	-4158
roud	-4159
▁Lim	-4160
▁Full	-4161
▁bone	-4162
▁star	-4163
▁actor	-4164
▁email	-4165
▁anyone	-4166
▁Document	-4167
med	-4168
▁Non	-4169
▁vac	-4170
arily	-4171
▁Line	-4172
▁Mount	-4173
▁cloud	-4174
▁AT	-4175
▁fig	-4176
▁north	-4177
apt	-4178
▁192	-4179
▁2016	-4180
▁Language	-4181
▁dram	-4182
▁Agric	-4183
▁frequ	-4184
▁Policy	-4185
▁calcul	-4186
▁moving	-4187
astic	-4188
hra	-4189
onn	-4190
▁cold	-4191
▁gods	-4192
▁Filter	-4193
▁hearing	-4194
▁European	-4195
▁contents	-4196
▁mentioned	-4197
adise	-4198
▁Also	-4199
▁south	-4200
▁steps	-4201
▁Access	-4202
▁centre	-4203
ighb	-4204
▁Deb	-4205
▁joy	-4206
▁Pand	-4207
▁Kashmir	-4208
▁Special	-4209
▁probably	-4210
▁procedure	-4211
▁Upd	-4212
▁mad	-4213
uation	-4214
▁review	-4215
▁charges	-4216
▁signature	-4217
oted	-4218
▁Mat	-4219
▁blue	-4220
▁leaf	-4221
▁soil	-4222
▁severe	-4223
▁tissue	-4224
▁configuration	-4225
isters	-4226
▁justice	-4227
▁response	-4228
▁Corporation	-4229
osh	-4230
icial	-4231
▁corru	-4232
▁circum	-4233
▁tradition	-4234
▁Brahm	-4235
ocation	-4236
▁Lok	-4237
cutta	-4238
▁Micro	-4239
▁extreme	-4240
inent	-4241
▁agricultural	-4242
sy	-4243
itect	-4244
▁daily	-4245
▁Office	-4246
▁Report	-4247
▁bright	-4248
CE	-4249
▁Status	-4250
▁difference	-4251
▁agriculture	-4252
eks	-4253
aces	-4254
▁wel	-4255
oring	-4256
▁faces	-4257
▁points	-4258
▁desktop	-4259
▁Calendar	-4260
▁background	-4261
oser	-4262
ports	-4263
▁garden	-4264
▁worked	-4265
▁highest	-4266
▁unc	-4267
ellow	-4268
▁mist	-4269
▁calls	-4270
▁serve	-4271
▁multip	-4272
una	-4273
▁appe	-4274
▁menu	-4275
entation	-4276
▁installed	-4277
▁revolution	-4278
iration	-4279
rence	-4280
▁Get	-4281
▁eleph	-4282
▁Sun	-4283
▁Call	-4284
▁hair	-4285
▁April	-4286
▁Science	-4287
▁Calcutta	-4288
zz	-4289
yan	-4290
▁See	-4291
▁ren	-4292
▁advant	-4293
▁channel	-4294
▁consist	-4295
▁growing	-4296
▁insects	-4297
▁unknown	-4298
▁Ay	-4299
▁tal	-4300
▁Russ	-4301
▁crore	-4302
▁chosen	-4303
▁invalid	-4304
atha	-4305
asons	-4306
plete	-4307
▁stat	-4308
▁helped	-4309
ratic	-4310
▁Subs	-4311
▁zero	-4312
▁looks	-4313
rael	-4314
place	-4315
▁Truth	-4316
▁library	-4317
▁Location	-4318
▁Chrom	-4319
▁Supreme	-4320
▁prevent	-4321
▁challeng	-4322
gle	-4323
▁31	-4324
ilit	-4325
▁Wik	-4326
▁heat	-4327
▁wild	-4328
▁fresh	-4329
▁Editor	-4330
▁entered	-4331
▁preview	-4332
▁understanding	-4333
amin	-4334
anged	-4335
▁assets	-4336
▁borrow	-4337
▁Kum	-4338
eting	-4339
▁increasing	-4340
▁opportunities	-4341
▁09	-4342
▁Muk	-4343
▁hel	-4344
ellig	-4345
overy	-4346
ifying	-4347
▁birds	-4348
▁attend	-4349
▁fruits	-4350
▁January	-4351
▁replied	-4352
▁du	-4353
udget	-4354
▁Subh	-4355
▁tasks	-4356
ocks	-4357
assion	-4358
iously	-4359
rative	-4360
▁Bombay	-4361
▁programmes	-4362
hu	-4363
▁Wid	-4364
▁mir	-4365
▁Social	-4366
▁volume	-4367
inese	-4368
formed	-4369
▁possess	-4370
gy	-4371
▁60	-4372
▁neighb	-4373
▁verses	-4374
▁regarding	-4375
cast	-4376
hered	-4377
▁chief	-4378
▁leader	-4379
▁multiple	-4380
▁democracy	-4381
ahar	-4382
▁pred	-4383
▁Health	-4384
▁colour	-4385
▁maximum	-4386
iant	-4387
▁grad	-4388
▁medium	-4389
▁download	-4390
▁sum	-4391
▁feeling	-4392
▁hospital	-4393
▁villages	-4394
▁conscious	-4395
▁expenditure	-4396
idy	-4397
ped	-4398
▁ensure	-4399
▁directly	-4400
aul	-4401
ika	-4402
▁fit	-4403
▁sand	-4404
▁pound	-4405
▁unique	-4406
▁dyn	-4407
▁lic	-4408
▁Karn	-4409
▁admit	-4410
▁Bharat	-4411
▁pressure	-4412
AGE	-4413
ishn	-4414
▁breast	-4415
▁Bill	-4416
▁sell	-4417
▁series	-4418
jee	-4419
▁ST	-4420
▁factor	-4421
▁ban	-4422
iples	-4423
ateful	-4424
▁reven	-4425
▁insert	-4426
▁Financial	-4427
▁completely	-4428
▁strengthen	-4429
eless	-4430
▁fert	-4431
▁prices	-4432
▁appropri	-4433
▁measures	-4434
▁situated	-4435
hat	-4436
▁Tog	-4437
ouble	-4438
▁Except	-4439
back	-4440
▁wat	-4441
apers	-4442
▁thir	-4443
fall	-4444
▁Aug	-4445
▁stone	-4446
actions	-4447
▁apprec	-4448
▁secure	-4449
▁burning	-4450
ional	-4451
▁Phot	-4452
▁diam	-4453
▁shap	-4454
asthan	-4455
▁electric	-4456
UN	-4457
ira	-4458
rim	-4459
▁cop	-4460
▁Guru	-4461
▁Left	-4462
▁applications	-4463
▁Main	-4464
▁prec	-4465
▁staff	-4466
▁filled	-4467
▁positive	-4468
ka	-4469
hens	-4470
▁thr	-4471
▁Germ	-4472
▁sacr	-4473
▁Windows	-4474
▁additional	-4475
▁bod	-4476
▁string	-4477
▁destination	-4478
▁SH	-4479
chand	-4480
▁hide	-4481
▁helps	-4482
▁sufficient	-4483
▁unbelievers	-4484
mon	-4485
atio	-4486
▁Hide	-4487
▁prefer	-4488
▁powerful	-4489
▁Maharashtra	-4490
UL	-4491
ij	-4492
ti	-4493
▁UN	-4494
▁tom	-4495
▁Arch	-4496
▁Sept	-4497
▁Chinese	-4498
▁expected	-4499
▁Law	-4500
▁PRO	-4501
▁dim	-4502
oding	-4503
ought	-4504
ricket	-4505
▁board	-4506
▁match	-4507
isement	-4508
▁Source	-4509
▁Download	-4510
▁accident	-4511
▁petition	-4512
▁interesting	-4513
▁35	-4514
▁Pay	-4515
▁opt	-4516
▁larger	-4517
▁Children	-4518
aran	-4519
▁fields	-4520
▁journey	-4521
▁rejected	-4522
▁temporary	-4523
▁suc	-4524
icies	-4525
▁bond	-4526
▁fine	-4527
▁poems	-4528
▁delivery	-4529
▁medicine	-4530
▁register	-4531
▁earn	-4532
▁huge	-4533
▁beauty	-4534
▁listen	-4535
▁taught	-4536
▁Command	-4537
▁daughter	-4538
▁29	-4539
ster	-4540
▁June	-4541
▁Nove	-4542
▁currency	-4543
▁diseases	-4544
▁occurred	-4545
▁described	-4546
ext	-4547
isc	-4548
▁AD	-4549
▁cere	-4550
▁Israel	-4551
▁Install	-4552
▁resource	-4553
▁80	-4554
▁Task	-4555
▁Himal	-4556
▁attached	-4557
▁obst	-4558
▁proud	-4559
oration	-4560
▁Template	-4561
▁functions	-4562
enth	-4563
▁gas	-4564
▁Audio	-4565
▁Email	-4566
▁Indians	-4567
▁existence	-4568
▁Po	-4569
rowser	-4570
▁disapp	-4571
▁internal	-4572
imb	-4573
▁vir	-4574
▁yourself	-4575
▁ship	-4576
▁songs	-4577
▁married	-4578
▁description	-4579
▁successfully	-4580
▁crim	-4581
▁Peace	-4582
ossible	-4583
▁Before	-4584
▁School	-4585
▁appeal	-4586
▁settle	-4587
asis	-4588
▁Another	-4589
▁defined	-4590
▁remains	-4591
▁violence	-4592
ifications	-4593
▁KDE	-4594
▁Spec	-4595
▁announ	-4596
▁recomm	-4597
vant	-4598
arant	-4599
▁Once	-4600
▁weeks	-4601
▁Ash	-4602
▁Take	-4603
▁node	-4604
▁pure	-4605
▁Press	-4606
▁ideal	-4607
▁powers	-4608
▁Control	-4609
▁knowing	-4610
▁marriage	-4611
▁performance	-4612
equ	-4613
▁Est	-4614
▁2017	-4615
▁Dece	-4616
▁reply	-4617
▁Life	-4618
enture	-4619
▁focus	-4620
▁killed	-4621
▁assistance	-4622
▁IP	-4623
rench	-4624
▁Burn	-4625
▁links	-4626
▁houses	-4627
▁October	-4628
▁involved	-4629
▁examination	-4630
20	-4631
BI	-4632
ERS	-4633
▁Sir	-4634
▁Auto	-4635
▁Link	-4636
▁adopted	-4637
▁greatest	-4638
▁organisation	-4639
▁Trib	-4640
▁elements	-4641
aja	-4642
▁2019	-4643
▁rare	-4644
ellect	-4645
▁Details	-4646
▁km	-4647
▁City	-4648
▁Oper	-4649
▁forces	-4650
▁affected	-4651
aling	-4652
▁Like	-4653
reprene	-4654
ilateral	-4655
▁December	-4656
ronic	-4657
▁Allow	-4658
▁Creat	-4659
▁bottom	-4660
▁cultiv	-4661
▁liquid	-4662
▁division	-4663
▁providing	-4664
▁commercial	-4665
oles	-4666
▁Mode	-4667
▁Perm	-4668
▁doll	-4669
▁particularly	-4670
ura	-4671
▁CH	-4672
▁URI	-4673
apter	-4674
▁bran	-4675
▁lock	-4676
yl	-4677
▁adult	-4678
▁rapid	-4679
ping	-4680
▁Build	-4681
▁mental	-4682
▁Western	-4683
▁painful	-4684
▁replace	-4685
▁committed	-4686
▁spiritual	-4687
ARD	-4688
▁Top	-4689
ayana	-4690
▁chast	-4691
▁resol	-4692
▁excess	-4693
▁shares	-4694
▁Expl	-4695
▁Keep	-4696
▁meant	-4697
▁cultural	-4698
▁surround	-4699
▁protection	-4700
▁Rail	-4701
▁join	-4702
▁stood	-4703
▁Econom	-4704
▁Rajasthan	-4705
▁extension	-4706
▁Nat	-4707
▁wants	-4708
▁former	-4709
▁Exchange	-4710
ST	-4711
ixt	-4712
▁Pra	-4713
▁Tar	-4714
▁crow	-4715
ademic	-4716
▁Nepal	-4717
▁wonder	-4718
▁prosper	-4719
▁infrastructure	-4720
▁Lot	-4721
▁Pref	-4722
▁moved	-4723
▁August	-4724
▁conver	-4725
▁constit	-4726
▁enabled	-4727
▁variety	-4728
▁absolute	-4729
▁Hereafter	-4730
▁substance	-4731
gen	-4732
fort	-4733
iled	-4734
▁tag	-4735
▁Value	-4736
▁attrib	-4737
▁master	-4738
▁American	-4739
▁Division	-4740
▁contribution	-4741
OC	-4742
▁Kab	-4743
▁sale	-4744
▁pages	-4745
▁Online	-4746
▁Second	-4747
ications	-4748
▁Manager	-4749
▁Mer	-4750
iciency	-4751
izontal	-4752
▁legisl	-4753
▁disbelievers	-4754
▁administration	-4755
oman	-4756
rant	-4757
▁hind	-4758
▁expand	-4759
▁forget	-4760
▁portion	-4761
ola	-4762
▁Term	-4763
▁pret	-4764
▁grown	-4765
▁truly	-4766
▁succeed	-4767
▁customer	-4768
TS	-4769
▁Alm	-4770
▁heed	-4771
▁sugar	-4772
▁letters	-4773
▁permission	-4774
ew	-4775
aly	-4776
prise	-4777
▁July	-4778
▁norm	-4779
▁assess	-4780
▁center	-4781
▁clearly	-4782
▁cow	-4783
▁poly	-4784
▁util	-4785
▁Austral	-4786
oken	-4787
eters	-4788
▁surv	-4789
▁Forward	-4790
▁Programme	-4791
▁Kan	-4792
▁Look	-4793
▁cand	-4794
▁drawn	-4795
▁notes	-4796
▁Paradise	-4797
▁festival	-4798
▁maintain	-4799
▁insurance	-4800
▁reference	-4801
▁properties	-4802
iy	-4803
aman	-4804
▁features	-4805
▁scientific	-4806
lict	-4807
▁inher	-4808
▁strateg	-4809
▁Feb	-4810
▁numer	-4811
unction	-4812
▁corpor	-4813
▁learned	-4814
▁includes	-4815
▁receipt	-4816
▁displayed	-4817
do	-4818
iger	-4819
▁band	-4820
▁crops	-4821
▁Hindus	-4822
▁convey	-4823
▁praise	-4824
▁PM	-4825
ague	-4826
▁tim	-4827
arati	-4828
▁Madh	-4829
▁iron	-4830
▁spot	-4831
▁deposit	-4832
vis	-4833
rain	-4834
rier	-4835
▁lack	-4836
▁spent	-4837
▁Commun	-4838
▁happens	-4839
▁opinion	-4840
▁MS	-4841
▁depos	-4842
▁threat	-4843
▁follows	-4844
▁circumst	-4845
aker	-4846
iring	-4847
▁Mighty	-4848
▁danger	-4849
▁rivers	-4850
▁objects	-4851
ply	-4852
abet	-4853
▁Pen	-4854
▁Party	-4855
▁gland	-4856
▁stars	-4857
gorithm	-4858
▁annual	-4859
▁Business	-4860
▁construct	-4861
ni	-4862
▁icon	-4863
▁Local	-4864
▁newsp	-4865
▁context	-4866
▁flowers	-4867
▁November	-4868
verty	-4869
though	-4870
▁recip	-4871
anation	-4872
▁struggle	-4873
▁influence	-4874
▁horse	-4875
▁piece	-4876
▁Ter	-4877
▁row	-4878
▁imper	-4879
▁remem	-4880
▁Object	-4881
▁schemes	-4882
▁Previous	-4883
oga	-4884
▁CON	-4885
▁busy	-4886
▁unjust	-4887
▁poverty	-4888
ogen	-4889
▁glor	-4890
▁delay	-4891
▁nations	-4892
iate	-4893
▁Und	-4894
▁famil	-4895
▁kinds	-4896
▁marked	-4897
to	-4898
▁AS	-4899
▁Unto	-4900
▁laws	-4901
▁degree	-4902
▁branches	-4903
▁everyone	-4904
▁architect	-4905
▁traditional	-4906
▁index	-4907
▁attempt	-4908
▁Selected	-4909
bon	-4910
ota	-4911
▁Due	-4912
▁sequ	-4913
▁mainly	-4914
▁minimum	-4915
ategories	-4916
hab	-4917
rat	-4918
teen	-4919
▁rob	-4920
▁sick	-4921
▁withd	-4922
▁forever	-4923
▁respond	-4924
▁infection	-4925
▁represents	-4926
▁significant	-4927
athi	-4928
ooth	-4929
▁cool	-4930
▁laid	-4931
▁micro	-4932
▁depart	-4933
▁failure	-4934
▁offered	-4935
▁facility	-4936
▁officers	-4937
▁standing	-4938
▁independent	-4939
rees	-4940
▁191	-4941
▁2012	-4942
▁tong	-4943
▁Mother	-4944
▁Gujarat	-4945
▁chemical	-4946
CC	-4947
▁cra	-4948
▁sup	-4949
using	-4950
▁Chief	-4951
▁Small	-4952
▁actions	-4953
▁performed	-4954
exp	-4955
▁Init	-4956
▁drugs	-4957
▁fluid	-4958
▁taste	-4959
▁Kerala	-4960
▁recent	-4961
▁Company	-4962
▁communication	-4963
▁pref	-4964
▁smaller	-4965
▁visited	-4966
▁containing	-4967
asty	-4968
▁500	-4969
▁map	-4970
ondon	-4971
▁baby	-4972
rehens	-4973
▁asc	-4974
▁gar	-4975
▁jinn	-4976
▁tend	-4977
▁arrest	-4978
▁highly	-4979
▁kn	-4980
atma	-4981
▁Bah	-4982
▁Mun	-4983
▁curs	-4984
▁prem	-4985
▁grass	-4986
ompense	-4987
▁Comput	-4988
▁flower	-4989
▁appropriate	-4990
ruary	-4991
▁Circ	-4992
▁double	-4993
▁Finance	-4994
▁healthy	-4995
EM	-4996
▁Const	-4997
▁White	-4998
▁views	-4999
▁Arabic	-5000
▁reality	-5001
agh	-5002
▁Sud	-5003
ancing	-5004
▁param	-5005
▁split	-5006
▁Besides	-5007
inet	-5008
▁Nag	-5009
▁Year	-5010
▁escape	-5011
▁prison	-5012
▁presented	-5013
iry	-5014
odh	-5015
oes	-5016
gery	-5017
▁Bur	-5018
▁bul	-5019
angle	-5020
▁goal	-5021
▁late	-5022
▁apart	-5023
▁pursu	-5024
▁September	-5025
resp	-5026
▁DAY	-5027
alted	-5028
oting	-5029
▁pull	-5030
▁Ganga	-5031
ipboard	-5032
▁minister	-5033
▁recorded	-5034
▁03	-5035
▁Woe	-5036
▁John	-5037
ishing	-5038
▁ahead	-5039
▁desert	-5040
▁February	-5041
▁Training	-5042
▁Selection	-5043
▁fet	-5044
▁shop	-5045
▁sons	-5046
▁Script	-5047
standing	-5048
ulations	-5049
▁Configure	-5050
▁Properties	-5051
▁disbelieve	-5052
▁philosophy	-5053
NG	-5054
▁Ka	-5055
▁sor	-5056
▁closed	-5057
▁Game	-5058
▁admon	-5059
▁phase	-5060
▁cattle	-5061
▁myself	-5062
▁factors	-5063
▁intellect	-5064
▁throughout	-5065
mi	-5066
▁ori	-5067
▁sam	-5068
▁Buddh	-5069
▁Light	-5070
ordinate	-5071
▁England	-5072
▁warning	-5073
urrection	-5074
▁mountain	-5075
▁challenge	-5076
osa	-5077
othes	-5078
▁Stop	-5079
▁emph	-5080
▁refuge	-5081
▁signed	-5082
▁Security	-5083
EP	-5084
antic	-5085
▁Mand	-5086
▁News	-5087
▁gall	-5088
▁plug	-5089
ipedia	-5090
▁bones	-5091
▁stated	-5092
▁treated	-5093
▁families	-5094
▁Lat	-5095
▁Card	-5096
▁sweet	-5097
▁articles	-5098
sych	-5099
▁vit	-5100
▁Stud	-5101
▁equip	-5102
ailable	-5103
▁dog	-5104
osure	-5105
▁Tour	-5106
ception	-5107
▁besides	-5108
▁leading	-5109
▁requires	-5110
LS	-5111
osite	-5112
▁Hand	-5113
▁eggs	-5114
▁hero	-5115
▁layer	-5116
▁agreed	-5117
▁database	-5118
ilty	-5119
reak	-5120
▁Vol	-5121
▁kil	-5122
▁pil	-5123
▁Test	-5124
▁pill	-5125
▁rent	-5126
active	-5127
▁dwell	-5128
▁trial	-5129
▁gather	-5130
▁honour	-5131
▁Remember	-5132
▁standards	-5133
xic	-5134
▁Hor	-5135
ataka	-5136
▁estim	-5137
▁courage	-5138
▁primary	-5139
▁hill	-5140
▁uses	-5141
inding	-5142
▁Chair	-5143
▁thank	-5144
▁London	-5145
▁likely	-5146
▁consists	-5147
▁instance	-5148
▁priority	-5149
oj	-5150
race	-5151
▁subt	-5152
▁Mahab	-5153
▁Subject	-5154
iber	-5155
rease	-5156
▁buff	-5157
▁Benef	-5158
▁laugh	-5159
osphere	-5160
▁Employ	-5161
▁Insert	-5162
▁battle	-5163
▁reasons	-5164
▁obtained	-5165
ipe	-5166
lies	-5167
raid	-5168
▁2008	-5169
▁Cred	-5170
▁dance	-5171
▁joined	-5172
▁showed	-5173
▁effects	-5174
▁talking	-5175
▁waiting	-5176
▁properly	-5177
agon	-5178
cean	-5179
iced	-5180
eding	-5181
erves	-5182
▁Noah	-5183
▁idol	-5184
▁Table	-5185
imately	-5186
▁prostr	-5187
▁cooperation	-5188
▁generations	-5189
▁Pers	-5190
tenance	-5191
▁worlds	-5192
▁Messages	-5193
▁teachers	-5194
▁circumstances	-5195
asi	-5196
like	-5197
arian	-5198
▁Attach	-5199
▁execut	-5200
▁banking	-5201
▁deliver	-5202
▁perfect	-5203
▁component	-5204
wa	-5205
▁EVE	-5206
▁alarm	-5207
▁adjust	-5208
▁reduce	-5209
▁distrib	-5210
▁technical	-5211
ghal	-5212
room	-5213
▁Rece	-5214
▁SC	-5215
achal	-5216
ector	-5217
▁plays	-5218
▁studies	-5219
icient	-5220
▁prose	-5221
▁upper	-5222
▁construction	-5223
thy	-5224
▁Word	-5225
▁acid	-5226
▁Rules	-5227
▁encry	-5228
▁pregn	-5229
▁choice	-5230
▁levels	-5231
▁pleasure	-5232
mer	-5233
roc	-5234
rot	-5235
▁Has	-5236
itled	-5237
write	-5238
▁proved	-5239
▁kingdom	-5240
▁sending	-5241
▁truthful	-5242
mp	-5243
ued	-5244
▁05	-5245
▁cru	-5246
hedul	-5247
rible	-5248
▁rupe	-5249
▁turns	-5250
▁devotion	-5251
ena	-5252
▁07	-5253
▁rot	-5254
▁Level	-5255
▁engaged	-5256
▁suitable	-5257
▁Az	-5258
▁sad	-5259
enior	-5260
usive	-5261
▁Green	-5262
▁stead	-5263
▁sexual	-5264
▁attachment	-5265
icit	-5266
▁ves	-5267
chron	-5268
▁Vert	-5269
elines	-5270
▁damage	-5271
▁guilty	-5272
▁finance	-5273
▁relative	-5274
▁ourselves	-5275
▁Geor	-5276
▁desc	-5277
▁Trust	-5278
▁couple	-5279
▁quickly	-5280
▁reflect	-5281
▁Wikipedia	-5282
▁ende	-5283
▁atomic	-5284
▁belief	-5285
▁windows	-5286
▁lik	-5287
▁pix	-5288
▁tea	-5289
anned	-5290
▁Does	-5291
amental	-5292
▁altern	-5293
▁breath	-5294
umer	-5295
eties	-5296
orter	-5297
▁Forg	-5298
uction	-5299
▁spend	-5300
▁chance	-5301
▁distribution	-5302
▁Adm	-5303
▁phone	-5304
▁ratio	-5305
▁users	-5306
ignment	-5307
▁retrie	-5308
▁keeping	-5309
▁forgiveness	-5310
▁Gov	-5311
▁Imp	-5312
aming	-5313
ifice	-5314
▁Diff	-5315
▁Bihar	-5316
▁Human	-5317
▁incident	-5318
▁included	-5319
▁organization	-5320
▁Ban	-5321
anese	-5322
▁2006	-5323
▁Among	-5324
▁NATION	-5325
▁sources	-5326
▁customers	-5327
OME	-5328
▁lat	-5329
▁Code	-5330
▁HTML	-5331
▁gram	-5332
▁Format	-5333
▁Plugin	-5334
▁thread	-5335
▁playing	-5336
▁solution	-5337
▁advantage	-5338
▁Das	-5339
▁eld	-5340
▁Hour	-5341
▁colle	-5342
▁simpl	-5343
▁College	-5344
atar	-5345
▁abn	-5346
▁hyp	-5347
▁obv	-5348
▁bount	-5349
▁critic	-5350
▁prepar	-5351
▁seized	-5352
▁critical	-5353
▁Taj	-5354
▁org	-5355
▁2005	-5356
▁Afgh	-5357
▁rect	-5358
iverse	-5359
▁deriv	-5360
▁proof	-5361
▁enable	-5362
▁extent	-5363
▁ability	-5364
▁introduced	-5365
ray	-5366
lude	-5367
reek	-5368
▁irr	-5369
▁Short	-5370
▁Tagore	-5371
▁endeav	-5372
▁palm	-5373
charge	-5374
athered	-5375
▁Always	-5376
▁abroad	-5377
▁planning	-5378
▁interface	-5379
▁east	-5380
▁Cance	-5381
▁cloth	-5382
▁costs	-5383
▁academic	-5384
▁Environment	-5385
hel	-5386
tes	-5387
king	-5388
▁Sol	-5389
▁kid	-5390
▁grace	-5391
▁train	-5392
▁friendly	-5393
▁suffering	-5394
▁registered	-5395
arp	-5396
och	-5397
alty	-5398
▁Eff	-5399
ested	-5400
▁entr	-5401
▁flat	-5402
▁habit	-5403
ammation	-5404
▁constant	-5405
CT	-5406
lal	-5407
▁Dut	-5408
onents	-5409
▁safety	-5410
▁shared	-5411
▁writer	-5412
▁Prophet	-5413
▁recently	-5414
aug	-5415
▁AP	-5416
▁GN	-5417
▁rub	-5418
▁Fort	-5419
▁Mahatma	-5420
▁methods	-5421
oub	-5422
▁hall	-5423
▁vert	-5424
▁Satan	-5425
▁permiss	-5426
▁Background	-5427
▁Description	-5428
otal	-5429
▁ISO	-5430
point	-5431
▁Food	-5432
▁rice	-5433
▁Maximum	-5434
▁Officer	-5435
▁consequ	-5436
▁military	-5437
▁temperature	-5438
nel	-5439
iform	-5440
rical	-5441
▁solar	-5442
▁records	-5443
▁covering	-5444
▁Vir	-5445
▁Soft	-5446
▁Women	-5447
▁utter	-5448
▁remark	-5449
▁Members	-5450
▁developing	-5451
▁CS	-5452
▁Mil	-5453
▁incl	-5454
ivered	-5455
▁Kumar	-5456
▁raise	-5457
▁burden	-5458
▁Mission	-5459
ET	-5460
oti	-5461
pta	-5462
▁2007	-5463
▁Since	-5464
▁prime	-5465
▁sympt	-5466
▁commod	-5467
▁Bengali	-5468
▁determined	-5469
uit	-5470
hand	-5471
view	-5472
anish	-5473
▁Tele	-5474
▁blank	-5475
▁beings	-5476
▁partner	-5477
▁released	-5478
▁implementation	-5479
▁04	-5480
oned	-5481
umin	-5482
ricts	-5483
▁Cell	-5484
▁seemed	-5485
▁holding	-5486
▁sitting	-5487
▁temples	-5488
▁expenses	-5489
nam	-5490
▁Ele	-5491
▁Equ	-5492
▁ing	-5493
▁drag	-5494
▁poem	-5495
▁thick	-5496
▁Legisl	-5497
▁consult	-5498
▁Op	-5499
▁excl	-5500
▁lose	-5501
iences	-5502
▁Rajya	-5503
▁excellent	-5504
ga	-5505
ION	-5506
book	-5507
▁Ben	-5508
▁Cle	-5509
▁ult	-5510
▁Update	-5511
▁divide	-5512
▁wishes	-5513
▁schools	-5514
▁seconds	-5515
▁starting	-5516
II	-5517
going	-5518
▁rock	-5519
▁audit	-5520
▁Common	-5521
▁Contin	-5522
▁authentication	-5523
alt	-5524
anta	-5525
▁Mor	-5526
rated	-5527
▁Bose	-5528
▁gain	-5529
anging	-5530
▁minor	-5531
▁bacter	-5532
▁decide	-5533
▁occurs	-5534
▁acts	-5535
▁starts	-5536
▁Support	-5537
▁Toolbar	-5538
▁counter	-5539
▁returns	-5540
▁Governor	-5541
▁Ali	-5542
▁bag	-5543
▁rid	-5544
oning	-5545
▁clay	-5546
▁gate	-5547
▁reduced	-5548
▁multiply	-5549
▁suddenly	-5550
▁educational	-5551
illa	-5552
▁Mag	-5553
orial	-5554
▁Exec	-5555
ousing	-5556
▁agent	-5557
▁fault	-5558
▁printer	-5559
▁exercise	-5560
▁policies	-5561
▁resident	-5562
hern	-5563
▁Encry	-5564
▁interp	-5565
▁quantity	-5566
▁Automatic	-5567
▁Miss	-5568
▁pick	-5569
▁west	-5570
▁Panch	-5571
▁nuclear	-5572
▁proport	-5573
▁innovation	-5574
ef	-5575
▁75	-5576
aved	-5577
izer	-5578
thern	-5579
▁impl	-5580
▁rank	-5581
▁vast	-5582
riving	-5583
▁doers	-5584
▁motion	-5585
▁remind	-5586
▁passing	-5587
▁tomorrow	-5588
▁Karnataka	-5589
▁clipboard	-5590
▁defe	-5591
▁neck	-5592
▁Later	-5593
▁broken	-5594
▁relief	-5595
▁Minimum	-5596
▁achieved	-5597
▁gathered	-5598
▁maintained	-5599
IF	-5600
ded	-5601
▁shad	-5602
ensions	-5603
▁afraid	-5604
▁affairs	-5605
▁article	-5606
▁Ib	-5607
dess	-5608
rief	-5609
▁Priv	-5610
▁Summ	-5611
▁Zoom	-5612
▁Earth	-5613
▁mostly	-5614
▁saving	-5615
▁warner	-5616
▁category	-5617
▁intellig	-5618
▁chastisement	-5619
▁SS	-5620
▁ran	-5621
▁Pack	-5622
▁sett	-5623
uality	-5624
▁Place	-5625
▁Swami	-5626
▁unity	-5627
▁earned	-5628
▁seeing	-5629
▁forgive	-5630
▁examples	-5631
EG	-5632
OM	-5633
alle	-5634
dule	-5635
roph	-5636
otton	-5637
▁Vers	-5638
▁throw	-5639
itoring	-5640
▁Accounts	-5641
▁provisions	-5642
IME	-5643
grat	-5644
▁atm	-5645
ankar	-5646
▁Remote	-5647
▁foundation	-5648
▁constitution	-5649
▁independence	-5650
▁Py	-5651
last	-5652
▁aid	-5653
▁susp	-5654
▁rates	-5655
my	-5656
jan	-5657
obe	-5658
inated	-5659
▁trave	-5660
▁Switch	-5661
▁literary	-5662
▁compassion	-5663
▁objectives	-5664
▁Aff	-5665
▁FOR	-5666
▁Kir	-5667
▁hun	-5668
▁mur	-5669
▁wisdom	-5670
▁congrat	-5671
▁showing	-5672
▁elephant	-5673
▁automatically	-5674
aign	-5675
▁hur	-5676
▁shr	-5677
▁yes	-5678
etary	-5679
▁plot	-5680
screen	-5681
▁moral	-5682
▁Preview	-5683
▁applied	-5684
▁welcome	-5685
▁partnership	-5686
acing	-5687
▁Nath	-5688
▁facts	-5689
▁Afghan	-5690
▁Buddha	-5691
▁sister	-5692
▁revenue	-5693
▁registration	-5694
▁Oh	-5695
apur	-5696
▁Ask	-5697
hedule	-5698
▁skill	-5699
▁theory	-5700
▁vessel	-5701
▁changing	-5702
isis	-5703
aviour	-5704
estion	-5705
vision	-5706
▁Title	-5707
▁fever	-5708
▁usage	-5709
▁Credit	-5710
▁simply	-5711
▁yellow	-5712
▁discipl	-5713
▁railway	-5714
▁whoever	-5715
▁Mahabhar	-5716
▁transgress	-5717
▁32	-5718
▁edge	-5719
▁impact	-5720
▁minute	-5721
▁Sin	-5722
aneous	-5723
ertain	-5724
rolled	-5725
▁enemy	-5726
▁fellow	-5727
▁nearly	-5728
▁defence	-5729
▁depends	-5730
▁happiness	-5731
▁submitted	-5732
pto	-5733
▁Jaw	-5734
lfare	-5735
▁Sind	-5736
▁sheet	-5737
▁welfare	-5738
▁Assembly	-5739
▁Contacts	-5740
▁messenger	-5741
hal	-5742
▁Best	-5743
▁None	-5744
▁bell	-5745
▁Width	-5746
▁integ	-5747
▁Invest	-5748
▁bodies	-5749
▁suffer	-5750
▁Chandra	-5751
▁confirm	-5752
▁guarant	-5753
▁creating	-5754
UM	-5755
▁La	-5756
▁coc	-5757
▁radio	-5758
▁comfort	-5759
▁extended	-5760
▁committee	-5761
▁mechanism	-5762
oli	-5763
▁apost	-5764
▁chrom	-5765
▁deleg	-5766
▁loans	-5767
▁border	-5768
▁mobile	-5769
▁Certain	-5770
▁conducted	-5771
ams	-5772
▁El	-5773
▁190	-5774
asant	-5775
isher	-5776
▁abund	-5777
▁Screen	-5778
▁student	-5779
▁purchase	-5780
▁Directory	-5781
zy	-5782
▁il	-5783
▁Ang	-5784
▁Pri	-5785
▁hyd	-5786
▁unp	-5787
▁Urdu	-5788
▁spring	-5789
▁survey	-5790
▁Capital	-5791
▁Knowing	-5792
▁Administ	-5793
▁fee	-5794
ourse	-5795
▁wear	-5796
▁Field	-5797
▁chain	-5798
▁Follow	-5799
▁stored	-5800
▁inherit	-5801
▁distinct	-5802
▁election	-5803
rid	-5804
▁06	-5805
lets	-5806
▁Being	-5807
▁muscle	-5808
▁carrying	-5809
▁expressed	-5810
seen	-5811
▁cup	-5812
▁Soci	-5813
▁inner	-5814
▁Regist	-5815
▁Rename	-5816
▁tongue	-5817
▁printed	-5818
▁terminal	-5819
▁thoughts	-5820
▁algorithm	-5821
▁confident	-5822
▁extremely	-5823
▁yourselves	-5824
▁revelations	-5825
▁lamp	-5826
▁nerve	-5827
▁teeth	-5828
▁unable	-5829
▁facilit	-5830
▁sectors	-5831
▁declared	-5832
▁Pet	-5833
▁hop	-5834
asero	-5835
enced	-5836
ensity	-5837
▁wound	-5838
▁refused	-5839
▁weather	-5840
▁sanction	-5841
▁delivered	-5842
▁household	-5843
▁entreprene	-5844
rel	-5845
▁Da	-5846
▁Nob	-5847
ipping	-5848
expected	-5849
▁composed	-5850
▁majority	-5851
▁fed	-5852
▁cart	-5853
▁caste	-5854
▁genus	-5855
orthern	-5856
▁Mukher	-5857
▁budget	-5858
▁browser	-5859
▁charged	-5860
▁inspired	-5861
▁operating	-5862
ima	-5863
▁Ja	-5864
ymph	-5865
▁Dig	-5866
▁Syn	-5867
▁Note	-5868
▁tear	-5869
▁Never	-5870
▁Phone	-5871
▁candid	-5872
▁sacred	-5873
▁cricket	-5874
▁profile	-5875
▁promote	-5876
▁terrible	-5877
▁implemented	-5878
▁translation	-5879
ims	-5880
perm	-5881
▁veh	-5882
▁ring	-5883
▁assum	-5884
ensation	-5885
▁Loading	-5886
▁challenges	-5887
▁transactions	-5888
aze	-5889
cope	-5890
rable	-5891
uries	-5892
▁alive	-5893
▁lying	-5894
▁Associ	-5895
▁materials	-5896
▁confidence	-5897
HA	-5898
NAME	-5899
▁Cam	-5900
▁hom	-5901
▁lif	-5902
▁coal	-5903
▁proxy	-5904
▁worsh	-5905
▁Device	-5906
ictionary	-5907
▁patience	-5908
▁requirements	-5909
ila	-5910
▁amb	-5911
▁hit	-5912
▁absor	-5913
▁vital	-5914
▁stones	-5915
oso	-5916
azing	-5917
usted	-5918
▁fuel	-5919
▁guess	-5920
▁maybe	-5921
▁trend	-5922
▁clause	-5923
▁fertil	-5924
▁analysis	-5925
▁resolution	-5926
▁Resurrection	-5927
gage	-5928
▁Lal	-5929
▁alc	-5930
isted	-5931
▁Exam	-5932
▁mixed	-5933
▁quiet	-5934
▁Action	-5935
▁arrived	-5936
▁dispute	-5937
IM	-5938
arya	-5939
aven	-5940
▁Bet	-5941
andom	-5942
▁accomp	-5943
▁exactly	-5944
▁appeared	-5945
▁derivative	-5946
US	-5947
oked	-5948
▁Tri	-5949
ipped	-5950
▁Chrome	-5951
▁somebody	-5952
▁SP	-5953
aram	-5954
▁pri	-5955
icing	-5956
▁glass	-5957
▁urban	-5958
▁French	-5959
▁compar	-5960
▁latter	-5961
▁amongst	-5962
▁delight	-5963
▁multipl	-5964
▁stopped	-5965
▁disabled	-5966
▁Australia	-5967
▁Mukherjee	-5968
▁allowance	-5969
roat	-5970
▁Had	-5971
ifier	-5972
▁Rural	-5973
▁griev	-5974
▁mission	-5975
▁electricity	-5976
aded	-5977
▁Dal	-5978
▁Mas	-5979
▁boys	-5980
soever	-5981
▁Assam	-5982
▁Super	-5983
▁Engine	-5984
▁slight	-5985
▁Authority	-5986
▁objective	-5987
son	-5988
char	-5989
▁Fac	-5990
▁plat	-5991
▁solid	-5992
▁orders	-5993
▁owners	-5994
▁pleased	-5995
▁attitude	-5996
▁ordinary	-5997
▁reported	-5998
▁efficient	-5999
▁bh	-6000
▁cord	-6001
▁merely	-6002
▁Desktop	-6003
eer	-6004
aked	-6005
▁Pop	-6006
▁Rot	-6007
▁mel	-6008
ifies	-6009
wered	-6010
▁Babu	-6011
▁snow	-6012
▁girls	-6013
▁solve	-6014
ologies	-6015
ository	-6016
▁appears	-6017
▁distingu	-6018
▁permanent	-6019
▁pollution	-6020
oma	-6021
ushed	-6022
▁Bran	-6023
▁salt	-6024
erning	-6025
icious	-6026
▁Shiva	-6027
▁Library	-6028
▁Similar	-6029
▁Sometimes	-6030
icip	-6031
▁Maj	-6032
▁bes	-6033
▁ble	-6034
▁eth	-6035
ading	-6036
▁Sikh	-6037
▁Tham	-6038
ESSAGE	-6039
▁clubs	-6040
▁photo	-6041
▁Excell	-6042
▁regions	-6043
▁equation	-6044
▁governance	-6045
rad	-6046
olic	-6047
▁wage	-6048
▁actual	-6049
▁layout	-6050
▁update	-6051
▁climate	-6052
▁convers	-6053
▁finally	-6054
▁sacrifice	-6055
▁recompense	-6056
IP	-6057
garh	-6058
look	-6059
▁pit	-6060
inity	-6061
▁Limited	-6062
▁principles	-6063
▁CP	-6064
cles	-6065
ruit	-6066
▁Eas	-6067
▁pig	-6068
hetic	-6069
ially	-6070
▁Phys	-6071
▁axis	-6072
▁lect	-6073
▁oath	-6074
▁span	-6075
▁paras	-6076
▁Foreign	-6077
unal	-6078
▁Tom	-6079
▁fle	-6080
▁mov	-6081
▁dawn	-6082
▁Civil	-6083
▁expert	-6084
▁poison	-6085
▁Authent	-6086
▁aspects	-6087
▁argument	-6088
▁brothers	-6089
▁marketing	-6090
▁principle	-6091
▁Governorate	-6092
aud	-6093
aria	-6094
▁Event	-6095
▁Record	-6096
lock	-6097
▁fra	-6098
erior	-6099
▁Inte	-6100
▁bull	-6101
▁glad	-6102
▁grew	-6103
▁Vishn	-6104
▁tools	-6105
▁brings	-6106
▁MESSAGE	-6107
▁fathers	-6108
AME	-6109
▁pu	-6110
pent	-6111
aitan	-6112
▁pert	-6113
▁debug	-6114
▁Center	-6115
▁strike	-6116
▁council	-6117
▁loading	-6118
▁integral	-6119
▁Insurance	-6120
▁addresses	-6121
pat	-6122
▁suit	-6123
▁thor	-6124
ansion	-6125
▁draft	-6126
▁Airport	-6127
▁र	-6128
amic	-6129
gent	-6130
rase	-6131
▁Tel	-6132
▁Hard	-6133
urally	-6134
▁Point	-6135
▁nodes	-6136
▁prote	-6137
▁Andhra	-6138
▁agency	-6139
▁shaped	-6140
▁Related	-6141
▁2001	-6142
▁narrow	-6143
▁tender	-6144
▁Configuration	-6145
rors	-6146
▁Nan	-6147
iders	-6148
▁Sund	-6149
▁keys	-6150
▁launched	-6151
▁requested	-6152
▁consideration	-6153
MP	-6154
ds	-6155
▁45	-6156
▁Jo	-6157
▁fix	-6158
▁sev	-6159
stood	-6160
▁demon	-6161
attered	-6162
heduled	-6163
▁mutual	-6164
▁pieces	-6165
▁served	-6166
▁behaviour	-6167
▁Industrial	-6168
icks	-6169
▁CAL	-6170
▁obl	-6171
▁edit	-6172
▁Again	-6173
▁Leave	-6174
▁Through	-6175
▁permissions	-6176
wan	-6177
ibly	-6178
tion	-6179
▁Dar	-6180
▁Mir	-6181
▁pair	-6182
▁Black	-6183
▁journal	-6184
▁becoming	-6185
▁relevant	-6186
▁terrorism	-6187
▁concerning	-6188
ss	-6189
lor	-6190
inery	-6191
▁Farm	-6192
▁cancer	-6193
▁territ	-6194
▁accused	-6195
▁servant	-6196
▁practices	-6197
▁sales	-6198
▁Though	-6199
▁devote	-6200
▁player	-6201
▁assured	-6202
abilities	-6203
▁assigned	-6204
▁teaching	-6205
▁formation	-6206
▁historical	-6207
▁Jag	-6208
rator	-6209
worthy	-6210
▁formal	-6211
▁submit	-6212
▁compared	-6213
▁protocol	-6214
▁Secretary	-6215
▁maintenance	-6216
hus	-6217
ris	-6218
▁90	-6219
▁flo	-6220
▁Pran	-6221
▁stuff	-6222
▁contem	-6223
▁defend	-6224
▁pretty	-6225
▁harvest	-6226
▁scholar	-6227
▁Director	-6228
▁Interest	-6229
▁36	-6230
▁ends	-6231
▁quit	-6232
swered	-6233
▁fourth	-6234
▁volunt	-6235
▁friendship	-6236
▁identified	-6237
85	-6238
OP	-6239
anc	-6240
ema	-6241
ham	-6242
iri	-6243
▁SA	-6244
uris	-6245
▁alph	-6246
▁roof	-6247
▁Debug	-6248
▁swear	-6249
▁Normal	-6250
▁asking	-6251
▁duties	-6252
▁Independ	-6253
▁Preferences	-6254
how	-6255
aren	-6256
▁Job	-6257
▁Var	-6258
▁alt	-6259
▁Iran	-6260
▁Long	-6261
▁Japan	-6262
▁cycle	-6263
▁fifty	-6264
▁concent	-6265
▁devices	-6266
▁Position	-6267
▁proposal	-6268
▁telephone	-6269
▁prescribed	-6270
▁Activ	-6271
▁Reply	-6272
▁Thank	-6273
▁floor	-6274
▁grain	-6275
▁sorrow	-6276
▁Personal	-6277
▁equipment	-6278
DF	-6279
▁UT	-6280
olved	-6281
▁jail	-6282
▁jobs	-6283
▁Paper	-6284
▁cancel	-6285
▁centres	-6286
▁corresp	-6287
▁desired	-6288
▁advanced	-6289
▁duration	-6290
▁fold	-6291
▁lady	-6292
▁Total	-6293
▁poets	-6294
▁Column	-6295
▁Friend	-6296
▁camera	-6297
▁blessed	-6298
▁missing	-6299
▁authorities	-6300
ste	-6301
▁Cy	-6302
▁ho	-6303
▁tou	-6304
▁Resp	-6305
ailing	-6306
bedkar	-6307
▁Laksh	-6308
▁palace	-6309
▁billion	-6310
▁symptoms	-6311
▁atmosphere	-6312
▁discussion	-6313
essor	-6314
force	-6315
icode	-6316
▁Thou	-6317
▁beat	-6318
▁favor	-6319
▁stamp	-6320
▁union	-6321
▁Basava	-6322
▁Ambedkar	-6323
▁designed	-6324
oz	-6325
wh	-6326
▁fly	-6327
▁Chen	-6328
▁Draw	-6329
▁chat	-6330
▁gift	-6331
rowned	-6332
▁Apply	-6333
▁prove	-6334
▁struct	-6335
▁imagine	-6336
▁Japanese	-6337
▁Messengers	-6338
anas	-6339
▁300	-6340
▁meat	-6341
▁tail	-6342
▁zone	-6343
▁Ident	-6344
▁launch	-6345
▁resist	-6346
▁trouble	-6347
▁wherein	-6348
▁Economic	-6349
▁complaint	-6350
▁Conference	-6351
▁notification	-6352
uru	-6353
otes	-6354
oval	-6355
▁Kor	-6356
▁fab	-6357
iliar	-6358
ipher	-6359
▁Junk	-6360
▁eval	-6361
father	-6362
letion	-6363
▁Judge	-6364
▁cards	-6365
▁disob	-6366
▁referred	-6367
▁engineering	-6368
kh	-6369
▁क	-6370
BER	-6371
▁raw	-6372
erent	-6373
▁Java	-6374
▁Sard	-6375
▁Self	-6376
▁Award	-6377
▁Hence	-6378
▁incor	-6379
▁colors	-6380
▁distur	-6381
▁header	-6382
▁comment	-6383
▁diamonds	-6384
▁printing	-6385
▁recovery	-6386
▁Forgiving	-6387
▁bilateral	-6388
TING	-6389
ille	-6390
ishes	-6391
▁bath	-6392
▁tube	-6393
▁Hyder	-6394
▁abode	-6395
▁brief	-6396
▁psych	-6397
▁behold	-6398
▁convert	-6399
▁merciful	-6400
▁interests	-6401
▁Lt	-6402
▁Cut	-6403
▁Try	-6404
▁asp	-6405
aints	-6406
rafts	-6407
▁runs	-6408
▁GNOME	-6409
▁depth	-6410
▁module	-6411
▁spoken	-6412
▁unless	-6413
▁Replace	-6414
▁identify	-6415
▁Explanation	-6416
MS	-6417
pes	-6418
▁seeds	-6419
▁deeply	-6420
▁package	-6421
▁deposits	-6422
▁decisions	-6423
▁messengers	-6424
▁transaction	-6425
entle	-6426
orous	-6427
▁Poly	-6428
▁coast	-6429
▁owner	-6430
▁react	-6431
▁spoke	-6432
▁explain	-6433
▁celebrated	-6434
▁impossible	-6435
lo	-6436
ny	-6437
▁AW	-6438
▁Bra	-6439
▁Bul	-6440
▁cav	-6441
▁hen	-6442
▁holy	-6443
▁tonn	-6444
iments	-6445
▁multi	-6446
▁Garden	-6447
▁inform	-6448
▁Perhaps	-6449
roduction	-6450
▁keyboard	-6451
▁followers	-6452
▁professional	-6453
ua	-6454
▁70	-6455
ding	-6456
▁Kam	-6457
▁Max	-6458
▁reck	-6459
▁Solar	-6460
▁Global	-6461
▁Nature	-6462
▁stayed	-6463
▁thereof	-6464
uta	-6465
▁agg	-6466
▁Land	-6467
▁Mary	-6468
▁Sita	-6469
▁tick	-6470
▁indig	-6471
▁motor	-6472
▁overt	-6473
▁college	-6474
▁commonly	-6475
▁politics	-6476
▁sequence	-6477
▁thousands	-6478
AND	-6479
▁Han	-6480
▁Mim	-6481
▁Nok	-6482
▁mig	-6483
erate	-6484
▁2011	-6485
▁Prim	-6486
▁Bangl	-6487
▁NATIONAL	-6488
▁campaign	-6489
▁relation	-6490
▁Ek	-6491
▁Va	-6492
▁cho	-6493
▁mock	-6494
▁adequ	-6495
endment	-6496
▁afford	-6497
▁rebell	-6498
▁Jawahar	-6499
▁feeding	-6500
▁startup	-6501
▁darkness	-6502
▁conference	-6503
rh	-6504
▁Force	-6505
▁Trade	-6506
▁clust	-6507
▁stick	-6508
omplete	-6509
▁disput	-6510
▁wicked	-6511
▁universities	-6512
min	-6513
wal	-6514
aced	-6515
▁189	-6516
agers	-6517
▁Rate	-6518
▁hills	-6519
▁Comple	-6520
▁crisis	-6521
▁exceed	-6522
▁switch	-6523
▁absence	-6524
▁appearance	-6525
▁difficulty	-6526
DR	-6527
UG	-6528
▁Cr	-6529
uity	-6530
▁Hon	-6531
▁arms	-6532
▁furn	-6533
▁stom	-6534
▁older	-6535
▁warned	-6536
▁remaining	-6537
ino	-6538
▁od	-6539
▁Lam	-6540
▁rit	-6541
▁jack	-6542
▁repro	-6543
▁scope	-6544
▁tooth	-6545
▁Russia	-6546
▁Toggle	-6547
▁capable	-6548
▁willing	-6549
▁Vertical	-6550
da	-6551
▁AN	-6552
▁forb	-6553
▁Major	-6554
▁leads	-6555
▁twice	-6556
▁Vishnu	-6557
▁spades	-6558
▁dealing	-6559
▁trading	-6560
▁answered	-6561
▁definite	-6562
▁happening	-6563
▁understood	-6564
▁destruction	-6565
lu	-6566
asw	-6567
bum	-6568
rum	-6569
▁Shiv	-6570
▁Soon	-6571
▁exit	-6572
▁legs	-6573
▁Asian	-6574
▁Mahal	-6575
ificial	-6576
▁Annual	-6577
▁client	-6578
▁driver	-6579
▁decimal	-6580
▁victory	-6581
IG	-6582
yal	-6583
aron	-6584
izes	-6585
atics	-6586
urved	-6587
▁Nagar	-6588
▁walls	-6589
▁wills	-6590
▁settled	-6591
▁sustain	-6592
▁Agriculture	-6593
ba	-6594
jo	-6595
adh	-6596
hance	-6597
▁camel	-6598
pective	-6599
▁corner	-6600
▁clothes	-6601
▁categories	-6602
▁proportion	-6603
▁dro	-6604
inite	-6605
▁Cost	-6606
▁thin	-6607
▁cried	-6608
▁caught	-6609
▁specify	-6610
▁turning	-6611
▁subjects	-6612
▁withdraw	-6613
▁daughters	-6614
▁highlight	-6615
sha	-6616
alog	-6617
▁Inv	-6618
▁unb	-6619
ocket	-6620
abinet	-6621
▁loose	-6622
▁begins	-6623
▁behalf	-6624
▁cotton	-6625
▁repent	-6626
▁functioning	-6627
uv	-6628
iya	-6629
anga	-6630
anth	-6631
ette	-6632
▁Sil	-6633
▁Saty	-6634
brance	-6635
▁Forest	-6636
▁Transl	-6637
▁Gardens	-6638
▁summary	-6639
▁president	-6640
ca	-6641
▁Jh	-6642
asad	-6643
emat	-6644
▁Gan	-6645
▁Lah	-6646
▁Sea	-6647
▁voc	-6648
▁ease	-6649
▁Nokia	-6650
▁arbit	-6651
▁noted	-6652
▁Police	-6653
▁silver	-6654
▁street	-6655
▁plugins	-6656
▁privile	-6657
▁finished	-6658
▁permanently	-6659
▁Rain	-6660
▁Road	-6661
▁weap	-6662
ittees	-6663
▁accom	-6664
▁label	-6665
▁hardly	-6666
▁sounds	-6667
▁widget	-6668
▁Islamic	-6669
▁respite	-6670
▁Standard	-6671
▁identity	-6672
▁individuals	-6673
▁instructions	-6674
▁GR	-6675
▁Sn	-6676
▁abide	-6677
▁compr	-6678
▁diagn	-6679
▁noble	-6680
▁Amount	-6681
▁Period	-6682
▁drawing	-6683
▁traffic	-6684
▁approved	-6685
▁entirely	-6686
▁associate	-6687
▁Additional	-6688
gypt	-6689
house	-6690
▁Chat	-6691
▁Star	-6692
▁Yoga	-6693
▁nerv	-6694
▁cheque	-6695
▁domain	-6696
▁Brasero	-6697
▁Islands	-6698
▁Computer	-6699
▁platform	-6700
▁districts	-6701
▁scientists	-6702
▁Ary	-6703
▁Far	-6704
▁ben	-6705
▁bug	-6706
▁Space	-6707
▁deals	-6708
fulness	-6709
▁Header	-6710
anka	-6711
▁pul	-6712
allel	-6713
▁Kore	-6714
▁MSME	-6715
▁upto	-6716
▁crime	-6717
▁hasten	-6718
izations	-6719
▁advised	-6720
▁elected	-6721
▁Christian	-6722
▁preferred	-6723
esty	-6724
▁Unit	-6725
▁fonts	-6726
▁spect	-6727
ressive	-6728
▁approx	-6729
▁signal	-6730
▁stands	-6731
▁emotion	-6732
▁substant	-6733
▁explained	-6734
▁prostrate	-6735
▁Authentication	-6736
▁Rah	-6737
peror	-6738
▁Agra	-6739
▁Gold	-6740
▁silk	-6741
▁Greek	-6742
▁dated	-6743
▁usual	-6744
vention	-6745
▁circle	-6746
▁contro	-6747
▁prayers	-6748
▁western	-6749
▁creatures	-6750
ads	-6751
▁Que	-6752
apped	-6753
owing	-6754
terday	-6755
▁chest	-6756
▁flood	-6757
utation	-6758
▁Master	-6759
▁Mughal	-6760
▁finger	-6761
▁ritual	-6762
▁visual	-6763
▁invited	-6764
▁strange	-6765
▁33	-6766
▁TV	-6767
▁Ye	-6768
down	-6769
▁Bin	-6770
▁tid	-6771
ician	-6772
oples	-6773
raint	-6774
▁Banks	-6775
▁Media	-6776
▁Having	-6777
▁accord	-6778
▁reports	-6779
▁programs	-6780
▁organisms	-6781
END	-6782
issa	-6783
unch	-6784
▁Lake	-6785
▁diet	-6786
▁trem	-6787
▁Track	-6788
▁explo	-6789
▁Compan	-6790
▁abnormal	-6791
▁carefully	-6792
▁consciousness	-6793
▁Ir	-6794
▁anx	-6795
▁htt	-6796
iated	-6797
▁labor	-6798
▁Version	-6799
▁backend	-6800
▁collected	-6801
▁transmission	-6802
bb	-6803
▁ju	-6804
▁mic	-6805
▁2009	-6806
▁2010	-6807
▁Icon	-6808
ername	-6809
▁delic	-6810
▁pride	-6811
▁shell	-6812
▁shoot	-6813
▁illust	-6814
▁sought	-6815
lessness	-6816
▁Persian	-6817
▁Software	-6818
▁partition	-6819
▁correspond	-6820
▁petitioner	-6821
DU	-6822
key	-6823
▁Ep	-6824
olly	-6825
wood	-6826
▁Dav	-6827
▁Dom	-6828
▁Mang	-6829
▁upgr	-6830
ananda	-6831
▁bridge	-6832
▁loaded	-6833
▁regional	-6834
▁Hyderabad	-6835
▁ec	-6836
▁Nic	-6837
▁Nadu	-6838
▁enqu	-6839
▁recur	-6840
erative	-6841
▁career	-6842
▁senior	-6843
▁thirty	-6844
▁familiar	-6845
▁commission	-6846
▁स	-6847
ube	-6848
fast	-6849
oral	-6850
▁Lic	-6851
▁Sort	-6852
▁frag	-6853
▁shel	-6854
olkata	-6855
▁cache	-6856
▁Effect	-6857
▁Knower	-6858
▁Medical	-6859
▁PRESENT	-6860
▁Industry	-6861
▁initiatives	-6862
chant	-6863
▁glory	-6864
▁covers	-6865
▁forgot	-6866
▁valley	-6867
▁biggest	-6868
▁forests	-6869
▁settlement	-6870
acle	-6871
icul	-6872
▁Found	-6873
▁flags	-6874
▁marks	-6875
▁mouse	-6876
▁Quality	-6877
▁transform	-6878
▁interested	-6879
za	-6880
▁eg	-6881
▁Pad	-6882
olars	-6883
▁boat	-6884
▁phen	-6885
▁Active	-6886
▁Kingdom	-6887
▁accompl	-6888
▁desires	-6889
▁Ramayana	-6890
▁Highlight	-6891
▁Horizontal	-6892
▁corruption	-6893
▁consumption	-6894
unc	-6895
▁Rab	-6896
▁VIS	-6897
▁cos	-6898
▁nom	-6899
▁Durg	-6900
ranath	-6901
▁Reset	-6902
▁deity	-6903
▁holds	-6904
▁rough	-6905
▁flight	-6906
▁classes	-6907
▁favours	-6908
ortunately	-6909
▁Connection	-6910
▁CC	-6911
▁ha	-6912
erus	-6913
list	-6914
stan	-6915
thon	-6916
▁Mach	-6917
▁myth	-6918
▁Egypt	-6919
▁Money	-6920
▁aside	-6921
▁colon	-6922
▁drama	-6923
▁eating	-6924
▁Changes	-6925
▁toolbar	-6926
▁modified	-6927
OV	-6928
ocy	-6929
▁Fam	-6930
ocate	-6931
▁dign	-6932
▁pump	-6933
▁fifth	-6934
aitanya	-6935
▁cursor	-6936
▁winter	-6937
▁Univers	-6938
▁Chairman	-6939
▁faithful	-6940
▁essentially	-6941
ria	-6942
▁ww	-6943
▁Trash	-6944
▁panel	-6945
▁tonnes	-6946
▁Society	-6947
▁soldiers	-6948
▁encourage	-6949
▁recommend	-6950
▁applicable	-6951
othe	-6952
ught	-6953
▁www	-6954
ogram	-6955
xygen	-6956
▁race	-6957
▁scar	-6958
▁greet	-6959
▁heads	-6960
urities	-6961
▁photos	-6962
▁compound	-6963
▁consumer	-6964
▁criminal	-6965
▁disorder	-6966
ato	-6967
▁wa	-6968
onia	-6969
cknow	-6970
▁Dest	-6971
▁Musa	-6972
▁hurt	-6973
▁park	-6974
▁Joint	-6975
▁intest	-6976
▁limits	-6977
▁Unicode	-6978
▁bookmarks	-6979
▁promotion	-6980
▁manufacture	-6981
▁manufacturing	-6982
▁pup	-6983
▁van	-6984
endra	-6985
▁bills	-6986
▁worry	-6987
ourable	-6988
▁bigger	-6989
▁fabric	-6990
▁admitted	-6991
▁repeated	-6992
▁vertical	-6993
▁Chaitanya	-6994
▁recipients	-6995
mat	-6996
urse	-6997
▁Step	-6998
▁lung	-6999
▁resc	-7000
▁Aaron	-7001
▁Vedic	-7002
▁sheep	-7003
▁Should	-7004
▁Further	-7005
▁supreme	-7006
▁opposite	-7007
▁estimated	-7008
▁intellectual	-7009
▁participation	-7010
emia	-7011
▁isn	-7012
▁lev	-7013
iable	-7014
uable	-7015
▁exhib	-7016
▁hyper	-7017
▁Integr	-7018
▁Output	-7019
▁advert	-7020
▁Connect	-7021
▁immense	-7022
▁stomach	-7023
▁surgery	-7024
ibilities	-7025
▁employee	-7026
▁Bangladesh	-7027
▁democratic	-7028
atre	-7029
life	-7030
with	-7031
▁Gop	-7032
agram	-7033
pload	-7034
pring	-7035
▁2003	-7036
▁Memo	-7037
▁dear	-7038
▁mine	-7039
▁Grand	-7040
▁Temple	-7041
▁clouds	-7042
▁waters	-7043
▁creative	-7044
▁evolution	-7045
▁fulfilled	-7046
▁principal	-7047
▁differences	-7048
opl	-7049
▁IM	-7050
▁Cat	-7051
▁mah	-7052
▁mos	-7053
▁butt	-7054
▁dread	-7055
▁herit	-7056
▁roads	-7057
▁Cancel	-7058
▁couldn	-7059
▁divine	-7060
▁tourist	-7061
▁patients	-7062
▁awareness	-7063
▁religions	-7064
▁RA	-7065
▁ji	-7066
▁Jay	-7067
▁Spl	-7068
▁mix	-7069
brane	-7070
while	-7071
▁2002	-7072
▁Issu	-7073
▁Sang	-7074
▁elig	-7075
▁toler	-7076
▁injury	-7077
▁linked	-7078
▁equally	-7079
▁pension	-7080
▁Judgment	-7081
▁humanity	-7082
▁speaking	-7083
▁Signature	-7084
▁buildings	-7085
▁sensitive	-7086
DA	-7087
dev	-7088
sem	-7089
yer	-7090
zing	-7091
▁Kap	-7092
rogen	-7093
▁Alph	-7094
▁Quit	-7095
▁core	-7096
▁luck	-7097
▁nose	-7098
▁rose	-7099
isible	-7100
▁Basic	-7101
▁Island	-7102
▁allows	-7103
▁boiling	-7104
▁tidings	-7105
▁Hinduism	-7106
▁components	-7107
▁fundamental	-7108
▁NPS	-7109
avior	-7110
▁Coop	-7111
▁Gupta	-7112
▁catch	-7113
▁chose	-7114
▁Prepar	-7115
▁attain	-7116
▁leaving	-7117
▁arranged	-7118
▁restrict	-7119
▁expansion	-7120
▁increases	-7121
ky	-7122
ese	-7123
▁kg	-7124
akti	-7125
▁max	-7126
▁Stat	-7127
▁Zone	-7128
▁anti	-7129
▁Param	-7130
▁Prior	-7131
▁outer	-7132
▁wheel	-7133
▁Memory	-7134
▁render	-7135
▁skills	-7136
▁figures	-7137
▁bacteria	-7138
▁irrigation	-7139
▁university	-7140
▁architecture	-7141
de	-7142
gia	-7143
heb	-7144
▁Lib	-7145
▁Saf	-7146
▁Sik	-7147
▁ray	-7148
▁unw	-7149
tched	-7150
▁Area	-7151
▁Feed	-7152
▁Verm	-7153
▁Tasks	-7154
▁beach	-7155
▁broke	-7156
▁concl	-7157
▁noise	-7158
▁snake	-7159
▁exports	-7160
▁planned	-7161
▁leadership	-7162
▁vegetables	-7163
▁arrangement	-7164
▁48	-7165
▁Aj	-7166
isco	-7167
rupt	-7168
▁Nir	-7169
arest	-7170
▁bomb	-7171
▁encl	-7172
▁trek	-7173
▁Three	-7174
▁advis	-7175
▁chair	-7176
▁Empire	-7177
▁Orissa	-7178
▁Subhas	-7179
▁conven	-7180
▁humans	-7181
▁Kolkata	-7182
▁updated	-7183
▁secondary	-7184
▁Jawaharlal	-7185
▁Association	-7186
thi	-7187
addy	-7188
ammu	-7189
▁Dri	-7190
▁era	-7191
acious	-7192
ounter	-7193
▁sites	-7194
▁latest	-7195
▁Reserve	-7196
▁Regional	-7197
▁proposed	-7198
▁processes	-7199
▁parliament	-7200
mun	-7201
▁nav	-7202
▁ment	-7203
▁peak	-7204
▁shut	-7205
earing	-7206
▁Block	-7207
▁Entry	-7208
▁asset	-7209
▁juris	-7210
▁towns	-7211
ificates	-7212
▁chromos	-7213
▁digital	-7214
▁approval	-7215
▁heritage	-7216
▁affection	-7217
▁initiated	-7218
▁revelation	-7219
▁presentation	-7220
arh	-7221
enn	-7222
▁Ste	-7223
▁fib	-7224
▁Vari	-7225
▁orph	-7226
▁Empty	-7227
▁arrog	-7228
▁citizen	-7229
▁extract	-7230
▁Available	-7231
▁announced	-7232
▁Inn	-7233
▁Orig	-7234
▁Chenn	-7235
▁Paste	-7236
▁Sardar	-7237
▁prince	-7238
▁slowly	-7239
▁peoples	-7240
▁wrongdo	-7241
▁imported	-7242
▁childhood	-7243
▁discussed	-7244
CH	-7245
▁Ru	-7246
iler	-7247
▁Ltd	-7248
inces	-7249
▁quad	-7250
▁Liter	-7251
▁games	-7252
▁homes	-7253
▁perce	-7254
▁Couldn	-7255
▁degrees	-7256
▁herself	-7257
▁payable	-7258
rehensive	-7259
▁operative	-7260
sec	-7261
alam	-7262
erce	-7263
riya	-7264
▁Amb	-7265
▁Jain	-7266
ixture	-7267
othing	-7268
aration	-7269
ulating	-7270
▁denomin	-7271
▁greatly	-7272
▁detailed	-7273
▁sections	-7274
▁writings	-7275
▁elections	-7276
▁falsehood	-7277
OU	-7278
ador	-7279
pping	-7280
▁Pranab	-7281
▁Thamud	-7282
▁widely	-7283
isations	-7284
▁selling	-7285
▁Advanced	-7286
▁normally	-7287
▁pictures	-7288
▁whenever	-7289
▁movements	-7290
fl	-7291
bra	-7292
ype	-7293
pace	-7294
▁Give	-7295
▁Loan	-7296
▁Raja	-7297
▁ears	-7298
▁fasc	-7299
▁ignor	-7300
▁metal	-7301
▁Adjust	-7302
▁toward	-7303
▁Punjabi	-7304
▁testing	-7305
▁Whatever	-7306
▁drinking	-7307
▁newspaper	-7308
▁Fed	-7309
▁calc	-7310
ushing	-7311
▁dreams	-7312
▁helper	-7313
▁locally	-7314
▁universal	-7315
▁definition	-7316
▁association	-7317
▁instruments	-7318
AYS	-7319
▁NO	-7320
▁Chh	-7321
arted	-7322
avana	-7323
▁Hari	-7324
▁Maur	-7325
icular	-7326
▁Photo	-7327
▁Relig	-7328
▁abdom	-7329
▁plans	-7330
▁Branch	-7331
▁facing	-7332
▁handle	-7333
▁obtain	-7334
▁springs	-7335
▁studied	-7336
▁tourism	-7337
▁dedicated	-7338
▁assessment	-7339
▁competition	-7340
▁programming	-7341
tic	-7342
onym	-7343
▁Produ	-7344
▁forty	-7345
▁whoso	-7346
▁equals	-7347
▁extend	-7348
▁Appoint	-7349
▁describ	-7350
▁Almighty	-7351
▁Similarly	-7352
▁gradually	-7353
▁regularly	-7354
▁prosperity	-7355
▁Mahabharata	-7356
▁combination	-7357
rm	-7358
ida	-7359
▁PDF	-7360
bered	-7361
cular	-7362
▁cave	-7363
▁steel	-7364
▁Accept	-7365
▁George	-7366
▁appell	-7367
▁manage	-7368
▁Bharati	-7369
▁calling	-7370
▁descend	-7371
▁factory	-7372
▁illness	-7373
▁Reminder	-7374
▁agencies	-7375
▁oriented	-7376
jun	-7377
pet	-7378
▁SE	-7379
roid	-7380
ulpt	-7381
▁Ign	-7382
▁kne	-7383
celer	-7384
▁roll	-7385
icipal	-7386
illing	-7387
▁aband	-7388
▁curse	-7389
▁offers	-7390
▁pixels	-7391
▁thanks	-7392
▁transp	-7393
▁Eastern	-7394
▁reforms	-7395
▁adequate	-7396
▁reaction	-7397
▁arguments	-7398
▁commitment	-7399
▁administrative	-7400
50	-7401
van	-7402
ball	-7403
▁Ach	-7404
▁sets	-7405
▁sins	-7406
▁Kabir	-7407
▁Label	-7408
▁Night	-7409
▁decor	-7410
▁ended	-7411
▁minds	-7412
▁tract	-7413
▁Execut	-7414
▁Instit	-7415
▁anyway	-7416
▁observ	-7417
▁papers	-7418
▁Continue	-7419
▁entitled	-7420
▁judgment	-7421
▁strategy	-7422
▁organised	-7423
▁everywhere	-7424
▁Agricultural	-7425
mn	-7426
ker	-7427
elve	-7428
medi	-7429
name	-7430
▁vig	-7431
gical	-7432
osers	-7433
rival	-7434
▁2020	-7435
▁Army	-7436
▁kids	-7437
▁Chann	-7438
▁Frame	-7439
▁Jammu	-7440
▁pious	-7441
▁surpr	-7442
▁Member	-7443
▁Session	-7444
▁Specify	-7445
▁devoted	-7446
▁quarter	-7447
▁Himachal	-7448
▁liability	-7449
ommod	-7450
▁2004	-7451
▁myst	-7452
▁clock	-7453
▁queen	-7454
▁scene	-7455
welling	-7456
▁Prasad	-7457
▁mathem	-7458
▁reserve	-7459
▁computers	-7460
▁personality	-7461
▁34	-7462
ENCE	-7463
onic	-7464
rone	-7465
▁PAR	-7466
▁Sou	-7467
▁1999	-7468
▁Real	-7469
▁Wild	-7470
▁deaf	-7471
orders	-7472
▁carbon	-7473
▁defect	-7474
▁smooth	-7475
▁Subhash	-7476
▁Tourism	-7477
▁managed	-7478
▁markets	-7479
▁sinners	-7480
▁producing	-7481
▁companions	-7482
▁controlled	-7483
▁experiment	-7484
▁unexpected	-7485
▁outstanding	-7486
ARY	-7487
hak	-7488
rian	-7489
▁Put	-7490
▁RBI	-7491
▁Wel	-7492
▁Mart	-7493
▁junk	-7494
▁sole	-7495
actory	-7496
▁Birth	-7497
▁Lanka	-7498
▁chapter	-7499
▁enhance	-7500
▁entries	-7501
▁profits	-7502
▁restore	-7503
▁constructed	-7504
kay	-7505
▁EX	-7506
▁NI	-7507
itra	-7508
▁ash	-7509
▁tum	-7510
ideos	-7511
▁elev	-7512
▁http	-7513
▁ungr	-7514
▁dress	-7515
▁loved	-7516
▁renew	-7517
▁trash	-7518
ilation	-7519
▁Energy	-7520
▁conceal	-7521
▁internet	-7522
▁recognized	-7523
CP	-7524
RE	-7525
ambo	-7526
▁Dyn	-7527
▁fram	-7528
▁nice	-7529
▁vacc	-7530
▁Sound	-7531
▁shout	-7532
▁slope	-7533
▁Region	-7534
▁courts	-7535
▁Friends	-7536
▁Private	-7537
▁decades	-7538
▁seeking	-7539
▁Projects	-7540
▁millions	-7541
▁discharge	-7542
▁everybody	-7543
▁communities	-7544
▁Ba	-7545
araj	-7546
▁Occ	-7547
▁Sum	-7548
icity	-7549
▁Face	-7550
▁Guid	-7551
▁onto	-7552
▁pled	-7553
▁stup	-7554
▁inhab	-7555
▁repay	-7556
▁spell	-7557
diction	-7558
▁German	-7559
▁variable	-7560
▁admonition	-7561
▁participants	-7562
ela	-7563
isp	-7564
olt	-7565
ilal	-7566
▁Atl	-7567
▁ice	-7568
claim	-7569
▁lord	-7570
▁maid	-7571
criber	-7572
ronics	-7573
▁Democ	-7574
▁Input	-7575
▁Mobile	-7576
▁Saving	-7577
▁humble	-7578
▁strict	-7579
▁summer	-7580
▁nervous	-7581
▁educated	-7582
▁naturally	-7583
▁technique	-7584
▁efficiency	-7585
30	-7586
DP	-7587
SS	-7588
ses	-7589
▁CL	-7590
▁ov	-7591
luded	-7592
▁nurs	-7593
▁illeg	-7594
▁oblig	-7595
▁adding	-7596
▁lesson	-7597
▁Justice	-7598
▁mailbox	-7599
▁accompan	-7600
▁investors	-7601
▁Afghanistan	-7602
▁proceedings	-7603
rd	-7604
ago	-7605
▁Od	-7606
▁Ve	-7607
ATES	-7608
ront	-7609
▁Tal	-7610
oking	-7611
▁Lear	-7612
▁clim	-7613
▁tall	-7614
▁pilgr	-7615
▁tests	-7616
▁topic	-7617
▁dollar	-7618
▁fright	-7619
▁learnt	-7620
▁reader	-7621
▁Working	-7622
▁judicial	-7623
▁subtract	-7624
▁warnings	-7625
▁Certainly	-7626
HT	-7627
ye	-7628
rip	-7629
yas	-7630
▁Mot	-7631
▁via	-7632
icent	-7633
rowse	-7634
▁Come	-7635
▁Lock	-7636
▁abst	-7637
▁keen	-7638
▁armed	-7639
▁falls	-7640
▁roots	-7641
▁route	-7642
▁cavity	-7643
▁collab	-7644
ographic	-7645
▁drowned	-7646
▁regarded	-7647
▁initiative	-7648
rem	-7649
iety	-7650
▁din	-7651
▁Four	-7652
▁blame	-7653
inating	-7654
▁Sector	-7655
▁Primary	-7656
▁realize	-7657
▁Official	-7658
▁acquired	-7659
▁membrane	-7660
▁completion	-7661
▁continuous	-7662
▁opposition	-7663
▁improvement	-7664
bab	-7665
the	-7666
uma	-7667
▁Ca	-7668
amma	-7669
tery	-7670
text	-7671
▁Tim	-7672
▁Was	-7673
etime	-7674
▁pond	-7675
▁gradu	-7676
▁surre	-7677
▁infect	-7678
▁Railway	-7679
▁goddess	-7680
▁mistake	-7681
▁Tribunal	-7682
▁assembly	-7683
▁produces	-7684
▁ungrateful	-7685
▁recognition	-7686
rix	-7687
eper	-7688
wing	-7689
▁Sug	-7690
amber	-7691
▁Host	-7692
▁popup	-7693
▁sanct	-7694
▁smell	-7695
▁easier	-7696
▁rising	-7697
▁stages	-7698
▁ordered	-7699
▁neighbour	-7700
▁radiation	-7701
▁suggested	-7702
olf	-7703
urch	-7704
▁Alif	-7705
aching	-7706
ndered	-7707
▁Clean	-7708
▁Koran	-7709
▁allot	-7710
▁struck	-7711
▁Product	-7712
▁obvious	-7713
▁Transfer	-7714
▁describe	-7715
anj	-7716
ums	-7717
▁OK	-7718
ayat	-7719
umes	-7720
▁Dam	-7721
ashed	-7722
▁Cond	-7723
▁offs	-7724
▁devil	-7725
▁hindi	-7726
▁ocean	-7727
▁Pandit	-7728
▁Reload	-7729
▁Scient	-7730
▁acknow	-7731
▁losers	-7732
▁nutrit	-7733
▁silent	-7734
▁Several	-7735
▁attribute	-7736
▁convention	-7737
▁Independence	-7738
ICE	-7739
▁Aur	-7740
▁HTTP	-7741
▁exem	-7742
▁fool	-7743
▁sees	-7744
▁synt	-7745
alysis	-7746
▁driven	-7747
▁Inspect	-7748
▁Natural	-7749
▁passage	-7750
▁publish	-7751
▁employed	-7752
▁retrieve	-7753
▁determine	-7754
▁instruction	-7755
▁न	-7756
▁य	-7757
osc	-7758
ffee	-7759
zzle	-7760
▁Gal	-7761
anath	-7762
night	-7763
▁Week	-7764
ashing	-7765
lessly	-7766
▁Graph	-7767
▁conqu	-7768
▁india	-7769
▁sport	-7770
▁Height	-7771
▁Manual	-7772
▁detail	-7773
▁recite	-7774
▁Meeting	-7775
▁Warning	-7776
▁Weather	-7777
▁arrested	-7778
▁scholars	-7779
▁addressed	-7780
▁continues	-7781
asy	-7782
rut	-7783
rary	-7784
▁hat	-7785
eline	-7786
urate	-7787
▁Base	-7788
▁secre	-7789
▁rupees	-7790
▁Affairs	-7791
▁Without	-7792
▁offices	-7793
▁directed	-7794
oram	-7795
▁Pub	-7796
▁woe	-7797
amese	-7798
organ	-7799
ureau	-7800
▁Wait	-7801
▁bare	-7802
▁vary	-7803
▁Scale	-7804
▁reveal	-7805
▁Committees	-7806
bh	-7807
▁Tru	-7808
uddin	-7809
▁Viet	-7810
▁lake	-7811
▁Shall	-7812
▁innoc	-7813
▁wings	-7814
▁Market	-7815
▁affair	-7816
▁artist	-7817
▁Initial	-7818
▁telling	-7819
▁distress	-7820
▁improved	-7821
▁protected	-7822
▁Investment	-7823
▁compensation	-7824
▁Automatically	-7825
ona	-7826
▁Tell	-7827
▁tape	-7828
▁ships	-7829
▁margin	-7830
▁organs	-7831
iversary	-7832
▁persist	-7833
▁equality	-7834
▁Bookmarks	-7835
▁interpret	-7836
▁otherwise	-7837
▁Employment	-7838
▁technologies	-7839
▁Exc	-7840
▁Lad	-7841
▁gro	-7842
▁mac	-7843
▁Kann	-7844
▁Turn	-7845
▁stem	-7846
prises	-7847
▁Belie	-7848
▁smoke	-7849
ologist	-7850
▁acting	-7851
▁batter	-7852
▁immort	-7853
▁twelve	-7854
▁walking	-7855
▁suffered	-7856
▁parameters	-7857
▁requirement	-7858
▁Fe	-7859
▁tow	-7860
ifted	-7861
▁Siva	-7862
▁vain	-7863
EETING	-7864
▁Order	-7865
▁bread	-7866
▁sperm	-7867
▁wheat	-7868
▁organic	-7869
▁writers	-7870
sequently	-7871
▁universe	-7872
▁machinery	-7873
▁recording	-7874
▁scattered	-7875
▁discovered	-7876
▁percentage	-7877
see	-7878
supp	-7879
▁cas	-7880
pless	-7881
▁Paul	-7882
▁Said	-7883
▁Princ	-7884
▁shock	-7885
atively	-7886
▁golden	-7887
▁interf	-7888
▁masses	-7889
▁Exalted	-7890
▁cancell	-7891
▁credits	-7892
▁enemies	-7893
▁prepare	-7894
▁silence	-7895
▁grateful	-7896
▁phenomen	-7897
▁converted	-7898
IB	-7899
gi	-7900
asp	-7901
aza	-7902
ios	-7903
lla	-7904
▁ma	-7905
olent	-7906
ounce	-7907
▁Muse	-7908
urveda	-7909
▁PRODU	-7910
▁flour	-7911
▁larva	-7912
▁sharp	-7913
▁Design	-7914
▁belied	-7915
▁bought	-7916
▁Although	-7917
▁Implement	-7918
▁structures	-7919
▁availability	-7920
▁installation	-7921
ih	-7922
apa	-7923
nut	-7924
▁Ast	-7925
▁Low	-7926
osals	-7927
▁exch	-7928
▁Break	-7929
▁Roman	-7930
▁Write	-7931
▁filed	-7932
▁Prompt	-7933
▁checked	-7934
▁companion	-7935
▁officials	-7936
▁Excellency	-7937
▁Industries	-7938
▁Processing	-7939
▁undertaken	-7940
uct	-7941
▁MP	-7942
▁Jes	-7943
▁Rat	-7944
lines	-7945
▁pool	-7946
▁vent	-7947
lihood	-7948
▁lease	-7949
▁recon	-7950
▁tells	-7951
▁Father	-7952
▁Ganges	-7953
▁Return	-7954
▁errors	-7955
▁gentle	-7956
▁nearby	-7957
▁oxygen	-7958
▁Germany	-7959
▁Summary	-7960
▁causing	-7961
▁trained	-7962
▁Bookmark	-7963
▁although	-7964
▁centuries	-7965
▁guarantee	-7966
▁discipline	-7967
▁considerable	-7968
nan	-7969
▁Vij	-7970
acles	-7971
ounded	-7972
▁Final	-7973
▁marry	-7974
▁arrive	-7975
▁butter	-7976
▁closer	-7977
▁worker	-7978
▁Nations	-7979
▁observe	-7980
▁overall	-7981
▁vehicle	-7982
supported	-7983
▁bringing	-7984
▁difficulties	-7985
▁Na	-7986
hend	-7987
▁Mur	-7988
▁Ray	-7989
▁Way	-7990
▁kit	-7991
▁Band	-7992
▁Magn	-7993
▁Stra	-7994
▁Mohan	-7995
▁preced	-7996
▁sender	-7997
inations	-7998
▁segment	-7999
▁conflict	-8000
▁meetings	-8001
▁pregnancy	-8002
▁म	-8003
hai	-8004
▁SHRI	-8005
▁horn	-8006
▁hung	-8007
endous	-8008
▁Issue	-8009
▁tight	-8010
isition	-8011
▁closing	-8012
▁involve	-8013
▁immediate	-8014
▁prominent	-8015
▁recognised	-8016
▁remarkable	-8017
▁Legislative	-8018
▁inflammation	-8019
alo	-8020
itr	-8021
itan	-8022
▁Gen	-8023
▁lac	-8024
plant	-8025
▁Moon	-8026
▁Aware	-8027
▁David	-8028
▁crowd	-8029
▁honor	-8030
▁pairs	-8031
▁patri	-8032
▁Family	-8033
▁planet	-8034
▁Nothing	-8035
▁violent	-8036
▁sentence	-8037
▁tourists	-8038
▁contained	-8039
▁frequently	-8040
CL	-8041
MA	-8042
lin	-8043
▁Cli	-8044
▁MIN	-8045
alore	-8046
▁Adam	-8047
▁aims	-8048
▁Innov	-8049
▁Valid	-8050
▁enhan	-8051
▁hosts	-8052
▁query	-8053
▁backup	-8054
▁recall	-8055
▁sinful	-8056
▁eastern	-8057
▁headers	-8058
▁belonging	-8059
▁acceptance	-8060
▁excellence	-8061
▁Registration	-8062
ald	-8063
▁CR	-8064
▁Uz	-8065
ayas	-8066
▁CRA	-8067
▁Devi	-8068
▁hunt	-8069
▁Signs	-8070
▁VISIT	-8071
▁faced	-8072
▁wages	-8073
▁detect	-8074
▁sculpt	-8075
▁decline	-8076
▁earthqu	-8077
▁rapidly	-8078
▁informed	-8079
▁Promotion	-8080
▁solutions	-8081
▁possession	-8082
▁conversation	-8083
▁notifications	-8084
edy	-8085
map	-8086
▁185	-8087
▁Sad	-8088
▁drew	-8089
▁stim	-8090
ometer	-8091
▁Month	-8092
▁brown	-8093
▁keeps	-8094
▁movie	-8095
inction	-8096
▁Awards	-8097
▁propag	-8098
▁anywhere	-8099
▁apparent	-8100
▁checking	-8101
▁honoured	-8102
arts	-8103
emed	-8104
emic	-8105
umph	-8106
▁885	-8107
▁Dak	-8108
itate	-8109
▁Care	-8110
▁prol	-8111
▁spite	-8112
reement	-8113
▁Labour	-8114
▁farmer	-8115
▁faster	-8116
▁hunger	-8117
▁orphan	-8118
▁PRODUCT	-8119
▁Pension	-8120
▁pointed	-8121
▁sincere	-8122
▁touched	-8123
▁bestowed	-8124
▁bookmark	-8125
▁valuable	-8126
▁diversity	-8127
▁complicated	-8128
▁jurisdiction	-8129
iga	-8130
husi	-8131
wali	-8132
▁Cop	-8133
antra	-8134
▁NAME	-8135
▁meal	-8136
▁Durga	-8137
▁Copying	-8138
▁Marathi	-8139
▁sharing	-8140
▁uniform	-8141
▁director	-8142
▁superior	-8143
iam	-8144
rapy	-8145
▁Gita	-8146
▁Sant	-8147
▁backs	-8148
▁fears	-8149
▁Madhya	-8150
▁Proced	-8151
▁buffer	-8152
▁splend	-8153
▁tissues	-8154
▁remembrance	-8155
▁civilization	-8156
GP	-8157
rer	-8158
soft	-8159
time	-8160
▁Cyr	-8161
▁Own	-8162
enous	-8163
ether	-8164
▁Infl	-8165
▁wing	-8166
▁Large	-8167
▁shift	-8168
irement	-8169
▁Folders	-8170
▁closely	-8171
▁flowing	-8172
▁numerous	-8173
▁revision	-8174
▁organized	-8175
▁denominator	-8176
FC	-8177
tar	-8178
▁Pa	-8179
ahan	-8180
ulty	-8181
▁Anj	-8182
▁Ber	-8183
▁Mic	-8184
▁aer	-8185
rolog	-8186
▁isol	-8187
▁sect	-8188
lement	-8189
▁Ahmed	-8190
▁uncle	-8191
▁verse	-8192
holders	-8193
▁ancest	-8194
▁fulfil	-8195
▁salary	-8196
▁Speaking	-8197
▁communal	-8198
▁fraction	-8199
▁execution	-8200
▁forgiving	-8201
▁coordinate	-8202
▁44	-8203
▁Lay	-8204
▁Mis	-8205
▁Sen	-8206
▁Luck	-8207
▁Very	-8208
▁zoom	-8209
▁Radio	-8210
▁brill	-8211
▁divid	-8212
▁flame	-8213
▁shade	-8214
▁worst	-8215
EETINGS	-8216
▁resort	-8217
▁videos	-8218
▁Chennai	-8219
▁demands	-8220
▁equival	-8221
▁putting	-8222
▁raising	-8223
▁supposed	-8224
▁watching	-8225
▁computing	-8226
▁corporate	-8227
▁receiving	-8228
▁Governance	-8229
▁achievement	-8230
DI	-8231
UT	-8232
zen	-8233
▁37	-8234
▁65	-8235
▁Fa	-8236
▁Box	-8237
▁Tir	-8238
▁dir	-8239
▁rom	-8240
works	-8241
▁Trad	-8242
iciary	-8243
▁Death	-8244
essions	-8245
▁naught	-8246
▁Perform	-8247
▁derived	-8248
▁resolve	-8249
▁Protocol	-8250
▁eligible	-8251
AK	-8252
iac	-8253
bour	-8254
phal	-8255
▁Jam	-8256
▁Sav	-8257
▁gun	-8258
▁sed	-8259
▁8859	-8260
▁flex	-8261
ashion	-8262
inance	-8263
inking	-8264
▁anger	-8265
hemical	-8266
▁prompt	-8267
▁Extract	-8268
▁Profile	-8269
▁Russian	-8270
▁Writing	-8271
▁totally	-8272
▁fighting	-8273
▁interval	-8274
▁writable	-8275
▁artificial	-8276
amy	-8277
oys	-8278
▁DE	-8279
apse	-8280
▁Abs	-8281
▁Kaz	-8282
▁wed	-8283
IVERS	-8284
▁Five	-8285
▁MIME	-8286
▁pear	-8287
▁wave	-8288
▁acute	-8289
▁token	-8290
▁Mahade	-8291
▁condem	-8292
▁forced	-8293
▁thrown	-8294
▁Article	-8295
▁despair	-8296
▁enthusi	-8297
▁mischie	-8298
▁recover	-8299
▁Database	-8300
▁overcome	-8301
▁schedule	-8302
▁Microsoft	-8303
000	-8304
shi	-8305
▁Bir	-8306
▁Jose	-8307
▁Mong	-8308
▁Indra	-8309
▁Maybe	-8310
▁bliss	-8311
▁discl	-8312
▁royal	-8313
aughter	-8314
▁favors	-8315
▁random	-8316
▁Burning	-8317
▁mixture	-8318
▁Resource	-8319
▁ancients	-8320
▁Transport	-8321
▁criticism	-8322
▁acceptable	-8323
▁alternative	-8324
▁distributed	-8325
▁pa	-8326
▁enl	-8327
umpet	-8328
▁Sand	-8329
▁tons	-8330
verted	-8331
▁Index	-8332
▁grave	-8333
▁inaug	-8334
▁mango	-8335
▁Madras	-8336
▁crores	-8337
▁emphas	-8338
▁punish	-8339
▁Printer	-8340
▁Restore	-8341
▁awarded	-8342
▁Property	-8343
▁discover	-8344
▁investig	-8345
▁Governments	-8346
▁Pu	-8347
▁Old	-8348
▁bot	-8349
▁vag	-8350
illic	-8351
▁Answ	-8352
▁jump	-8353
agraph	-8354
▁grows	-8355
▁incur	-8356
▁march	-8357
▁Target	-8358
▁worthy	-8359
▁buttons	-8360
▁islands	-8361
▁muscles	-8362
▁protein	-8363
▁realized	-8364
ographical	-8365
▁permitted	-8366
▁searching	-8367
▁enterprise	-8368
▁questioned	-8369
▁constituted	-8370
▁cultivation	-8371
ATE	-8372
ATI	-8373
met	-8374
▁je	-8375
▁Goa	-8376
▁Nam	-8377
▁Pot	-8378
▁Sit	-8379
▁gov	-8380
▁hap	-8381
liest	-8382
▁coin	-8383
▁genu	-8384
▁Cisco	-8385
▁virus	-8386
▁island	-8387
▁Hanuman	-8388
▁routine	-8389
▁Officers	-8390
▁GREETINGS	-8391
▁dependent	-8392
▁Subversion	-8393
▁livelihood	-8394
▁pertaining	-8395
▁investments	-8396
▁entrepreneur	-8397
UB	-8398
▁KB	-8399
chen	-8400
▁Hot	-8401
▁Lit	-8402
▁Opt	-8403
▁PRAN	-8404
▁disg	-8405
▁urge	-8406
▁Young	-8407
▁accum	-8408
▁angle	-8409
▁breed	-8410
▁ruler	-8411
▁trick	-8412
▁Python	-8413
▁defeat	-8414
iculture	-8415
▁circuit	-8416
▁emerged	-8417
▁harmony	-8418
▁involves	-8419
▁assistant	-8420
▁securities	-8421
oda	-8422
▁CA	-8423
▁Gar	-8424
▁Cast	-8425
▁Jour	-8426
▁scan	-8427
apping	-8428
orious	-8429
▁cance	-8430
plicate	-8431
▁lowest	-8432
▁Missing	-8433
▁finding	-8434
off	-8435
▁Du	-8436
▁mm	-8437
▁rhy	-8438
▁unh	-8439
inals	-8440
rison	-8441
▁Fran	-8442
▁Hall	-8443
▁Pune	-8444
▁mamm	-8445
▁marg	-8446
Script	-8447
▁Champ	-8448
▁ranks	-8449
chandra	-8450
▁Brahma	-8451
▁Method	-8452
▁careful	-8453
▁evident	-8454
▁noticed	-8455
▁wherever	-8456
▁Knowledge	-8457
▁dangerous	-8458
▁thereafter	-8459
▁productivity	-8460
can	-8461
▁LD	-8462
care	-8463
iary	-8464
▁188	-8465
▁cum	-8466
▁Rich	-8467
▁Vidy	-8468
▁ties	-8469
▁doors	-8470
▁miles	-8471
▁license	-8472
▁monthly	-8473
▁vitamin	-8474
▁Contents	-8475
▁accommod	-8476
▁channels	-8477
▁examined	-8478
▁constantly	-8479
▁contribute	-8480
▁encouraged	-8481
▁Commissioner	-8482
ROW	-8483
rers	-8484
zone	-8485
▁Bat	-8486
▁Tib	-8487
atell	-8488
print	-8489
▁oral	-8490
▁seat	-8491
entive	-8492
▁Plant	-8493
▁nemat	-8494
▁tears	-8495
▁Refresh	-8496
▁answers	-8497
▁counsel	-8498
▁theatre	-8499
▁vessels	-8500
▁Creating	-8501
▁Allahabad	-8502
▁electronic	-8503
▁accompanied	-8504
▁connections	-8505
▁arrangements	-8506
CO	-8507
vas	-8508
▁la	-8509
adur	-8510
itya	-8511
olve	-8512
▁Ren	-8513
▁sle	-8514
▁York	-8515
▁grat	-8516
▁lots	-8517
▁Jesus	-8518
▁elder	-8519
▁fract	-8520
▁Recent	-8521
▁absent	-8522
▁scroll	-8523
▁columns	-8524
▁dynasty	-8525
▁prophet	-8526
▁removal	-8527
▁Buddhist	-8528
▁specially	-8529
▁42	-8530
▁Je	-8531
▁Sr	-8532
▁kh	-8533
aryn	-8534
▁XML	-8535
DRESS	-8536
eping	-8537
icted	-8538
iques	-8539
ulent	-8540
▁Ital	-8541
▁Room	-8542
▁Rule	-8543
▁fond	-8544
▁indu	-8545
▁inev	-8546
▁Guard	-8547
▁Items	-8548
▁moves	-8549
▁weigh	-8550
▁criter	-8551
▁kidney	-8552
▁poetic	-8553
▁resemb	-8554
▁passion	-8555
▁triumph	-8556
▁Character	-8557
▁guidelines	-8558
▁Infrastructure	-8559
isk	-8560
esis	-8561
reet	-8562
▁Bug	-8563
▁bon	-8564
ISTER	-8565
ystem	-8566
▁Love	-8567
▁Mean	-8568
▁Sent	-8569
▁blow	-8570
▁germ	-8571
▁inqu	-8572
▁spin	-8573
▁Treat	-8574
▁Vedas	-8575
▁haven	-8576
▁souls	-8577
▁uncom	-8578
▁Survey	-8579
▁holder	-8580
▁stress	-8581
▁audience	-8582
▁Attachment	-8583
▁occurrence	-8584
▁submission	-8585
dy	-8586
fe	-8587
mic	-8588
ugu	-8589
▁fo	-8590
uran	-8591
▁Bay	-8592
amboo	-8593
▁Crit	-8594
▁Undo	-8595
▁Vive	-8596
▁elim	-8597
▁analy	-8598
▁digit	-8599
▁Museum	-8600
▁plaint	-8601
▁cooking	-8602
▁formula	-8603
▁Everyone	-8604
▁Internal	-8605
▁feelings	-8606
▁Reference	-8607
▁reckoning	-8608
▁separated	-8609
▁whosoever	-8610
▁distinguished	-8611
MOR	-8612
▁Str	-8613
▁mob	-8614
▁Nand	-8615
▁bene	-8616
▁lust	-8617
▁wasn	-8618
asures	-8619
ienced	-8620
▁Audit	-8621
▁Split	-8622
▁holid	-8623
▁login	-8624
▁ruled	-8625
▁verte	-8626
▁France	-8627
▁append	-8628
▁surgical	-8629
▁ownership	-8630
▁qualities	-8631
▁recognize	-8632
▁Organization	-8633
▁congratulate	-8634
▁NE	-8635
erer	-8636
onut	-8637
▁Hum	-8638
assed	-8639
▁Info	-8640
▁Stock	-8641
▁alcoh	-8642
▁brand	-8643
▁coven	-8644
▁embry	-8645
▁League	-8646
▁Option	-8647
▁Worlds	-8648
▁repeat	-8649
▁Hearing	-8650
▁deliber	-8651
▁farming	-8652
▁airports	-8653
▁Currently	-8654
▁Extension	-8655
▁practical	-8656
▁satisfied	-8657
▁त	-8658
opp	-8659
udi	-8660
▁py	-8661
bind	-8662
isal	-8663
orne	-8664
▁BAR	-8665
endars	-8666
ometry	-8667
▁breat	-8668
▁condol	-8669
▁headed	-8670
▁humili	-8671
▁throne	-8672
▁ADDRESS	-8673
▁Payment	-8674
▁dollars	-8675
▁attended	-8676
▁enjoyment	-8677
▁generated	-8678
▁inspiration	-8679
uty	-8680
▁NH	-8681
▁Kov	-8682
▁hes	-8683
▁wet	-8684
rahim	-8685
▁scen	-8686
liness	-8687
▁idols	-8688
▁liars	-8689
▁Symbol	-8690
▁oldest	-8691
▁shadow	-8692
▁eternal	-8693
▁shelter	-8694
▁Cyrillic	-8695
▁painting	-8696
▁framework	-8697
▁judgement	-8698
▁commodities	-8699
▁contributed	-8700
▁intelligence	-8701
sk	-8702
itud	-8703
odal	-8704
▁Pul	-8705
▁airc	-8706
▁bold	-8707
▁muse	-8708
▁pour	-8709
▁tank	-8710
ighter	-8711
pelled	-8712
▁irrit	-8713
▁tries	-8714
ulatory	-8715
▁meters	-8716
▁rename	-8717
▁Schemes	-8718
▁infinite	-8719
▁template	-8720
▁Engineering	-8721
▁preparation	-8722
▁transformation	-8723
KS	-8724
HER	-8725
ITY	-8726
uan	-8727
zer	-8728
itic	-8729
mony	-8730
▁tro	-8731
▁Bach	-8732
▁Style	-8733
▁evalu	-8734
▁fount	-8735
▁smart	-8736
▁upset	-8737
issions	-8738
▁Portug	-8739
▁Review	-8740
▁Simple	-8741
▁theirs	-8742
▁African	-8743
▁enjoyed	-8744
▁hundreds	-8745
▁surprise	-8746
▁excessive	-8747
▁Monitoring	-8748
▁tremendous	-8749
▁achievements	-8750
▁contributions	-8751
iph	-8752
rob	-8753
▁CV	-8754
▁TR	-8755
avor	-8756
etch	-8757
vent	-8758
▁150	-8759
▁Son	-8760
▁cel	-8761
▁env	-8762
▁vul	-8763
▁wre	-8764
ademy	-8765
izers	-8766
▁Vict	-8767
▁dies	-8768
▁fate	-8769
▁rows	-8770
▁wire	-8771
ricted	-8772
▁Modern	-8773
▁divers	-8774
▁prohib	-8775
▁breasts	-8776
▁enlight	-8777
▁Electric	-8778
▁mortgage	-8779
▁realised	-8780
▁Amendment	-8781
▁horizontal	-8782
▁AC	-8783
▁PC	-8784
aunt	-8785
babu	-8786
▁adj	-8787
ercul	-8788
▁sake	-8789
▁ster	-8790
▁curve	-8791
▁dealt	-8792
▁newly	-8793
▁threw	-8794
▁Manage	-8795
▁Module	-8796
▁bitter	-8797
▁fashion	-8798
▁Checking	-8799
▁bounties	-8800
▁attracted	-8801
▁listening	-8802
▁recommended	-8803
AO	-8804
oa	-8805
▁IB	-8806
lymp	-8807
nity	-8808
▁Emb	-8809
chers	-8810
▁mole	-8811
▁Vivek	-8812
▁blast	-8813
▁chart	-8814
▁haply	-8815
▁hotel	-8816
▁plate	-8817
▁Joseph	-8818
▁Valley	-8819
▁firmly	-8820
▁Sending	-8821
▁Website	-8822
▁bearing	-8823
▁glorify	-8824
▁housing	-8825
▁nearest	-8826
▁Terminal	-8827
▁precious	-8828
▁inflation	-8829
▁Assistance	-8830
▁dictionary	-8831
▁earthquake	-8832
▁photograph	-8833
▁AM	-8834
▁cm	-8835
agra	-8836
▁Gra	-8837
▁vel	-8838
▁Indo	-8839
▁pron	-8840
▁ride	-8841
▁Books	-8842
▁Olymp	-8843
▁specim	-8844
▁strive	-8845
▁Comment	-8846
▁Function	-8847
▁entering	-8848
▁glorious	-8849
▁Languages	-8850
▁Professor	-8851
▁blessings	-8852
▁entrusted	-8853
▁financing	-8854
▁succeeded	-8855
▁Guidelines	-8856
▁influenced	-8857
▁translator	-8858
▁environmental	-8859
▁establishment	-8860
orph	-8861
▁Alt	-8862
▁Gir	-8863
▁Ham	-8864
▁mud	-8865
▁nin	-8866
▁pip	-8867
hesis	-8868
▁Gram	-8869
▁doom	-8870
▁brave	-8871
▁cryst	-8872
▁lakhs	-8873
▁lists	-8874
▁memor	-8875
▁Kovind	-8876
▁Player	-8877
▁empire	-8878
▁encomp	-8879
▁guests	-8880
▁talent	-8881
▁tribal	-8882
▁Cabinet	-8883
▁dynamic	-8884
▁females	-8885
▁executed	-8886
▁packages	-8887
▁slightly	-8888
▁integrity	-8889
ingly	-8890
▁pest	-8891
▁gains	-8892
▁gross	-8893
▁rulers	-8894
▁affects	-8895
▁deceased	-8896
▁intended	-8897
▁weakness	-8898
▁facilitate	-8899
▁respective	-8900
▁significance	-8901
ROM	-8902
cus	-8903
▁ul	-8904
▁Bro	-8905
▁ego	-8906
ursor	-8907
▁Virt	-8908
abetes	-8909
rected	-8910
▁Sahib	-8911
▁saint	-8912
▁smile	-8913
▁Result	-8914
▁novels	-8915
▁carries	-8916
▁killing	-8917
▁largely	-8918
▁traditions	-8919
▁determination	-8920
LE	-8921
gal	-8922
acco	-8923
▁ske	-8924
agari	-8925
aunch	-8926
stone	-8927
▁Fest	-8928
▁Priy	-8929
▁Apart	-8930
▁Theme	-8931
▁arise	-8932
▁beast	-8933
▁burst	-8934
▁fraud	-8935
▁grief	-8936
▁Double	-8937
▁claims	-8938
▁Machine	-8939
▁Provided	-8940
▁treasure	-8941
▁conversion	-8942
▁newspapers	-8943
MENT	-8944
arct	-8945
soon	-8946
▁Abd	-8947
▁Sem	-8948
▁Sor	-8949
▁lod	-8950
▁rat	-8951
cence	-8952
idity	-8953
▁Mont	-8954
▁lion	-8955
▁symp	-8956
roller	-8957
▁logic	-8958
▁Middle	-8959
▁Turkey	-8960
▁coffee	-8961
▁indian	-8962
▁listed	-8963
▁negoti	-8964
▁plenty	-8965
▁united	-8966
▁License	-8967
▁Turkish	-8968
▁apostle	-8969
▁Northern	-8970
▁supplied	-8971
▁supports	-8972
▁executive	-8973
▁equivalent	-8974
▁performing	-8975
▁communications	-8976
▁प	-8977
IST	-8978
upon	-8979
▁Foc	-8980
▁Jab	-8981
▁NUM	-8982
▁kin	-8983
▁wal	-8984
eries	-8985
▁Tree	-8986
▁deed	-8987
▁pars	-8988
▁swim	-8989
▁Polit	-8990
▁Pract	-8991
▁Tools	-8992
▁nucle	-8993
▁owned	-8994
▁tiger	-8995
▁Volume	-8996
▁paying	-8997
▁customs	-8998
▁illegal	-8999
▁plastic	-9000
▁discount	-9001
▁hardship	-9002
▁maturity	-9003
▁monetary	-9004
▁shortcut	-9005
▁commodity	-9006
▁exception	-9007
BC	-9008
iar	-9009
ias	-9010
bing	-9011
▁186	-9012
▁Kat	-9013
▁Oil	-9014
▁aqu	-9015
▁dil	-9016
anand	-9017
erity	-9018
herry	-9019
▁Bhar	-9020
▁stub	-9021
illary	-9022
leness	-9023
▁Estab	-9024
▁charm	-9025
▁decay	-9026
▁immun	-9027
reshold	-9028
▁finish	-9029
▁flying	-9030
▁modify	-9031
▁Ibrahim	-9032
▁Welcome	-9033
▁disable	-9034
▁harmful	-9035
▁opposed	-9036
▁commands	-9037
▁hardware	-9038
▁possibility	-9039
10	-9040
mail	-9041
▁Fun	-9042
▁Rub	-9043
▁orn	-9044
▁ram	-9045
▁rig	-9046
ivals	-9047
▁1947	-9048
▁Deep	-9049
▁Swed	-9050
▁bind	-9051
▁dish	-9052
▁Appro	-9053
▁Quick	-9054
▁angry	-9055
▁grade	-9056
▁kings	-9057
▁handed	-9058
▁Convert	-9059
▁creates	-9060
▁imposed	-9061
▁recited	-9062
▁targets	-9063
▁earliest	-9064
▁encoding	-9065
▁parallel	-9066
▁Ministers	-9067
▁classical	-9068
▁personnel	-9069
▁proposals	-9070
▁remembered	-9071
▁transportation	-9072
▁64	-9073
ollen	-9074
▁Busy	-9075
▁amid	-9076
▁whis	-9077
edient	-9078
▁edges	-9079
▁beside	-9080
▁sports	-9081
▁throat	-9082
▁Confirm	-9083
▁acceler	-9084
▁dignity	-9085
▁doctors	-9086
▁mailing	-9087
▁neglect	-9088
▁outcome	-9089
▁venture	-9090
▁combined	-9091
▁dwelling	-9092
▁estimate	-9093
▁inserted	-9094
▁emergency	-9095
▁territory	-9096
▁wonderful	-9097
▁incomplete	-9098
▁transferred	-9099
kal	-9100
▁HP	-9101
xide	-9102
▁187	-9103
▁Gab	-9104
▁Lin	-9105
▁SSL	-9106
▁Yam	-9107
▁Coll	-9108
▁Pict	-9109
▁AWARD	-9110
▁Bring	-9111
▁Saint	-9112
▁flesh	-9113
▁hence	-9114
▁honey	-9115
▁lymph	-9116
▁shame	-9117
▁Attend	-9118
▁debate	-9119
▁fairly	-9120
▁notify	-9121
▁repair	-9122
▁Archive	-9123
▁gallery	-9124
▁Atlantic	-9125
▁backward	-9126
▁Technical	-9127
▁depending	-9128
▁returning	-9129
▁varieties	-9130
▁yesterday	-9131
▁reasonable	-9132
▁whatsoever	-9133
▁Universities	-9134
▁Parliamentary	-9135
▁Ta	-9136
airy	-9137
born	-9138
▁Haz	-9139
▁IIT	-9140
▁Mut	-9141
▁Til	-9142
▁hut	-9143
rates	-9144
▁Film	-9145
▁lest	-9146
▁trig	-9147
▁Mexic	-9148
▁blown	-9149
▁midst	-9150
▁penis	-9151
▁sword	-9152
▁fought	-9153
ordinary	-9154
▁genuine	-9155
▁Multiple	-9156
▁Priority	-9157
▁immortal	-9158
▁proclaim	-9159
▁assuredly	-9160
▁consumers	-9161
▁witnesses	-9162
ju	-9163
pa	-9164
▁BY	-9165
nger	-9166
orse	-9167
rium	-9168
▁Kol	-9169
▁que	-9170
▁gest	-9171
▁spir	-9172
orship	-9173
▁Compl	-9174
▁Ocean	-9175
▁Setup	-9176
▁plane	-9177
▁yours	-9178
ternoon	-9179
▁Client	-9180
▁tested	-9181
stration	-9182
▁Success	-9183
▁exalted	-9184
▁fifteen	-9185
▁inhabit	-9186
▁lasting	-9187
▁Gujarati	-9188
▁MINISTER	-9189
▁Statement	-9190
▁voluntary	-9191
▁Thereafter	-9192
▁participate	-9193
gon	-9194
ori	-9195
▁55	-9196
avas	-9197
conn	-9198
▁Gib	-9199
▁Hem	-9200
▁Ish	-9201
▁Kav	-9202
▁Map	-9203
▁avo	-9204
▁haz	-9205
▁lin	-9206
power	-9207
▁Dele	-9208
▁Disk	-9209
▁Kath	-9210
▁Snow	-9211
▁True	-9212
▁beet	-9213
▁push	-9214
▁sixt	-9215
▁Until	-9216
▁dense	-9217
▁jinns	-9218
▁Bhagat	-9219
▁Budget	-9220
▁County	-9221
▁Scroll	-9222
▁Tender	-9223
▁barren	-9224
ruitment	-9225
▁binding	-9226
▁alphabet	-9227
▁believes	-9228
▁constitu	-9229
▁handling	-9230
▁Important	-9231
▁Scheduled	-9232
▁automatic	-9233
▁Protection	-9234
▁repository	-9235
▁resistance	-9236
quar	-9237
▁ANN	-9238
▁Ice	-9239
▁Vid	-9240
ainer	-9241
▁1000	-9242
▁Bhut	-9243
▁Pain	-9244
▁Vish	-9245
▁Wood	-9246
▁exha	-9247
▁Malay	-9248
▁Tibet	-9249
▁adorn	-9250
▁Bottom	-9251
▁Rights	-9252
▁Telugu	-9253
▁grains	-9254
▁handic	-9255
▁judges	-9256
▁namely	-9257
▁Neither	-9258
▁whereas	-9259
▁fullscreen	-9260
▁characteristic	-9261
HAR	-9262
imp	-9263
▁Tu	-9264
▁dh	-9265
agus	-9266
rete	-9267
▁Beh	-9268
▁Isa	-9269
▁SRI	-9270
▁Tre	-9271
▁nic	-9272
▁1957	-9273
▁Sens	-9274
▁Till	-9275
▁pace	-9276
▁shot	-9277
elfare	-9278
▁Deleg	-9279
▁Proxy	-9280
▁Truly	-9281
▁alter	-9282
▁frust	-9283
▁tired	-9284
▁entity	-9285
▁guides	-9286
▁permit	-9287
aneously	-9288
▁Instead	-9289
▁avoided	-9290
▁concess	-9291
▁courses	-9292
▁dismiss	-9293
▁Maharaja	-9294
▁Railways	-9295
▁ceremony	-9296
▁emphasis	-9297
▁guardian	-9298
▁Himalayas	-9299
▁attractive	-9300
▁satisfaction	-9301
▁organizations	-9302
▁NG	-9303
ques	-9304
stru	-9305
▁NAB	-9306
▁Squ	-9307
▁ham	-9308
uting	-9309
▁Scan	-9310
▁boot	-9311
▁elab	-9312
▁rupee	-9313
▁assemb	-9314
▁ignore	-9315
▁invent	-9316
▁nobody	-9317
▁pestic	-9318
▁Speaker	-9319
▁kilomet	-9320
▁lending	-9321
▁imperial	-9322
▁reaching	-9323
▁restored	-9324
▁dimension	-9325
▁emotional	-9326
▁allocation	-9327
▁obligation	-9328
SA	-9329
das	-9330
eem	-9331
oul	-9332
udh	-9333
▁OS	-9334
▁SM	-9335
▁mun	-9336
▁FROM	-9337
▁Hary	-9338
▁Mich	-9339
▁Patna	-9340
▁adopt	-9341
▁foods	-9342
▁parse	-9343
▁storm	-9344
▁tends	-9345
▁Korean	-9346
▁Lahore	-9347
▁Request	-9348
▁Welfare	-9349
▁falling	-9350
▁genetic	-9351
▁streams	-9352
▁Keyboard	-9353
▁Original	-9354
▁behavior	-9355
▁thorough	-9356
▁steadfast	-9357
▁monitoring	-9358
▁procedures	-9359
▁contemporary	-9360
leum	-9361
▁Big	-9362
▁mood	-9363
▁tiny	-9364
▁Advis	-9365
▁Nanak	-9366
▁buying	-9367
▁scales	-9368
▁spaces	-9369
▁Hindust	-9370
▁lecture	-9371
▁pillars	-9372
▁Complete	-9373
▁Question	-9374
▁incoming	-9375
▁incorpor	-9376
▁preserve	-9377
▁symbolic	-9378
▁Documents	-9379
▁referring	-9380
▁Integrated	-9381
▁surrounded	-9382
IAL	-9383
agu	-9384
▁AR	-9385
▁Dip	-9386
▁Heb	-9387
▁Sep	-9388
▁eve	-9389
eling	-9390
▁Tend	-9391
▁Veda	-9392
▁stro	-9393
▁sync	-9394
▁Blank	-9395
▁Goods	-9396
▁Impro	-9397
▁Times	-9398
▁calam	-9399
▁needy	-9400
▁adults	-9401
▁metres	-9402
▁talked	-9403
▁tracks	-9404
▁Centres	-9405
▁Digital	-9406
▁anybody	-9407
▁virtual	-9408
▁worried	-9409
▁Copyright	-9410
▁witnessed	-9411
▁discussions	-9412
nath	-9413
▁INA	-9414
omous	-9415
otism	-9416
vance	-9417
▁Acts	-9418
▁Deal	-9419
▁Gate	-9420
▁Menu	-9421
▁unav	-9422
▁Legal	-9423
▁Answer	-9424
▁Browse	-9425
▁mature	-9426
▁walked	-9427
▁Chapter	-9428
▁Content	-9429
▁cutting	-9430
▁founded	-9431
▁helping	-9432
▁intense	-9433
▁contrast	-9434
▁generate	-9435
▁machines	-9436
▁pregnant	-9437
▁Bangalore	-9438
▁Executive	-9439
▁afternoon	-9440
▁numerator	-9441
▁calculated	-9442
▁integration	-9443
▁consequences	-9444
PN	-9445
▁51	-9446
▁54	-9447
cket	-9448
more	-9449
ndra	-9450
plog	-9451
rich	-9452
▁Rani	-9453
▁Repe	-9454
▁heap	-9455
▁idle	-9456
▁unus	-9457
▁wash	-9458
▁Works	-9459
▁canal	-9460
▁Single	-9461
▁Swaraj	-9462
▁invite	-9463
plogroup	-9464
▁Brahmin	-9465
▁Manipur	-9466
▁William	-9467
▁discard	-9468
▁execute	-9469
▁younger	-9470
▁Contract	-9471
▁southern	-9472
▁Secondary	-9473
▁endeavour	-9474
▁entertain	-9475
▁connecting	-9476
▁directions	-9477
▁supporting	-9478
▁translated	-9479
▁experienced	-9480
aph	-9481
tha	-9482
▁99	-9483
cure	-9484
isha	-9485
pert	-9486
whel	-9487
▁Kon	-9488
▁gap	-9489
▁sus	-9490
▁une	-9491
archy	-9492
▁Chak	-9493
▁Gadu	-9494
▁calf	-9495
▁hole	-9496
MORROW	-9497
▁Citiz	-9498
▁coord	-9499
▁gates	-9500
▁seats	-9501
▁urine	-9502
▁Domain	-9503
▁aggreg	-9504
▁nearer	-9505
▁picked	-9506
▁stores	-9507
▁diverse	-9508
▁monitor	-9509
▁precise	-9510
▁TOMORROW	-9511
▁Operation	-9512
▁intention	-9513
▁accessible	-9514
▁invitation	-9515
▁imagination	-9516
▁Introduction	-9517
▁representative	-9518
CS	-9519
kin	-9520
▁38	-9521
amba	-9522
gian	-9523
what	-9524
▁125	-9525
▁tit	-9526
aired	-9527
▁LDAP	-9528
▁hire	-9529
ortion	-9530
▁Using	-9531
▁coins	-9532
▁goals	-9533
▁magaz	-9534
▁stake	-9535
▁powder	-9536
▁Channel	-9537
▁Haryana	-9538
▁Package	-9539
▁helpful	-9540
▁liberal	-9541
▁pursued	-9542
▁survive	-9543
▁Wildlife	-9544
▁announce	-9545
▁canceled	-9546
▁virtuous	-9547
▁intestine	-9548
▁literally	-9549
▁Implementation	-9550
je	-9551
eta	-9552
iki	-9553
zil	-9554
amar	-9555
hema	-9556
vati	-9557
▁115	-9558
▁HOS	-9559
▁Jal	-9560
▁Ord	-9561
▁SAW	-9562
imize	-9563
izard	-9564
▁Govt	-9565
▁aged	-9566
▁corn	-9567
▁pard	-9568
▁tied	-9569
arency	-9570
▁Binoy	-9571
▁Front	-9572
▁enorm	-9573
▁paths	-9574
▁worse	-9575
▁Rotate	-9576
▁models	-9577
▁Various	-9578
▁couches	-9579
▁distant	-9580
▁faculty	-9581
▁imports	-9582
▁partial	-9583
▁Physical	-9584
▁demonstr	-9585
▁dividend	-9586
▁rainfall	-9587
▁Municipal	-9588
▁overwrite	-9589
▁Collection	-9590
▁Commercial	-9591
▁impression	-9592
▁wrongdoers	-9593
▁distinction	-9594
▁comprehensive	-9595
▁transgressors	-9596
uri	-9597
var	-9598
▁DP	-9599
▁Ku	-9600
neum	-9601
▁Ken	-9602
▁Obs	-9603
▁Row	-9604
▁pel	-9605
pered	-9606
▁Sidd	-9607
▁Amrit	-9608
▁Blood	-9609
▁risks	-9610
▁shoes	-9611
▁talks	-9612
▁twain	-9613
▁Territ	-9614
▁Throne	-9615
▁engage	-9616
▁locked	-9617
▁uterus	-9618
▁Creator	-9619
▁Whoever	-9620
▁coconut	-9621
▁crucial	-9622
▁realise	-9623
criptions	-9624
▁coloured	-9625
▁payments	-9626
▁Judgement	-9627
▁Scripture	-9628
▁villagers	-9629
▁integrated	-9630
▁statistics	-9631
▁corporation	-9632
PM	-9633
▁Os	-9634
▁Ut	-9635
▁Oft	-9636
▁Tat	-9637
▁muc	-9638
▁unm	-9639
icide	-9640
licts	-9641
odium	-9642
ulous	-9643
▁COND	-9644
▁Mill	-9645
▁Plug	-9646
▁Vill	-9647
▁neut	-9648
▁tone	-9649
▁Anand	-9650
▁Price	-9651
▁arrow	-9652
▁icons	-9653
▁Hebrew	-9654
▁Terror	-9655
▁Viewer	-9656
▁Wealth	-9657
▁bounty	-9658
▁chains	-9659
▁ledger	-9660
▁Antarct	-9661
▁Procedure	-9662
▁commanded	-9663
▁elephants	-9664
▁deficiency	-9665
ASS	-9666
oven	-9667
▁Bod	-9668
▁DNA	-9669
▁III	-9670
▁Ven	-9671
▁mak	-9672
ensus	-9673
nagar	-9674
reens	-9675
▁Cash	-9676
▁Dise	-9677
▁Sank	-9678
▁cock	-9679
▁nest	-9680
▁unaw	-9681
▁wine	-9682
coming	-9683
retion	-9684
▁fancy	-9685
▁males	-9686
▁mater	-9687
▁merit	-9688
▁mould	-9689
▁prest	-9690
▁resur	-9691
▁skelet	-9692
▁wished	-9693
▁disobey	-9694
▁pilgrim	-9695
▁secular	-9696
ilitation	-9697
▁Moreover	-9698
▁pleasant	-9699
▁Agreement	-9700
▁Inspector	-9701
▁candidates	-9702
▁conclusion	-9703
▁organisations	-9704
▁characteristics	-9705
cho	-9706
fly	-9707
▁85	-9708
ifer	-9709
keys	-9710
lord	-9711
▁Hyd	-9712
igarh	-9713
rious	-9714
▁Fact	-9715
▁Fall	-9716
▁Math	-9717
▁Vice	-9718
▁brah	-9719
▁bulk	-9720
▁dict	-9721
▁gang	-9722
▁unre	-9723
▁Games	-9724
▁Music	-9725
▁Sanct	-9726
▁horiz	-9727
▁liver	-9728
▁decade	-9729
▁edited	-9730
▁ending	-9731
▁purity	-9732
▁sample	-9733
▁stable	-9734
▁unseen	-9735
▁Culture	-9736
▁compuls	-9737
▁mineral	-9738
▁offence	-9739
▁Movement	-9740
▁Planning	-9741
▁Progress	-9742
▁requests	-9743
▁synchron	-9744
▁Companies	-9745
▁institute	-9746
▁Inflammation	-9747
aga	-9748
iot	-9749
▁Dw	-9750
▁PS	-9751
enda	-9752
oria	-9753
▁Moz	-9754
▁RTI	-9755
▁Rao	-9756
▁fro	-9757
ocity	-9758
▁Pate	-9759
▁epic	-9760
▁seiz	-9761
seless	-9762
▁Draft	-9763
▁Fixed	-9764
▁paddy	-9765
▁penet	-9766
▁persu	-9767
▁decree	-9768
▁differ	-9769
▁micros	-9770
▁Country	-9771
▁Empathy	-9772
▁Narayan	-9773
▁arrival	-9774
▁deities	-9775
▁utility	-9776
▁constell	-9777
▁expanded	-9778
▁innocent	-9779
▁Haplogroup	-9780
▁techniques	-9781
▁television	-9782
▁Appointment	-9783
▁measurement	-9784
▁certificates	-9785
CD	-9786
erk	-9787
▁GP	-9788
▁MU	-9789
▁tin	-9790
▁ved	-9791
ammed	-9792
attis	-9793
inous	-9794
itals	-9795
▁Bhai	-9796
▁Lead	-9797
▁Modi	-9798
▁Poll	-9799
terior	-9800
▁seeks	-9801
▁swall	-9802
itative	-9803
▁NUMBER	-9804
▁Netaji	-9805
▁Notice	-9806
▁graves	-9807
▁insult	-9808
▁mirror	-9809
▁refuse	-9810
▁discrim	-9811
▁enforce	-9812
▁expired	-9813
▁Ayurveda	-9814
▁aircraft	-9815
▁confined	-9816
▁literacy	-9817
▁shoulder	-9818
▁spreading	-9819
▁Encryption	-9820
▁separately	-9821
▁publication	-9822
CA	-9823
avy	-9824
uti	-9825
▁56	-9826
UGUR	-9827
ashi	-9828
oshi	-9829
rome	-9830
▁Din	-9831
▁Van	-9832
cient	-9833
utosh	-9834
▁1990	-9835
▁Norm	-9836
▁suck	-9837
▁Pause	-9838
▁cough	-9839
▁dates	-9840
▁enact	-9841
▁rooms	-9842
▁Sahdev	-9843
▁equity	-9844
▁shrine	-9845
▁INAUGUR	-9846
▁Reading	-9847
▁amounts	-9848
▁focused	-9849
▁readers	-9850
▁savings	-9851
▁Increase	-9852
▁confused	-9853
▁covenant	-9854
▁northern	-9855
▁replaced	-9856
▁Premchand	-9857
▁improving	-9858
▁mandatory	-9859
▁medicines	-9860
▁adjustment	-9861
▁statements	-9862
▁Administration	-9863
ERN	-9864
anz	-9865
▁AL	-9866
▁Mi	-9867
cers	-9868
emon	-9869
urna	-9870
▁Hel	-9871
ensed	-9872
erred	-9873
orses	-9874
▁1950	-9875
▁Side	-9876
▁begg	-9877
▁rope	-9878
▁tack	-9879
urable	-9880
▁Cross	-9881
▁crack	-9882
▁relie	-9883
▁thorn	-9884
▁troub	-9885
▁Spirit	-9886
▁inject	-9887
▁injust	-9888
▁levied	-9889
▁marble	-9890
▁themes	-9891
ibraries	-9892
ployment	-9893
▁Opening	-9894
▁battery	-9895
▁fearing	-9896
▁players	-9897
▁rightly	-9898
▁compiler	-9899
▁offering	-9900
▁Different	-9901
▁believing	-9902
▁somewhere	-9903
▁worshipped	-9904
▁conservation	-9905
▁extraordinary	-9906
Os	-9907
Cal	-9908
▁43	-9909
atra	-9910
ipse	-9911
ulum	-9912
▁Nas	-9913
▁Uns	-9914
▁Vin	-9915
▁gal	-9916
▁ric	-9917
▁seg	-9918
ariat	-9919
ville	-9920
▁1998	-9921
▁Grie	-9922
▁Near	-9923
▁Prat	-9924
lining	-9925
omever	-9926
orters	-9927
▁Units	-9928
▁bears	-9929
▁burnt	-9930
entives	-9931
▁INDIAN	-9932
▁digest	-9933
▁museum	-9934
▁thirst	-9935
▁Mailbox	-9936
▁Regular	-9937
▁attacks	-9938
▁emperor	-9939
▁Universe	-9940
▁entrance	-9941
▁imprison	-9942
▁Himalayan	-9943
▁indicates	-9944
▁offspring	-9945
▁stability	-9946
▁Subscriber	-9947
▁departments	-9948
▁disbelieved	-9949
▁Den	-9950
▁PIN	-9951
field	-9952
▁Role	-9953
▁fees	-9954
▁seas	-9955
▁succ	-9956
▁Broad	-9957
▁Congo	-9958
▁Latin	-9959
▁alert	-9960
▁cater	-9961
▁finds	-9962
▁Cursor	-9963
▁Ignore	-9964
▁gained	-9965
▁lights	-9966
▁marvel	-9967
▁mortal	-9968
▁breaking	-9969
▁detected	-9970
▁mischief	-9971
▁obviously	-9972
▁possessed	-9973
▁electrical	-9974
▁attachments	-9975
▁composition	-9976
▁operational	-9977
EF	-9978
▁व	-9979
bek	-9980
▁Fi	-9981
▁Ki	-9982
anna	-9983
rine	-9984
▁Fit	-9985
▁Opp	-9986
ceeds	-9987
oster	-9988
scape	-9989
▁Gora	-9990
▁cure	-9991
▁cust	-9992
▁hast	-9993
▁slot	-9994
▁Ganes	-9995
▁Khand	-9996
▁Purch	-9997
▁lands	-9998
▁norms	-9999
▁AWARDS	-10000
▁Indira	-10001
▁bamboo	-10002
▁verbal	-10003
▁Bahadur	-10004
▁Lucknow	-10005
▁alcohol	-10006
▁envelop	-10007
▁examine	-10008
▁exposed	-10009
▁skilled	-10010
▁studying	-10011
▁cancelled	-10012
▁expensive	-10013
▁governments	-10014
▁approximately	-10015
▁investigation	-10016
▁multiplication	-10017
API	-10018
ECH	-10019
OUR	-10020
nes	-10021
ulus	-10022
wara	-10023
▁CVS	-10024
▁Sab	-10025
isite	-10026
utory	-10027
▁Prab	-10028
▁prin	-10029
▁unem	-10030
herent	-10031
ogether	-10032
▁Courts	-10033
▁Deputy	-10034
▁Rather	-10035
▁Within	-10036
▁checks	-10037
▁utmost	-10038
▁Academy	-10039
▁Teacher	-10040
▁consent	-10041
▁abundant	-10042
▁emerging	-10043
▁strongly	-10044
▁Allowance	-10045
▁basically	-10046
▁encrypted	-10047
▁frequency	-10048
▁particles	-10049
▁privilege	-10050
▁reduction	-10051
▁appreciate	-10052
▁sustainable	-10053
DL	-10054
uli	-10055
▁39	-10056
▁BO	-10057
aine	-10058
▁mas	-10059
itors	-10060
mouth	-10061
▁Case	-10062
▁Drag	-10063
▁Hill	-10064
▁Mass	-10065
commun	-10066
enance	-10067
erable	-10068
rapped	-10069
rishna	-10070
roleum	-10071
▁Ashok	-10072
▁bonds	-10073
▁bunch	-10074
▁envis	-10075
▁fallen	-10076
▁perish	-10077
itations	-10078
▁Britain	-10079
▁Virtual	-10080
▁empower	-10081
▁premium	-10082
▁arrogant	-10083
▁circular	-10084
▁overwhel	-10085
▁somewhat	-10086
▁Establish	-10087
▁prevented	-10088
▁scientist	-10089
▁Foundation	-10090
▁healthcare	-10091
▁sanctioned	-10092
▁Examination	-10093
▁effectively	-10094
▁interaction	-10095
▁suggestions	-10096
EST	-10097
ael	-10098
ario	-10099
rise	-10100
step	-10101
▁tap	-10102
opher	-10103
▁Joze	-10104
▁Less	-10105
▁calm	-10106
▁lone	-10107
▁monu	-10108
▁CALLS	-10109
imation	-10110
▁Anjuta	-10111
▁Layout	-10112
▁Medium	-10113
▁ideals	-10114
▁Brahman	-10115
erculosis	-10116
▁PRESENTS	-10117
▁Register	-10118
▁breeding	-10119
▁Believers	-10120
▁breathing	-10121
▁passwords	-10122
▁reflected	-10123
▁Institutions	-10124
rar	-10125
iest	-10126
iven	-10127
rous	-10128
▁Rai	-10129
▁Tub	-10130
eches	-10131
utter	-10132
▁Azad	-10133
▁hint	-10134
▁irre	-10135
▁tens	-10136
itched	-10137
reight	-10138
▁begun	-10139
▁lingu	-10140
▁rocks	-10141
▁tribe	-10142
imental	-10143
▁Sudden	-10144
▁copies	-10145
▁slaves	-10146
▁sovere	-10147
▁musical	-10148
▁operate	-10149
▁penalty	-10150
▁prestig	-10151
▁singing	-10152
▁weapons	-10153
indranath	-10154
▁Consumer	-10155
▁Festival	-10156
▁Particip	-10157
▁helpless	-10158
▁swelling	-10159
▁Submission	-10160
▁inspection	-10161
▁scriptures	-10162
▁Destination	-10163
▁progressive	-10164
bre	-10165
iti	-10166
pad	-10167
▁66	-10168
▁PL	-10169
mand	-10170
▁Hig	-10171
▁Unf	-10172
▁mol	-10173
ursed	-10174
▁1996	-10175
▁Drop	-10176
▁arts	-10177
▁dumb	-10178
▁glac	-10179
▁vote	-10180
▁Merge	-10181
▁cease	-10182
▁teleg	-10183
atching	-10184
▁Behold	-10185
▁Maurit	-10186
▁NABARD	-10187
▁assign	-10188
▁assume	-10189
▁honest	-10190
▁impart	-10191
▁murder	-10192
▁plains	-10193
▁Benefit	-10194
▁Station	-10195
▁chamber	-10196
▁ignored	-10197
▁controls	-10198
▁prospect	-10199
▁Completed	-10200
▁Resources	-10201
▁confusion	-10202
▁correctly	-10203
▁favourite	-10204
▁indicated	-10205
▁collective	-10206
▁rebellious	-10207
HI	-10208
axy	-10209
irs	-10210
ajan	-10211
anti	-10212
omas	-10213
▁Sex	-10214
▁hem	-10215
▁CALL	-10216
▁Dial	-10217
▁Jack	-10218
▁Jinn	-10219
▁clin	-10220
▁shed	-10221
▁tabs	-10222
▁wake	-10223
▁album	-10224
▁alike	-10225
▁exped	-10226
▁optim	-10227
▁swift	-10228
▁Backup	-10229
▁Sunday	-10230
▁manual	-10231
▁snakes	-10232
▁barrier	-10233
▁density	-10234
▁diagram	-10235
▁monsoon	-10236
▁Building	-10237
▁borrower	-10238
▁consolid	-10239
▁filename	-10240
▁Corporate	-10241
▁magicians	-10242
▁medicinal	-10243
▁Production	-10244
▁respondent	-10245
▁substantial	-10246
▁representation	-10247
UE	-10248
vy	-10249
▁fer	-10250
▁Camp	-10251
▁Narm	-10252
▁bask	-10253
▁wand	-10254
itting	-10255
rehend	-10256
▁Login	-10257
▁adapt	-10258
▁feels	-10259
▁liked	-10260
▁Images	-10261
▁Perman	-10262
▁babies	-10263
▁eleven	-10264
▁Discard	-10265
▁assumed	-10266
▁captured	-10267
▁crossing	-10268
▁decrease	-10269
cellaneous	-10270
▁positions	-10271
▁absolutely	-10272
▁authorised	-10273
▁occupation	-10274
▁legislation	-10275
▁transmitted	-10276
▁interpretation	-10277
ibh	-10278
appy	-10279
asha	-10280
▁Bol	-10281
▁Gre	-10282
▁fan	-10283
▁shy	-10284
▁1997	-10285
▁Desh	-10286
▁clar	-10287
▁lips	-10288
▁mart	-10289
▁rejo	-10290
▁tast	-10291
▁Abdul	-10292
▁Alpha	-10293
▁eager	-10294
▁films	-10295
▁Thread	-10296
▁hungry	-10297
▁spinal	-10298
▁verify	-10299
▁asunder	-10300
▁destiny	-10301
▁earning	-10302
▁injured	-10303
▁Schedule	-10304
▁apostles	-10305
▁birthday	-10306
▁indirect	-10307
▁magnetic	-10308
▁Preparing	-10309
▁injustice	-10310
▁Simulation	-10311
▁constitute	-10312
▁undertaking	-10313
▁Notification	-10314
▁revolutionary	-10315
fty	-10316
ford	-10317
okes	-10318
orrh	-10319
umbn	-10320
▁Lut	-10321
▁Ori	-10322
▁bid	-10323
▁cin	-10324
▁lag	-10325
range	-10326
▁Badr	-10327
▁Half	-10328
▁caut	-10329
▁coat	-10330
▁alleg	-10331
▁cheap	-10332
▁spark	-10333
▁therm	-10334
regular	-10335
▁Gibral	-10336
▁regret	-10337
▁speaks	-10338
▁virtue	-10339
atellite	-10340
▁Restart	-10341
▁Shankar	-10342
▁drought	-10343
▁leaflet	-10344
▁periods	-10345
attisgarh	-10346
▁Synchron	-10347
▁Whenever	-10348
▁contrary	-10349
▁disputes	-10350
▁reserved	-10351
▁resulted	-10352
▁decorated	-10353
▁accounting	-10354
▁altogether	-10355
▁controvers	-10356
▁declaration	-10357
uh	-10358
▁EN	-10359
ASHT	-10360
adra	-10361
burg	-10362
▁Thy	-10363
▁ine	-10364
▁unn	-10365
▁Baba	-10366
▁Blue	-10367
▁Phil	-10368
▁intr	-10369
mented	-10370
▁Along	-10371
▁Patel	-10372
▁sixty	-10373
▁socio	-10374
▁Border	-10375
▁copper	-10376
▁grieve	-10377
▁resear	-10378
▁Cricket	-10379
▁acquire	-10380
▁corrupt	-10381
▁instant	-10382
▁lessons	-10383
▁Election	-10384
▁rendered	-10385
▁Generally	-10386
▁celebrate	-10387
▁festivals	-10388
▁interview	-10389
▁locations	-10390
▁societies	-10391
▁Convention	-10392
▁Revolution	-10393
▁brightness	-10394
▁anniversary	-10395
▁characterized	-10396
DM	-10397
ki	-10398
lis	-10399
nex	-10400
gles	-10401
oult	-10402
sole	-10403
▁Pap	-10404
▁VPN	-10405
▁Alex	-10406
▁Arun	-10407
▁Item	-10408
▁tang	-10409
▁vibr	-10410
▁Isaac	-10411
▁Notes	-10412
▁bride	-10413
▁loves	-10414
▁motiv	-10415
▁seize	-10416
▁sorce	-10417
▁Priyob	-10418
▁Sender	-10419
▁Shared	-10420
▁subsid	-10421
iousness	-10422
▁Religion	-10423
▁attained	-10424
▁defeated	-10425
▁historic	-10426
▁wretched	-10427
▁animation	-10428
▁Literature	-10429
▁approaches	-10430
▁endeavours	-10431
▁substances	-10432
▁substitute	-10433
▁Wi	-10434
▁Ira	-10435
▁Yoj	-10436
▁ell	-10437
inced	-10438
▁bits	-10439
▁rear	-10440
licted	-10441
▁Simpl	-10442
▁cable	-10443
▁prayed	-10444
▁quoted	-10445
▁driving	-10446
▁enables	-10447
▁complain	-10448
▁Gibraltar	-10449
▁appellant	-10450
▁surprised	-10451
▁Dictionary	-10452
▁beneficial	-10453
▁indigenous	-10454
▁confirmation	-10455
acc	-10456
anny	-10457
arse	-10458
atri	-10459
fare	-10460
isht	-10461
ogue	-10462
ptic	-10463
▁rab	-10464
arita	-10465
arium	-10466
water	-10467
▁1948	-10468
▁Ball	-10469
▁Dark	-10470
▁Gall	-10471
▁IMAP	-10472
▁pipe	-10473
▁Armen	-10474
▁Bless	-10475
▁Links	-10476
acharya	-10477
onymous	-10478
▁Almast	-10479
▁Series	-10480
▁binary	-10481
▁overse	-10482
▁solved	-10483
▁varied	-10484
▁varies	-10485
Calendar	-10486
▁adverse	-10487
▁auction	-10488
▁chronic	-10489
▁logical	-10490
▁Printing	-10491
▁indicate	-10492
▁disturbed	-10493
▁parameter	-10494
▁surrender	-10495
aks	-10496
oea	-10497
uda	-10498
▁46	-10499
▁FA	-10500
▁MA	-10501
awan	-10502
eros	-10503
roto	-10504
▁Hit	-10505
▁Suf	-10506
▁Vik	-10507
▁bore	-10508
▁grid	-10509
▁hook	-10510
rained	-10511
▁Croat	-10512
▁Mouse	-10513
▁Paris	-10514
▁aspir	-10515
▁winds	-10516
ductive	-10517
fathers	-10518
▁Assess	-10519
▁advise	-10520
▁burned	-10521
▁losses	-10522
▁unlike	-10523
▁Deposit	-10524
▁charity	-10525
▁enquiry	-10526
▁serpent	-10527
▁symbols	-10528
▁attacked	-10529
▁colleges	-10530
▁enormous	-10531
▁kilogram	-10532
▁measured	-10533
▁receipts	-10534
▁alignment	-10535
▁indicator	-10536
▁plaintiff	-10537
▁Beneficent	-10538
▁Categories	-10539
hot	-10540
lay	-10541
nia	-10542
▁Ro	-10543
Wise	-10544
aped	-10545
arks	-10546
▁400	-10547
▁Age	-10548
▁Hen	-10549
▁Miz	-10550
▁Vas	-10551
▁jaw	-10552
anyan	-10553
▁1992	-10554
▁1995	-10555
▁Ever	-10556
▁Pant	-10557
▁Upon	-10558
▁cows	-10559
▁Based	-10560
▁Claim	-10561
▁Model	-10562
▁Queen	-10563
▁delta	-10564
▁lotus	-10565
▁manus	-10566
▁trace	-10567
▁Demand	-10568
▁Ganesh	-10569
▁asleep	-10570
▁deprec	-10571
▁infant	-10572
▁thinks	-10573
▁kitchen	-10574
▁unaware	-10575
▁wearing	-10576
▁advances	-10577
▁dwellers	-10578
▁earnings	-10579
▁managing	-10580
▁verified	-10581
▁Innovation	-10582
▁encryption	-10583
▁identification	-10584
▁41	-10585
▁BS	-10586
ahal	-10587
aras	-10588
ller	-10589
utra	-10590
▁Cry	-10591
▁Pel	-10592
▁tun	-10593
andra	-10594
▁Cook	-10595
▁Gamb	-10596
isting	-10597
▁Delay	-10598
▁Range	-10599
▁autoc	-10600
▁embed	-10601
▁nutri	-10602
▁stray	-10603
▁Dakota	-10604
▁Others	-10605
▁Transp	-10606
▁phrase	-10607
▁transf	-10608
▁Farmers	-10609
▁Highway	-10610
▁Italian	-10611
▁carrier	-10612
▁deniers	-10613
▁grammar	-10614
▁updates	-10615
▁perceive	-10616
▁GroupWise	-10617
▁extensive	-10618
▁Priyobroto	-10619
▁PRODUCTNAME	-10620
▁surrounding	-10621
▁introduction	-10622
uce	-10623
▁GU	-10624
▁oh	-10625
icus	-10626
ifts	-10627
omon	-10628
tain	-10629
wide	-10630
▁ICT	-10631
▁bew	-10632
▁loy	-10633
▁sty	-10634
▁tip	-10635
apore	-10636
arynx	-10637
▁Fast	-10638
▁Sach	-10639
▁alle	-10640
▁Bills	-10641
▁boost	-10642
▁posts	-10643
assador	-10644
▁Little	-10645
▁pledge	-10646
▁tribes	-10647
▁Setting	-10648
▁compact	-10649
▁declare	-10650
▁trusted	-10651
▁Actually	-10652
▁Required	-10653
▁reserves	-10654
▁resolved	-10655
▁whomever	-10656
▁faithless	-10657
▁scheduled	-10658
▁capability	-10659
▁situations	-10660
▁supplement	-10661
▁Traditional	-10662
▁consequence	-10663
▁regulations	-10664
ANG	-10665
VAN	-10666
oded	-10667
▁Ell	-10668
▁IBM	-10669
▁Wal	-10670
▁guy	-10671
▁hub	-10672
▁tob	-10673
otomy	-10674
ulses	-10675
▁Body	-10676
▁Desp	-10677
▁dipl	-10678
▁ward	-10679
asions	-10680
▁roast	-10681
▁wives	-10682
▁Aurang	-10683
▁Martin	-10684
▁feared	-10685
▁Balance	-10686
▁Binding	-10687
▁afflict	-10688
▁secured	-10689
▁streets	-10690
▁Creation	-10691
▁Himalaya	-10692
▁disaster	-10693
▁ultimate	-10694
▁criminals	-10695
▁ministers	-10696
▁processed	-10697
▁promoting	-10698
▁eventually	-10699
▁represented	-10700
▁entrepreneurs	-10701
JEE	-10702
awa	-10703
▁53	-10704
▁AB	-10705
▁Cup	-10706
▁Jew	-10707
▁Mid	-10708
▁fur	-10709
▁pin	-10710
▁rib	-10711
▁ton	-10712
avati	-10713
erals	-10714
▁Shar	-10715
▁moth	-10716
akhand	-10717
▁Focus	-10718
▁Heavy	-10719
▁Preet	-10720
▁chick	-10721
▁Vaishn	-10722
▁orange	-10723
▁ruling	-10724
▁eminent	-10725
▁employer	-10726
▁floating	-10727
▁infected	-10728
▁rotation	-10729
▁stations	-10730
▁visiting	-10731
▁competent	-10732
▁residence	-10733
orticulture	-10734
▁Accessible	-10735
▁Programmes	-10736
▁disappoint	-10737
▁suggestion	-10738
▁orientation	-10739
▁q	-10740
▁ल	-10741
▁47	-10742
▁Ce	-10743
▁DR	-10744
▁LE	-10745
▁Mc	-10746
inea	-10747
shan	-10748
▁Mel	-10749
▁SEC	-10750
▁Tor	-10751
▁sul	-10752
▁umb	-10753
arkar	-10754
▁Pars	-10755
▁flee	-10756
atical	-10757
efined	-10758
▁Recip	-10759
▁Urban	-10760
▁climb	-10761
edience	-10762
▁Unseen	-10763
▁simult	-10764
▁Outlook	-10765
▁Spanish	-10766
▁essence	-10767
▁horizon	-10768
▁reactor	-10769
▁blessing	-10770
▁grievous	-10771
▁networks	-10772
▁presents	-10773
▁punished	-10774
▁Community	-10775
▁Interface	-10776
▁intermedi	-10777
▁primarily	-10778
▁complaints	-10779
▁acquisition	-10780
▁comfortable	-10781
▁administrator	-10782
GR	-10783
kim	-10784
lly	-10785
rik	-10786
▁PP	-10787
bert	-10788
hara	-10789
illy	-10790
acent	-10791
apati	-10792
▁1993	-10793
▁Poet	-10794
▁Wall	-10795
▁anat	-10796
▁loud	-10797
eshwar	-10798
itated	-10799
vation	-10800
▁moist	-10801
▁rains	-10802
▁sorry	-10803
▁Expand	-10804
▁Nation	-10805
▁awards	-10806
▁befall	-10807
ithmetic	-10808
▁Finally	-10809
▁filters	-10810
▁protest	-10811
▁serving	-10812
▁subsidy	-10813
▁Debugger	-10814
▁Mahadevi	-10815
▁abundance	-10816
▁encounter	-10817
win	-10818
obar	-10819
▁GOV	-10820
▁nas	-10821
adium	-10822
inath	-10823
oused	-10824
rived	-10825
▁Amar	-10826
▁fare	-10827
▁semi	-10828
mother	-10829
▁Indus	-10830
▁Query	-10831
▁Samaj	-10832
▁dying	-10833
▁Praise	-10834
▁Prince	-10835
▁preval	-10836
onscious	-10837
▁Consult	-10838
▁Masters	-10839
▁despite	-10840
▁volumes	-10841
▁balanced	-10842
▁criteria	-10843
▁forehead	-10844
▁occupied	-10845
▁JavaScript	-10846
▁consisting	-10847
▁Uttarakhand	-10848
▁experiments	-10849
▁strengthening	-10850
hin	-10851
▁Eat	-10852
▁Fig	-10853
▁Ill	-10854
▁awa	-10855
▁fel	-10856
▁tyr	-10857
osion	-10858
rance	-10859
▁1980	-10860
▁auto	-10861
▁fame	-10862
▁hang	-10863
▁nons	-10864
irable	-10865
recogn	-10866
▁texts	-10867
istical	-10868
▁Kanpur	-10869
▁Letter	-10870
▁Visual	-10871
▁alchem	-10872
▁estate	-10873
▁inputs	-10874
▁ruined	-10875
▁tempor	-10876
▁upload	-10877
quarters	-10878
▁Systems	-10879
▁swollen	-10880
▁vaccine	-10881
▁Starting	-10882
▁dramatic	-10883
▁peaceful	-10884
▁Overwrite	-10885
▁Fullscreen	-10886
▁institutes	-10887
▁restricted	-10888
▁pi	-10889
Card	-10890
▁Gas	-10891
▁Mak	-10892
▁bin	-10893
▁cub	-10894
▁vot	-10895
ritis	-10896
▁Grow	-10897
▁Swit	-10898
▁ages	-10899
▁merc	-10900
▁tent	-10901
▁Alarm	-10902
▁Grant	-10903
▁James	-10904
▁Plate	-10905
▁relax	-10906
▁trunk	-10907
lasting	-10908
▁Ravana	-10909
▁camels	-10910
▁wouldn	-10911
▁Toggles	-10912
▁claimed	-10913
▁dischar	-10914
▁disconn	-10915
▁username	-10916
▁velocity	-10917
▁Governors	-10918
▁admission	-10919
▁calendars	-10920
▁prisoners	-10921
▁seriously	-10922
▁functional	-10923
▁Expenditure	-10924
▁scholarship	-10925
▁conventional	-10926
ito	-10927
▁49	-10928
▁68	-10929
▁Ud	-10930
erge	-10931
ishe	-10932
uese	-10933
worm	-10934
▁COM	-10935
▁SID	-10936
▁Sha	-10937
▁Tun	-10938
▁Ult	-10939
▁bio	-10940
▁cul	-10941
berry	-10942
group	-10943
iency	-10944
itted	-10945
owers	-10946
▁Bagh	-10947
▁intu	-10948
▁aston	-10949
▁palms	-10950
amation	-10951
▁breeds	-10952
▁modest	-10953
▁visits	-10954
▁Browser	-10955
▁Express	-10956
▁damaged	-10957
▁reverse	-10958
▁smoking	-10959
▁tobacco	-10960
▁everyday	-10961
▁exposure	-10962
▁generous	-10963
▁mistakes	-10964
▁Searching	-10965
▁exclusive	-10966
▁remainder	-10967
▁phenomenon	-10968
▁Accordingly	-10969
▁Electronics	-10970
▁competitive	-10971
▁experiences	-10972
▁forefathers	-10973
mas	-10974
▁Si	-10975
VICE	-10976
abul	-10977
acia	-10978
card	-10979
plus	-10980
▁Jac	-10981
▁Sul	-10982
itter	-10983
▁Warn	-10984
▁deer	-10985
▁humb	-10986
▁tags	-10987
▁tomb	-10988
▁wool	-10989
inates	-10990
▁Medic	-10991
▁borne	-10992
▁cruel	-10993
▁likes	-10994
▁waves	-10995
▁CONDOL	-10996
▁GOVERN	-10997
▁Govind	-10998
▁Sikkim	-10999
▁banyan	-11000
▁pocket	-11001
▁Banking	-11002
▁Collect	-11003
▁Headers	-11004
▁Receipt	-11005
▁capture	-11006
▁comprom	-11007
▁diabetes	-11008
▁sacrific	-11009
▁complement	-11010
▁enthusiasm	-11011
▁calculation	-11012
gl	-11013
aba	-11014
alg	-11015
erb	-11016
isa	-11017
kha	-11018
sar	-11019
sey	-11020
▁MD	-11021
alli	-11022
erty	-11023
idas	-11024
isan	-11025
▁Hal	-11026
▁MUK	-11027
break	-11028
pread	-11029
▁Capt	-11030
▁MAPI	-11031
▁gran	-11032
▁info	-11033
▁merg	-11034
▁nour	-11035
▁sine	-11036
▁Usage	-11037
▁indul	-11038
▁Canada	-11039
▁Purana	-11040
▁Retrie	-11041
▁Sheikh	-11042
▁Widget	-11043
▁assert	-11044
▁genius	-11045
▁ticket	-11046
▁generic	-11047
▁Southern	-11048
▁striking	-11049
▁discourse	-11050
▁intensity	-11051
▁Everything	-11052
▁Profession	-11053
▁innovative	-11054
▁circulation	-11055
▁enterprises	-11056
▁inhabitants	-11057
▁developments	-11058
12	-11059
FS	-11060
azi	-11061
nic	-11062
▁DD	-11063
▁IR	-11064
▁Uk	-11065
berg	-11066
opia	-11067
▁Bij	-11068
▁bef	-11069
▁pus	-11070
aland	-11071
opard	-11072
storm	-11073
uated	-11074
▁1991	-11075
▁Bhav	-11076
▁Insp	-11077
▁NIOS	-11078
▁Nare	-11079
▁cogn	-11080
▁liar	-11081
▁lift	-11082
▁orth	-11083
▁vein	-11084
▁worn	-11085
HERJEE	-11086
▁auton	-11087
▁taxes	-11088
▁Brazil	-11089
▁Kazakh	-11090
▁Parent	-11091
▁Sharma	-11092
▁Thomas	-11093
▁horses	-11094
▁Lakshmi	-11095
▁massive	-11096
▁Chromium	-11097
▁Consider	-11098
▁Straight	-11099
▁abstract	-11100
▁interact	-11101
▁purified	-11102
▁rational	-11103
▁MUKHERJEE	-11104
▁Telephone	-11105
▁gathering	-11106
▁greetings	-11107
▁involving	-11108
▁Antarctica	-11109
▁engagement	-11110
▁quantities	-11111
▁references	-11112
▁chromosomes	-11113
uis	-11114
▁63	-11115
▁FL	-11116
opal	-11117
osph	-11118
ride	-11119
▁APP	-11120
▁CPU	-11121
alled	-11122
guard	-11123
igate	-11124
rosis	-11125
▁Cant	-11126
▁Fill	-11127
▁Okay	-11128
▁carp	-11129
▁stab	-11130
olving	-11131
rupted	-11132
▁Study	-11133
▁paste	-11134
▁robot	-11135
▁shops	-11136
arkhand	-11137
▁victim	-11138
ubscribe	-11139
▁Include	-11140
▁Publish	-11141
▁aggress	-11142
▁amazing	-11143
▁insight	-11144
▁upgrade	-11145
▁Hospital	-11146
▁Monmouth	-11147
▁Relations	-11148
▁certainty	-11149
▁convinced	-11150
▁elsewhere	-11151
▁Portuguese	-11152
▁manuscript	-11153
▁mechanical	-11154
▁Chhattisgarh	-11155
▁Conservation	-11156
▁Distribution	-11157
▁technological	-11158
AV	-11159
CII	-11160
aki	-11161
▁NS	-11162
iser	-11163
wari	-11164
▁Bor	-11165
▁Tai	-11166
▁cad	-11167
▁nob	-11168
agger	-11169
itrus	-11170
▁Dhar	-11171
▁bite	-11172
▁laug	-11173
▁ling	-11174
course	-11175
urated	-11176
▁Layer	-11177
▁Altern	-11178
▁Calcul	-11179
▁Compet	-11180
▁agenda	-11181
▁excite	-11182
ositions	-11183
▁anxious	-11184
▁experts	-11185
▁laughed	-11186
▁sunrise	-11187
▁warrant	-11188
▁CONDOLES	-11189
▁Chemical	-11190
▁Circular	-11191
▁comments	-11192
▁inferior	-11193
▁producer	-11194
▁Marketing	-11195
▁preserved	-11196
▁definitely	-11197
▁Applications	-11198
due	-11199
raj	-11200
▁OI	-11201
▁sq	-11202
aque	-11203
atta	-11204
quet	-11205
seud	-11206
▁FIL	-11207
▁SOC	-11208
▁Suk	-11209
▁sar	-11210
aryng	-11211
avour	-11212
ceans	-11213
rophy	-11214
▁Gran	-11215
▁Rang	-11216
▁Talk	-11217
▁Thai	-11218
▁asks	-11219
▁auth	-11220
▁epis	-11221
atible	-11222
erving	-11223
▁Devan	-11224
▁Extra	-11225
▁Franc	-11226
▁consp	-11227
▁dimin	-11228
▁knock	-11229
▁labou	-11230
▁prize	-11231
▁tales	-11232
angular	-11233
▁Bureau	-11234
▁Speech	-11235
▁Travel	-11236
▁patron	-11237
▁rescue	-11238
▁schema	-11239
▁weapon	-11240
▁wooden	-11241
▁Manilal	-11242
▁abdomen	-11243
▁anticip	-11244
▁bondmen	-11245
▁belonged	-11246
▁goodness	-11247
▁nematode	-11248
▁sleeping	-11249
▁encompass	-11250
▁ignorance	-11251
▁afterwards	-11252
▁delegation	-11253
▁inevitable	-11254
▁explanation	-11255
▁transparent	-11256
▁Unfortunately	-11257
gue	-11258
hew	-11259
rod	-11260
ukh	-11261
▁Ax	-11262
▁Hi	-11263
▁gn	-11264
ildo	-11265
▁UID	-11266
▁aug	-11267
ierce	-11268
olean	-11269
▁Thir	-11270
▁epid	-11271
▁neur	-11272
▁scal	-11273
▁slip	-11274
▁Angle	-11275
▁Mahav	-11276
▁Speed	-11277
▁Surya	-11278
▁Watch	-11279
▁memos	-11280
▁score	-11281
▁spray	-11282
▁Mongol	-11283
▁habits	-11284
▁retail	-11285
▁Journal	-11286
▁matches	-11287
▁pressed	-11288
▁somehow	-11289
▁texture	-11290
▁thunder	-11291
▁worldly	-11292
▁wronged	-11293
▁deleting	-11294
▁embedded	-11295
▁matching	-11296
▁overseas	-11297
▁disappear	-11298
▁discovery	-11299
▁identical	-11300
▁measuring	-11301
▁resurrected	-11302
▁Organisation	-11303
▁appointments	-11304
▁restrictions	-11305
ECT	-11306
uni	-11307
orus	-11308
ucks	-11309
▁Ans	-11310
▁Mrs	-11311
▁Vic	-11312
▁cha	-11313
▁oct	-11314
▁ups	-11315
astri	-11316
aters	-11317
isive	-11318
▁Subt	-11319
▁aest	-11320
▁conj	-11321
▁duct	-11322
▁mask	-11323
▁ruin	-11324
▁void	-11325
ogenic	-11326
otions	-11327
▁Frequ	-11328
▁alien	-11329
▁wider	-11330
ipation	-11331
▁Commit	-11332
▁Divine	-11333
▁Issued	-11334
▁Sarasw	-11335
▁Yamuna	-11336
▁dinner	-11337
▁renown	-11338
▁sealed	-11339
▁welcom	-11340
▁Housing	-11341
▁Running	-11342
▁Storage	-11343
▁licence	-11344
▁mandapa	-11345
▁miracle	-11346
▁pending	-11347
▁untouch	-11348
▁Mohammed	-11349
▁Revision	-11350
▁Tomorrow	-11351
▁graphics	-11352
▁instruct	-11353
▁invented	-11354
▁speeches	-11355
▁Champions	-11356
▁Temporary	-11357
▁recovered	-11358
▁relatives	-11359
▁advantages	-11360
▁Administrative	-11361
▁recommendations	-11362
yd	-11363
oil	-11364
▁52	-11365
▁95	-11366
▁IV	-11367
rics	-11368
▁Bag	-11369
▁Neg	-11370
▁SPE	-11371
▁mit	-11372
▁Fear	-11373
▁SCHE	-11374
▁acre	-11375
agraha	-11376
phrase	-11377
▁Inbox	-11378
▁Noble	-11379
▁Quest	-11380
▁Share	-11381
▁brows	-11382
▁cheer	-11383
▁globe	-11384
▁naked	-11385
▁rhyth	-11386
▁urged	-11387
▁bearer	-11388
▁bounds	-11389
▁thrust	-11390
unciation	-11391
▁Suddenly	-11392
▁Username	-11393
▁actively	-11394
▁declined	-11395
▁demanded	-11396
▁devotees	-11397
▁disposal	-11398
▁invested	-11399
▁marginal	-11400
▁outgoing	-11401
▁reminded	-11402
▁tendency	-11403
▁Provision	-11404
▁travelled	-11405
▁preference	-11406
▁productive	-11407
▁travelling	-11408
▁considerably	-11409
▁continuously	-11410
▁unexpectedly	-11411
ESH	-11412
olu	-11413
arus	-11414
bral	-11415
brid	-11416
rosy	-11417
ulla	-11418
▁Cub	-11419
▁HIV	-11420
▁Hom	-11421
▁Mes	-11422
▁Tea	-11423
ultan	-11424
▁Evil	-11425
▁Iraq	-11426
apurna	-11427
ectomy	-11428
rating	-11429
▁Raman	-11430
▁Users	-11431
▁Verma	-11432
▁Vijay	-11433
▁disag	-11434
▁drain	-11435
ishness	-11436
▁Determ	-11437
▁Launch	-11438
▁config	-11439
▁legend	-11440
▁rarely	-11441
▁Therein	-11442
▁beneath	-11443
▁devotee	-11444
▁evolved	-11445
▁inspect	-11446
▁reaches	-11447
▁typical	-11448
▁Material	-11449
▁Resident	-11450
▁Construct	-11451
▁achieving	-11452
▁brilliant	-11453
▁broadcast	-11454
▁configure	-11455
▁inclusive	-11456
▁irregular	-11457
▁Permission	-11458
▁Vivekananda	-11459
▁maintaining	-11460
▁compassionate	-11461
elo	-11462
yam	-11463
▁Ran	-11464
▁Sac	-11465
▁Chal	-11466
▁Mant	-11467
▁Sure	-11468
▁gene	-11469
▁tort	-11470
atures	-11471
▁Maint	-11472
▁Manik	-11473
▁Rober	-11474
▁acted	-11475
ruption	-11476
sequent	-11477
▁Chance	-11478
▁Colors	-11479
▁Jaipur	-11480
▁Length	-11481
▁Random	-11482
▁Street	-11483
▁buried	-11484
▁evildo	-11485
▁lawyer	-11486
▁pulled	-11487
▁Ancient	-11488
▁Average	-11489
▁Defence	-11490
▁Encrypt	-11491
▁Penalty	-11492
▁holiday	-11493
▁restart	-11494
▁upright	-11495
▁Buddhism	-11496
recognized	-11497
▁Mauritius	-11498
▁divisions	-11499
▁Entreprene	-11500
▁comparison	-11501
▁legislative	-11502
aha	-11503
▁62	-11504
▁Ho	-11505
▁gh	-11506
oves	-11507
vals	-11508
▁Fog	-11509
▁POP	-11510
▁hal	-11511
agedy	-11512
eared	-11513
plays	-11514
retch	-11515
▁Dhan	-11516
▁Loss	-11517
▁pink	-11518
▁seal	-11519
▁ware	-11520
▁wilt	-11521
asaheb	-11522
▁Think	-11523
▁molec	-11524
▁Depart	-11525
▁Rajput	-11526
▁Senior	-11527
▁Yojana	-11528
▁cosine	-11529
▁edible	-11530
▁liable	-11531
▁typing	-11532
▁Provide	-11533
▁decreed	-11534
▁editing	-11535
▁Partners	-11536
▁artistic	-11537
▁boundary	-11538
▁concerns	-11539
▁stronger	-11540
▁occasions	-11541
▁paragraph	-11542
▁purchased	-11543
▁resulting	-11544
▁boundaries	-11545
▁classified	-11546
▁collecting	-11547
▁underlying	-11548
▁condolences	-11549
45	-11550
CR	-11551
bow	-11552
chi	-11553
▁Ec	-11554
bone	-11555
iana	-11556
loom	-11557
mits	-11558
pura	-11559
quer	-11560
umps	-11561
▁600	-11562
▁ATM	-11563
▁Gor	-11564
▁SER	-11565
▁lux	-11566
▁ven	-11567
▁Disp	-11568
▁Must	-11569
▁Skip	-11570
▁chol	-11571
▁hect	-11572
▁knot	-11573
▁nurt	-11574
culiar	-11575
ulates	-11576
▁Hyper	-11577
▁Still	-11578
▁Tilak	-11579
▁shore	-11580
▁toxic	-11581
▁Houses	-11582
▁Modify	-11583
▁Sindhi	-11584
▁canvas	-11585
▁cursed	-11586
▁deceit	-11587
▁devils	-11588
▁marine	-11589
▁matrix	-11590
▁steady	-11591
▁Constit	-11592
▁Despite	-11593
▁Michael	-11594
▁applies	-11595
▁excited	-11596
▁resting	-11597
▁scatter	-11598
▁Currency	-11599
▁patterns	-11600
▁peculiar	-11601
▁Directors	-11602
▁obtaining	-11603
▁preparing	-11604
▁transition	-11605
▁ultimately	-11606
▁geographical	-11607
▁concentration	-11608
CI	-11609
St	-11610
▁ट	-11611
cam	-11612
igm	-11613
pal	-11614
azed	-11615
from	-11616
▁Aad	-11617
▁BIR	-11618
▁Yus	-11619
▁lip	-11620
adays	-11621
ippet	-11622
▁Kama	-11623
▁Perc	-11624
▁Pick	-11625
▁SAYS	-11626
▁atom	-11627
▁goat	-11628
▁grey	-11629
▁screw	-11630
OCATION	-11631
cribers	-11632
▁Mexico	-11633
▁advent	-11634
▁decent	-11635
▁freely	-11636
▁glands	-11637
▁perpet	-11638
▁rating	-11639
▁troops	-11640
▁Actions	-11641
▁Indones	-11642
▁airport	-11643
▁shining	-11644
▁Purchase	-11645
▁premises	-11646
▁Principal	-11647
▁biological	-11648
▁sustenance	-11649
▁Unsupported	-11650
▁exploitation	-11651
▁respectively	-11652
▁accommodation	-11653
UD	-11654
ORT	-11655
igo	-11656
uds	-11657
▁GC	-11658
▁Ya	-11659
andi	-11660
aser	-11661
vara	-11662
▁Ara	-11663
▁Dur	-11664
▁USA	-11665
▁dot	-11666
▁imb	-11667
eeper	-11668
gebra	-11669
inant	-11670
tedly	-11671
▁HOST	-11672
▁arom	-11673
▁jung	-11674
▁lens	-11675
▁worm	-11676
icable	-11677
stream	-11678
▁Might	-11679
▁Monte	-11680
▁Reven	-11681
▁acres	-11682
▁embra	-11683
▁fetch	-11684
▁flows	-11685
▁manip	-11686
▁sends	-11687
▁slave	-11688
▁straw	-11689
emption	-11690
olation	-11691
▁Argent	-11692
▁Golden	-11693
▁Jabber	-11694
▁Upload	-11695
▁denial	-11696
▁emerge	-11697
▁fortun	-11698
▁larvae	-11699
▁stupid	-11700
▁testim	-11701
▁fortune	-11702
▁knoweth	-11703
▁revised	-11704
▁victims	-11705
▁Commerce	-11706
▁possibly	-11707
▁province	-11708
▁shopping	-11709
▁welcomed	-11710
▁Compassion	-11711
▁cultivated	-11712
▁connectivity	-11713
▁relationships	-11714
▁constitutional	-11715
obi	-11716
▁72	-11717
▁81	-11718
▁BE	-11719
▁Es	-11720
▁GT	-11721
▁ow	-11722
hari	-11723
inth	-11724
link	-11725
page	-11726
▁Bit	-11727
▁RES	-11728
▁ace	-11729
▁bee	-11730
▁ped	-11731
APTER	-11732
▁Amit	-11733
▁CONV	-11734
▁Decl	-11735
▁eyed	-11736
▁guys	-11737
▁rein	-11738
▁Loans	-11739
▁Lower	-11740
▁Names	-11741
▁Yusuf	-11742
▁array	-11743
▁lofty	-11744
▁postp	-11745
▁spots	-11746
rishnan	-11747
▁willed	-11748
oubtedly	-11749
▁bleeding	-11750
▁disgrace	-11751
▁frequent	-11752
▁incurred	-11753
▁playlist	-11754
▁Singapore	-11755
▁philosoph	-11756
▁strategic	-11757
▁Individual	-11758
▁attributes	-11759
▁separation	-11760
▁Performance	-11761
EB	-11762
uz	-11763
AIN	-11764
ENS	-11765
jud	-11766
sis	-11767
achi	-11768
anqu	-11769
appa	-11770
emen	-11771
▁Bac	-11772
▁Fax	-11773
▁HIS	-11774
▁PAN	-11775
▁PIB	-11776
▁bub	-11777
▁raj	-11778
▁rum	-11779
umber	-11780
▁Song	-11781
▁Sync	-11782
▁bund	-11783
▁chap	-11784
▁nigh	-11785
▁prox	-11786
angers	-11787
oultry	-11788
▁Beach	-11789
▁Coast	-11790
▁Domin	-11791
▁Early	-11792
▁Spell	-11793
▁bench	-11794
▁boxes	-11795
▁crude	-11796
▁laden	-11797
▁orbit	-11798
▁steep	-11799
▁loving	-11800
▁Picture	-11801
▁abandon	-11802
▁flaming	-11803
▁grounds	-11804
izational	-11805
▁Absolute	-11806
▁calamity	-11807
▁commerce	-11808
▁cultures	-11809
▁flexible	-11810
▁operator	-11811
▁smallest	-11812
▁patiently	-11813
▁subjected	-11814
▁accordance	-11815
▁attraction	-11816
▁relatively	-11817
▁necessarily	-11818
▁classification	-11819
FP	-11820
▁द	-11821
▁ह	-11822
nis	-11823
▁TH	-11824
▁ud	-11825
anim	-11826
fect	-11827
juna	-11828
▁Beg	-11829
▁Dog	-11830
▁Lou	-11831
▁laz	-11832
▁rod	-11833
adata	-11834
aning	-11835
araja	-11836
▁1974	-11837
▁Grid	-11838
▁Oste	-11839
▁Prob	-11840
▁Redo	-11841
▁Sale	-11842
▁knee	-11843
▁scor	-11844
abling	-11845
iative	-11846
icians	-11847
opathy	-11848
▁BIRTH	-11849
▁Cloud	-11850
▁Cover	-11851
▁Owner	-11852
▁Phase	-11853
▁Recur	-11854
▁Spain	-11855
▁genes	-11856
▁stiff	-11857
ittance	-11858
▁Mechan	-11859
▁Repeat	-11860
▁beasts	-11861
▁castes	-11862
▁crying	-11863
▁hollow	-11864
▁pursue	-11865
▁vector	-11866
▁Kannada	-11867
▁Solomon	-11868
▁surplus	-11869
▁Policies	-11870
▁commence	-11871
▁enhanced	-11872
▁provider	-11873
▁Standards	-11874
▁initially	-11875
▁appreciated	-11876
▁controlling	-11877
▁constellation	-11878
ea	-11879
hop	-11880
ulu	-11881
▁DT	-11882
▁Om	-11883
▁Rh	-11884
▁Bak	-11885
▁Pil	-11886
▁Pix	-11887
▁Rom	-11888
▁odd	-11889
grade	-11890
indra	-11891
stein	-11892
▁Zeal	-11893
▁disl	-11894
▁fled	-11895
▁outs	-11896
▁pand	-11897
▁pion	-11898
▁synd	-11899
▁torn	-11900
▁trip	-11901
insula	-11902
▁Sorry	-11903
▁dried	-11904
▁feeds	-11905
▁lungs	-11906
▁patch	-11907
atories	-11908
▁Nobody	-11909
▁define	-11910
▁passes	-11911
▁pillar	-11912
▁serves	-11913
▁Charles	-11914
▁Emperor	-11915
▁colours	-11916
▁copying	-11917
▁forming	-11918
▁Encoding	-11919
▁Gracious	-11920
▁Laughter	-11921
▁landlord	-11922
▁Structure	-11923
▁conflicts	-11924
▁describes	-11925
▁paintings	-11926
▁undertake	-11927
▁Breakpoint	-11928
▁Devanagari	-11929
▁Repository	-11930
▁Statistics	-11931
▁authorized	-11932
▁describing	-11933
▁disappeared	-11934
▁retribution	-11935
UNT	-11936
haz	-11937
hta	-11938
oen	-11939
urb	-11940
▁87	-11941
▁Vr	-11942
▁Agg	-11943
▁Mos	-11944
▁UTF	-11945
▁viz	-11946
▁Cave	-11947
▁PART	-11948
▁Roll	-11949
▁Rupe	-11950
▁duly	-11951
▁hosp	-11952
▁mast	-11953
rocess	-11954
▁Bhatt	-11955
▁Dutch	-11956
▁Store	-11957
▁debts	-11958
▁fatal	-11959
▁hopes	-11960
▁worms	-11961
ropical	-11962
▁Agency	-11963
▁Button	-11964
▁Instru	-11965
▁grants	-11966
▁ninety	-11967
▁Andaman	-11968
▁Asutosh	-11969
▁Charges	-11970
▁Indiana	-11971
▁Mizoram	-11972
▁commend	-11973
▁crossed	-11974
▁dropped	-11975
▁fulfill	-11976
▁leather	-11977
▁outlook	-11978
▁thereby	-11979
▁unusual	-11980
▁wedding	-11981
mentation	-11982
▁Shortcut	-11983
▁meanings	-11984
▁profound	-11985
▁trekking	-11986
▁Badruddin	-11987
▁Functions	-11988
▁container	-11989
▁iCalendar	-11990
▁Simplified	-11991
▁originally	-11992
▁Secretariat	-11993
▁determining	-11994
▁directories	-11995
▁Documentation	-11996
▁97	-11997
▁PO	-11998
file	-11999
▁Ded	-12000
▁dub	-12001
anium	-12002
▁Mall	-12003
▁Rock	-12004
▁empt	-12005
▁fing	-12006
▁foss	-12007
ounced	-12008
ulator	-12009
▁Plain	-12010
▁Third	-12011
▁guest	-12012
▁meter	-12013
▁PRANAB	-12014
▁disreg	-12015
▁Freedom	-12016
▁Goddess	-12017
▁Offline	-12018
▁Plugins	-12019
▁disturb	-12020
▁nucleus	-12021
▁satisfy	-12022
uspicious	-12023
▁Activate	-12024
▁magnific	-12025
▁reflects	-12026
▁removing	-12027
▁striving	-12028
▁visitors	-12029
▁forgotten	-12030
▁objection	-12031
▁dedication	-12032
lav	-12033
▁OR	-12034
▁UP	-12035
barr	-12036
opes	-12037
opic	-12038
untu	-12039
aimed	-12040
iscal	-12041
odder	-12042
ograp	-12043
onged	-12044
▁Gaut	-12045
▁Live	-12046
▁Synt	-12047
▁saff	-12048
▁tact	-12049
endent	-12050
ocated	-12051
▁Niger	-12052
▁Royal	-12053
▁Staff	-12054
▁nomin	-12055
abulary	-12056
ascular	-12057
▁casual	-12058
▁blazing	-12059
▁hunting	-12060
▁seizure	-12061
fficiency	-12062
▁Narendra	-12063
▁Variable	-12064
▁dialogue	-12065
▁notation	-12066
▁reducing	-12067
▁shortage	-12068
▁transmit	-12069
▁Sanctuary	-12070
▁Subscribe	-12071
▁candidate	-12072
▁defendant	-12073
▁qualified	-12074
▁suspended	-12075
▁uncertain	-12076
▁variation	-12077
▁agreements	-12078
▁disability	-12079
▁INAUGURATES	-12080
▁considering	-12081
▁termination	-12082
▁unavailable	-12083
▁strengthened	-12084
▁collaboration	-12085
▁developmental	-12086
tr	-12087
▁86	-12088
ania	-12089
kash	-12090
▁202	-12091
▁apt	-12092
▁jun	-12093
▁nig	-12094
riers	-12095
▁Crop	-12096
▁Hold	-12097
▁bent	-12098
▁loop	-12099
holder	-12100
olence	-12101
otechn	-12102
▁Eleph	-12103
▁Ghosh	-12104
▁Menon	-12105
▁PRIME	-12106
▁vocal	-12107
▁widow	-12108
iratory	-12109
▁Bhutan	-12110
▁Really	-12111
▁agents	-12112
▁basket	-12113
▁oceans	-12114
▁vagina	-12115
▁endowed	-12116
▁tragedy	-12117
▁Sciences	-12118
▁Jharkhand	-12119
▁recognise	-12120
▁repayment	-12121
▁appreciation	-12122
▁authenticate	-12123
▁Miscellaneous	-12124
▁parliamentary	-12125
bi	-12126
kes	-12127
mal	-12128
▁MO	-12129
cane	-12130
enta	-12131
lium	-12132
usal	-12133
▁Bre	-12134
▁HER	-12135
▁INS	-12136
▁Ple	-12137
▁Six	-12138
▁Ten	-12139
▁Vig	-12140
▁cab	-12141
▁dow	-12142
▁Auro	-12143
▁Lith	-12144
▁Repl	-12145
▁tray	-12146
▁unsu	-12147
ressal	-12148
▁Favor	-12149
▁Forum	-12150
▁Gopal	-12151
▁Multi	-12152
▁apple	-12153
▁batch	-12154
▁champ	-12155
▁drunk	-12156
▁excav	-12157
▁hypoc	-12158
▁skull	-12159
▁unint	-12160
▁astron	-12161
▁crafts	-12162
▁harder	-12163
▁invoke	-12164
▁labels	-12165
▁rubber	-12166
▁serial	-12167
▁urgent	-12168
ortunate	-12169
▁CHAPTER	-12170
▁winners	-12171
▁absorbed	-12172
▁delicate	-12173
▁merchant	-12174
▁obstruct	-12175
▁taxation	-12176
▁vehicles	-12177
▁Sucharita	-12178
▁continuing	-12179
▁acknowledge	-12180
▁residential	-12181
▁representing	-12182
▁reproduction	-12183
▁Compassionate	-12184
▁entertainment	-12185
▁अ	-12186
hee	-12187
▁ts	-12188
ayya	-12189
etus	-12190
orts	-12191
▁Vaj	-12192
▁ape	-12193
▁Grad	-12194
▁anch	-12195
▁dent	-12196
▁rely	-12197
▁stir	-12198
▁subf	-12199
▁Hills	-12200
▁accur	-12201
▁antib	-12202
▁decre	-12203
▁flash	-12204
▁reign	-12205
▁resid	-12206
▁steam	-12207
▁Inline	-12208
▁Radhak	-12209
▁SPEECH	-12210
▁legacy	-12211
▁plural	-12212
▁retain	-12213
▁Release	-12214
▁Studies	-12215
▁seventy	-12216
▁staying	-12217
▁therapy	-12218
▁heedless	-12219
▁respects	-12220
▁Malayalam	-12221
▁Questions	-12222
▁Terrorism	-12223
▁chemicals	-12224
▁introduce	-12225
▁lightning	-12226
▁presently	-12227
▁accomplished	-12228
tk	-12229
pus	-12230
▁OP	-12231
▁ol	-12232
inee	-12233
inus	-12234
mans	-12235
olio	-12236
rage	-12237
▁120	-12238
▁AIR	-12239
▁Abu	-12240
▁NHS	-12241
▁gon	-12242
▁pad	-12243
▁wax	-12244
heast	-12245
ifera	-12246
▁Fair	-12247
▁Marg	-12248
▁Prep	-12249
▁blog	-12250
ATIONS	-12251
edness	-12252
ilance	-12253
▁Joshi	-12254
▁Panel	-12255
▁Satur	-12256
▁coral	-12257
▁fibre	-12258
▁tough	-12259
▁Almost	-12260
▁gently	-12261
▁impati	-12262
▁mining	-12263
▁recept	-12264
▁viewed	-12265
▁Acharya	-12266
▁Village	-12267
▁colored	-12268
▁counted	-12269
▁joining	-12270
▁restaur	-12271
▁watched	-12272
▁Premises	-12273
▁Relating	-12274
▁foremost	-12275
▁ignorant	-12276
▁acknowled	-12277
▁comprises	-12278
▁departure	-12279
▁detection	-12280
▁exchanges	-12281
▁thoroughly	-12282
▁Directorate	-12283
▁unfortunate	-12284
▁corresponding	-12285
▁TB	-12286
uish	-12287
▁Dil	-12288
▁Vit	-12289
asury	-12290
buntu	-12291
ersed	-12292
icket	-12293
ridge	-12294
▁Were	-12295
▁cher	-12296
▁orch	-12297
ifting	-12298
inence	-12299
ovable	-12300
uclear	-12301
▁Mercy	-12302
▁Nodal	-12303
▁Puran	-12304
▁RASHT	-12305
▁lakes	-12306
parable	-12307
▁cinema	-12308
▁digits	-12309
▁Majesty	-12310
▁Washing	-12311
▁deserve	-12312
▁enlarge	-12313
▁extends	-12314
▁outward	-12315
▁physics	-12316
▁utterly	-12317
▁whisper	-12318
ertaining	-12319
▁dividing	-12320
▁thankful	-12321
▁elaborate	-12322
▁threshold	-12323
▁approached	-12324
▁evaluation	-12325
▁impressive	-12326
▁membership	-12327
▁Cooperation	-12328
▁mathematics	-12329
▁Construction	-12330
▁implementing	-12331
JP	-12332
oi	-12333
RAP	-12334
apu	-12335
cha	-12336
▁MM	-12337
▁Fat	-12338
▁OFF	-12339
▁Rob	-12340
▁Siv	-12341
▁Sov	-12342
▁Yah	-12343
▁pap	-12344
mates	-12345
ucose	-12346
▁Fail	-12347
▁Need	-12348
▁abol	-12349
▁club	-12350
▁dose	-12351
▁pupp	-12352
▁soap	-12353
▁tips	-12354
atable	-12355
iliary	-12356
imized	-12357
namese	-12358
rified	-12359
▁Indic	-12360
▁Match	-12361
▁Psych	-12362
▁crazy	-12363
▁fluct	-12364
▁quadr	-12365
earance	-12366
▁Church	-12367
▁Diwali	-12368
▁Margin	-12369
▁Palest	-12370
▁betray	-12371
▁blocks	-12372
▁carved	-12373
▁embarr	-12374
▁lovely	-12375
▁Upanish	-12376
▁coastal	-12377
▁crystal	-12378
▁rituals	-12379
▁saffron	-12380
▁signals	-12381
▁cautious	-12382
▁colonial	-12383
▁develops	-12384
▁lectures	-12385
▁magician	-12386
▁Meanwhile	-12387
▁incidents	-12388
▁necessity	-12389
▁processor	-12390
▁Assessment	-12391
▁Scientific	-12392
▁Vietnamese	-12393
▁conviction	-12394
▁credential	-12395
▁prosperous	-12396
▁retirement	-12397
▁cooperative	-12398
▁innovations	-12399
hea	-12400
onf	-12401
case	-12402
eers	-12403
rels	-12404
▁FIR	-12405
▁GDP	-12406
▁Gos	-12407
▁gam	-12408
▁mes	-12409
hthal	-12410
▁Fish	-12411
▁Frid	-12412
▁Same	-12413
▁drum	-12414
▁dung	-12415
▁herb	-12416
▁mant	-12417
▁pile	-12418
ainted	-12419
itudes	-12420
▁Album	-12421
▁Dwark	-12422
▁Glory	-12423
▁Uzbek	-12424
▁angel	-12425
▁await	-12426
▁pharm	-12427
▁pulse	-12428
▁semen	-12429
▁spons	-12430
▁Attrib	-12431
▁Guinea	-12432
▁Robert	-12433
▁abnorm	-12434
▁congen	-12435
▁expiry	-12436
▁mosque	-12437
▁native	-12438
▁recurs	-12439
▁riding	-12440
▁Climate	-12441
▁Respons	-12442
▁Turkmen	-12443
▁cluster	-12444
▁radical	-12445
▁suppose	-12446
▁GOVERNOR	-12447
▁allotted	-12448
▁applying	-12449
▁gracious	-12450
▁humility	-12451
▁spending	-12452
▁Following	-12453
▁deposited	-12454
▁incorrect	-12455
▁libraries	-12456
▁recurring	-12457
▁tolerance	-12458
▁Ambassador	-12459
▁inheritance	-12460
▁Rabindranath	-12461
TE	-12462
ATH	-12463
▁vo	-12464
arna	-12465
cons	-12466
felt	-12467
▁250	-12468
▁BHA	-12469
▁Coc	-12470
▁Jat	-12471
▁vow	-12472
acock	-12473
idian	-12474
mahal	-12475
▁Anti	-12476
▁beam	-12477
▁budd	-12478
▁echo	-12479
▁turm	-12480
▁wont	-12481
owered	-12482
▁Iblis	-12483
▁Saroj	-12484
▁divor	-12485
ipheral	-12486
itarian	-12487
▁Serial	-12488
▁admire	-12489
▁embryo	-12490
▁writes	-12491
curement	-12492
umerable	-12493
▁Thunder	-12494
▁retired	-12495
▁secrets	-12496
▁undergo	-12497
▁washing	-12498
▁Learning	-12499
▁Modified	-12500
▁conclude	-12501
▁isolated	-12502
▁reliable	-12503
▁survival	-12504
semination	-12505
▁disregard	-12506
▁economies	-12507
▁greatness	-12508
▁sensation	-12509
▁subsequent	-12510
▁threatened	-12511
▁transplant	-12512
▁Translation	-12513
▁descendants	-12514
▁encouraging	-12515
▁reproductive	-12516
15	-12517
FER	-12518
ICK	-12519
▁IG	-12520
▁NP	-12521
hips	-12522
will	-12523
▁API	-12524
▁CSV	-12525
iforn	-12526
iracy	-12527
opter	-12528
rites	-12529
umble	-12530
▁1930	-12531
▁Nick	-12532
▁PASS	-12533
▁Spam	-12534
▁batt	-12535
▁bowl	-12536
rology	-12537
▁Smart	-12538
▁Varma	-12539
▁admin	-12540
▁prone	-12541
▁quote	-12542
ideshow	-12543
ometric	-12544
▁Camera	-12545
▁Resize	-12546
▁Summer	-12547
▁Supply	-12548
▁cooked	-12549
▁deeper	-12550
▁frames	-12551
▁monkey	-12552
▁nerves	-12553
IVERSARY	-12554
ifically	-12555
ternally	-12556
▁Envelop	-12557
▁ceremon	-12558
▁crooked	-12559
▁designs	-12560
▁inspire	-12561
▁servers	-12562
▁traders	-12563
▁transit	-12564
▁Birthday	-12565
▁sympathy	-12566
▁Ahmedabad	-12567
▁Treatment	-12568
▁alchemist	-12569
▁debugging	-12570
▁forbidden	-12571
▁heartfelt	-12572
▁nutrition	-12573
▁compromise	-12574
▁constraint	-12575
▁laboratory	-12576
▁victorious	-12577
▁ANNIVERSARY	-12578
▁intelligent	-12579
▁observation	-12580
iba	-12581
psy	-12582
vin	-12583
▁RE	-12584
▁ly	-12585
abar	-12586
aret	-12587
ohan	-12588
▁Mys	-12589
▁ail	-12590
▁ink	-12591
assin	-12592
▁Drug	-12593
▁Foot	-12594
▁Join	-12595
▁Plus	-12596
▁brid	-12597
▁cerv	-12598
▁dull	-12599
▁guru	-12600
▁trap	-12601
▁Daily	-12602
▁Saheb	-12603
▁Varan	-12604
▁abuse	-12605
▁brush	-12606
▁hered	-12607
▁macro	-12608
▁penal	-12609
▁sided	-12610
▁Recogn	-12611
▁clever	-12612
▁excuse	-12613
▁filing	-12614
▁portal	-12615
▁Between	-12616
▁Counter	-12617
▁Problem	-12618
▁Revenue	-12619
▁contrad	-12620
▁painted	-12621
▁storing	-12622
▁wonders	-12623
▁Advisory	-12624
▁Bachchan	-12625
▁concrete	-12626
▁magazine	-12627
▁minerals	-12628
▁Provinces	-12629
▁corrupted	-12630
▁intercess	-12631
▁CONVOCATION	-12632
▁indentation	-12633
▁liabilities	-12634
ns	-12635
bat	-12636
cca	-12637
oty	-12638
▁ka	-12639
cuma	-12640
geon	-12641
orer	-12642
yana	-12643
▁Gok	-12644
▁Kit	-12645
▁cyl	-12646
▁dio	-12647
▁sem	-12648
inkle	-12649
▁Exit	-12650
▁chop	-12651
RAPATI	-12652
▁Opens	-12653
▁Vrind	-12654
▁buyer	-12655
▁outst	-12656
▁paint	-12657
▁pests	-12658
▁tempt	-12659
▁Forces	-12660
▁Narmad	-12661
▁muslim	-12662
▁openly	-12663
▁pepper	-12664
▁Belarus	-12665
▁Curcuma	-12666
▁ascetic	-12667
▁filling	-12668
▁inverse	-12669
▁sisters	-12670
omination	-12671
▁Detailed	-12672
▁Filename	-12673
▁Recently	-12674
▁adoption	-12675
▁clusters	-12676
▁reviewed	-12677
▁Developer	-12678
▁ancestors	-12679
▁delighted	-12680
▁economics	-12681
▁impressed	-12682
▁neglected	-12683
▁residents	-12684
▁sustained	-12685
▁Chandigarh	-12686
▁Prevention	-12687
▁chromosome	-12688
▁conducting	-12689
▁countrymen	-12690
▁pilgrimage	-12691
▁RASHTRAPATI	-12692
▁fertilizers	-12693
▁psychological	-12694
ATA	-12695
HAN	-12696
ahi	-12697
chy	-12698
mad	-12699
rag	-12700
ugg	-12701
upa	-12702
▁58	-12703
▁Ji	-12704
▁UK	-12705
eles	-12706
ldom	-12707
rama	-12708
▁ana	-12709
▁les	-12710
▁mul	-12711
▁nit	-12712
isans	-12713
odhya	-12714
olate	-12715
opoly	-12716
▁Blog	-12717
▁Fert	-12718
▁Kitt	-12719
▁Srin	-12720
▁barg	-12721
▁disb	-12722
▁rays	-12723
▁rush	-12724
▁vice	-12725
ippets	-12726
ocular	-12727
▁Given	-12728
▁Irish	-12729
▁Minor	-12730
▁Quant	-12731
▁exalt	-12732
▁infid	-12733
▁ought	-12734
▁sects	-12735
istrate	-12736
paragus	-12737
▁Bhagav	-12738
▁Revert	-12739
▁arises	-12740
▁chiefs	-12741
▁offset	-12742
▁valued	-12743
ollywood	-12744
▁Advance	-12745
▁Enabled	-12746
▁screens	-12747
▁Brahmins	-12748
▁Constitu	-12749
▁Possible	-12750
▁coverage	-12751
▁exported	-12752
▁Political	-12753
▁condemned	-12754
▁continent	-12755
▁expertise	-12756
▁vegetable	-12757
▁depression	-12758
▁pesticides	-12759
▁reputation	-12760
habilitation	-12761
▁multiplying	-12762
▁perspective	-12763
▁realisation	-12764
▁administered	-12765
▁Environmental	-12766
▁Establishment	-12767
▁Radhakrishnan	-12768
▁comparatively	-12769
▁representatives	-12770
40	-12771
GB	-12772
IO	-12773
PG	-12774
▁ज	-12775
IGN	-12776
bor	-12777
▁57	-12778
▁77	-12779
osom	-12780
▁Kur	-12781
▁vom	-12782
agues	-12783
ogene	-12784
▁1989	-12785
▁Able	-12786
▁Days	-12787
▁Dipu	-12788
▁Maul	-12789
▁Milk	-12790
▁Nana	-12791
▁Soil	-12792
▁Whom	-12793
▁diar	-12794
▁enjo	-12795
▁fors	-12796
▁grav	-12797
▁math	-12798
▁radi	-12799
▁stip	-12800
▁wore	-12801
▁Areas	-12802
▁Arjun	-12803
▁Incre	-12804
▁chlor	-12805
▁lover	-12806
▁tower	-12807
▁uncon	-12808
▁Soviet	-12809
▁Submit	-12810
▁Sultan	-12811
▁tables	-12812
▁unlock	-12813
▁vulner	-12814
▁Monitor	-12815
▁Present	-12816
▁borders	-12817
▁freight	-12818
▁hearted	-12819
▁governed	-12820
▁hypothes	-12821
▁optional	-12822
▁segments	-12823
▁Democracy	-12824
▁abandoned	-12825
▁prevalent	-12826
▁Activities	-12827
▁Democratic	-12828
▁Retrieving	-12829
▁physically	-12830
▁capabilities	-12831
GL	-12832
ksh	-12833
▁DN	-12834
▁Li	-12835
asma	-12836
draw	-12837
udra	-12838
▁Rav	-12839
▁Sak	-12840
▁jew	-12841
▁lep	-12842
ashes	-12843
ester	-12844
throp	-12845
▁Abdu	-12846
▁Kish	-12847
▁Tata	-12848
▁Team	-12849
▁adul	-12850
▁aren	-12851
▁epit	-12852
▁glob	-12853
▁sung	-12854
▁surf	-12855
itious	-12856
ployed	-12857
▁Kalam	-12858
▁Naval	-12859
▁Separ	-12860
▁Sikhs	-12861
▁boast	-12862
▁eaten	-12863
▁spare	-12864
▁vCard	-12865
ifornia	-12866
istries	-12867
▁Binary	-12868
▁Events	-12869
▁amidst	-12870
▁awaits	-12871
▁tenant	-12872
▁Himself	-12873
▁Vietnam	-12874
▁Visible	-12875
▁custody	-12876
▁exhaust	-12877
▁guarded	-12878
▁heights	-12879
▁jointly	-12880
▁reprodu	-12881
▁revenge	-12882
▁shifted	-12883
▁unhappy	-12884
▁Sarojini	-12885
▁anterior	-12886
▁clothing	-12887
▁favorite	-12888
▁geometry	-12889
▁illusion	-12890
▁improper	-12891
▁manpower	-12892
▁ministry	-12893
▁rewarded	-12894
▁strictly	-12895
▁Mountains	-12896
▁Otherwise	-12897
▁abdominal	-12898
▁disorders	-12899
▁justified	-12900
▁practised	-12901
▁reception	-12902
▁terrorist	-12903
▁Cooperative	-12904
▁unconscious	-12905
▁tuberculosis	-12906
11	-12907
aco	-12908
ete	-12909
sen	-12910
ths	-12911
wah	-12912
▁GL	-12913
adhy	-12914
aund	-12915
dish	-12916
ghiz	-12917
heet	-12918
igue	-12919
▁AID	-12920
▁JUN	-12921
▁Kut	-12922
▁RAM	-12923
▁Sym	-12924
▁ecl	-12925
▁kms	-12926
actic	-12927
agant	-12928
itage	-12929
oping	-12930
osity	-12931
▁Core	-12932
▁Duty	-12933
▁Meem	-12934
▁Puri	-12935
▁turb	-12936
▁untr	-12937
cience	-12938
ignant	-12939
▁Above	-12940
▁Guide	-12941
▁Labor	-12942
▁Nived	-12943
▁Prize	-12944
▁essay	-12945
▁wrath	-12946
▁Higher	-12947
▁armies	-12948
▁cipher	-12949
▁fisher	-12950
▁mocked	-12951
▁potato	-12952
▁ranges	-12953
▁unfair	-12954
ographer	-12955
ologists	-12956
▁Effects	-12957
▁Offices	-12958
▁Singles	-12959
▁accepts	-12960
▁ceiling	-12961
▁fearful	-12962
▁quarrel	-12963
▁relates	-12964
▁Heritage	-12965
▁Saturday	-12966
▁intimate	-12967
▁notified	-12968
▁Importing	-12969
▁magnitude	-12970
▁occurring	-12971
▁statusbar	-12972
▁therefrom	-12973
▁compulsory	-12974
▁passengers	-12975
▁involvement	-12976
SE	-12977
ui	-12978
ART	-12979
▁79	-12980
ango	-12981
anum	-12982
iece	-12983
rose	-12984
ulin	-12985
urop	-12986
wala	-12987
▁ATT	-12988
▁Hey	-12989
▁Kak	-12990
▁RSS	-12991
▁Raw	-12992
▁pea	-12993
▁tie	-12994
aceae	-12995
giene	-12996
ilant	-12997
steps	-12998
▁Doll	-12999
▁Kaur	-13000
▁Pray	-13001
▁Saha	-13002
▁Tomb	-13003
▁adds	-13004
▁degr	-13005
▁dome	-13006
▁lend	-13007
▁pale	-13008
▁puts	-13009
▁yard	-13010
▁Coord	-13011
▁Funds	-13012
▁Types	-13013
▁ambit	-13014
▁frank	-13015
▁intim	-13016
▁tenth	-13017
pletion	-13018
▁Secure	-13019
▁humour	-13020
▁indiff	-13021
▁rained	-13022
▁sheets	-13023
▁transg	-13024
▁Nicobar	-13025
▁Persons	-13026
▁contest	-13027
▁solving	-13028
▁useless	-13029
▁Decision	-13030
▁dreadful	-13031
▁evaluate	-13032
▁favoured	-13033
▁importer	-13034
▁solitary	-13035
celeration	-13036
▁businesses	-13037
▁compressed	-13038
▁excitement	-13039
▁Electricity	-13040
▁Subhashbabu	-13041
▁advancement	-13042
▁hospitality	-13043
▁proposition	-13044
▁Entrepreneur	-13045
LIC	-13046
RIB	-13047
▁BP	-13048
asim	-13049
aver	-13050
onal	-13051
udal	-13052
▁800	-13053
allus	-13054
henna	-13055
oderm	-13056
▁1956	-13057
▁Barb	-13058
▁Hans	-13059
▁Kala	-13060
▁Root	-13061
▁Sust	-13062
▁doct	-13063
▁lean	-13064
▁mild	-13065
▁shar	-13066
ategor	-13067
luding	-13068
oscope	-13069
▁MSMEs	-13070
▁aimed	-13071
▁amend	-13072
▁disqu	-13073
▁dozen	-13074
▁hears	-13075
▁hurry	-13076
▁panic	-13077
▁pitch	-13078
▁Circle	-13079
▁Krishn	-13080
▁Portal	-13081
▁analog	-13082
▁breaks	-13083
▁drinks	-13084
▁prefix	-13085
▁prosec	-13086
▁refund	-13087
▁reload	-13088
▁remedy	-13089
▁shower	-13090
▁viable	-13091
▁Failure	-13092
▁Getting	-13093
▁Nuclear	-13094
▁beloved	-13095
▁dioxide	-13096
▁fingers	-13097
▁lateral	-13098
▁whereon	-13099
▁wrapped	-13100
▁Facility	-13101
▁Nagaland	-13102
▁Nivedita	-13103
▁monument	-13104
▁proteins	-13105
▁factories	-13106
▁protector	-13107
▁rejoicing	-13108
▁Unexpected	-13109
▁displaying	-13110
▁incentives	-13111
▁personally	-13112
▁Downloading	-13113
▁Recruitment	-13114
▁accordingly	-13115
▁controversy	-13116
▁Communication	-13117
YS	-13118
ede	-13119
nom	-13120
ova	-13121
▁74	-13122
▁96	-13123
▁Dj	-13124
agic	-13125
utor	-13126
▁Fer	-13127
▁Imm	-13128
▁Lar	-13129
▁ber	-13130
▁obe	-13131
▁sli	-13132
astra	-13133
▁AWAY	-13134
▁Navy	-13135
▁Vall	-13136
▁bark	-13137
▁clan	-13138
▁erad	-13139
▁ferv	-13140
▁frog	-13141
▁slog	-13142
ilated	-13143
lisher	-13144
▁Apost	-13145
▁Padma	-13146
▁Pneum	-13147
▁SIDBI	-13148
▁crown	-13149
▁intox	-13150
▁metab	-13151
▁overs	-13152
▁rebel	-13153
▁sniff	-13154
icating	-13155
usively	-13156
▁Anyway	-13157
▁Mysore	-13158
▁eighty	-13159
▁shaken	-13160
▁Disease	-13161
▁Gehenna	-13162
▁artists	-13163
▁encrypt	-13164
▁illiter	-13165
▁Capacity	-13166
▁Egyptian	-13167
▁Varanasi	-13168
▁sessions	-13169
▁Saraswati	-13170
▁amendment	-13171
▁challenged	-13172
▁meditation	-13173
▁prevention	-13174
▁withdrawal	-13175
▁Departments	-13176
▁Installation	-13177
▁righteousness	-13178
abi	-13179
dar	-13180
izz	-13181
▁59	-13182
▁67	-13183
▁Ju	-13184
▁MB	-13185
▁SW	-13186
▁Ul	-13187
▁dy	-13188
▁om	-13189
cker	-13190
eroy	-13191
ilis	-13192
llah	-13193
▁Haj	-13194
▁Lip	-13195
ASION	-13196
iatic	-13197
ropol	-13198
uster	-13199
▁Trig	-13200
▁cant	-13201
▁inch	-13202
▁leap	-13203
ancies	-13204
bsites	-13205
wealth	-13206
▁Emerg	-13207
▁Louis	-13208
▁Round	-13209
▁craft	-13210
adation	-13211
pentine	-13212
zerland	-13213
▁Excise	-13214
▁Groups	-13215
▁Hidden	-13216
▁Palace	-13217
▁incred	-13218
▁priest	-13219
▁pushed	-13220
▁seller	-13221
▁senses	-13222
▁timely	-13223
▁Ayodhya	-13224
▁Results	-13225
▁Strateg	-13226
▁appeals	-13227
▁beliefs	-13228
▁cabinet	-13229
▁cleared	-13230
▁compare	-13231
▁cookies	-13232
▁deceive	-13233
▁greeted	-13234
▁replies	-13235
▁uranium	-13236
▁advocate	-13237
▁believer	-13238
▁feedback	-13239
▁prestige	-13240
▁divisible	-13241
▁evildoers	-13242
▁hereafter	-13243
▁invisible	-13244
▁socialism	-13245
▁subscribe	-13246
▁teachings	-13247
▁California	-13248
▁Federation	-13249
▁Recompense	-13250
▁Resolution	-13251
▁Washington	-13252
▁designated	-13253
▁turpentine	-13254
▁Switzerland	-13255
▁underground	-13256
▁translations	-13257
▁simultaneously	-13258
IX	-13259
hma	-13260
oni	-13261
rup	-13262
vir	-13263
▁92	-13264
▁AG	-13265
▁Il	-13266
▁WH	-13267
alal	-13268
isms	-13269
nals	-13270
oker	-13271
rive	-13272
▁Lux	-13273
▁OCC	-13274
▁ate	-13275
▁kap	-13276
flies	-13277
rones	-13278
unath	-13279
ushan	-13280
▁Buff	-13281
▁Rect	-13282
▁Susp	-13283
▁bush	-13284
▁jute	-13285
▁prey	-13286
▁sear	-13287
master	-13288
▁ASCII	-13289
▁Ekiga	-13290
▁Jacob	-13291
▁Korea	-13292
▁Shows	-13293
▁crash	-13294
uminous	-13295
▁Analog	-13296
▁BHAVAN	-13297
▁Fields	-13298
▁Safety	-13299
▁Square	-13300
▁allied	-13301
▁sphere	-13302
ursement	-13303
▁Records	-13304
▁Zealand	-13305
▁arising	-13306
▁moments	-13307
▁Aurobind	-13308
▁Students	-13309
▁enclosed	-13310
▁operated	-13311
▁sometime	-13312
▁spectrum	-13313
▁Yesterday	-13314
▁generator	-13315
▁hopefully	-13316
▁miserable	-13317
▁worldwide	-13318
▁Conditions	-13319
▁Parameters	-13320
▁downloaded	-13321
▁microscope	-13322
▁subfolders	-13323
▁intercourse	-13324
▁consultation	-13325
▁experimental	-13326
▁significantly	-13327
aq	-13328
sl	-13329
iah	-13330
oqu	-13331
▁78	-13332
▁MW	-13333
▁Ni	-13334
cery	-13335
▁Jun	-13336
▁Lod	-13337
▁hol	-13338
ADESH	-13339
alaya	-13340
ocyte	-13341
▁1960	-13342
▁1970	-13343
▁Ragh	-13344
▁agro	-13345
▁bags	-13346
▁bail	-13347
▁heir	-13348
▁misf	-13349
erance	-13350
▁Cache	-13351
▁Patch	-13352
▁grasp	-13353
▁holes	-13354
▁scrut	-13355
naments	-13356
▁Animal	-13357
▁Friday	-13358
▁Mathem	-13359
▁alarms	-13360
▁banana	-13361
▁dental	-13362
▁desist	-13363
▁exempl	-13364
▁nights	-13365
▁orthod	-13366
▁speedy	-13367
igration	-13368
▁Arabian	-13369
▁Dynasty	-13370
▁PASSING	-13371
▁Percent	-13372
▁Reverse	-13373
▁algebra	-13374
▁reduces	-13375
▁spacing	-13376
▁speaker	-13377
▁OCCASION	-13378
▁Specific	-13379
▁Withdraw	-13380
▁activate	-13381
▁creature	-13382
▁deprived	-13383
▁dominion	-13384
▁explains	-13385
▁specimen	-13386
▁Aurobindo	-13387
▁diagnosis	-13388
▁dismissed	-13389
otechnology	-13390
▁generating	-13391
▁originated	-13392
▁procession	-13393
▁succession	-13394
▁aspirations	-13395
▁obligations	-13396
▁obstruction	-13397
▁headquarters	-13398
FA	-13399
ho	-13400
sa	-13401
▁ब	-13402
INE	-13403
iat	-13404
▁KW	-13405
iner	-13406
lion	-13407
neys	-13408
pher	-13409
▁Gul	-13410
▁WOR	-13411
▁Whe	-13412
▁dos	-13413
▁gau	-13414
▁scr	-13415
▁sha	-13416
acker	-13417
adian	-13418
agiri	-13419
atile	-13420
avari	-13421
▁1986	-13422
▁Didi	-13423
▁Hast	-13424
▁Thak	-13425
▁foll	-13426
icking	-13427
idding	-13428
idency	-13429
itably	-13430
▁Clock	-13431
▁Icons	-13432
▁Kabul	-13433
▁Lotus	-13434
▁dynam	-13435
▁sulph	-13436
hearted	-13437
▁Ashram	-13438
▁Bright	-13439
▁Citrus	-13440
▁Hearer	-13441
▁lesser	-13442
▁pearls	-13443
▁seated	-13444
▁Signing	-13445
▁peacock	-13446
▁reveals	-13447
rehension	-13448
▁Duration	-13449
▁Parallel	-13450
▁Rotation	-13451
▁fracture	-13452
▁lighting	-13453
▁miracles	-13454
▁muscular	-13455
▁obedient	-13456
▁romantic	-13457
▁Algorithm	-13458
▁professor	-13459
▁satellite	-13460
▁Australian	-13461
▁distressed	-13462
▁extensions	-13463
▁passphrase	-13464
▁perfection	-13465
▁prevailing	-13466
▁repentance	-13467
▁Institution	-13468
▁trustworthy	-13469
▁compositions	-13470
▁modification	-13471
gyz	-13472
orb	-13473
▁KM	-13474
ekar	-13475
plex	-13476
uria	-13477
▁Hus	-13478
▁Kyr	-13479
▁Nut	-13480
▁Tok	-13481
▁ard	-13482
adder	-13483
arter	-13484
ernel	-13485
imals	-13486
lings	-13487
shine	-13488
words	-13489
▁1987	-13490
▁AIDS	-13491
▁Kind	-13492
▁Push	-13493
▁Wire	-13494
▁lays	-13495
▁nick	-13496
▁vine	-13497
heless	-13498
omical	-13499
▁Tatya	-13500
▁firms	-13501
▁mobil	-13502
▁quota	-13503
▁shake	-13504
▁zones	-13505
▁Kyrgyz	-13506
▁Sweden	-13507
▁extrav	-13508
▁guards	-13509
▁lifest	-13510
▁pardon	-13511
▁poured	-13512
▁transc	-13513
▁Earlier	-13514
▁Guarant	-13515
▁Iceland	-13516
▁anxiety	-13517
▁concert	-13518
▁crushed	-13519
▁existed	-13520
▁gateway	-13521
▁polythe	-13522
▁sorcery	-13523
▁tension	-13524
▁Identity	-13525
▁dominant	-13526
▁parasite	-13527
▁supplies	-13528
▁Employees	-13529
▁Socialist	-13530
▁grievance	-13531
▁intensive	-13532
▁respected	-13533
▁multiplied	-13534
▁perception	-13535
▁arbitration	-13536
DC	-13537
sm	-13538
Ass	-13539
has	-13540
apid	-13541
asar	-13542
miki	-13543
ummy	-13544
▁Jai	-13545
▁NIT	-13546
▁RFP	-13547
▁Ral	-13548
▁Ric	-13549
▁exh	-13550
EPEND	-13551
ivary	-13552
ships	-13553
▁1977	-13554
▁COMM	-13555
▁Conc	-13556
▁Dire	-13557
▁Gulf	-13558
▁HERE	-13559
▁Jump	-13560
▁Kesh	-13561
▁cars	-13562
▁duck	-13563
▁peas	-13564
▁sage	-13565
▁tune	-13566
▁weep	-13567
istani	-13568
odhpur	-13569
rences	-13570
▁Abort	-13571
▁Leban	-13572
▁Skype	-13573
▁debit	-13574
▁eject	-13575
▁gifts	-13576
▁mport	-13577
▁ports	-13578
▁sixth	-13579
bration	-13580
istence	-13581
▁Charge	-13582
▁Ground	-13583
▁Sports	-13584
▁Ubuntu	-13585
▁endure	-13586
▁fodder	-13587
▁Someone	-13588
▁Spacing	-13589
▁ascribe	-13590
▁dragged	-13591
▁enacted	-13592
▁madness	-13593
▁nominal	-13594
▁trigger	-13595
▁weeping	-13596
▁Armenian	-13597
▁Envelope	-13598
▁annually	-13599
▁collabor	-13600
▁deterior	-13601
▁instinct	-13602
▁Argentina	-13603
▁Panchayat	-13604
▁accompany	-13605
▁blindness	-13606
▁confirmed	-13607
▁duplicate	-13608
▁kilograms	-13609
▁producers	-13610
▁auspicious	-13611
▁publishing	-13612
▁collections	-13613
▁incorporated	-13614
azz	-13615
bus	-13616
eny	-13617
oba	-13618
▁JP	-13619
▁PH	-13620
inge	-13621
rawn	-13622
unge	-13623
▁Flo	-13624
▁Rak	-13625
alpur	-13626
erver	-13627
odied	-13628
▁Flip	-13629
▁Mosc	-13630
▁Rene	-13631
▁Wind	-13632
▁bats	-13633
▁dupl	-13634
▁mism	-13635
▁plum	-13636
▁wast	-13637
acking	-13638
▁Heart	-13639
▁Imper	-13640
▁Kapil	-13641
▁Moosa	-13642
▁Voice	-13643
▁aught	-13644
▁caves	-13645
▁codes	-13646
▁dairy	-13647
▁harsh	-13648
▁pilot	-13649
▁rests	-13650
▁spool	-13651
cessary	-13652
itivity	-13653
▁Harish	-13654
▁Nagpur	-13655
▁Odisha	-13656
▁Seeing	-13657
▁Yellow	-13658
▁bottle	-13659
▁dealer	-13660
▁harass	-13661
▁inward	-13662
Assassin	-13663
▁Economy	-13664
▁Gandhar	-13665
▁Mailing	-13666
▁Usually	-13667
▁adorned	-13668
▁circles	-13669
▁pursuit	-13670
▁rescued	-13671
▁Aviation	-13672
▁INDEPEND	-13673
▁Olympics	-13674
▁diameter	-13675
▁disciple	-13676
▁prisoner	-13677
▁receives	-13678
▁spelling	-13679
▁Architect	-13680
▁Arunachal	-13681
▁instances	-13682
▁narrative	-13683
▁associates	-13684
▁dimensions	-13685
▁infectious	-13686
▁meaningful	-13687
▁SpamAssassin	-13688
Pl	-13689
giz	-13690
occ	-13691
fire	-13692
fold	-13693
omal	-13694
oppy	-13695
▁Bio	-13696
▁Blu	-13697
▁Gtk	-13698
▁ank	-13699
▁fut	-13700
apsed	-13701
icism	-13702
ordan	-13703
state	-13704
▁1994	-13705
▁Eval	-13706
▁PAYS	-13707
▁clot	-13708
▁dual	-13709
▁dump	-13710
▁grip	-13711
▁okay	-13712
▁unqu	-13713
utical	-13714
▁Avoid	-13715
▁Ghana	-13716
▁Surat	-13717
▁dirty	-13718
▁parad	-13719
▁sweat	-13720
▁veins	-13721
▁Deemed	-13722
▁Moscow	-13723
▁Moving	-13724
▁absorb	-13725
▁artery	-13726
▁castor	-13727
▁deaths	-13728
▁fiscal	-13729
▁hybrid	-13730
▁purely	-13731
▁resign	-13732
▁saints	-13733
▁washed	-13734
ibration	-13735
▁Apostle	-13736
▁Kirghiz	-13737
▁Matters	-13738
▁Sankara	-13739
▁blocked	-13740
▁dancing	-13741
▁dialect	-13742
▁glucose	-13743
▁heavily	-13744
▁soldier	-13745
▁Distance	-13746
▁Guardian	-13747
▁cleaning	-13748
▁exceeded	-13749
▁graduate	-13750
▁receiver	-13751
▁sickness	-13752
▁withhold	-13753
▁ADDRESSES	-13754
▁Peninsula	-13755
▁borrowing	-13756
▁downloads	-13757
▁engineers	-13758
▁multitude	-13759
▁reporting	-13760
▁testimony	-13761
▁colleagues	-13762
▁convenient	-13763
▁distribute	-13764
▁territories	-13765
▁unsupported	-13766
▁worshipping	-13767
▁verification	-13768
BS	-13769
ASA	-13770
had	-13771
days	-13772
rypt	-13773
▁Luc	-13774
▁Nal	-13775
▁Naw	-13776
▁Rig	-13777
▁Sky	-13778
▁dys	-13779
▁fen	-13780
▁maj	-13781
▁unl	-13782
▁Holy	-13783
▁Iron	-13784
▁Lion	-13785
▁Yeah	-13786
▁carn	-13787
▁crad	-13788
▁stun	-13789
advant	-13790
bridge	-13791
estone	-13792
inions	-13793
iosity	-13794
omatic	-13795
▁Farid	-13796
▁Gandh	-13797
▁Oriya	-13798
▁Shift	-13799
▁Uncle	-13800
▁Visit	-13801
▁Youth	-13802
▁comic	-13803
▁giant	-13804
▁hydro	-13805
▁piety	-13806
▁rises	-13807
▁veter	-13808
ateness	-13809
fearing	-13810
section	-13811
▁Kirgiz	-13812
▁Kittur	-13813
▁Making	-13814
▁Streng	-13815
▁bureau	-13816
▁lifted	-13817
▁liquor	-13818
▁losing	-13819
▁minded	-13820
▁partly	-13821
▁regime	-13822
▁safely	-13823
▁scarce	-13824
▁styles	-13825
▁Example	-13826
▁Stadium	-13827
▁handled	-13828
▁inmates	-13829
▁regards	-13830
▁winning	-13831
eneration	-13832
▁Citizens	-13833
▁Manufact	-13834
▁congress	-13835
▁conveyed	-13836
▁kindness	-13837
▁moderate	-13838
▁adventure	-13839
▁applicant	-13840
▁contracts	-13841
▁executing	-13842
▁footsteps	-13843
▁poisonous	-13844
▁Companions	-13845
▁humiliated	-13846
▁neighbours	-13847
▁previously	-13848
▁vegetation	-13849
▁communicate	-13850
▁expressions	-13851
▁philosopher	-13852
▁utilisation	-13853
80	-13854
INK	-13855
URE	-13856
agi	-13857
cat	-13858
eor	-13859
was	-13860
▁Ga	-13861
▁Vi	-13862
ench	-13863
ieth	-13864
[...]
